# !!!This file disallow TABs!!!
version: 2
quantize_parameters:
  '@attach_MatMul_logits/out0_0:out0':
    qtype: u8
    quantizer: asymmetric_affine
    rounding: rtne
    max_value: 15.419971466064453
    min_value: -15.419971466064453
    scale: 0.12094095349311829
    zero_point: 128
  '@Mul_final_rms_gamma_2:out0':
    qtype: u8
    quantizer: asymmetric_affine
    rounding: rtne
    max_value: 214.20339965820312
    min_value: -182.75038146972656
    scale: 1.556681513786316
    zero_point: 117
  '@Mul_final_rms_scale_to_unit_4:out0':
    qtype: u8
    quantizer: asymmetric_affine
    rounding: rtne
    max_value: 18.349164962768555
    min_value: -17.30204200744629
    scale: 0.13980865478515625
    zero_point: 124
  '@Initializer_final_rms_gamma_5:out0':
    qtype: u8
    quantizer: asymmetric_affine
    rounding: rtne
    max_value: 16.75
    min_value: -0.01141357421875
    scale: 0.06573103368282318
    zero_point: 0
  '@Add_layer23_mlp_residual_6:out0':
    qtype: u8
    quantizer: asymmetric_affine
    rounding: rtne
    max_value: 44.9981803894043
    min_value: -44.9981803894043
    scale: 0.35292690992355347
    zero_point: 128
  '@Reciprocal_final_rms_reciprocal_7:out0':
    qtype: u8
    quantizer: asymmetric_affine
    rounding: rtne
    max_value: 1.0
    min_value: 0.0
    scale: 0.003921568859368563
    zero_point: 0
  '@Divide_8:out0':
    qtype: u8
    quantizer: asymmetric_affine
    rounding: rtne
    max_value: 0.6195268034934998
    min_value: 0.0
    scale: 0.002429516986012459
    zero_point: 0
  '@Add_layer23_attn_residual_9:out0':
    qtype: u8
    quantizer: asymmetric_affine
    rounding: rtne
    max_value: 18.375612258911133
    min_value: -15.173209190368652
    scale: 0.13156400620937347
    zero_point: 115
  '@Sqrt_final_rms_sqrt_11:out0':
    qtype: u8
    quantizer: asymmetric_affine
    rounding: rtne
    max_value: 3.1003036499023438
    min_value: 0.0
    scale: 0.012158053927123547
    zero_point: 0
  '@Add_layer22_mlp_residual_12:out0':
    qtype: u8
    quantizer: asymmetric_affine
    rounding: rtne
    max_value: 70.08798217773438
    min_value: -16.137516021728516
    scale: 0.33813920617103577
    zero_point: 48
  '@Mul_layer23_swiglu_mul_14:out0':
    qtype: u8
    quantizer: asymmetric_affine
    rounding: rtne
    max_value: 46.57792663574219
    min_value: -46.57792663574219
    scale: 0.36531707644462585
    zero_point: 128
  '@Add_final_rms_eps_16:out0':
    qtype: u8
    quantizer: asymmetric_affine
    rounding: rtne
    max_value: 9.611883163452148
    min_value: 0.0
    scale: 0.03769366070628166
    zero_point: 0
  '@Add_layer22_attn_residual_17:out0':
    qtype: u8
    quantizer: asymmetric_affine
    rounding: rtne
    max_value: 69.03409576416016
    min_value: -18.326852798461914
    scale: 0.34259194135665894
    zero_point: 53
  '@Reshape_layer23_ctx_merge_heads_19:out0':
    qtype: u8
    quantizer: asymmetric_affine
    rounding: rtne
    max_value: 6.424424171447754
    min_value: -6.679135799407959
    scale: 0.051386509090662
    zero_point: 130
  '@ReduceMean_final_rms_mean_23:out0':
    qtype: u8
    quantizer: asymmetric_affine
    rounding: rtne
    max_value: 9.611882209777832
    min_value: 0.0
    scale: 0.037693656980991364
    zero_point: 0
  '@Initializer_eps_24:out0':
    qtype: u8
    quantizer: asymmetric_affine
    rounding: rtne
    max_value: 9.999999974752427e-07
    min_value: 0.0
    scale: 3.921568403342234e-09
    zero_point: 0
  '@Add_layer21_mlp_residual_25:out0':
    qtype: u8
    quantizer: asymmetric_affine
    rounding: rtne
    max_value: 69.30043029785156
    min_value: -18.095661163330078
    scale: 0.34272974729537964
    zero_point: 53
  '@Mul_layer22_swiglu_mul_27:out0':
    qtype: u8
    quantizer: asymmetric_affine
    rounding: rtne
    max_value: 18.98078155517578
    min_value: -18.98078155517578
    scale: 0.1488688737154007
    zero_point: 128
  '@Transpose_layer23_ctx_transpose_29:out0':
    qtype: u8
    quantizer: asymmetric_affine
    rounding: rtne
    max_value: 6.424424171447754
    min_value: -6.679135799407959
    scale: 0.051386509090662
    zero_point: 130
  '@Mul_layer23_mlp_rms_gamma_32:out0':
    qtype: u8
    quantizer: asymmetric_affine
    rounding: rtne
    max_value: 28.15763282775879
    min_value: -28.151325225830078
    scale: 0.22081944346427917
    zero_point: 127
  '@Mul_final_rms_square_34:out0':
    qtype: u8
    quantizer: asymmetric_affine
    rounding: rtne
    max_value: 2643.190185546875
    min_value: 0.0
    scale: 10.36545181274414
    zero_point: 0
  '@Add_layer21_attn_residual_35:out0':
    qtype: u8
    quantizer: asymmetric_affine
    rounding: rtne
    max_value: 1393.90380859375
    min_value: -87.79010772705078
    scale: 5.8105645179748535
    zero_point: 15
  '@Reshape_layer22_ctx_merge_heads_37:out0':
    qtype: u8
    quantizer: asymmetric_affine
    rounding: rtne
    max_value: 4.019304275512695
    min_value: -4.6702070236206055
    scale: 0.0340765155851841
    zero_point: 137
  '@MatMul_layer23_attn_context_41:out0':
    qtype: u8
    quantizer: asymmetric_affine
    rounding: rtne
    max_value: 6.424424171447754
    min_value: -6.679135799407959
    scale: 0.051386509090662
    zero_point: 130
  '@Reshape_layer23_v_repeat_merge_42:out0':
    qtype: u8
    quantizer: asymmetric_affine
    rounding: rtne
    max_value: 8.421965599060059
    min_value: -7.999149799346924
    scale: 0.06439653038978577
    zero_point: 124
  '@Tile_layer23_v_repeat_tile_44:out0':
    qtype: u8
    quantizer: asymmetric_affine
    rounding: rtne
    max_value: 8.421965599060059
    min_value: -7.999149799346924
    scale: 0.06439653038978577
    zero_point: 124
  '@Mul_layer23_mlp_rms_scale_to_unit_45:out0':
    qtype: u8
    quantizer: asymmetric_affine
    rounding: rtne
    max_value: 26.482423782348633
    min_value: -5.543673515319824
    scale: 0.12559252977371216
    zero_point: 44
  '@Initializer_layer23_mlp_gamma_46:out0':
    qtype: u8
    quantizer: asymmetric_affine
    rounding: rtne
    max_value: 6.3125
    min_value: 0.0
    scale: 0.024754902347922325
    zero_point: 0
  '@Reciprocal_layer23_mlp_rms_reciprocal_47:out0':
    qtype: u8
    quantizer: asymmetric_affine
    rounding: rtne
    max_value: 1.0
    min_value: 0.0
    scale: 0.003921568859368563
    zero_point: 0
  '@Divide_48:out0':
    qtype: u8
    quantizer: asymmetric_affine
    rounding: rtne
    max_value: 0.49541109800338745
    min_value: 0.0
    scale: 0.0019427885999903083
    zero_point: 0
  '@Sqrt_layer23_mlp_rms_sqrt_49:out0':
    qtype: u8
    quantizer: asymmetric_affine
    rounding: rtne
    max_value: 2.9379851818084717
    min_value: 0.0
    scale: 0.011521510779857635
    zero_point: 0
  '@Add_layer20_mlp_residual_50:out0':
    qtype: u8
    quantizer: asymmetric_affine
    rounding: rtne
    max_value: 1393.6871337890625
    min_value: -87.6781234741211
    scale: 5.8092756271362305
    zero_point: 15
  '@Mul_layer21_swiglu_mul_52:out0':
    qtype: u8
    quantizer: asymmetric_affine
    rounding: rtne
    max_value: 23.641727447509766
    min_value: -1262.3865966796875
    scale: 5.043248176574707
    zero_point: 250
  '@Transpose_layer22_ctx_transpose_54:out0':
    qtype: u8
    quantizer: asymmetric_affine
    rounding: rtne
    max_value: 4.019304275512695
    min_value: -4.6702070236206055
    scale: 0.0340765155851841
    zero_point: 137
  '@Mul_layer22_mlp_rms_gamma_57:out0':
    qtype: u8
    quantizer: asymmetric_affine
    rounding: rtne
    max_value: 30.0371036529541
    min_value: -31.945018768310547
    scale: 0.2430671602487564
    zero_point: 131
  '@Softmax_layer23_softmax_59:out0':
    qtype: u8
    quantizer: asymmetric_affine
    rounding: rtne
    max_value: 1.0
    min_value: 0.0
    scale: 0.003921568859368563
    zero_point: 0
  '@Reshape_layer23_v_repeat_expand_60:out0':
    qtype: u8
    quantizer: asymmetric_affine
    rounding: rtne
    max_value: 8.421965599060059
    min_value: -7.999149799346924
    scale: 0.06439653038978577
    zero_point: 124
  '@Transpose_layer23_v_heads_61:out0':
    qtype: u8
    quantizer: asymmetric_affine
    rounding: rtne
    max_value: 8.421965599060059
    min_value: -7.999149799346924
    scale: 0.06439653038978577
    zero_point: 124
  '@Add_layer23_mlp_rms_eps_62:out0':
    qtype: u8
    quantizer: asymmetric_affine
    rounding: rtne
    max_value: 8.631709098815918
    min_value: 0.0
    scale: 0.03384983912110329
    zero_point: 0
  '@Add_layer20_attn_residual_63:out0':
    qtype: u8
    quantizer: asymmetric_affine
    rounding: rtne
    max_value: 1398.2388916015625
    min_value: -88.13887786865234
    scale: 5.828932762145996
    zero_point: 15
  '@Reshape_layer21_ctx_merge_heads_65:out0':
    qtype: u8
    quantizer: asymmetric_affine
    rounding: rtne
    max_value: 4.263950824737549
    min_value: -8.151273727416992
    scale: 0.048687152564525604
    zero_point: 167
  '@MatMul_layer22_attn_context_69:out0':
    qtype: u8
    quantizer: asymmetric_affine
    rounding: rtne
    max_value: 4.019304275512695
    min_value: -4.6702070236206055
    scale: 0.0340765155851841
    zero_point: 137
  '@Reshape_layer22_v_repeat_merge_70:out0':
    qtype: u8
    quantizer: asymmetric_affine
    rounding: rtne
    max_value: 10.439895629882812
    min_value: -10.977505683898926
    scale: 0.08398980647325516
    zero_point: 131
  '@Tile_layer22_v_repeat_tile_72:out0':
    qtype: u8
    quantizer: asymmetric_affine
    rounding: rtne
    max_value: 10.439895629882812
    min_value: -10.977505683898926
    scale: 0.08398980647325516
    zero_point: 131
  '@Mul_layer22_mlp_rms_scale_to_unit_73:out0':
    qtype: u8
    quantizer: asymmetric_affine
    rounding: rtne
    max_value: 26.886396408081055
    min_value: -8.617470741271973
    scale: 0.1392308622598648
    zero_point: 62
  '@Initializer_layer22_mlp_gamma_74:out0':
    qtype: u8
    quantizer: asymmetric_affine
    rounding: rtne
    max_value: 3.953125
    min_value: 0.0
    scale: 0.015502450987696648
    zero_point: 0
  '@Add_layer23_causal_mask_75:out0':
    qtype: u8
    quantizer: asymmetric_affine
    rounding: rtne
    max_value: 30.43132209777832
    min_value: -10014.8115234375
    scale: 39.39311218261719
    zero_point: 254
  '@Reshape_layer23_v_reshape_76:out0':
    qtype: u8
    quantizer: asymmetric_affine
    rounding: rtne
    max_value: 8.421965599060059
    min_value: -7.999149799346924
    scale: 0.06439653038978577
    zero_point: 124
  '@ReduceMean_layer23_mlp_rms_mean_77:out0':
    qtype: u8
    quantizer: asymmetric_affine
    rounding: rtne
    max_value: 8.631708145141602
    min_value: 0.0
    scale: 0.03384983539581299
    zero_point: 0
  '@Add_layer19_mlp_residual_79:out0':
    qtype: u8
    quantizer: asymmetric_affine
    rounding: rtne
    max_value: 1397.547119140625
    min_value: -88.65714263916016
    scale: 5.828251838684082
    zero_point: 15
  '@Mul_layer20_swiglu_mul_81:out0':
    qtype: u8
    quantizer: asymmetric_affine
    rounding: rtne
    max_value: 15.057188987731934
    min_value: -15.057188987731934
    scale: 0.11809559911489487
    zero_point: 128
  '@Transpose_layer21_ctx_transpose_83:out0':
    qtype: u8
    quantizer: asymmetric_affine
    rounding: rtne
    max_value: 4.263950824737549
    min_value: -8.151273727416992
    scale: 0.048687152564525604
    zero_point: 167
  '@Mul_layer21_mlp_rms_gamma_86:out0':
    qtype: u8
    quantizer: asymmetric_affine
    rounding: rtne
    max_value: 256.6905517578125
    min_value: -30.44742202758789
    scale: 1.1260312795639038
    zero_point: 27
  '@Softmax_layer22_softmax_88:out0':
    qtype: u8
    quantizer: asymmetric_affine
    rounding: rtne
    max_value: 1.0
    min_value: 0.0
    scale: 0.003921568859368563
    zero_point: 0
  '@Reshape_layer22_v_repeat_expand_89:out0':
    qtype: u8
    quantizer: asymmetric_affine
    rounding: rtne
    max_value: 10.439895629882812
    min_value: -10.977505683898926
    scale: 0.08398980647325516
    zero_point: 131
  '@Transpose_layer22_v_heads_90:out0':
    qtype: u8
    quantizer: asymmetric_affine
    rounding: rtne
    max_value: 10.439895629882812
    min_value: -10.977505683898926
    scale: 0.08398980647325516
    zero_point: 131
  '@Reciprocal_layer22_mlp_rms_reciprocal_91:out0':
    qtype: u8
    quantizer: asymmetric_affine
    rounding: rtne
    max_value: 1.0
    min_value: 0.0
    scale: 0.003921568859368563
    zero_point: 0
  '@Divide_92:out0':
    qtype: u8
    quantizer: asymmetric_affine
    rounding: rtne
    max_value: 0.5397895574569702
    min_value: 0.0
    scale: 0.0021168217062950134
    zero_point: 0
  '@Mul_layer23_attn_scale_93:out0':
    qtype: u8
    quantizer: asymmetric_affine
    rounding: rtne
    max_value: 30.396976470947266
    min_value: -14.757149696350098
    scale: 0.17707499861717224
    zero_point: 83
  '@Initializer_causal_mask_94:out0':
    qtype: u8
    quantizer: asymmetric_affine
    rounding: rtne
    max_value: 0.0
    min_value: -10000.0
    scale: 39.2156867980957
    zero_point: 255
  '@Mul_layer23_mlp_rms_square_96:out0':
    qtype: u8
    quantizer: asymmetric_affine
    rounding: rtne
    max_value: 5392.02978515625
    min_value: 0.0
    scale: 21.145214080810547
    zero_point: 0
  '@Add_layer19_attn_residual_97:out0':
    qtype: u8
    quantizer: asymmetric_affine
    rounding: rtne
    max_value: 1398.6907958984375
    min_value: -88.5658950805664
    scale: 5.832379341125488
    zero_point: 15
  '@Reshape_layer20_ctx_merge_heads_99:out0':
    qtype: u8
    quantizer: asymmetric_affine
    rounding: rtne
    max_value: 6.425881862640381
    min_value: -4.565668106079102
    scale: 0.04310411959886551
    zero_point: 106
  '@MatMul_layer21_attn_context_103:out0':
    qtype: u8
    quantizer: asymmetric_affine
    rounding: rtne
    max_value: 4.263950824737549
    min_value: -8.151273727416992
    scale: 0.048687152564525604
    zero_point: 167
  '@Reshape_layer21_v_repeat_merge_104:out0':
    qtype: u8
    quantizer: asymmetric_affine
    rounding: rtne
    max_value: 9.111991882324219
    min_value: -11.57123851776123
    scale: 0.08111070841550827
    zero_point: 143
  '@Tile_layer21_v_repeat_tile_106:out0':
    qtype: u8
    quantizer: asymmetric_affine
    rounding: rtne
    max_value: 9.111991882324219
    min_value: -11.57123851776123
    scale: 0.08111070841550827
    zero_point: 143
  '@Mul_layer21_mlp_rms_scale_to_unit_107:out0':
    qtype: u8
    quantizer: asymmetric_affine
    rounding: rtne
    max_value: 29.547311782836914
    min_value: -9.743125915527344
    scale: 0.15408013761043549
    zero_point: 63
  '@Initializer_layer21_mlp_gamma_108:out0':
    qtype: u8
    quantizer: asymmetric_affine
    rounding: rtne
    max_value: 8.6875
    min_value: 0.0
    scale: 0.03406862914562225
    zero_point: 0
  '@Add_layer22_causal_mask_109:out0':
    qtype: u8
    quantizer: asymmetric_affine
    rounding: rtne
    max_value: 15.437080383300781
    min_value: -10002.966796875
    scale: 39.28786087036133
    zero_point: 255
  '@Reshape_layer22_v_reshape_110:out0':
    qtype: u8
    quantizer: asymmetric_affine
    rounding: rtne
    max_value: 10.439895629882812
    min_value: -10.977505683898926
    scale: 0.08398980647325516
    zero_point: 131
  '@Sqrt_layer22_mlp_rms_sqrt_111:out0':
    qtype: u8
    quantizer: asymmetric_affine
    rounding: rtne
    max_value: 3.1592283248901367
    min_value: 0.0
    scale: 0.012389130890369415
    zero_point: 0
  '@MatMul_layer23_attn_scores_112:out0':
    qtype: u8
    quantizer: asymmetric_affine
    rounding: rtne
    max_value: 243.17581176757812
    min_value: -118.05719757080078
    scale: 1.416599988937378
    zero_point: 83
  '@Initializer_scale_attn_113:out0':
    qtype: u8
    quantizer: asymmetric_affine
    rounding: rtne
    max_value: 0.125
    min_value: 0.0
    scale: 0.0004901961074210703
    zero_point: 0
  '@Mul_layer23_attn_rms_gamma_117:out0':
    qtype: u8
    quantizer: asymmetric_affine
    rounding: rtne
    max_value: 29.492721557617188
    min_value: -26.513967514038086
    scale: 0.21963408589363098
    zero_point: 121
  '@Add_layer18_mlp_residual_118:out0':
    qtype: u8
    quantizer: asymmetric_affine
    rounding: rtne
    max_value: 1398.631103515625
    min_value: -88.45252990722656
    scale: 5.831700325012207
    zero_point: 15
  '@Mul_layer19_swiglu_mul_120:out0':
    qtype: u8
    quantizer: asymmetric_affine
    rounding: rtne
    max_value: 11.437743186950684
    min_value: -11.437743186950684
    scale: 0.08970779180526733
    zero_point: 128
  '@Transpose_layer20_ctx_transpose_122:out0':
    qtype: u8
    quantizer: asymmetric_affine
    rounding: rtne
    max_value: 6.425881862640381
    min_value: -4.565668106079102
    scale: 0.04310411959886551
    zero_point: 106
  '@Mul_layer20_mlp_rms_gamma_125:out0':
    qtype: u8
    quantizer: asymmetric_affine
    rounding: rtne
    max_value: 57.93074035644531
    min_value: -32.75529861450195
    scale: 0.3556315004825592
    zero_point: 92
  '@Softmax_layer21_softmax_127:out0':
    qtype: u8
    quantizer: asymmetric_affine
    rounding: rtne
    max_value: 1.0
    min_value: 0.0
    scale: 0.003921568859368563
    zero_point: 0
  '@Reshape_layer21_v_repeat_expand_128:out0':
    qtype: u8
    quantizer: asymmetric_affine
    rounding: rtne
    max_value: 9.111991882324219
    min_value: -11.57123851776123
    scale: 0.08111070841550827
    zero_point: 143
  '@Transpose_layer21_v_heads_129:out0':
    qtype: u8
    quantizer: asymmetric_affine
    rounding: rtne
    max_value: 9.111991882324219
    min_value: -11.57123851776123
    scale: 0.08111070841550827
    zero_point: 143
  '@Reciprocal_layer21_mlp_rms_reciprocal_130:out0':
    qtype: u8
    quantizer: asymmetric_affine
    rounding: rtne
    max_value: 1.0
    min_value: 0.0
    scale: 0.003921568859368563
    zero_point: 0
  '@Divide_131:out0':
    qtype: u8
    quantizer: asymmetric_affine
    rounding: rtne
    max_value: 0.6743089556694031
    min_value: 0.0
    scale: 0.0026443488895893097
    zero_point: 0
  '@Mul_layer22_attn_scale_132:out0':
    qtype: u8
    quantizer: asymmetric_affine
    rounding: rtne
    max_value: 15.427664756774902
    min_value: -2.9068055152893066
    scale: 0.0718998834490776
    zero_point: 40
  '@Add_layer22_mlp_rms_eps_135:out0':
    qtype: u8
    quantizer: asymmetric_affine
    rounding: rtne
    max_value: 9.980639457702637
    min_value: 0.0
    scale: 0.0391397625207901
    zero_point: 0
  '@Add_layer23_q_rope_rope_add_136:out0':
    qtype: u8
    quantizer: asymmetric_affine
    rounding: rtne
    max_value: 18.407228469848633
    min_value: -17.60994529724121
    scale: 0.1412438154220581
    zero_point: 125
  '@Transpose_layer23_k_transpose_137:out0':
    qtype: u8
    quantizer: asymmetric_affine
    rounding: rtne
    max_value: 10.69978141784668
    min_value: -11.230441093444824
    scale: 0.08600086718797684
    zero_point: 131
  '@Mul_layer23_attn_rms_scale_to_unit_138:out0':
    qtype: u8
    quantizer: asymmetric_affine
    rounding: rtne
    max_value: 25.963855743408203
    min_value: -6.286342144012451
    scale: 0.1264713704586029
    zero_point: 50
  '@Initializer_layer23_attn_gamma_139:out0':
    qtype: u8
    quantizer: asymmetric_affine
    rounding: rtne
    max_value: 12.375
    min_value: 0.0
    scale: 0.04852941259741783
    zero_point: 0
  '@Add_layer18_attn_residual_140:out0':
    qtype: u8
    quantizer: asymmetric_affine
    rounding: rtne
    max_value: 1399.2337646484375
    min_value: -88.59105682373047
    scale: 5.834607124328613
    zero_point: 15
  '@Reshape_layer19_ctx_merge_heads_142:out0':
    qtype: u8
    quantizer: asymmetric_affine
    rounding: rtne
    max_value: 2.0505335330963135
    min_value: -1.7261700630187988
    scale: 0.014810602180659771
    zero_point: 117
  '@MatMul_layer20_attn_context_146:out0':
    qtype: u8
    quantizer: asymmetric_affine
    rounding: rtne
    max_value: 6.425881862640381
    min_value: -4.565668106079102
    scale: 0.04310411959886551
    zero_point: 106
  '@Reshape_layer20_v_repeat_merge_147:out0':
    qtype: u8
    quantizer: asymmetric_affine
    rounding: rtne
    max_value: 7.736117362976074
    min_value: -7.288586616516113
    scale: 0.05892040953040123
    zero_point: 124
  '@Tile_layer20_v_repeat_tile_149:out0':
    qtype: u8
    quantizer: asymmetric_affine
    rounding: rtne
    max_value: 7.736117362976074
    min_value: -7.288586616516113
    scale: 0.05892040953040123
    zero_point: 124
  '@Mul_layer20_mlp_rms_scale_to_unit_150:out0':
    qtype: u8
    quantizer: asymmetric_affine
    rounding: rtne
    max_value: 29.542278289794922
    min_value: -10.641292572021484
    scale: 0.157582625746727
    zero_point: 68
  '@Initializer_layer20_mlp_gamma_151:out0':
    qtype: u8
    quantizer: asymmetric_affine
    rounding: rtne
    max_value: 4.875
    min_value: 0.0
    scale: 0.019117647781968117
    zero_point: 0
  '@Add_layer21_causal_mask_152:out0':
    qtype: u8
    quantizer: asymmetric_affine
    rounding: rtne
    max_value: 8.193782806396484
    min_value: -10013.609375
    scale: 39.301185607910156
    zero_point: 255
  '@Reshape_layer21_v_reshape_153:out0':
    qtype: u8
    quantizer: asymmetric_affine
    rounding: rtne
    max_value: 9.111991882324219
    min_value: -11.57123851776123
    scale: 0.08111070841550827
    zero_point: 143
  '@Sqrt_layer21_mlp_rms_sqrt_154:out0':
    qtype: u8
    quantizer: asymmetric_affine
    rounding: rtne
    max_value: 47.18019104003906
    min_value: 0.0
    scale: 0.1850203573703766
    zero_point: 0
  '@MatMul_layer22_attn_scores_155:out0':
    qtype: u8
    quantizer: asymmetric_affine
    rounding: rtne
    max_value: 123.42131805419922
    min_value: -23.254444122314453
    scale: 0.5751990675926208
    zero_point: 40
  '@ReduceMean_layer22_mlp_rms_mean_159:out0':
    qtype: u8
    quantizer: asymmetric_affine
    rounding: rtne
    max_value: 9.98063850402832
    min_value: 0.0
    scale: 0.0391397587954998
    zero_point: 0
  '@Mul_layer22_mlp_rms_square_160:out0':
    qtype: u8
    quantizer: asymmetric_affine
    rounding: rtne
    max_value: 7214.7080078125
    min_value: 0.0
    scale: 28.292972564697266
    zero_point: 0
  '@Mul_layer23_q_rope_mul_cos_161:out0':
    qtype: u8
    quantizer: asymmetric_affine
    rounding: rtne
    max_value: 18.988842010498047
    min_value: -18.504648208618164
    scale: 0.14703330397605896
    zero_point: 126
  '@Mul_layer23_q_rope_mul_sin_162:out0':
    qtype: u8
    quantizer: asymmetric_affine
    rounding: rtne
    max_value: 17.214757919311523
    min_value: -16.310630798339844
    scale: 0.1314721256494522
    zero_point: 124
  '@Reshape_layer23_k_repeat_merge_163:out0':
    qtype: u8
    quantizer: asymmetric_affine
    rounding: rtne
    max_value: 10.69978141784668
    min_value: -11.230441093444824
    scale: 0.08600086718797684
    zero_point: 131
  '@Tile_layer23_k_repeat_tile_164:out0':
    qtype: u8
    quantizer: asymmetric_affine
    rounding: rtne
    max_value: 10.69978141784668
    min_value: -11.230441093444824
    scale: 0.08600086718797684
    zero_point: 131
  '@Reciprocal_layer23_attn_rms_reciprocal_165:out0':
    qtype: u8
    quantizer: asymmetric_affine
    rounding: rtne
    max_value: 1.0
    min_value: 0.0
    scale: 0.003921568859368563
    zero_point: 0
  '@Divide_166:out0':
    qtype: u8
    quantizer: asymmetric_affine
    rounding: rtne
    max_value: 0.47526609897613525
    min_value: 0.0
    scale: 0.0018637885805219412
    zero_point: 0
  '@Add_layer17_mlp_residual_167:out0':
    qtype: u8
    quantizer: asymmetric_affine
    rounding: rtne
    max_value: 1399.2259521484375
    min_value: -88.55784606933594
    scale: 5.834446430206299
    zero_point: 15
  '@Mul_layer18_swiglu_mul_169:out0':
    qtype: u8
    quantizer: asymmetric_affine
    rounding: rtne
    max_value: 7.852041244506836
    min_value: -7.852041244506836
    scale: 0.06158463656902313
    zero_point: 128
  '@Transpose_layer19_ctx_transpose_171:out0':
    qtype: u8
    quantizer: asymmetric_affine
    rounding: rtne
    max_value: 2.0505335330963135
    min_value: -1.7261700630187988
    scale: 0.014810602180659771
    zero_point: 117
  '@Mul_layer19_mlp_rms_gamma_174:out0':
    qtype: u8
    quantizer: asymmetric_affine
    rounding: rtne
    max_value: 44.769954681396484
    min_value: -29.722244262695312
    scale: 0.29212629795074463
    zero_point: 102
  '@Softmax_layer20_softmax_176:out0':
    qtype: u8
    quantizer: asymmetric_affine
    rounding: rtne
    max_value: 1.0
    min_value: 0.0
    scale: 0.003921568859368563
    zero_point: 0
  '@Reshape_layer20_v_repeat_expand_177:out0':
    qtype: u8
    quantizer: asymmetric_affine
    rounding: rtne
    max_value: 7.736117362976074
    min_value: -7.288586616516113
    scale: 0.05892040953040123
    zero_point: 124
  '@Transpose_layer20_v_heads_178:out0':
    qtype: u8
    quantizer: asymmetric_affine
    rounding: rtne
    max_value: 7.736117362976074
    min_value: -7.288586616516113
    scale: 0.05892040953040123
    zero_point: 124
  '@Reciprocal_layer20_mlp_rms_reciprocal_179:out0':
    qtype: u8
    quantizer: asymmetric_affine
    rounding: rtne
    max_value: 1.0
    min_value: 0.0
    scale: 0.003921568859368563
    zero_point: 0
  '@Divide_180:out0':
    qtype: u8
    quantizer: asymmetric_affine
    rounding: rtne
    max_value: 0.830416738986969
    min_value: 0.0
    scale: 0.0032565363217145205
    zero_point: 0
  '@Mul_layer21_attn_scale_181:out0':
    qtype: u8
    quantizer: asymmetric_affine
    rounding: rtne
    max_value: 11.491724967956543
    min_value: -13.603849411010742
    scale: 0.09841401129961014
    zero_point: 138
  '@MatMul_layer21_attn_scores_182:out0':
    qtype: u8
    quantizer: asymmetric_affine
    rounding: rtne
    max_value: 91.93379974365234
    min_value: -108.83079528808594
    scale: 0.7873120903968811
    zero_point: 138
  '@Add_layer21_mlp_rms_eps_184:out0':
    qtype: u8
    quantizer: asymmetric_affine
    rounding: rtne
    max_value: 2225.970703125
    min_value: 0.0
    scale: 8.729296684265137
    zero_point: 0
  '@Add_layer22_q_rope_rope_add_185:out0':
    qtype: u8
    quantizer: asymmetric_affine
    rounding: rtne
    max_value: 7.354979991912842
    min_value: -7.186765670776367
    scale: 0.057026457041502
    zero_point: 126
  '@Transpose_layer22_k_transpose_186:out0':
    qtype: u8
    quantizer: asymmetric_affine
    rounding: rtne
    max_value: 9.172807693481445
    min_value: -8.432336807250977
    scale: 0.06903978437185287
    zero_point: 122
  '@Mul_layer22_attn_rms_gamma_187:out0':
    qtype: u8
    quantizer: asymmetric_affine
    rounding: rtne
    max_value: 26.764034271240234
    min_value: -25.65888023376465
    scale: 0.20558005571365356
    zero_point: 125
  '@Initializer_layer22_attn_gamma_189:out0':
    qtype: u8
    quantizer: asymmetric_affine
    rounding: rtne
    max_value: 7.15625
    min_value: 0.0
    scale: 0.02806372568011284
    zero_point: 0
  '@Mul_layer22_attn_rms_scale_to_unit_190:out0':
    qtype: u8
    quantizer: asymmetric_affine
    rounding: rtne
    max_value: 26.82500457763672
    min_value: -8.523734092712402
    scale: 0.13862250745296478
    zero_point: 61
  '@Transpose_layer23_q_heads_191:out0':
    qtype: u8
    quantizer: asymmetric_affine
    rounding: rtne
    max_value: 17.969091415405273
    min_value: -20.229387283325195
    scale: 0.1497979611158371
    zero_point: 135
  '@Initializer_rope_cos_192:out0':
    qtype: u8
    quantizer: asymmetric_affine
    rounding: rtne
    max_value: 1.0
    min_value: -0.9999608397483826
    scale: 0.007842984050512314
    zero_point: 127
  '@Concat_layer23_q_rope_rotate_half_193:out0':
    qtype: u8
    quantizer: asymmetric_affine
    rounding: rtne
    max_value: 17.969091415405273
    min_value: -20.229387283325195
    scale: 0.1497979611158371
    zero_point: 135
  '@Initializer_rope_sin_194:out0':
    qtype: u8
    quantizer: asymmetric_affine
    rounding: rtne
    max_value: 0.9999920725822449
    min_value: -0.9999902248382568
    scale: 0.00784306786954403
    zero_point: 127
  '@Reshape_layer23_k_repeat_expand_195:out0':
    qtype: u8
    quantizer: asymmetric_affine
    rounding: rtne
    max_value: 10.69978141784668
    min_value: -11.230441093444824
    scale: 0.08600086718797684
    zero_point: 131
  '@Sqrt_layer23_attn_rms_sqrt_196:out0':
    qtype: u8
    quantizer: asymmetric_affine
    rounding: rtne
    max_value: 2.8835878372192383
    min_value: 0.0
    scale: 0.011308187618851662
    zero_point: 0
  '@Add_layer17_attn_residual_197:out0':
    qtype: u8
    quantizer: asymmetric_affine
    rounding: rtne
    max_value: 1399.7626953125
    min_value: -88.51591491699219
    scale: 5.836386680603027
    zero_point: 15
  '@Reshape_layer18_ctx_merge_heads_199:out0':
    qtype: u8
    quantizer: asymmetric_affine
    rounding: rtne
    max_value: 2.6337943077087402
    min_value: -2.168330430984497
    scale: 0.01883186213672161
    zero_point: 115
  '@MatMul_layer19_attn_context_203:out0':
    qtype: u8
    quantizer: asymmetric_affine
    rounding: rtne
    max_value: 2.0505335330963135
    min_value: -1.7261700630187988
    scale: 0.014810602180659771
    zero_point: 117
  '@Reshape_layer19_v_repeat_merge_204:out0':
    qtype: u8
    quantizer: asymmetric_affine
    rounding: rtne
    max_value: 4.932949542999268
    min_value: -3.5465404987335205
    scale: 0.03325290232896805
    zero_point: 107
  '@Tile_layer19_v_repeat_tile_206:out0':
    qtype: u8
    quantizer: asymmetric_affine
    rounding: rtne
    max_value: 4.932949542999268
    min_value: -3.5465404987335205
    scale: 0.03325290232896805
    zero_point: 107
  '@Mul_layer19_mlp_rms_scale_to_unit_207:out0':
    qtype: u8
    quantizer: asymmetric_affine
    rounding: rtne
    max_value: 29.538911819458008
    min_value: -10.808097839355469
    scale: 0.15822355449199677
    zero_point: 68
  '@Initializer_layer19_mlp_gamma_208:out0':
    qtype: u8
    quantizer: asymmetric_affine
    rounding: rtne
    max_value: 3.765625
    min_value: 0.0
    scale: 0.014767156913876534
    zero_point: 0
  '@Add_layer20_causal_mask_209:out0':
    qtype: u8
    quantizer: asymmetric_affine
    rounding: rtne
    max_value: 8.531075477600098
    min_value: -10009.9208984375
    scale: 39.288047790527344
    zero_point: 255
  '@Reshape_layer20_v_reshape_210:out0':
    qtype: u8
    quantizer: asymmetric_affine
    rounding: rtne
    max_value: 7.736117362976074
    min_value: -7.288586616516113
    scale: 0.05892040953040123
    zero_point: 124
  '@Sqrt_layer20_mlp_rms_sqrt_211:out0':
    qtype: u8
    quantizer: asymmetric_affine
    rounding: rtne
    max_value: 47.33428192138672
    min_value: 0.0
    scale: 0.1856246292591095
    zero_point: 0
  '@Add_layer21_q_rope_rope_add_212:out0':
    qtype: u8
    quantizer: asymmetric_affine
    rounding: rtne
    max_value: 13.674190521240234
    min_value: -12.641976356506348
    scale: 0.10320065170526505
    zero_point: 122
  '@Transpose_layer21_k_transpose_213:out0':
    qtype: u8
    quantizer: asymmetric_affine
    rounding: rtne
    max_value: 9.908560752868652
    min_value: -8.304505348205566
    scale: 0.07142379134893417
    zero_point: 116
  '@ReduceMean_layer21_mlp_rms_mean_216:out0':
    qtype: u8
    quantizer: asymmetric_affine
    rounding: rtne
    max_value: 2225.970703125
    min_value: 0.0
    scale: 8.729296684265137
    zero_point: 0
  '@Mul_layer21_mlp_rms_square_217:out0':
    qtype: u8
    quantizer: asymmetric_affine
    rounding: rtne
    max_value: 1942967.875
    min_value: 0.0
    scale: 7619.48193359375
    zero_point: 0
  '@Mul_layer22_q_rope_mul_cos_218:out0':
    qtype: u8
    quantizer: asymmetric_affine
    rounding: rtne
    max_value: 7.355154037475586
    min_value: -7.186956882476807
    scale: 0.05702788382768631
    zero_point: 126
  '@Mul_layer22_q_rope_mul_sin_219:out0':
    qtype: u8
    quantizer: asymmetric_affine
    rounding: rtne
    max_value: 5.138924598693848
    min_value: -4.391443729400635
    scale: 0.037373993545770645
    zero_point: 117
  '@Reshape_layer22_k_repeat_merge_220:out0':
    qtype: u8
    quantizer: asymmetric_affine
    rounding: rtne
    max_value: 9.172807693481445
    min_value: -8.432336807250977
    scale: 0.06903978437185287
    zero_point: 122
  '@Tile_layer22_k_repeat_tile_221:out0':
    qtype: u8
    quantizer: asymmetric_affine
    rounding: rtne
    max_value: 9.172807693481445
    min_value: -8.432336807250977
    scale: 0.06903978437185287
    zero_point: 122
  '@Reciprocal_layer22_attn_rms_reciprocal_222:out0':
    qtype: u8
    quantizer: asymmetric_affine
    rounding: rtne
    max_value: 1.0
    min_value: 0.0
    scale: 0.003921568859368563
    zero_point: 0
  '@Divide_223:out0':
    qtype: u8
    quantizer: asymmetric_affine
    rounding: rtne
    max_value: 0.5270780920982361
    min_value: 0.0
    scale: 0.0020669728983193636
    zero_point: 0
  '@Reshape_layer23_q_reshape_224:out0':
    qtype: u8
    quantizer: asymmetric_affine
    rounding: rtne
    max_value: 17.969091415405273
    min_value: -20.229387283325195
    scale: 0.1497979611158371
    zero_point: 135
  '@Neg_layer23_q_rope_neg_second_225:out0':
    qtype: u8
    quantizer: asymmetric_affine
    rounding: rtne
    max_value: 17.969091415405273
    min_value: -20.229387283325195
    scale: 0.1497979611158371
    zero_point: 135
  '@Slice_layer23_q_rope_slice_first_226:out0':
    qtype: u8
    quantizer: asymmetric_affine
    rounding: rtne
    max_value: 17.969091415405273
    min_value: -20.229387283325195
    scale: 0.1497979611158371
    zero_point: 135
  '@Add_layer23_k_rope_rope_add_227:out0':
    qtype: u8
    quantizer: asymmetric_affine
    rounding: rtne
    max_value: 10.69978141784668
    min_value: -11.230441093444824
    scale: 0.08600086718797684
    zero_point: 131
  '@Add_layer23_attn_rms_eps_228:out0':
    qtype: u8
    quantizer: asymmetric_affine
    rounding: rtne
    max_value: 8.315024375915527
    min_value: 0.0
    scale: 0.03260793909430504
    zero_point: 0
  '@Add_layer16_mlp_residual_229:out0':
    qtype: u8
    quantizer: asymmetric_affine
    rounding: rtne
    max_value: 1398.8238525390625
    min_value: -89.2688980102539
    scale: 5.835658073425293
    zero_point: 15
  '@Mul_layer17_swiglu_mul_231:out0':
    qtype: u8
    quantizer: asymmetric_affine
    rounding: rtne
    max_value: 7.407272815704346
    min_value: -7.407272815704346
    scale: 0.058096256107091904
    zero_point: 128
  '@Transpose_layer18_ctx_transpose_233:out0':
    qtype: u8
    quantizer: asymmetric_affine
    rounding: rtne
    max_value: 2.6337943077087402
    min_value: -2.168330430984497
    scale: 0.01883186213672161
    zero_point: 115
  '@Mul_layer18_mlp_rms_gamma_236:out0':
    qtype: u8
    quantizer: asymmetric_affine
    rounding: rtne
    max_value: 34.378787994384766
    min_value: -24.740243911743164
    scale: 0.2318393439054489
    zero_point: 107
  '@Softmax_layer19_softmax_238:out0':
    qtype: u8
    quantizer: asymmetric_affine
    rounding: rtne
    max_value: 1.0
    min_value: 0.0
    scale: 0.003921568859368563
    zero_point: 0
  '@Reshape_layer19_v_repeat_expand_239:out0':
    qtype: u8
    quantizer: asymmetric_affine
    rounding: rtne
    max_value: 4.932949542999268
    min_value: -3.5465404987335205
    scale: 0.03325290232896805
    zero_point: 107
  '@Transpose_layer19_v_heads_240:out0':
    qtype: u8
    quantizer: asymmetric_affine
    rounding: rtne
    max_value: 4.932949542999268
    min_value: -3.5465404987335205
    scale: 0.03325290232896805
    zero_point: 107
  '@Reciprocal_layer19_mlp_rms_reciprocal_241:out0':
    qtype: u8
    quantizer: asymmetric_affine
    rounding: rtne
    max_value: 1.0
    min_value: 0.0
    scale: 0.003921568859368563
    zero_point: 0
  '@Divide_242:out0':
    qtype: u8
    quantizer: asymmetric_affine
    rounding: rtne
    max_value: 1.0264242887496948
    min_value: 0.0
    scale: 0.0040251933969557285
    zero_point: 0
  '@Mul_layer20_attn_scale_243:out0':
    qtype: u8
    quantizer: asymmetric_affine
    rounding: rtne
    max_value: 8.48612117767334
    min_value: -9.92106819152832
    scale: 0.07218505442142487
    zero_point: 137
  '@MatMul_layer20_attn_scores_244:out0':
    qtype: u8
    quantizer: asymmetric_affine
    rounding: rtne
    max_value: 67.88896942138672
    min_value: -79.36854553222656
    scale: 0.5774804353713989
    zero_point: 137
  '@Add_layer20_mlp_rms_eps_246:out0':
    qtype: u8
    quantizer: asymmetric_affine
    rounding: rtne
    max_value: 2240.5341796875
    min_value: 0.0
    scale: 8.786408424377441
    zero_point: 0
  '@Mul_layer21_q_rope_mul_cos_247:out0':
    qtype: u8
    quantizer: asymmetric_affine
    rounding: rtne
    max_value: 13.674052238464355
    min_value: -12.413642883300781
    scale: 0.10230468958616257
    zero_point: 121
  '@Mul_layer21_q_rope_mul_sin_248:out0':
    qtype: u8
    quantizer: asymmetric_affine
    rounding: rtne
    max_value: 12.489609718322754
    min_value: -12.297528266906738
    scale: 0.09720446169376373
    zero_point: 127
  '@Reshape_layer21_k_repeat_merge_249:out0':
    qtype: u8
    quantizer: asymmetric_affine
    rounding: rtne
    max_value: 9.908560752868652
    min_value: -8.304505348205566
    scale: 0.07142379134893417
    zero_point: 116
  '@Mul_layer21_attn_rms_gamma_250:out0':
    qtype: u8
    quantizer: asymmetric_affine
    rounding: rtne
    max_value: 39.93366241455078
    min_value: -26.031999588012695
    scale: 0.25868886709213257
    zero_point: 101
  '@Initializer_layer21_attn_gamma_252:out0':
    qtype: u8
    quantizer: asymmetric_affine
    rounding: rtne
    max_value: 6.78125
    min_value: 0.0
    scale: 0.02659313753247261
    zero_point: 0
  '@Mul_layer21_attn_rms_scale_to_unit_253:out0':
    qtype: u8
    quantizer: asymmetric_affine
    rounding: rtne
    max_value: 29.546232223510742
    min_value: -10.172502517700195
    scale: 0.15575973689556122
    zero_point: 65
  '@Transpose_layer22_q_heads_254:out0':
    qtype: u8
    quantizer: asymmetric_affine
    rounding: rtne
    max_value: 7.355154037475586
    min_value: -7.186956882476807
    scale: 0.05702788382768631
    zero_point: 126
  '@Concat_layer22_q_rope_rotate_half_256:out0':
    qtype: u8
    quantizer: asymmetric_affine
    rounding: rtne
    max_value: 7.355148792266846
    min_value: -7.111404895782471
    scale: 0.056731581687927246
    zero_point: 125
  '@Reshape_layer22_k_repeat_expand_258:out0':
    qtype: u8
    quantizer: asymmetric_affine
    rounding: rtne
    max_value: 9.172807693481445
    min_value: -8.432336807250977
    scale: 0.06903978437185287
    zero_point: 122
  '@Sqrt_layer22_attn_rms_sqrt_259:out0':
    qtype: u8
    quantizer: asymmetric_affine
    rounding: rtne
    max_value: 3.178652286529541
    min_value: 0.0
    scale: 0.01246530283242464
    zero_point: 0
  '@Slice_layer23_q_rope_slice_second_261:out0':
    qtype: u8
    quantizer: asymmetric_affine
    rounding: rtne
    max_value: 17.969091415405273
    min_value: -20.229387283325195
    scale: 0.1497979611158371
    zero_point: 135
  '@Mul_layer23_k_rope_mul_cos_263:out0':
    qtype: u8
    quantizer: asymmetric_affine
    rounding: rtne
    max_value: 10.699478149414062
    min_value: -11.229923248291016
    scale: 0.08599765598773956
    zero_point: 131
  '@Mul_layer23_k_rope_mul_sin_264:out0':
    qtype: u8
    quantizer: asymmetric_affine
    rounding: rtne
    max_value: 3.334568500518799
    min_value: -2.745818853378296
    scale: 0.023844655603170395
    zero_point: 115
  '@ReduceMean_layer23_attn_rms_mean_265:out0':
    qtype: u8
    quantizer: asymmetric_affine
    rounding: rtne
    max_value: 8.315023422241211
    min_value: 0.0
    scale: 0.03260793536901474
    zero_point: 0
  '@Mul_layer23_attn_rms_square_266:out0':
    qtype: u8
    quantizer: asymmetric_affine
    rounding: rtne
    max_value: 4912.3154296875
    min_value: 0.0
    scale: 19.26398277282715
    zero_point: 0
  '@Add_layer16_attn_residual_267:out0':
    qtype: u8
    quantizer: asymmetric_affine
    rounding: rtne
    max_value: 1398.7513427734375
    min_value: -89.27696990966797
    scale: 5.835405349731445
    zero_point: 15
  '@Reshape_layer17_ctx_merge_heads_269:out0':
    qtype: u8
    quantizer: asymmetric_affine
    rounding: rtne
    max_value: 4.8386735916137695
    min_value: -3.8501782417297363
    scale: 0.034073930233716965
    zero_point: 113
  '@MatMul_layer18_attn_context_273:out0':
    qtype: u8
    quantizer: asymmetric_affine
    rounding: rtne
    max_value: 2.6337943077087402
    min_value: -2.168330430984497
    scale: 0.01883186213672161
    zero_point: 115
  '@Reshape_layer18_v_repeat_merge_274:out0':
    qtype: u8
    quantizer: asymmetric_affine
    rounding: rtne
    max_value: 5.11484956741333
    min_value: -5.0640645027160645
    scale: 0.03991730883717537
    zero_point: 127
  '@Tile_layer18_v_repeat_tile_276:out0':
    qtype: u8
    quantizer: asymmetric_affine
    rounding: rtne
    max_value: 5.11484956741333
    min_value: -5.0640645027160645
    scale: 0.03991730883717537
    zero_point: 127
  '@Mul_layer18_mlp_rms_scale_to_unit_277:out0':
    qtype: u8
    quantizer: asymmetric_affine
    rounding: rtne
    max_value: 29.53345489501953
    min_value: -11.997607231140137
    scale: 0.16286692023277283
    zero_point: 74
  '@Initializer_layer18_mlp_gamma_278:out0':
    qtype: u8
    quantizer: asymmetric_affine
    rounding: rtne
    max_value: 3.59375
    min_value: 0.0
    scale: 0.014093137346208096
    zero_point: 0
  '@Add_layer19_causal_mask_279:out0':
    qtype: u8
    quantizer: asymmetric_affine
    rounding: rtne
    max_value: 6.845600128173828
    min_value: -10016.126953125
    scale: 39.3057746887207
    zero_point: 255
  '@Reshape_layer19_v_reshape_280:out0':
    qtype: u8
    quantizer: asymmetric_affine
    rounding: rtne
    max_value: 4.932949542999268
    min_value: -3.5465404987335205
    scale: 0.03325290232896805
    zero_point: 107
  '@Sqrt_layer19_mlp_rms_sqrt_281:out0':
    qtype: u8
    quantizer: asymmetric_affine
    rounding: rtne
    max_value: 47.35127639770508
    min_value: 0.0
    scale: 0.18569128215312958
    zero_point: 0
  '@Add_layer20_q_rope_rope_add_282:out0':
    qtype: u8
    quantizer: asymmetric_affine
    rounding: rtne
    max_value: 12.779854774475098
    min_value: -13.548057556152344
    scale: 0.10324671119451523
    zero_point: 131
  '@Transpose_layer20_k_transpose_283:out0':
    qtype: u8
    quantizer: asymmetric_affine
    rounding: rtne
    max_value: 13.688793182373047
    min_value: -10.523642539978027
    scale: 0.09495073556900024
    zero_point: 111
  '@ReduceMean_layer20_mlp_rms_mean_286:out0':
    qtype: u8
    quantizer: asymmetric_affine
    rounding: rtne
    max_value: 2240.5341796875
    min_value: 0.0
    scale: 8.786408424377441
    zero_point: 0
  '@Mul_layer20_mlp_rms_square_287:out0':
    qtype: u8
    quantizer: asymmetric_affine
    rounding: rtne
    max_value: 1955072.0
    min_value: 0.0
    scale: 7666.94921875
    zero_point: 0
  '@Transpose_layer21_q_heads_288:out0':
    qtype: u8
    quantizer: asymmetric_affine
    rounding: rtne
    max_value: 13.674103736877441
    min_value: -12.644790649414062
    scale: 0.10321134328842163
    zero_point: 123
  '@Reshape_layer21_q_reshape_289:out0':
    qtype: u8
    quantizer: asymmetric_affine
    rounding: rtne
    max_value: 13.674103736877441
    min_value: -12.644790649414062
    scale: 0.10321134328842163
    zero_point: 123
  '@Concat_layer21_q_rope_rotate_half_290:out0':
    qtype: u8
    quantizer: asymmetric_affine
    rounding: rtne
    max_value: 13.67403793334961
    min_value: -12.641007423400879
    scale: 0.10319625586271286
    zero_point: 122
  '@Slice_layer21_q_rope_slice_first_291:out0':
    qtype: u8
    quantizer: asymmetric_affine
    rounding: rtne
    max_value: 13.674103736877441
    min_value: -12.644790649414062
    scale: 0.10321134328842163
    zero_point: 123
  '@Tile_layer21_k_repeat_tile_292:out0':
    qtype: u8
    quantizer: asymmetric_affine
    rounding: rtne
    max_value: 9.908560752868652
    min_value: -8.304505348205566
    scale: 0.07142379134893417
    zero_point: 116
  '@Reshape_layer21_k_repeat_expand_293:out0':
    qtype: u8
    quantizer: asymmetric_affine
    rounding: rtne
    max_value: 9.908560752868652
    min_value: -8.304505348205566
    scale: 0.07142379134893417
    zero_point: 116
  '@Reciprocal_layer21_attn_rms_reciprocal_294:out0':
    qtype: u8
    quantizer: asymmetric_affine
    rounding: rtne
    max_value: 1.0
    min_value: 0.0
    scale: 0.003921568859368563
    zero_point: 0
  '@Divide_295:out0':
    qtype: u8
    quantizer: asymmetric_affine
    rounding: rtne
    max_value: 0.7074049115180969
    min_value: 0.0
    scale: 0.0027741368394345045
    zero_point: 0
  '@Reshape_layer22_q_reshape_296:out0':
    qtype: u8
    quantizer: asymmetric_affine
    rounding: rtne
    max_value: 7.355154037475586
    min_value: -7.186956882476807
    scale: 0.05702788382768631
    zero_point: 126
  '@Neg_layer22_q_rope_neg_second_297:out0':
    qtype: u8
    quantizer: asymmetric_affine
    rounding: rtne
    max_value: 7.355148792266846
    min_value: -7.111404895782471
    scale: 0.056731581687927246
    zero_point: 125
  '@Slice_layer22_q_rope_slice_first_298:out0':
    qtype: u8
    quantizer: asymmetric_affine
    rounding: rtne
    max_value: 7.355154037475586
    min_value: -7.186956882476807
    scale: 0.05702788382768631
    zero_point: 126
  '@Add_layer22_k_rope_rope_add_299:out0':
    qtype: u8
    quantizer: asymmetric_affine
    rounding: rtne
    max_value: 9.172807693481445
    min_value: -8.432336807250977
    scale: 0.06903978437185287
    zero_point: 122
  '@Add_layer22_attn_rms_eps_300:out0':
    qtype: u8
    quantizer: asymmetric_affine
    rounding: rtne
    max_value: 10.103843688964844
    min_value: 0.0
    scale: 0.039622917771339417
    zero_point: 0
  '@Transpose_layer23_k_heads_302:out0':
    qtype: u8
    quantizer: asymmetric_affine
    rounding: rtne
    max_value: 10.699478149414062
    min_value: -11.229923248291016
    scale: 0.08599765598773956
    zero_point: 131
  '@Reshape_layer23_k_reshape_303:out0':
    qtype: u8
    quantizer: asymmetric_affine
    rounding: rtne
    max_value: 10.699478149414062
    min_value: -11.229923248291016
    scale: 0.08599765598773956
    zero_point: 131
  '@Concat_layer23_k_rope_rotate_half_304:out0':
    qtype: u8
    quantizer: asymmetric_affine
    rounding: rtne
    max_value: 11.229924201965332
    min_value: -9.284323692321777
    scale: 0.08044803142547607
    zero_point: 115
  '@Slice_layer23_k_rope_slice_first_305:out0':
    qtype: u8
    quantizer: asymmetric_affine
    rounding: rtne
    max_value: 10.699478149414062
    min_value: -11.229923248291016
    scale: 0.08599765598773956
    zero_point: 131
  '@Neg_layer23_k_rope_neg_second_306:out0':
    qtype: u8
    quantizer: asymmetric_affine
    rounding: rtne
    max_value: 11.229924201965332
    min_value: -9.284323692321777
    scale: 0.08044803142547607
    zero_point: 115
  '@Slice_layer23_k_rope_slice_second_307:out0':
    qtype: u8
    quantizer: asymmetric_affine
    rounding: rtne
    max_value: 10.699478149414062
    min_value: -11.229923248291016
    scale: 0.08599765598773956
    zero_point: 131
  '@Add_layer15_mlp_residual_308:out0':
    qtype: u8
    quantizer: asymmetric_affine
    rounding: rtne
    max_value: 1398.6861572265625
    min_value: -89.24254608154297
    scale: 5.835014343261719
    zero_point: 15
  '@Mul_layer16_swiglu_mul_310:out0':
    qtype: u8
    quantizer: asymmetric_affine
    rounding: rtne
    max_value: 9.524293899536133
    min_value: -9.524293899536133
    scale: 0.07470034062862396
    zero_point: 128
  '@Transpose_layer17_ctx_transpose_312:out0':
    qtype: u8
    quantizer: asymmetric_affine
    rounding: rtne
    max_value: 4.8386735916137695
    min_value: -3.8501782417297363
    scale: 0.034073930233716965
    zero_point: 113
  '@Mul_layer17_mlp_rms_gamma_315:out0':
    qtype: u8
    quantizer: asymmetric_affine
    rounding: rtne
    max_value: 33.91388702392578
    min_value: -31.965946197509766
    scale: 0.2583523094654083
    zero_point: 124
  '@Softmax_layer18_softmax_317:out0':
    qtype: u8
    quantizer: asymmetric_affine
    rounding: rtne
    max_value: 1.0
    min_value: 0.0
    scale: 0.003921568859368563
    zero_point: 0
  '@Reshape_layer18_v_repeat_expand_318:out0':
    qtype: u8
    quantizer: asymmetric_affine
    rounding: rtne
    max_value: 5.11484956741333
    min_value: -5.0640645027160645
    scale: 0.03991730883717537
    zero_point: 127
  '@Transpose_layer18_v_heads_319:out0':
    qtype: u8
    quantizer: asymmetric_affine
    rounding: rtne
    max_value: 5.11484956741333
    min_value: -5.0640645027160645
    scale: 0.03991730883717537
    zero_point: 127
  '@Reciprocal_layer18_mlp_rms_reciprocal_320:out0':
    qtype: u8
    quantizer: asymmetric_affine
    rounding: rtne
    max_value: 1.0
    min_value: 0.0
    scale: 0.003921568859368563
    zero_point: 0
  '@Divide_321:out0':
    qtype: u8
    quantizer: asymmetric_affine
    rounding: rtne
    max_value: 1.2842603921890259
    min_value: 0.0
    scale: 0.00503631541505456
    zero_point: 0
  '@Mul_layer19_attn_scale_322:out0':
    qtype: u8
    quantizer: asymmetric_affine
    rounding: rtne
    max_value: 6.772329807281494
    min_value: -16.062320709228516
    scale: 0.08954764902591705
    zero_point: 179
  '@MatMul_layer19_attn_scores_323:out0':
    qtype: u8
    quantizer: asymmetric_affine
    rounding: rtne
    max_value: 54.17863845825195
    min_value: -128.49856567382812
    scale: 0.7163811922073364
    zero_point: 179
  '@Add_layer19_mlp_rms_eps_325:out0':
    qtype: u8
    quantizer: asymmetric_affine
    rounding: rtne
    max_value: 2242.143798828125
    min_value: 0.0
    scale: 8.792720794677734
    zero_point: 0
  '@Mul_layer20_q_rope_mul_cos_326:out0':
    qtype: u8
    quantizer: asymmetric_affine
    rounding: rtne
    max_value: 12.779775619506836
    min_value: -13.547903060913086
    scale: 0.1032458022236824
    zero_point: 131
  '@Mul_layer20_q_rope_mul_sin_327:out0':
    qtype: u8
    quantizer: asymmetric_affine
    rounding: rtne
    max_value: 5.9490461349487305
    min_value: -5.759113788604736
    scale: 0.04591435566544533
    zero_point: 125
  '@Reshape_layer20_k_repeat_merge_328:out0':
    qtype: u8
    quantizer: asymmetric_affine
    rounding: rtne
    max_value: 13.688793182373047
    min_value: -10.523642539978027
    scale: 0.09495073556900024
    zero_point: 111
  '@Mul_layer20_attn_rms_gamma_329:out0':
    qtype: u8
    quantizer: asymmetric_affine
    rounding: rtne
    max_value: 39.2342529296875
    min_value: -29.446121215820312
    scale: 0.2693347930908203
    zero_point: 109
  '@Initializer_layer20_attn_gamma_331:out0':
    qtype: u8
    quantizer: asymmetric_affine
    rounding: rtne
    max_value: 4.5
    min_value: -0.09521484375
    scale: 0.018020451068878174
    zero_point: 5
  '@Mul_layer20_attn_rms_scale_to_unit_332:out0':
    qtype: u8
    quantizer: asymmetric_affine
    rounding: rtne
    max_value: 29.541034698486328
    min_value: -10.305571556091309
    scale: 0.15626120567321777
    zero_point: 66
  '@Neg_layer21_q_rope_neg_second_334:out0':
    qtype: u8
    quantizer: asymmetric_affine
    rounding: rtne
    max_value: 13.67403793334961
    min_value: -12.641007423400879
    scale: 0.10319625586271286
    zero_point: 122
  '@Slice_layer21_q_rope_slice_second_335:out0':
    qtype: u8
    quantizer: asymmetric_affine
    rounding: rtne
    max_value: 13.674103736877441
    min_value: -12.644790649414062
    scale: 0.10321134328842163
    zero_point: 123
  '@Add_layer21_k_rope_rope_add_336:out0':
    qtype: u8
    quantizer: asymmetric_affine
    rounding: rtne
    max_value: 9.908560752868652
    min_value: -8.304505348205566
    scale: 0.07142379134893417
    zero_point: 116
  '@Sqrt_layer21_attn_rms_sqrt_337:out0':
    qtype: u8
    quantizer: asymmetric_affine
    rounding: rtne
    max_value: 47.17461395263672
    min_value: 0.0
    scale: 0.18499848246574402
    zero_point: 0
  '@Slice_layer22_q_rope_slice_second_339:out0':
    qtype: u8
    quantizer: asymmetric_affine
    rounding: rtne
    max_value: 7.355154037475586
    min_value: -7.186956882476807
    scale: 0.05702788382768631
    zero_point: 126
  '@Mul_layer22_k_rope_mul_cos_341:out0':
    qtype: u8
    quantizer: asymmetric_affine
    rounding: rtne
    max_value: 9.173081398010254
    min_value: -8.432701110839844
    scale: 0.06904228031635284
    zero_point: 122
  '@Mul_layer22_k_rope_mul_sin_342:out0':
    qtype: u8
    quantizer: asymmetric_affine
    rounding: rtne
    max_value: 2.1362199783325195
    min_value: -2.5285115242004395
    scale: 0.018293064087629318
    zero_point: 138
  '@ReduceMean_layer22_attn_rms_mean_343:out0':
    qtype: u8
    quantizer: asymmetric_affine
    rounding: rtne
    max_value: 10.103842735290527
    min_value: 0.0
    scale: 0.03962291404604912
    zero_point: 0
  '@Mul_layer22_attn_rms_square_344:out0':
    qtype: u8
    quantizer: asymmetric_affine
    rounding: rtne
    max_value: 7270.48486328125
    min_value: 0.0
    scale: 28.51170539855957
    zero_point: 0
  '@Concat_layer22_k_rope_rotate_half_345:out0':
    qtype: u8
    quantizer: asymmetric_affine
    rounding: rtne
    max_value: 7.7958173751831055
    min_value: -9.173094749450684
    scale: 0.06654475629329681
    zero_point: 138
  '@Add_layer15_attn_residual_349:out0':
    qtype: u8
    quantizer: asymmetric_affine
    rounding: rtne
    max_value: 1397.0142822265625
    min_value: -89.27808380126953
    scale: 5.828597545623779
    zero_point: 15
  '@Reshape_layer16_ctx_merge_heads_351:out0':
    qtype: u8
    quantizer: asymmetric_affine
    rounding: rtne
    max_value: 1.901589274406433
    min_value: -1.901589274406433
    scale: 0.014914426021277905
    zero_point: 128
  '@MatMul_layer17_attn_context_355:out0':
    qtype: u8
    quantizer: asymmetric_affine
    rounding: rtne
    max_value: 4.8386735916137695
    min_value: -3.8501782417297363
    scale: 0.034073930233716965
    zero_point: 113
  '@Reshape_layer17_v_repeat_merge_356:out0':
    qtype: u8
    quantizer: asymmetric_affine
    rounding: rtne
    max_value: 4.969395637512207
    min_value: -5.176124095916748
    scale: 0.03978634998202324
    zero_point: 130
  '@Tile_layer17_v_repeat_tile_358:out0':
    qtype: u8
    quantizer: asymmetric_affine
    rounding: rtne
    max_value: 4.969395637512207
    min_value: -5.176124095916748
    scale: 0.03978634998202324
    zero_point: 130
  '@Mul_layer17_mlp_rms_scale_to_unit_359:out0':
    qtype: u8
    quantizer: asymmetric_affine
    rounding: rtne
    max_value: 29.530458450317383
    min_value: -12.600793838500977
    scale: 0.16522060334682465
    zero_point: 76
  '@Initializer_layer17_mlp_gamma_360:out0':
    qtype: u8
    quantizer: asymmetric_affine
    rounding: rtne
    max_value: 4.375
    min_value: 0.0
    scale: 0.01715686358511448
    zero_point: 0
  '@Add_layer18_causal_mask_361:out0':
    qtype: u8
    quantizer: asymmetric_affine
    rounding: rtne
    max_value: 9.080710411071777
    min_value: -10013.775390625
    scale: 39.305320739746094
    zero_point: 255
  '@Reshape_layer18_v_reshape_362:out0':
    qtype: u8
    quantizer: asymmetric_affine
    rounding: rtne
    max_value: 5.11484956741333
    min_value: -5.0640645027160645
    scale: 0.03991730883717537
    zero_point: 127
  '@Sqrt_layer18_mlp_rms_sqrt_363:out0':
    qtype: u8
    quantizer: asymmetric_affine
    rounding: rtne
    max_value: 47.3779296875
    min_value: 0.0
    scale: 0.18579579889774323
    zero_point: 0
  '@Add_layer19_q_rope_rope_add_364:out0':
    qtype: u8
    quantizer: asymmetric_affine
    rounding: rtne
    max_value: 19.643653869628906
    min_value: -21.05112648010254
    scale: 0.15958736836910248
    zero_point: 132
  '@Transpose_layer19_k_transpose_365:out0':
    qtype: u8
    quantizer: asymmetric_affine
    rounding: rtne
    max_value: 10.508818626403809
    min_value: -6.566960334777832
    scale: 0.06696383655071259
    zero_point: 98
  '@ReduceMean_layer19_mlp_rms_mean_368:out0':
    qtype: u8
    quantizer: asymmetric_affine
    rounding: rtne
    max_value: 2242.143798828125
    min_value: 0.0
    scale: 8.792720794677734
    zero_point: 0
  '@Mul_layer19_mlp_rms_square_369:out0':
    qtype: u8
    quantizer: asymmetric_affine
    rounding: rtne
    max_value: 1956336.0
    min_value: 0.0
    scale: 7671.90576171875
    zero_point: 0
  '@Transpose_layer20_q_heads_370:out0':
    qtype: u8
    quantizer: asymmetric_affine
    rounding: rtne
    max_value: 12.779775619506836
    min_value: -13.547904014587402
    scale: 0.1032458022236824
    zero_point: 131
  '@Reshape_layer20_q_reshape_371:out0':
    qtype: u8
    quantizer: asymmetric_affine
    rounding: rtne
    max_value: 12.779775619506836
    min_value: -13.547904014587402
    scale: 0.1032458022236824
    zero_point: 131
  '@Concat_layer20_q_rope_rotate_half_372:out0':
    qtype: u8
    quantizer: asymmetric_affine
    rounding: rtne
    max_value: 12.779775619506836
    min_value: -13.547904014587402
    scale: 0.1032458022236824
    zero_point: 131
  '@Slice_layer20_q_rope_slice_first_373:out0':
    qtype: u8
    quantizer: asymmetric_affine
    rounding: rtne
    max_value: 12.779775619506836
    min_value: -13.547904014587402
    scale: 0.1032458022236824
    zero_point: 131
  '@Tile_layer20_k_repeat_tile_374:out0':
    qtype: u8
    quantizer: asymmetric_affine
    rounding: rtne
    max_value: 13.688793182373047
    min_value: -10.523642539978027
    scale: 0.09495073556900024
    zero_point: 111
  '@Reshape_layer20_k_repeat_expand_375:out0':
    qtype: u8
    quantizer: asymmetric_affine
    rounding: rtne
    max_value: 13.688793182373047
    min_value: -10.523642539978027
    scale: 0.09495073556900024
    zero_point: 111
  '@Reciprocal_layer20_attn_rms_reciprocal_376:out0':
    qtype: u8
    quantizer: asymmetric_affine
    rounding: rtne
    max_value: 1.0
    min_value: 0.0
    scale: 0.003921568859368563
    zero_point: 0
  '@Divide_377:out0':
    qtype: u8
    quantizer: asymmetric_affine
    rounding: rtne
    max_value: 0.8950579762458801
    min_value: 0.0
    scale: 0.003510031383484602
    zero_point: 0
  '@Mul_layer21_k_rope_mul_cos_381:out0':
    qtype: u8
    quantizer: asymmetric_affine
    rounding: rtne
    max_value: 9.908021926879883
    min_value: -8.304059028625488
    scale: 0.07141993194818497
    zero_point: 116
  '@Mul_layer21_k_rope_mul_sin_382:out0':
    qtype: u8
    quantizer: asymmetric_affine
    rounding: rtne
    max_value: 3.016383647918701
    min_value: -2.4392752647399902
    scale: 0.021394740790128708
    zero_point: 114
  '@Add_layer21_attn_rms_eps_383:out0':
    qtype: u8
    quantizer: asymmetric_affine
    rounding: rtne
    max_value: 2225.444091796875
    min_value: 0.0
    scale: 8.727231979370117
    zero_point: 0
  '@Transpose_layer22_k_heads_385:out0':
    qtype: u8
    quantizer: asymmetric_affine
    rounding: rtne
    max_value: 9.173081398010254
    min_value: -8.432701110839844
    scale: 0.06904228031635284
    zero_point: 122
  '@Reshape_layer22_k_reshape_386:out0':
    qtype: u8
    quantizer: asymmetric_affine
    rounding: rtne
    max_value: 9.173081398010254
    min_value: -8.432701110839844
    scale: 0.06904228031635284
    zero_point: 122
  '@Neg_layer22_k_rope_neg_second_387:out0':
    qtype: u8
    quantizer: asymmetric_affine
    rounding: rtne
    max_value: 7.7958173751831055
    min_value: -9.173094749450684
    scale: 0.06654475629329681
    zero_point: 138
  '@Slice_layer22_k_rope_slice_first_388:out0':
    qtype: u8
    quantizer: asymmetric_affine
    rounding: rtne
    max_value: 9.173081398010254
    min_value: -8.432701110839844
    scale: 0.06904228031635284
    zero_point: 122
  '@Add_layer14_mlp_residual_390:out0':
    qtype: u8
    quantizer: asymmetric_affine
    rounding: rtne
    max_value: 1396.75341796875
    min_value: -89.19425201416016
    scale: 5.827245712280273
    zero_point: 15
  '@Mul_layer15_swiglu_mul_392:out0':
    qtype: u8
    quantizer: asymmetric_affine
    rounding: rtne
    max_value: 5.2730255126953125
    min_value: -5.2730255126953125
    scale: 0.04135706275701523
    zero_point: 128
  '@Transpose_layer16_ctx_transpose_394:out0':
    qtype: u8
    quantizer: asymmetric_affine
    rounding: rtne
    max_value: 1.901589274406433
    min_value: -1.901589274406433
    scale: 0.014914426021277905
    zero_point: 128
  '@Mul_layer16_mlp_rms_gamma_397:out0':
    qtype: u8
    quantizer: asymmetric_affine
    rounding: rtne
    max_value: 25.25777816772461
    min_value: -26.97381019592285
    scale: 0.20482976734638214
    zero_point: 132
  '@Softmax_layer17_softmax_399:out0':
    qtype: u8
    quantizer: asymmetric_affine
    rounding: rtne
    max_value: 1.0
    min_value: 0.0
    scale: 0.003921568859368563
    zero_point: 0
  '@Reshape_layer17_v_repeat_expand_400:out0':
    qtype: u8
    quantizer: asymmetric_affine
    rounding: rtne
    max_value: 4.969395637512207
    min_value: -5.176124095916748
    scale: 0.03978634998202324
    zero_point: 130
  '@Transpose_layer17_v_heads_401:out0':
    qtype: u8
    quantizer: asymmetric_affine
    rounding: rtne
    max_value: 4.969395637512207
    min_value: -5.176124095916748
    scale: 0.03978634998202324
    zero_point: 130
  '@Reciprocal_layer17_mlp_rms_reciprocal_402:out0':
    qtype: u8
    quantizer: asymmetric_affine
    rounding: rtne
    max_value: 1.0
    min_value: 0.0
    scale: 0.003921568859368563
    zero_point: 0
  '@Divide_403:out0':
    qtype: u8
    quantizer: asymmetric_affine
    rounding: rtne
    max_value: 1.4438753128051758
    min_value: 0.0
    scale: 0.005662255920469761
    zero_point: 0
  '@Mul_layer18_attn_scale_404:out0':
    qtype: u8
    quantizer: asymmetric_affine
    rounding: rtne
    max_value: 9.062653541564941
    min_value: -11.995453834533691
    scale: 0.0825808122754097
    zero_point: 145
  '@MatMul_layer18_attn_scores_405:out0':
    qtype: u8
    quantizer: asymmetric_affine
    rounding: rtne
    max_value: 72.50122833251953
    min_value: -95.96363067626953
    scale: 0.6606464982032776
    zero_point: 145
  '@Add_layer18_mlp_rms_eps_407:out0':
    qtype: u8
    quantizer: asymmetric_affine
    rounding: rtne
    max_value: 2244.66796875
    min_value: 0.0
    scale: 8.802619934082031
    zero_point: 0
  '@Mul_layer19_q_rope_mul_cos_408:out0':
    qtype: u8
    quantizer: asymmetric_affine
    rounding: rtne
    max_value: 19.64393424987793
    min_value: -21.05155372619629
    scale: 0.15959015488624573
    zero_point: 132
  '@Mul_layer19_q_rope_mul_sin_409:out0':
    qtype: u8
    quantizer: asymmetric_affine
    rounding: rtne
    max_value: 7.998260021209717
    min_value: -8.650097846984863
    scale: 0.06528767943382263
    zero_point: 132
  '@Reshape_layer19_k_repeat_merge_410:out0':
    qtype: u8
    quantizer: asymmetric_affine
    rounding: rtne
    max_value: 10.508818626403809
    min_value: -6.566960334777832
    scale: 0.06696383655071259
    zero_point: 98
  '@Mul_layer19_attn_rms_gamma_411:out0':
    qtype: u8
    quantizer: asymmetric_affine
    rounding: rtne
    max_value: 31.382457733154297
    min_value: -27.081636428833008
    scale: 0.22927096486091614
    zero_point: 118
  '@Initializer_layer19_attn_gamma_413:out0':
    qtype: u8
    quantizer: asymmetric_affine
    rounding: rtne
    max_value: 4.15625
    min_value: -0.06591796875
    scale: 0.016557522118091583
    zero_point: 4
  '@Mul_layer19_attn_rms_scale_to_unit_414:out0':
    qtype: u8
    quantizer: asymmetric_affine
    rounding: rtne
    max_value: 29.53643035888672
    min_value: -10.53726863861084
    scale: 0.15715175867080688
    zero_point: 67
  '@Neg_layer20_q_rope_neg_second_416:out0':
    qtype: u8
    quantizer: asymmetric_affine
    rounding: rtne
    max_value: 12.779775619506836
    min_value: -13.547904014587402
    scale: 0.1032458022236824
    zero_point: 131
  '@Slice_layer20_q_rope_slice_second_417:out0':
    qtype: u8
    quantizer: asymmetric_affine
    rounding: rtne
    max_value: 12.779775619506836
    min_value: -13.547904014587402
    scale: 0.1032458022236824
    zero_point: 131
  '@Add_layer20_k_rope_rope_add_418:out0':
    qtype: u8
    quantizer: asymmetric_affine
    rounding: rtne
    max_value: 13.688793182373047
    min_value: -10.523642539978027
    scale: 0.09495073556900024
    zero_point: 111
  '@Sqrt_layer20_attn_rms_sqrt_419:out0':
    qtype: u8
    quantizer: asymmetric_affine
    rounding: rtne
    max_value: 47.31288146972656
    min_value: 0.0
    scale: 0.18554070591926575
    zero_point: 0
  '@Add_layer20_attn_rms_eps_420:out0':
    qtype: u8
    quantizer: asymmetric_affine
    rounding: rtne
    max_value: 2238.508544921875
    min_value: 0.0
    scale: 8.778465270996094
    zero_point: 0
  '@Transpose_layer21_k_heads_421:out0':
    qtype: u8
    quantizer: asymmetric_affine
    rounding: rtne
    max_value: 9.908021926879883
    min_value: -8.304059028625488
    scale: 0.07141993194818497
    zero_point: 116
  '@Reshape_layer21_k_reshape_422:out0':
    qtype: u8
    quantizer: asymmetric_affine
    rounding: rtne
    max_value: 9.908021926879883
    min_value: -8.304059028625488
    scale: 0.07141993194818497
    zero_point: 116
  '@Concat_layer21_k_rope_rotate_half_423:out0':
    qtype: u8
    quantizer: asymmetric_affine
    rounding: rtne
    max_value: 8.30408763885498
    min_value: -9.907953262329102
    scale: 0.07141976803541183
    zero_point: 139
  '@Slice_layer21_k_rope_slice_first_424:out0':
    qtype: u8
    quantizer: asymmetric_affine
    rounding: rtne
    max_value: 9.908021926879883
    min_value: -8.304059028625488
    scale: 0.07141993194818497
    zero_point: 116
  '@ReduceMean_layer21_attn_rms_mean_425:out0':
    qtype: u8
    quantizer: asymmetric_affine
    rounding: rtne
    max_value: 2225.444091796875
    min_value: 0.0
    scale: 8.727231979370117
    zero_point: 0
  '@Mul_layer21_attn_rms_square_426:out0':
    qtype: u8
    quantizer: asymmetric_affine
    rounding: rtne
    max_value: 1942363.875
    min_value: 0.0
    scale: 7617.11328125
    zero_point: 0
  '@Neg_layer21_k_rope_neg_second_427:out0':
    qtype: u8
    quantizer: asymmetric_affine
    rounding: rtne
    max_value: 8.30408763885498
    min_value: -9.907953262329102
    scale: 0.07141976803541183
    zero_point: 139
  '@Slice_layer22_k_rope_slice_second_430:out0':
    qtype: u8
    quantizer: asymmetric_affine
    rounding: rtne
    max_value: 9.173081398010254
    min_value: -8.432701110839844
    scale: 0.06904228031635284
    zero_point: 122
  '@Add_layer14_attn_residual_434:out0':
    qtype: u8
    quantizer: asymmetric_affine
    rounding: rtne
    max_value: 1395.5924072265625
    min_value: -89.26104736328125
    scale: 5.822955131530762
    zero_point: 15
  '@Reshape_layer15_ctx_merge_heads_436:out0':
    qtype: u8
    quantizer: asymmetric_affine
    rounding: rtne
    max_value: 2.6806702613830566
    min_value: -2.090672731399536
    scale: 0.0187111496925354
    zero_point: 112
  '@MatMul_layer16_attn_context_440:out0':
    qtype: u8
    quantizer: asymmetric_affine
    rounding: rtne
    max_value: 1.901589274406433
    min_value: -1.901589274406433
    scale: 0.014914426021277905
    zero_point: 128
  '@Reshape_layer16_v_repeat_merge_441:out0':
    qtype: u8
    quantizer: asymmetric_affine
    rounding: rtne
    max_value: 4.772092819213867
    min_value: -4.171941757202148
    scale: 0.03507464379072189
    zero_point: 119
  '@Tile_layer16_v_repeat_tile_443:out0':
    qtype: u8
    quantizer: asymmetric_affine
    rounding: rtne
    max_value: 4.772092819213867
    min_value: -4.171941757202148
    scale: 0.03507464379072189
    zero_point: 119
  '@Mul_layer16_mlp_rms_scale_to_unit_444:out0':
    qtype: u8
    quantizer: asymmetric_affine
    rounding: rtne
    max_value: 29.525074005126953
    min_value: -14.337389945983887
    scale: 0.1720096617937088
    zero_point: 83
  '@Initializer_layer16_mlp_gamma_445:out0':
    qtype: u8
    quantizer: asymmetric_affine
    rounding: rtne
    max_value: 3.3125
    min_value: 0.0
    scale: 0.012990196235477924
    zero_point: 0
  '@Add_layer17_causal_mask_446:out0':
    qtype: u8
    quantizer: asymmetric_affine
    rounding: rtne
    max_value: 10.769619941711426
    min_value: -10012.1396484375
    scale: 39.30552673339844
    zero_point: 255
  '@Reshape_layer17_v_reshape_447:out0':
    qtype: u8
    quantizer: asymmetric_affine
    rounding: rtne
    max_value: 4.969395637512207
    min_value: -5.176124095916748
    scale: 0.03978634998202324
    zero_point: 130
  '@Sqrt_layer17_mlp_rms_sqrt_448:out0':
    qtype: u8
    quantizer: asymmetric_affine
    rounding: rtne
    max_value: 47.4006462097168
    min_value: 0.0
    scale: 0.18588489294052124
    zero_point: 0
  '@Add_layer18_q_rope_rope_add_449:out0':
    qtype: u8
    quantizer: asymmetric_affine
    rounding: rtne
    max_value: 16.620615005493164
    min_value: -23.550216674804688
    scale: 0.15753266215324402
    zero_point: 149
  '@Transpose_layer18_k_transpose_450:out0':
    qtype: u8
    quantizer: asymmetric_affine
    rounding: rtne
    max_value: 7.305563449859619
    min_value: -9.760414123535156
    scale: 0.06692539900541306
    zero_point: 146
  '@ReduceMean_layer18_mlp_rms_mean_453:out0':
    qtype: u8
    quantizer: asymmetric_affine
    rounding: rtne
    max_value: 2244.66796875
    min_value: 0.0
    scale: 8.802619934082031
    zero_point: 0
  '@Mul_layer18_mlp_rms_square_454:out0':
    qtype: u8
    quantizer: asymmetric_affine
    rounding: rtne
    max_value: 1957855.125
    min_value: 0.0
    scale: 7677.86328125
    zero_point: 0
  '@Transpose_layer19_q_heads_455:out0':
    qtype: u8
    quantizer: asymmetric_affine
    rounding: rtne
    max_value: 19.643938064575195
    min_value: -21.051555633544922
    scale: 0.15959018468856812
    zero_point: 132
  '@Reshape_layer19_q_reshape_456:out0':
    qtype: u8
    quantizer: asymmetric_affine
    rounding: rtne
    max_value: 19.643938064575195
    min_value: -21.051555633544922
    scale: 0.15959018468856812
    zero_point: 132
  '@Concat_layer19_q_rope_rotate_half_457:out0':
    qtype: u8
    quantizer: asymmetric_affine
    rounding: rtne
    max_value: 8.056130409240723
    min_value: -21.051536560058594
    scale: 0.11414770781993866
    zero_point: 184
  '@Slice_layer19_q_rope_slice_first_458:out0':
    qtype: u8
    quantizer: asymmetric_affine
    rounding: rtne
    max_value: 19.643938064575195
    min_value: -21.051555633544922
    scale: 0.15959018468856812
    zero_point: 132
  '@Tile_layer19_k_repeat_tile_459:out0':
    qtype: u8
    quantizer: asymmetric_affine
    rounding: rtne
    max_value: 10.508818626403809
    min_value: -6.566960334777832
    scale: 0.06696383655071259
    zero_point: 98
  '@Reshape_layer19_k_repeat_expand_460:out0':
    qtype: u8
    quantizer: asymmetric_affine
    rounding: rtne
    max_value: 10.508818626403809
    min_value: -6.566960334777832
    scale: 0.06696383655071259
    zero_point: 98
  '@Reciprocal_layer19_attn_rms_reciprocal_461:out0':
    qtype: u8
    quantizer: asymmetric_affine
    rounding: rtne
    max_value: 1.0
    min_value: 0.0
    scale: 0.003921568859368563
    zero_point: 0
  '@Divide_462:out0':
    qtype: u8
    quantizer: asymmetric_affine
    rounding: rtne
    max_value: 1.0333163738250732
    min_value: 0.0
    scale: 0.004052220843732357
    zero_point: 0
  '@Mul_layer20_k_rope_mul_cos_466:out0':
    qtype: u8
    quantizer: asymmetric_affine
    rounding: rtne
    max_value: 13.688028335571289
    min_value: -10.5234956741333
    scale: 0.09494715929031372
    zero_point: 111
  '@Mul_layer20_k_rope_mul_sin_467:out0':
    qtype: u8
    quantizer: asymmetric_affine
    rounding: rtne
    max_value: 2.3719794750213623
    min_value: -3.3420088291168213
    scale: 0.02240779809653759
    zero_point: 149
  '@ReduceMean_layer20_attn_rms_mean_468:out0':
    qtype: u8
    quantizer: asymmetric_affine
    rounding: rtne
    max_value: 2238.508544921875
    min_value: 0.0
    scale: 8.778465270996094
    zero_point: 0
  '@Mul_layer20_attn_rms_square_469:out0':
    qtype: u8
    quantizer: asymmetric_affine
    rounding: rtne
    max_value: 1953138.0
    min_value: 0.0
    scale: 7659.36474609375
    zero_point: 0
  '@Slice_layer21_k_rope_slice_second_471:out0':
    qtype: u8
    quantizer: asymmetric_affine
    rounding: rtne
    max_value: 9.907953262329102
    min_value: -8.30408763885498
    scale: 0.07141976803541183
    zero_point: 116
  '@Add_layer13_mlp_residual_474:out0':
    qtype: u8
    quantizer: asymmetric_affine
    rounding: rtne
    max_value: 1395.5762939453125
    min_value: -89.07221984863281
    scale: 5.822151184082031
    zero_point: 15
  '@Mul_layer14_swiglu_mul_476:out0':
    qtype: u8
    quantizer: asymmetric_affine
    rounding: rtne
    max_value: 5.741140365600586
    min_value: -5.741140365600586
    scale: 0.045028552412986755
    zero_point: 128
  '@Transpose_layer15_ctx_transpose_478:out0':
    qtype: u8
    quantizer: asymmetric_affine
    rounding: rtne
    max_value: 2.6806702613830566
    min_value: -2.090672731399536
    scale: 0.0187111496925354
    zero_point: 112
  '@Mul_layer15_mlp_rms_gamma_481:out0':
    qtype: u8
    quantizer: asymmetric_affine
    rounding: rtne
    max_value: 25.94724464416504
    min_value: -21.700471878051758
    scale: 0.1868537962436676
    zero_point: 116
  '@Softmax_layer16_softmax_483:out0':
    qtype: u8
    quantizer: asymmetric_affine
    rounding: rtne
    max_value: 1.0
    min_value: 0.0
    scale: 0.003921568859368563
    zero_point: 0
  '@Reshape_layer16_v_repeat_expand_484:out0':
    qtype: u8
    quantizer: asymmetric_affine
    rounding: rtne
    max_value: 4.772092819213867
    min_value: -4.171941757202148
    scale: 0.03507464379072189
    zero_point: 119
  '@Transpose_layer16_v_heads_485:out0':
    qtype: u8
    quantizer: asymmetric_affine
    rounding: rtne
    max_value: 4.772092819213867
    min_value: -4.171941757202148
    scale: 0.03507464379072189
    zero_point: 119
  '@Reciprocal_layer16_mlp_rms_reciprocal_486:out0':
    qtype: u8
    quantizer: asymmetric_affine
    rounding: rtne
    max_value: 1.0
    min_value: 0.0
    scale: 0.003921568859368563
    zero_point: 0
  '@Divide_487:out0':
    qtype: u8
    quantizer: asymmetric_affine
    rounding: rtne
    max_value: 1.6729319095611572
    min_value: 0.0
    scale: 0.0065605174750089645
    zero_point: 0
  '@Mul_layer17_attn_scale_488:out0':
    qtype: u8
    quantizer: asymmetric_affine
    rounding: rtne
    max_value: 10.725189208984375
    min_value: -12.136330604553223
    scale: 0.08965301513671875
    zero_point: 135
  '@MatMul_layer17_attn_scores_489:out0':
    qtype: u8
    quantizer: asymmetric_affine
    rounding: rtne
    max_value: 85.801513671875
    min_value: -97.09064483642578
    scale: 0.71722412109375
    zero_point: 135
  '@Add_layer17_mlp_rms_eps_491:out0':
    qtype: u8
    quantizer: asymmetric_affine
    rounding: rtne
    max_value: 2246.821044921875
    min_value: 0.0
    scale: 8.811062812805176
    zero_point: 0
  '@Mul_layer18_q_rope_mul_cos_492:out0':
    qtype: u8
    quantizer: asymmetric_affine
    rounding: rtne
    max_value: 16.620357513427734
    min_value: -23.550888061523438
    scale: 0.15753430128097534
    zero_point: 149
  '@Mul_layer18_q_rope_mul_sin_493:out0':
    qtype: u8
    quantizer: asymmetric_affine
    rounding: rtne
    max_value: 6.797140121459961
    min_value: -7.1898322105407715
    scale: 0.05485087260603905
    zero_point: 131
  '@Reshape_layer18_k_repeat_merge_494:out0':
    qtype: u8
    quantizer: asymmetric_affine
    rounding: rtne
    max_value: 7.305563449859619
    min_value: -9.760414123535156
    scale: 0.06692539900541306
    zero_point: 146
  '@Mul_layer18_attn_rms_gamma_495:out0':
    qtype: u8
    quantizer: asymmetric_affine
    rounding: rtne
    max_value: 31.60807991027832
    min_value: -28.97943687438965
    scale: 0.23759810626506805
    zero_point: 122
  '@Initializer_layer18_attn_gamma_497:out0':
    qtype: u8
    quantizer: asymmetric_affine
    rounding: rtne
    max_value: 3.65625
    min_value: -0.047607421875
    scale: 0.014524931088089943
    zero_point: 3
  '@Mul_layer18_attn_rms_scale_to_unit_498:out0':
    qtype: u8
    quantizer: asymmetric_affine
    rounding: rtne
    max_value: 29.53163719177246
    min_value: -11.73856258392334
    scale: 0.1618439108133316
    zero_point: 73
  '@Neg_layer19_q_rope_neg_second_500:out0':
    qtype: u8
    quantizer: asymmetric_affine
    rounding: rtne
    max_value: 8.056130409240723
    min_value: -21.051536560058594
    scale: 0.11414770781993866
    zero_point: 184
  '@Slice_layer19_q_rope_slice_second_501:out0':
    qtype: u8
    quantizer: asymmetric_affine
    rounding: rtne
    max_value: 19.643938064575195
    min_value: -21.051555633544922
    scale: 0.15959018468856812
    zero_point: 132
  '@Add_layer19_k_rope_rope_add_502:out0':
    qtype: u8
    quantizer: asymmetric_affine
    rounding: rtne
    max_value: 10.508818626403809
    min_value: -6.566960334777832
    scale: 0.06696383655071259
    zero_point: 98
  '@Sqrt_layer19_attn_rms_sqrt_503:out0':
    qtype: u8
    quantizer: asymmetric_affine
    rounding: rtne
    max_value: 47.35274887084961
    min_value: 0.0
    scale: 0.1856970489025116
    zero_point: 0
  '@Add_layer19_attn_rms_eps_504:out0':
    qtype: u8
    quantizer: asymmetric_affine
    rounding: rtne
    max_value: 2242.283203125
    min_value: 0.0
    scale: 8.793267250061035
    zero_point: 0
  '@Transpose_layer20_k_heads_505:out0':
    qtype: u8
    quantizer: asymmetric_affine
    rounding: rtne
    max_value: 13.688029289245605
    min_value: -10.5234956741333
    scale: 0.09494715929031372
    zero_point: 111
  '@Reshape_layer20_k_reshape_506:out0':
    qtype: u8
    quantizer: asymmetric_affine
    rounding: rtne
    max_value: 13.688029289245605
    min_value: -10.5234956741333
    scale: 0.09494715929031372
    zero_point: 111
  '@Concat_layer20_k_rope_rotate_half_507:out0':
    qtype: u8
    quantizer: asymmetric_affine
    rounding: rtne
    max_value: 10.5234956741333
    min_value: -13.688029289245605
    scale: 0.09494715929031372
    zero_point: 144
  '@Slice_layer20_k_rope_slice_first_508:out0':
    qtype: u8
    quantizer: asymmetric_affine
    rounding: rtne
    max_value: 13.688029289245605
    min_value: -10.5234956741333
    scale: 0.09494715929031372
    zero_point: 111
  '@Neg_layer20_k_rope_neg_second_509:out0':
    qtype: u8
    quantizer: asymmetric_affine
    rounding: rtne
    max_value: 10.5234956741333
    min_value: -13.688029289245605
    scale: 0.09494715929031372
    zero_point: 144
  '@Slice_layer20_k_rope_slice_second_510:out0':
    qtype: u8
    quantizer: asymmetric_affine
    rounding: rtne
    max_value: 13.688029289245605
    min_value: -10.5234956741333
    scale: 0.09494715929031372
    zero_point: 111
  '@Add_layer13_attn_residual_512:out0':
    qtype: u8
    quantizer: asymmetric_affine
    rounding: rtne
    max_value: 1394.952392578125
    min_value: -89.06800842285156
    scale: 5.819687843322754
    zero_point: 15
  '@Reshape_layer14_ctx_merge_heads_514:out0':
    qtype: u8
    quantizer: asymmetric_affine
    rounding: rtne
    max_value: 2.2723822593688965
    min_value: -2.2723822593688965
    scale: 0.01782260648906231
    zero_point: 128
  '@MatMul_layer15_attn_context_518:out0':
    qtype: u8
    quantizer: asymmetric_affine
    rounding: rtne
    max_value: 2.6806702613830566
    min_value: -2.090672731399536
    scale: 0.0187111496925354
    zero_point: 112
  '@Reshape_layer15_v_repeat_merge_519:out0':
    qtype: u8
    quantizer: asymmetric_affine
    rounding: rtne
    max_value: 4.719991683959961
    min_value: -3.3811228275299072
    scale: 0.031769074499607086
    zero_point: 106
  '@Tile_layer15_v_repeat_tile_521:out0':
    qtype: u8
    quantizer: asymmetric_affine
    rounding: rtne
    max_value: 4.719991683959961
    min_value: -3.3811228275299072
    scale: 0.031769074499607086
    zero_point: 106
  '@Mul_layer15_mlp_rms_scale_to_unit_522:out0':
    qtype: u8
    quantizer: asymmetric_affine
    rounding: rtne
    max_value: 29.522197723388672
    min_value: -15.611316680908203
    scale: 0.1769941747188568
    zero_point: 88
  '@Initializer_layer15_mlp_gamma_523:out0':
    qtype: u8
    quantizer: asymmetric_affine
    rounding: rtne
    max_value: 3.09375
    min_value: 0.0
    scale: 0.012132353149354458
    zero_point: 0
  '@Add_layer16_causal_mask_524:out0':
    qtype: u8
    quantizer: asymmetric_affine
    rounding: rtne
    max_value: 14.567076683044434
    min_value: -10018.4541015625
    scale: 39.34518051147461
    zero_point: 255
  '@Reshape_layer16_v_reshape_525:out0':
    qtype: u8
    quantizer: asymmetric_affine
    rounding: rtne
    max_value: 4.772092819213867
    min_value: -4.171941757202148
    scale: 0.03507464379072189
    zero_point: 119
  '@Sqrt_layer16_mlp_rms_sqrt_526:out0':
    qtype: u8
    quantizer: asymmetric_affine
    rounding: rtne
    max_value: 47.375030517578125
    min_value: 0.0
    scale: 0.18578442931175232
    zero_point: 0
  '@Add_layer17_q_rope_rope_add_527:out0':
    qtype: u8
    quantizer: asymmetric_affine
    rounding: rtne
    max_value: 16.21304702758789
    min_value: -19.495330810546875
    scale: 0.14003285765647888
    zero_point: 139
  '@Transpose_layer17_k_transpose_528:out0':
    qtype: u8
    quantizer: asymmetric_affine
    rounding: rtne
    max_value: 6.560644149780273
    min_value: -10.552453994750977
    scale: 0.06711018830537796
    zero_point: 157
  '@ReduceMean_layer17_mlp_rms_mean_531:out0':
    qtype: u8
    quantizer: asymmetric_affine
    rounding: rtne
    max_value: 2246.821044921875
    min_value: 0.0
    scale: 8.811062812805176
    zero_point: 0
  '@Mul_layer17_mlp_rms_square_532:out0':
    qtype: u8
    quantizer: asymmetric_affine
    rounding: rtne
    max_value: 1959335.625
    min_value: 0.0
    scale: 7683.6689453125
    zero_point: 0
  '@Transpose_layer18_q_heads_533:out0':
    qtype: u8
    quantizer: asymmetric_affine
    rounding: rtne
    max_value: 16.620357513427734
    min_value: -23.550888061523438
    scale: 0.15753430128097534
    zero_point: 149
  '@Reshape_layer18_q_reshape_534:out0':
    qtype: u8
    quantizer: asymmetric_affine
    rounding: rtne
    max_value: 16.620357513427734
    min_value: -23.550888061523438
    scale: 0.15753430128097534
    zero_point: 149
  '@Concat_layer18_q_rope_rotate_half_535:out0':
    qtype: u8
    quantizer: asymmetric_affine
    rounding: rtne
    max_value: 23.550888061523438
    min_value: -16.620357513427734
    scale: 0.15753430128097534
    zero_point: 106
  '@Slice_layer18_q_rope_slice_first_536:out0':
    qtype: u8
    quantizer: asymmetric_affine
    rounding: rtne
    max_value: 16.620357513427734
    min_value: -23.550888061523438
    scale: 0.15753430128097534
    zero_point: 149
  '@Tile_layer18_k_repeat_tile_537:out0':
    qtype: u8
    quantizer: asymmetric_affine
    rounding: rtne
    max_value: 7.305563449859619
    min_value: -9.760414123535156
    scale: 0.06692539900541306
    zero_point: 146
  '@Reshape_layer18_k_repeat_expand_538:out0':
    qtype: u8
    quantizer: asymmetric_affine
    rounding: rtne
    max_value: 7.305563449859619
    min_value: -9.760414123535156
    scale: 0.06692539900541306
    zero_point: 146
  '@Reciprocal_layer18_attn_rms_reciprocal_539:out0':
    qtype: u8
    quantizer: asymmetric_affine
    rounding: rtne
    max_value: 1.0
    min_value: 0.0
    scale: 0.003921568859368563
    zero_point: 0
  '@Divide_540:out0':
    qtype: u8
    quantizer: asymmetric_affine
    rounding: rtne
    max_value: 1.2672606706619263
    min_value: 0.0
    scale: 0.0049696494825184345
    zero_point: 0
  '@Mul_layer19_k_rope_mul_cos_544:out0':
    qtype: u8
    quantizer: asymmetric_affine
    rounding: rtne
    max_value: 10.508238792419434
    min_value: -6.568246364593506
    scale: 0.06696660816669464
    zero_point: 98
  '@Mul_layer19_k_rope_mul_sin_545:out0':
    qtype: u8
    quantizer: asymmetric_affine
    rounding: rtne
    max_value: 3.6908440589904785
    min_value: -4.549851417541504
    scale: 0.032316453754901886
    zero_point: 141
  '@ReduceMean_layer19_attn_rms_mean_546:out0':
    qtype: u8
    quantizer: asymmetric_affine
    rounding: rtne
    max_value: 2242.283203125
    min_value: 0.0
    scale: 8.793267250061035
    zero_point: 0
  '@Mul_layer19_attn_rms_square_547:out0':
    qtype: u8
    quantizer: asymmetric_affine
    rounding: rtne
    max_value: 1956169.0
    min_value: 0.0
    scale: 7671.2509765625
    zero_point: 0
  '@Add_layer12_mlp_residual_552:out0':
    qtype: u8
    quantizer: asymmetric_affine
    rounding: rtne
    max_value: 1395.0296630859375
    min_value: -88.85022735595703
    scale: 5.819136619567871
    zero_point: 15
  '@Mul_layer13_swiglu_mul_554:out0':
    qtype: u8
    quantizer: asymmetric_affine
    rounding: rtne
    max_value: 3.5816473960876465
    min_value: -3.5816473960876465
    scale: 0.028091352432966232
    zero_point: 128
  '@Transpose_layer14_ctx_transpose_556:out0':
    qtype: u8
    quantizer: asymmetric_affine
    rounding: rtne
    max_value: 2.2723822593688965
    min_value: -2.2723822593688965
    scale: 0.01782260648906231
    zero_point: 128
  '@Mul_layer14_mlp_rms_gamma_559:out0':
    qtype: u8
    quantizer: asymmetric_affine
    rounding: rtne
    max_value: 21.67787742614746
    min_value: -20.09579849243164
    scale: 0.1638183295726776
    zero_point: 123
  '@Softmax_layer15_softmax_561:out0':
    qtype: u8
    quantizer: asymmetric_affine
    rounding: rtne
    max_value: 1.0
    min_value: 0.0
    scale: 0.003921568859368563
    zero_point: 0
  '@Reshape_layer15_v_repeat_expand_562:out0':
    qtype: u8
    quantizer: asymmetric_affine
    rounding: rtne
    max_value: 4.719991683959961
    min_value: -3.3811228275299072
    scale: 0.031769074499607086
    zero_point: 106
  '@Transpose_layer15_v_heads_563:out0':
    qtype: u8
    quantizer: asymmetric_affine
    rounding: rtne
    max_value: 4.719991683959961
    min_value: -3.3811228275299072
    scale: 0.031769074499607086
    zero_point: 106
  '@Reciprocal_layer15_mlp_rms_reciprocal_564:out0':
    qtype: u8
    quantizer: asymmetric_affine
    rounding: rtne
    max_value: 1.0
    min_value: 0.0
    scale: 0.003921568859368563
    zero_point: 0
  '@Divide_565:out0':
    qtype: u8
    quantizer: asymmetric_affine
    rounding: rtne
    max_value: 1.8203729391098022
    min_value: 0.0
    scale: 0.007138717453926802
    zero_point: 0
  '@Mul_layer16_attn_scale_566:out0':
    qtype: u8
    quantizer: asymmetric_affine
    rounding: rtne
    max_value: 14.503496170043945
    min_value: -14.952371597290039
    scale: 0.11551320552825928
    zero_point: 129
  '@MatMul_layer16_attn_scores_567:out0':
    qtype: u8
    quantizer: asymmetric_affine
    rounding: rtne
    max_value: 116.02796936035156
    min_value: -119.61897277832031
    scale: 0.9241056442260742
    zero_point: 129
  '@Add_layer16_mlp_rms_eps_569:out0':
    qtype: u8
    quantizer: asymmetric_affine
    rounding: rtne
    max_value: 2244.393798828125
    min_value: 0.0
    scale: 8.801544189453125
    zero_point: 0
  '@Mul_layer17_q_rope_mul_cos_570:out0':
    qtype: u8
    quantizer: asymmetric_affine
    rounding: rtne
    max_value: 16.213199615478516
    min_value: -19.495094299316406
    scale: 0.14003252983093262
    zero_point: 139
  '@Mul_layer17_q_rope_mul_sin_571:out0':
    qtype: u8
    quantizer: asymmetric_affine
    rounding: rtne
    max_value: 5.286401271820068
    min_value: -6.4599528312683105
    scale: 0.04606413468718529
    zero_point: 140
  '@Reshape_layer17_k_repeat_merge_572:out0':
    qtype: u8
    quantizer: asymmetric_affine
    rounding: rtne
    max_value: 6.560644149780273
    min_value: -10.552453994750977
    scale: 0.06711018830537796
    zero_point: 157
  '@Mul_layer17_attn_rms_gamma_573:out0':
    qtype: u8
    quantizer: asymmetric_affine
    rounding: rtne
    max_value: 26.75847625732422
    min_value: -29.147235870361328
    scale: 0.21923808753490448
    zero_point: 133
  '@Initializer_layer17_attn_gamma_575:out0':
    qtype: u8
    quantizer: asymmetric_affine
    rounding: rtne
    max_value: 3.171875
    min_value: 0.0
    scale: 0.012438725680112839
    zero_point: 0
  '@Mul_layer17_attn_rms_scale_to_unit_576:out0':
    qtype: u8
    quantizer: asymmetric_affine
    rounding: rtne
    max_value: 29.526594161987305
    min_value: -12.777022361755371
    scale: 0.16589653491973877
    zero_point: 77
  '@Neg_layer18_q_rope_neg_second_578:out0':
    qtype: u8
    quantizer: asymmetric_affine
    rounding: rtne
    max_value: 23.550888061523438
    min_value: -16.620357513427734
    scale: 0.15753430128097534
    zero_point: 106
  '@Slice_layer18_q_rope_slice_second_579:out0':
    qtype: u8
    quantizer: asymmetric_affine
    rounding: rtne
    max_value: 16.620357513427734
    min_value: -23.550888061523438
    scale: 0.15753430128097534
    zero_point: 149
  '@Add_layer18_k_rope_rope_add_580:out0':
    qtype: u8
    quantizer: asymmetric_affine
    rounding: rtne
    max_value: 7.305563449859619
    min_value: -9.760414123535156
    scale: 0.06692539900541306
    zero_point: 146
  '@Sqrt_layer18_attn_rms_sqrt_581:out0':
    qtype: u8
    quantizer: asymmetric_affine
    rounding: rtne
    max_value: 47.380577087402344
    min_value: 0.0
    scale: 0.18580618500709534
    zero_point: 0
  '@Add_layer18_attn_rms_eps_582:out0':
    qtype: u8
    quantizer: asymmetric_affine
    rounding: rtne
    max_value: 2244.9189453125
    min_value: 0.0
    scale: 8.803604125976562
    zero_point: 0
  '@Transpose_layer19_k_heads_583:out0':
    qtype: u8
    quantizer: asymmetric_affine
    rounding: rtne
    max_value: 10.508267402648926
    min_value: -6.568256855010986
    scale: 0.06696676462888718
    zero_point: 98
  '@Reshape_layer19_k_reshape_584:out0':
    qtype: u8
    quantizer: asymmetric_affine
    rounding: rtne
    max_value: 10.508267402648926
    min_value: -6.568256855010986
    scale: 0.06696676462888718
    zero_point: 98
  '@Concat_layer19_k_rope_rotate_half_585:out0':
    qtype: u8
    quantizer: asymmetric_affine
    rounding: rtne
    max_value: 10.508270263671875
    min_value: -10.16195297241211
    scale: 0.08105970174074173
    zero_point: 125
  '@Slice_layer19_k_rope_slice_first_586:out0':
    qtype: u8
    quantizer: asymmetric_affine
    rounding: rtne
    max_value: 10.508267402648926
    min_value: -6.568256855010986
    scale: 0.06696676462888718
    zero_point: 98
  '@Neg_layer19_k_rope_neg_second_587:out0':
    qtype: u8
    quantizer: asymmetric_affine
    rounding: rtne
    max_value: 10.508270263671875
    min_value: -10.16195297241211
    scale: 0.08105970174074173
    zero_point: 125
  '@Slice_layer19_k_rope_slice_second_588:out0':
    qtype: u8
    quantizer: asymmetric_affine
    rounding: rtne
    max_value: 10.508267402648926
    min_value: -6.568256855010986
    scale: 0.06696676462888718
    zero_point: 98
  '@Add_layer12_attn_residual_591:out0':
    qtype: u8
    quantizer: asymmetric_affine
    rounding: rtne
    max_value: 1394.0882568359375
    min_value: -89.09613037109375
    scale: 5.816409111022949
    zero_point: 15
  '@Reshape_layer13_ctx_merge_heads_593:out0':
    qtype: u8
    quantizer: asymmetric_affine
    rounding: rtne
    max_value: 1.8701865673065186
    min_value: -1.7682372331619263
    scale: 0.014268329367041588
    zero_point: 124
  '@MatMul_layer14_attn_context_597:out0':
    qtype: u8
    quantizer: asymmetric_affine
    rounding: rtne
    max_value: 2.2723822593688965
    min_value: -2.2723822593688965
    scale: 0.01782260648906231
    zero_point: 128
  '@Reshape_layer14_v_repeat_merge_598:out0':
    qtype: u8
    quantizer: asymmetric_affine
    rounding: rtne
    max_value: 3.5382206439971924
    min_value: -3.6642775535583496
    scale: 0.028245091438293457
    zero_point: 130
  '@Tile_layer14_v_repeat_tile_600:out0':
    qtype: u8
    quantizer: asymmetric_affine
    rounding: rtne
    max_value: 3.5382206439971924
    min_value: -3.6642775535583496
    scale: 0.028245091438293457
    zero_point: 130
  '@Mul_layer14_mlp_rms_scale_to_unit_601:out0':
    qtype: u8
    quantizer: asymmetric_affine
    rounding: rtne
    max_value: 29.51881217956543
    min_value: -15.725764274597168
    scale: 0.1774297058582306
    zero_point: 89
  '@Initializer_layer14_mlp_gamma_602:out0':
    qtype: u8
    quantizer: asymmetric_affine
    rounding: rtne
    max_value: 2.546875
    min_value: 0.0
    scale: 0.009987745434045792
    zero_point: 0
  '@Add_layer15_causal_mask_603:out0':
    qtype: u8
    quantizer: asymmetric_affine
    rounding: rtne
    max_value: 8.7279634475708
    min_value: -10021.2861328125
    scale: 39.3333854675293
    zero_point: 255
  '@Reshape_layer15_v_reshape_604:out0':
    qtype: u8
    quantizer: asymmetric_affine
    rounding: rtne
    max_value: 4.719991683959961
    min_value: -3.3811228275299072
    scale: 0.031769074499607086
    zero_point: 106
  '@Sqrt_layer15_mlp_rms_sqrt_605:out0':
    qtype: u8
    quantizer: asymmetric_affine
    rounding: rtne
    max_value: 47.3208122253418
    min_value: 0.0
    scale: 0.1855718195438385
    zero_point: 0
  '@Add_layer16_q_rope_rope_add_606:out0':
    qtype: u8
    quantizer: asymmetric_affine
    rounding: rtne
    max_value: 9.104242324829102
    min_value: -21.6048641204834
    scale: 0.12042786926031113
    zero_point: 179
  '@Transpose_layer16_k_transpose_607:out0':
    qtype: u8
    quantizer: asymmetric_affine
    rounding: rtne
    max_value: 8.05909252166748
    min_value: -7.62391996383667
    scale: 0.06150200963020325
    zero_point: 124
  '@ReduceMean_layer16_mlp_rms_mean_610:out0':
    qtype: u8
    quantizer: asymmetric_affine
    rounding: rtne
    max_value: 2244.393798828125
    min_value: 0.0
    scale: 8.801544189453125
    zero_point: 0
  '@Mul_layer16_mlp_rms_square_611:out0':
    qtype: u8
    quantizer: asymmetric_affine
    rounding: rtne
    max_value: 1956505.375
    min_value: 0.0
    scale: 7672.5703125
    zero_point: 0
  '@Transpose_layer17_q_heads_612:out0':
    qtype: u8
    quantizer: asymmetric_affine
    rounding: rtne
    max_value: 16.213199615478516
    min_value: -19.495094299316406
    scale: 0.14003252983093262
    zero_point: 139
  '@Reshape_layer17_q_reshape_613:out0':
    qtype: u8
    quantizer: asymmetric_affine
    rounding: rtne
    max_value: 16.213199615478516
    min_value: -19.495094299316406
    scale: 0.14003252983093262
    zero_point: 139
  '@Concat_layer17_q_rope_rotate_half_614:out0':
    qtype: u8
    quantizer: asymmetric_affine
    rounding: rtne
    max_value: 19.495105743408203
    min_value: -8.634489059448242
    scale: 0.11031213402748108
    zero_point: 78
  '@Slice_layer17_q_rope_slice_first_615:out0':
    qtype: u8
    quantizer: asymmetric_affine
    rounding: rtne
    max_value: 16.213199615478516
    min_value: -19.495094299316406
    scale: 0.14003252983093262
    zero_point: 139
  '@Tile_layer17_k_repeat_tile_616:out0':
    qtype: u8
    quantizer: asymmetric_affine
    rounding: rtne
    max_value: 6.560644149780273
    min_value: -10.552453994750977
    scale: 0.06711018830537796
    zero_point: 157
  '@Reshape_layer17_k_repeat_expand_617:out0':
    qtype: u8
    quantizer: asymmetric_affine
    rounding: rtne
    max_value: 6.560644149780273
    min_value: -10.552453994750977
    scale: 0.06711018830537796
    zero_point: 157
  '@Reciprocal_layer17_attn_rms_reciprocal_618:out0':
    qtype: u8
    quantizer: asymmetric_affine
    rounding: rtne
    max_value: 1.0
    min_value: 0.0
    scale: 0.003921568859368563
    zero_point: 0
  '@Divide_619:out0':
    qtype: u8
    quantizer: asymmetric_affine
    rounding: rtne
    max_value: 1.4952476024627686
    min_value: 0.0
    scale: 0.005863715894520283
    zero_point: 0
  '@Mul_layer18_k_rope_mul_cos_623:out0':
    qtype: u8
    quantizer: asymmetric_affine
    rounding: rtne
    max_value: 7.305433750152588
    min_value: -9.759797096252441
    scale: 0.06692247837781906
    zero_point: 146
  '@Mul_layer18_k_rope_mul_sin_624:out0':
    qtype: u8
    quantizer: asymmetric_affine
    rounding: rtne
    max_value: 3.6537699699401855
    min_value: -4.619707107543945
    scale: 0.03244500979781151
    zero_point: 142
  '@ReduceMean_layer18_attn_rms_mean_625:out0':
    qtype: u8
    quantizer: asymmetric_affine
    rounding: rtne
    max_value: 2244.9189453125
    min_value: 0.0
    scale: 8.803604125976562
    zero_point: 0
  '@Mul_layer18_attn_rms_square_626:out0':
    qtype: u8
    quantizer: asymmetric_affine
    rounding: rtne
    max_value: 1957833.25
    min_value: 0.0
    scale: 7677.77734375
    zero_point: 0
  '@Add_layer11_mlp_residual_629:out0':
    qtype: u8
    quantizer: asymmetric_affine
    rounding: rtne
    max_value: 1394.081298828125
    min_value: -88.90746307373047
    scale: 5.815642356872559
    zero_point: 15
  '@Mul_layer12_swiglu_mul_631:out0':
    qtype: u8
    quantizer: asymmetric_affine
    rounding: rtne
    max_value: 4.697923183441162
    min_value: -4.390040874481201
    scale: 0.03563907369971275
    zero_point: 123
  '@Transpose_layer13_ctx_transpose_633:out0':
    qtype: u8
    quantizer: asymmetric_affine
    rounding: rtne
    max_value: 1.8701865673065186
    min_value: -1.7682372331619263
    scale: 0.014268329367041588
    zero_point: 124
  '@Mul_layer13_mlp_rms_gamma_636:out0':
    qtype: u8
    quantizer: asymmetric_affine
    rounding: rtne
    max_value: 25.827133178710938
    min_value: -17.527393341064453
    scale: 0.17001774907112122
    zero_point: 103
  '@Softmax_layer14_softmax_638:out0':
    qtype: u8
    quantizer: asymmetric_affine
    rounding: rtne
    max_value: 1.0
    min_value: 0.0
    scale: 0.003921568859368563
    zero_point: 0
  '@Reshape_layer14_v_repeat_expand_639:out0':
    qtype: u8
    quantizer: asymmetric_affine
    rounding: rtne
    max_value: 3.5382206439971924
    min_value: -3.6642775535583496
    scale: 0.028245091438293457
    zero_point: 130
  '@Transpose_layer14_v_heads_640:out0':
    qtype: u8
    quantizer: asymmetric_affine
    rounding: rtne
    max_value: 3.5382206439971924
    min_value: -3.6642775535583496
    scale: 0.028245091438293457
    zero_point: 130
  '@Reciprocal_layer14_mlp_rms_reciprocal_641:out0':
    qtype: u8
    quantizer: asymmetric_affine
    rounding: rtne
    max_value: 1.0
    min_value: 0.0
    scale: 0.003921568859368563
    zero_point: 0
  '@Divide_642:out0':
    qtype: u8
    quantizer: asymmetric_affine
    rounding: rtne
    max_value: 1.9113484621047974
    min_value: 0.0
    scale: 0.007495484314858913
    zero_point: 0
  '@Mul_layer15_attn_scale_643:out0':
    qtype: u8
    quantizer: asymmetric_affine
    rounding: rtne
    max_value: 8.724298477172852
    min_value: -21.25370216369629
    scale: 0.11756078898906708
    zero_point: 181
  '@MatMul_layer15_attn_scores_644:out0':
    qtype: u8
    quantizer: asymmetric_affine
    rounding: rtne
    max_value: 69.79438781738281
    min_value: -170.0296173095703
    scale: 0.9404863119125366
    zero_point: 181
  '@Add_layer15_mlp_rms_eps_646:out0':
    qtype: u8
    quantizer: asymmetric_affine
    rounding: rtne
    max_value: 2239.25927734375
    min_value: 0.0
    scale: 8.78140926361084
    zero_point: 0
