# !!!This file disallow TABs!!!
version: 2
quantize_parameters:
  '@attach_Mul_final_rms_gamma/out0_0:out0':
    qtype: u8
    quantizer: asymmetric_affine
    rounding: rtne
    max_value: 55.64755630493164
    min_value: -26.381546020507812
    scale: 0.32168275117874146
    zero_point: 82
  '@Mul_final_rms_gamma_1:out0':
    qtype: u8
    quantizer: asymmetric_affine
    rounding: rtne
    max_value: 55.64755630493164
    min_value: -26.381546020507812
    scale: 0.32168275117874146
    zero_point: 82
  '@Mul_final_rms_scale_to_unit_2:out0':
    qtype: u8
    quantizer: asymmetric_affine
    rounding: rtne
    max_value: 21.782575607299805
    min_value: -21.53546905517578
    scale: 0.16987469792366028
    zero_point: 127
  '@Initializer_final_rms_gamma_3:out0':
    qtype: u8
    quantizer: asymmetric_affine
    rounding: rtne
    max_value: 3.34375
    min_value: -2.125
    scale: 0.02144607901573181
    zero_point: 99
  '@Add_layer29_mlp_residual_4:out0':
    qtype: u8
    quantizer: asymmetric_affine
    rounding: rtne
    max_value: 5859.31591796875
    min_value: -5495.322265625
    scale: 44.52799606323242
    zero_point: 123
  '@Reciprocal_final_rms_reciprocal_5:out0':
    qtype: u8
    quantizer: asymmetric_affine
    rounding: rtne
    max_value: 1.0
    min_value: 0.0
    scale: 0.003921568859368563
    zero_point: 0
  '@Divide_6:out0':
    qtype: u8
    quantizer: asymmetric_affine
    rounding: rtne
    max_value: 0.0748380646109581
    min_value: 0.0
    scale: 0.0002934826188720763
    zero_point: 0
  '@Add_layer29_attn_residual_7:out0':
    qtype: u8
    quantizer: asymmetric_affine
    rounding: rtne
    max_value: 10339.275390625
    min_value: -5577.8720703125
    scale: 62.42018508911133
    zero_point: 89
  '@Sqrt_final_rms_sqrt_9:out0':
    qtype: u8
    quantizer: asymmetric_affine
    rounding: rtne
    max_value: 358.5389099121094
    min_value: 0.0
    scale: 1.4060349464416504
    zero_point: 0
  '@Add_layer28_mlp_residual_10:out0':
    qtype: u8
    quantizer: asymmetric_affine
    rounding: rtne
    max_value: 10342.044921875
    min_value: -5583.06201171875
    scale: 62.45140075683594
    zero_point: 89
  '@Mul_layer29_swiglu_mul_12:out0':
    qtype: u8
    quantizer: asymmetric_affine
    rounding: rtne
    max_value: 539.00537109375
    min_value: -501.7810974121094
    scale: 4.081515789031982
    zero_point: 123
  '@Add_final_rms_eps_14:out0':
    qtype: u8
    quantizer: asymmetric_affine
    rounding: rtne
    max_value: 128549.421875
    min_value: 0.0
    scale: 504.1153869628906
    zero_point: 0
  '@Add_layer28_attn_residual_15:out0':
    qtype: u8
    quantizer: asymmetric_affine
    rounding: rtne
    max_value: 29344.87890625
    min_value: -1042.9248046875
    scale: 119.16786193847656
    zero_point: 9
  '@Mul_sq_mul_layer29_out_proj_17:out0':
    qtype: u8
    quantizer: asymmetric_affine
    rounding: rtne
    max_value: 2.2665083408355713
    min_value: -2.2366909980773926
    scale: 0.017659606412053108
    zero_point: 127
  '@ReduceMean_final_rms_mean_21:out0':
    qtype: u8
    quantizer: asymmetric_affine
    rounding: rtne
    max_value: 128549.421875
    min_value: 0.0
    scale: 504.1153869628906
    zero_point: 0
  '@Initializer_eps_22:out0':
    qtype: u8
    quantizer: asymmetric_affine
    rounding: rtne
    max_value: 9.999999747378751e-06
    min_value: 0.0
    scale: 3.921568492160076e-08
    zero_point: 0
  '@Add_layer27_mlp_residual_23:out0':
    qtype: u8
    quantizer: asymmetric_affine
    rounding: rtne
    max_value: 29400.05859375
    min_value: -1042.08740234375
    scale: 119.38096618652344
    zero_point: 9
  '@Mul_sq_mul_layer28_down_proj_25:out0':
    qtype: u8
    quantizer: asymmetric_affine
    rounding: rtne
    max_value: 122.4615478515625
    min_value: -11.838691711425781
    scale: 0.526667594909668
    zero_point: 22
  '@Reshape_layer29_ctx_merge_heads_27:out0':
    qtype: u8
    quantizer: asymmetric_affine
    rounding: rtne
    max_value: 2.689246416091919
    min_value: -2.9506161212921143
    scale: 0.02211710810661316
    zero_point: 133
  '@Initializer_sq_scale_layer29_out_proj_28:out0':
    qtype: u8
    quantizer: asymmetric_affine
    rounding: rtne
    max_value: 2.1438100337982178
    min_value: 0.0
    scale: 0.00840709824115038
    zero_point: 0
  '@Mul_sq_mul_layer29_up_proj_31:out0':
    qtype: u8
    quantizer: asymmetric_affine
    rounding: rtne
    max_value: 8.895824432373047
    min_value: -8.623010635375977
    scale: 0.06870131194591522
    zero_point: 126
  '@Mul_final_rms_square_33:out0':
    qtype: u8
    quantizer: asymmetric_affine
    rounding: rtne
    max_value: 60993888.0
    min_value: 0.0
    scale: 239191.71875
    zero_point: 0
  '@Add_layer27_attn_residual_34:out0':
    qtype: u8
    quantizer: asymmetric_affine
    rounding: rtne
    max_value: 29577.810546875
    min_value: -1019.8511352539062
    scale: 119.99082946777344
    zero_point: 8
  '@Mul_sq_mul_layer28_out_proj_36:out0':
    qtype: u8
    quantizer: asymmetric_affine
    rounding: rtne
    max_value: 1.3364444971084595
    min_value: -1.5126398801803589
    scale: 0.011172879487276077
    zero_point: 135
  '@Mul_layer28_swiglu_mul_38:out0':
    qtype: u8
    quantizer: asymmetric_affine
    rounding: rtne
    max_value: 2597.919921875
    min_value: -97.45684814453125
    scale: 10.570104598999023
    zero_point: 9
  '@Initializer_sq_scale_layer28_down_proj_39:out0':
    qtype: u8
    quantizer: asymmetric_affine
    rounding: rtne
    max_value: 1.119447112083435
    min_value: 0.0
    scale: 0.004389988724142313
    zero_point: 0
  '@Transpose_layer29_ctx_transpose_40:out0':
    qtype: u8
    quantizer: asymmetric_affine
    rounding: rtne
    max_value: 2.689246416091919
    min_value: -2.9506161212921143
    scale: 0.02211710810661316
    zero_point: 133
  '@Mul_sq_mul_layer29_gate_proj_41:out0':
    qtype: u8
    quantizer: asymmetric_affine
    rounding: rtne
    max_value: 7.187831401824951
    min_value: -6.967400550842285
    scale: 0.055510710924863815
    zero_point: 126
  '@Initializer_sq_scale_layer29_gate_proj_43:out0':
    qtype: u8
    quantizer: asymmetric_affine
    rounding: rtne
    max_value: 1.8592312335968018
    min_value: 0.0
    scale: 0.007291102781891823
    zero_point: 0
  '@Mul_layer29_mlp_rms_gamma_44:out0':
    qtype: u8
    quantizer: asymmetric_affine
    rounding: rtne
    max_value: 32.32857131958008
    min_value: -31.337121963500977
    scale: 0.2496693879365921
    zero_point: 126
  '@Initializer_sq_scale_layer29_up_proj_45:out0':
    qtype: u8
    quantizer: asymmetric_affine
    rounding: rtne
    max_value: 2.296358585357666
    min_value: 0.0
    scale: 0.009005327709019184
    zero_point: 0
  '@Initializer_layer29_mlp_gamma_46:out0':
    qtype: u8
    quantizer: asymmetric_affine
    rounding: rtne
    max_value: 1.375
    min_value: 0.0
    scale: 0.005392157007008791
    zero_point: 0
  '@Mul_layer29_mlp_rms_scale_to_unit_47:out0':
    qtype: u8
    quantizer: asymmetric_affine
    rounding: rtne
    max_value: 23.51173210144043
    min_value: -22.790496826171875
    scale: 0.18157736957073212
    zero_point: 126
  '@Add_layer26_mlp_residual_48:out0':
    qtype: u8
    quantizer: asymmetric_affine
    rounding: rtne
    max_value: 29596.337890625
    min_value: -1016.3180541992188
    scale: 120.04962921142578
    zero_point: 8
  '@Mul_sq_mul_layer27_down_proj_50:out0':
    qtype: u8
    quantizer: asymmetric_affine
    rounding: rtne
    max_value: 5.986822605133057
    min_value: -13.21474838256836
    scale: 0.07530027627944946
    zero_point: 175
  '@Reshape_layer28_ctx_merge_heads_52:out0':
    qtype: u8
    quantizer: asymmetric_affine
    rounding: rtne
    max_value: 1.7897975444793701
    min_value: -2.0608115196228027
    scale: 0.015100427903234959
    zero_point: 136
  '@Initializer_sq_scale_layer28_out_proj_53:out0':
    qtype: u8
    quantizer: asymmetric_affine
    rounding: rtne
    max_value: 1.8429847955703735
    min_value: 0.0
    scale: 0.007227391470223665
    zero_point: 0
  '@MatMul_layer29_attn_context_56:out0':
    qtype: u8
    quantizer: asymmetric_affine
    rounding: rtne
    max_value: 2.689246416091919
    min_value: -2.9506161212921143
    scale: 0.02211710810661316
    zero_point: 133
  '@Reshape_layer29_v_repeat_merge_57:out0':
    qtype: u8
    quantizer: asymmetric_affine
    rounding: rtne
    max_value: 6.218836307525635
    min_value: -6.253842830657959
    scale: 0.04891246557235718
    zero_point: 128
  '@Tile_layer29_v_repeat_tile_58:out0':
    qtype: u8
    quantizer: asymmetric_affine
    rounding: rtne
    max_value: 6.218836307525635
    min_value: -6.253842830657959
    scale: 0.04891246557235718
    zero_point: 128
  '@Reciprocal_layer29_mlp_rms_reciprocal_59:out0':
    qtype: u8
    quantizer: asymmetric_affine
    rounding: rtne
    max_value: 1.0
    min_value: 0.0
    scale: 0.003921568859368563
    zero_point: 0
  '@Divide_60:out0':
    qtype: u8
    quantizer: asymmetric_affine
    rounding: rtne
    max_value: 0.04905877262353897
    min_value: 0.0
    scale: 0.00019238734967075288
    zero_point: 0
  '@Add_layer26_attn_residual_61:out0':
    qtype: u8
    quantizer: asymmetric_affine
    rounding: rtne
    max_value: 29598.048828125
    min_value: -1016.0842895507812
    scale: 120.055419921875
    zero_point: 8
  '@Mul_sq_mul_layer27_out_proj_63:out0':
    qtype: u8
    quantizer: asymmetric_affine
    rounding: rtne
    max_value: 1.5311009883880615
    min_value: -1.9226301908493042
    scale: 0.013544043526053429
    zero_point: 142
  '@Mul_layer27_swiglu_mul_65:out0':
    qtype: u8
    quantizer: asymmetric_affine
    rounding: rtne
    max_value: 17.46339988708496
    min_value: -64.97848510742188
    scale: 0.3233015239238739
    zero_point: 201
  '@Initializer_sq_scale_layer27_down_proj_66:out0':
    qtype: u8
    quantizer: asymmetric_affine
    rounding: rtne
    max_value: 1.1112443208694458
    min_value: 0.0
    scale: 0.004357820842415094
    zero_point: 0
  '@Transpose_layer28_ctx_transpose_67:out0':
    qtype: u8
    quantizer: asymmetric_affine
    rounding: rtne
    max_value: 1.7897975444793701
    min_value: -2.0608115196228027
    scale: 0.015100427903234959
    zero_point: 136
  '@Mul_sq_mul_layer28_up_proj_70:out0':
    qtype: u8
    quantizer: asymmetric_affine
    rounding: rtne
    max_value: 6.253627777099609
    min_value: -2.7879984378814697
    scale: 0.03545735776424408
    zero_point: 79
  '@Softmax_layer29_softmax_72:out0':
    qtype: u8
    quantizer: asymmetric_affine
    rounding: rtne
    max_value: 1.0
    min_value: 0.0
    scale: 0.003921568859368563
    zero_point: 0
  '@Reshape_layer29_v_repeat_expand_73:out0':
    qtype: u8
    quantizer: asymmetric_affine
    rounding: rtne
    max_value: 6.218836307525635
    min_value: -6.253842830657959
    scale: 0.04891246557235718
    zero_point: 128
  '@Sqrt_layer29_mlp_rms_sqrt_74:out0':
    qtype: u8
    quantizer: asymmetric_affine
    rounding: rtne
    max_value: 586.14697265625
    min_value: 0.0
    scale: 2.2986156940460205
    zero_point: 0
  '@Add_layer25_mlp_residual_75:out0':
    qtype: u8
    quantizer: asymmetric_affine
    rounding: rtne
    max_value: 29603.7265625
    min_value: -1015.5157470703125
    scale: 120.0754623413086
    zero_point: 8
  '@Mul_sq_mul_layer26_down_proj_77:out0':
    qtype: u8
    quantizer: asymmetric_affine
    rounding: rtne
    max_value: 3.2203094959259033
    min_value: -3.2203094959259033
    scale: 0.025257328525185585
    zero_point: 128
  '@Reshape_layer27_ctx_merge_heads_79:out0':
    qtype: u8
    quantizer: asymmetric_affine
    rounding: rtne
    max_value: 2.449127197265625
    min_value: -2.4508464336395264
    scale: 0.01921558380126953
    zero_point: 128
  '@Initializer_sq_scale_layer27_out_proj_80:out0':
    qtype: u8
    quantizer: asymmetric_affine
    rounding: rtne
    max_value: 1.204464077949524
    min_value: 0.0
    scale: 0.004723388701677322
    zero_point: 0
  '@MatMul_layer28_attn_context_83:out0':
    qtype: u8
    quantizer: asymmetric_affine
    rounding: rtne
    max_value: 1.7897975444793701
    min_value: -2.0608115196228027
    scale: 0.015100427903234959
    zero_point: 136
  '@Mul_sq_mul_layer28_gate_proj_84:out0':
    qtype: u8
    quantizer: asymmetric_affine
    rounding: rtne
    max_value: 6.218392372131348
    min_value: -2.731947422027588
    scale: 0.035099372267723083
    zero_point: 78
  '@Initializer_sq_scale_layer28_gate_proj_86:out0':
    qtype: u8
    quantizer: asymmetric_affine
    rounding: rtne
    max_value: 2.957446575164795
    min_value: 0.0
    scale: 0.01159782987087965
    zero_point: 0
  '@Mul_layer28_mlp_rms_gamma_87:out0':
    qtype: u8
    quantizer: asymmetric_affine
    rounding: rtne
    max_value: 14.062044143676758
    min_value: -2.474882125854492
    scale: 0.06485068798065186
    zero_point: 38
  '@Initializer_sq_scale_layer28_up_proj_88:out0':
    qtype: u8
    quantizer: asymmetric_affine
    rounding: rtne
    max_value: 4.082491397857666
    min_value: 0.0
    scale: 0.016009770333766937
    zero_point: 0
  '@Add_layer29_causal_mask_89:out0':
    qtype: u8
    quantizer: asymmetric_affine
    rounding: rtne
    max_value: 14.099418640136719
    min_value: -10011.341796875
    scale: 39.31545639038086
    zero_point: 255
  '@Transpose_layer29_v_heads_90:out0':
    qtype: u8
    quantizer: asymmetric_affine
    rounding: rtne
    max_value: 6.218836307525635
    min_value: -6.253842830657959
    scale: 0.04891246557235718
    zero_point: 128
  '@Add_layer29_mlp_rms_eps_91:out0':
    qtype: u8
    quantizer: asymmetric_affine
    rounding: rtne
    max_value: 343566.1875
    min_value: 0.0
    scale: 1347.318359375
    zero_point: 0
  '@Add_layer25_attn_residual_92:out0':
    qtype: u8
    quantizer: asymmetric_affine
    rounding: rtne
    max_value: 29604.0703125
    min_value: -1015.5202026367188
    scale: 120.07682037353516
    zero_point: 8
  '@Mul_sq_mul_layer26_out_proj_94:out0':
    qtype: u8
    quantizer: asymmetric_affine
    rounding: rtne
    max_value: 1.3126345872879028
    min_value: -1.3975051641464233
    scale: 0.01062799897044897
    zero_point: 131
  '@Mul_layer26_swiglu_mul_96:out0':
    qtype: u8
    quantizer: asymmetric_affine
    rounding: rtne
    max_value: 11.820789337158203
    min_value: -14.95681381225586
    scale: 0.10501021146774292
    zero_point: 142
  '@Initializer_sq_scale_layer26_down_proj_97:out0':
    qtype: u8
    quantizer: asymmetric_affine
    rounding: rtne
    max_value: 1.0886434316635132
    min_value: 0.0
    scale: 0.0042691901326179504
    zero_point: 0
  '@Transpose_layer27_ctx_transpose_98:out0':
    qtype: u8
    quantizer: asymmetric_affine
    rounding: rtne
    max_value: 2.449127197265625
    min_value: -2.4508464336395264
    scale: 0.01921558380126953
    zero_point: 128
  '@Mul_sq_mul_layer27_up_proj_101:out0':
    qtype: u8
    quantizer: asymmetric_affine
    rounding: rtne
    max_value: 1.8140064477920532
    min_value: -1.5343008041381836
    scale: 0.013130616396665573
    zero_point: 117
  '@Softmax_layer28_softmax_103:out0':
    qtype: u8
    quantizer: asymmetric_affine
    rounding: rtne
    max_value: 1.0
    min_value: 0.0
    scale: 0.003921568859368563
    zero_point: 0
  '@Reshape_layer28_v_repeat_merge_104:out0':
    qtype: u8
    quantizer: asymmetric_affine
    rounding: rtne
    max_value: 7.494526386260986
    min_value: -8.19611644744873
    scale: 0.06153193488717079
    zero_point: 133
  '@Tile_layer28_v_repeat_tile_105:out0':
    qtype: u8
    quantizer: asymmetric_affine
    rounding: rtne
    max_value: 7.494526386260986
    min_value: -8.19611644744873
    scale: 0.06153193488717079
    zero_point: 133
  '@Mul_layer28_mlp_rms_scale_to_unit_106:out0':
    qtype: u8
    quantizer: asymmetric_affine
    rounding: rtne
    max_value: 23.840253829956055
    min_value: -5.369266510009766
    scale: 0.11454714089632034
    zero_point: 47
  '@Initializer_layer28_mlp_gamma_107:out0':
    qtype: u8
    quantizer: asymmetric_affine
    rounding: rtne
    max_value: 0.58984375
    min_value: 0.0
    scale: 0.0023131128400564194
    zero_point: 0
  '@Mul_layer29_attn_scale_108:out0':
    qtype: u8
    quantizer: asymmetric_affine
    rounding: rtne
    max_value: 13.191845893859863
    min_value: -11.851994514465332
    scale: 0.0982111394405365
    zero_point: 121
  '@Initializer_causal_mask_109:out0':
    qtype: u8
    quantizer: asymmetric_affine
    rounding: rtne
    max_value: 0.0
    min_value: -10000.0
    scale: 39.2156867980957
    zero_point: 255
  '@Reshape_layer29_v_reshape_110:out0':
    qtype: u8
    quantizer: asymmetric_affine
    rounding: rtne
    max_value: 6.218836307525635
    min_value: -6.253842830657959
    scale: 0.04891246557235718
    zero_point: 128
  '@ReduceMean_layer29_mlp_rms_mean_111:out0':
    qtype: u8
    quantizer: asymmetric_affine
    rounding: rtne
    max_value: 343566.1875
    min_value: 0.0
    scale: 1347.318359375
    zero_point: 0
  '@Add_layer24_mlp_residual_113:out0':
    qtype: u8
    quantizer: asymmetric_affine
    rounding: rtne
    max_value: 29602.03515625
    min_value: -1012.6069946289062
    scale: 120.05741882324219
    zero_point: 8
  '@Mul_sq_mul_layer25_down_proj_115:out0':
    qtype: u8
    quantizer: asymmetric_affine
    rounding: rtne
    max_value: 2.3590502738952637
    min_value: -4.928714752197266
    scale: 0.0285794697701931
    zero_point: 172
  '@Reshape_layer26_ctx_merge_heads_117:out0':
    qtype: u8
    quantizer: asymmetric_affine
    rounding: rtne
    max_value: 2.6568763256073
    min_value: -2.7239511013031006
    scale: 0.02110128477215767
    zero_point: 129
  '@Initializer_sq_scale_layer26_out_proj_118:out0':
    qtype: u8
    quantizer: asymmetric_affine
    rounding: rtne
    max_value: 1.94755220413208
    min_value: 0.0
    scale: 0.00763745978474617
    zero_point: 0
  '@MatMul_layer27_attn_context_121:out0':
    qtype: u8
    quantizer: asymmetric_affine
    rounding: rtne
    max_value: 2.449127197265625
    min_value: -2.4508464336395264
    scale: 0.01921558380126953
    zero_point: 128
  '@Mul_sq_mul_layer27_gate_proj_122:out0':
    qtype: u8
    quantizer: asymmetric_affine
    rounding: rtne
    max_value: 4.920892715454102
    min_value: -2.7849531173706055
    scale: 0.030219003558158875
    zero_point: 92
  '@Initializer_sq_scale_layer27_gate_proj_124:out0':
    qtype: u8
    quantizer: asymmetric_affine
    rounding: rtne
    max_value: 3.6106369495391846
    min_value: 0.0
    scale: 0.014159360900521278
    zero_point: 0
  '@Mul_layer27_mlp_rms_gamma_125:out0':
    qtype: u8
    quantizer: asymmetric_affine
    rounding: rtne
    max_value: 3.2152626514434814
    min_value: -2.5864548683166504
    scale: 0.022751834243535995
    zero_point: 114
  '@Initializer_sq_scale_layer27_up_proj_126:out0':
    qtype: u8
    quantizer: asymmetric_affine
    rounding: rtne
    max_value: 3.304269313812256
    min_value: 0.0
    scale: 0.012957918457686901
    zero_point: 0
  '@Add_layer28_causal_mask_127:out0':
    qtype: u8
    quantizer: asymmetric_affine
    rounding: rtne
    max_value: 7.512020587921143
    min_value: -10005.1806640625
    scale: 39.26546096801758
    zero_point: 255
  '@Reshape_layer28_v_repeat_expand_128:out0':
    qtype: u8
    quantizer: asymmetric_affine
    rounding: rtne
    max_value: 7.494526386260986
    min_value: -8.19611644744873
    scale: 0.06153193488717079
    zero_point: 133
  '@Transpose_layer28_v_heads_129:out0':
    qtype: u8
    quantizer: asymmetric_affine
    rounding: rtne
    max_value: 7.494526386260986
    min_value: -8.19611644744873
    scale: 0.06153193488717079
    zero_point: 133
  '@Reciprocal_layer28_mlp_rms_reciprocal_130:out0':
    qtype: u8
    quantizer: asymmetric_affine
    rounding: rtne
    max_value: 1.0
    min_value: 0.0
    scale: 0.003921568859368563
    zero_point: 0
  '@Divide_131:out0':
    qtype: u8
    quantizer: asymmetric_affine
    rounding: rtne
    max_value: 0.05341136083006859
    min_value: 0.0
    scale: 0.00020945632422808558
    zero_point: 0
  '@MatMul_layer29_attn_scores_132:out0':
    qtype: u8
    quantizer: asymmetric_affine
    rounding: rtne
    max_value: 105.5347671508789
    min_value: -94.81595611572266
    scale: 0.785689115524292
    zero_point: 121
  '@Initializer_scale_attn_133:out0':
    qtype: u8
    quantizer: asymmetric_affine
    rounding: rtne
    max_value: 0.125
    min_value: 0.0
    scale: 0.0004901961074210703
    zero_point: 0
  '@Mul_layer29_mlp_rms_square_135:out0':
    qtype: u8
    quantizer: asymmetric_affine
    rounding: rtne
    max_value: 189921168.0
    min_value: 0.0
    scale: 744788.875
    zero_point: 0
  '@Add_layer24_attn_residual_136:out0':
    qtype: u8
    quantizer: asymmetric_affine
    rounding: rtne
    max_value: 29603.1640625
    min_value: -1012.5153198242188
    scale: 120.06148529052734
    zero_point: 8
  '@Mul_sq_mul_layer25_out_proj_138:out0':
    qtype: u8
    quantizer: asymmetric_affine
    rounding: rtne
    max_value: 1.6693751811981201
    min_value: -2.2148687839508057
    scale: 0.0152323292568326
    zero_point: 145
  '@Mul_layer25_swiglu_mul_140:out0':
    qtype: u8
    quantizer: asymmetric_affine
    rounding: rtne
    max_value: 8.794146537780762
    min_value: -14.037108421325684
    scale: 0.08953433483839035
    zero_point: 157
  '@Initializer_sq_scale_layer25_down_proj_141:out0':
    qtype: u8
    quantizer: asymmetric_affine
    rounding: rtne
    max_value: 1.0344568490982056
    min_value: 0.0
    scale: 0.004056693520396948
    zero_point: 0
  '@Transpose_layer26_ctx_transpose_142:out0':
    qtype: u8
    quantizer: asymmetric_affine
    rounding: rtne
    max_value: 2.6568763256073
    min_value: -2.7239511013031006
    scale: 0.02110128477215767
    zero_point: 129
  '@Mul_sq_mul_layer26_up_proj_145:out0':
    qtype: u8
    quantizer: asymmetric_affine
    rounding: rtne
    max_value: 1.796963095664978
    min_value: -1.373451590538025
    scale: 0.012432998977601528
    zero_point: 110
  '@Softmax_layer27_softmax_147:out0':
    qtype: u8
    quantizer: asymmetric_affine
    rounding: rtne
    max_value: 1.0
    min_value: 0.0
    scale: 0.003921568859368563
    zero_point: 0
  '@Reshape_layer27_v_repeat_merge_148:out0':
    qtype: u8
    quantizer: asymmetric_affine
    rounding: rtne
    max_value: 5.05849027633667
    min_value: -6.820591926574707
    scale: 0.046584635972976685
    zero_point: 146
  '@Tile_layer27_v_repeat_tile_149:out0':
    qtype: u8
    quantizer: asymmetric_affine
    rounding: rtne
    max_value: 5.05849027633667
    min_value: -6.820591926574707
    scale: 0.046584635972976685
    zero_point: 146
  '@Mul_layer27_mlp_rms_scale_to_unit_150:out0':
    qtype: u8
    quantizer: asymmetric_affine
    rounding: rtne
    max_value: 23.858198165893555
    min_value: -5.859556674957275
    scale: 0.11654021590948105
    zero_point: 50
  '@Initializer_layer27_mlp_gamma_151:out0':
    qtype: u8
    quantizer: asymmetric_affine
    rounding: rtne
    max_value: 0.51171875
    min_value: 0.0
    scale: 0.0020067403092980385
    zero_point: 0
  '@Mul_layer28_attn_scale_152:out0':
    qtype: u8
    quantizer: asymmetric_affine
    rounding: rtne
    max_value: 7.440093517303467
    min_value: -5.5628342628479
    scale: 0.05099187418818474
    zero_point: 109
  '@Reshape_layer28_v_reshape_154:out0':
    qtype: u8
    quantizer: asymmetric_affine
    rounding: rtne
    max_value: 7.494526386260986
    min_value: -8.19611644744873
    scale: 0.06153193488717079
    zero_point: 133
  '@Sqrt_layer28_mlp_rms_sqrt_155:out0':
    qtype: u8
    quantizer: asymmetric_affine
    rounding: rtne
    max_value: 1230.90234375
    min_value: 0.0
    scale: 4.827067852020264
    zero_point: 0
  '@Add_layer29_q_rope_rope_add_156:out0':
    qtype: u8
    quantizer: asymmetric_affine
    rounding: rtne
    max_value: 13.184457778930664
    min_value: -13.31279468536377
    scale: 0.10391079634428024
    zero_point: 128
  '@Transpose_layer29_k_transpose_157:out0':
    qtype: u8
    quantizer: asymmetric_affine
    rounding: rtne
    max_value: 11.291545867919922
    min_value: -10.865033149719238
    scale: 0.08688854426145554
    zero_point: 125
  '@Mul_sq_mul_layer29_v_proj_161:out0':
    qtype: u8
    quantizer: asymmetric_affine
    rounding: rtne
    max_value: 1.5224144458770752
    min_value: -1.2517015933990479
    scale: 0.010878886096179485
    zero_point: 115
  '@Add_layer23_mlp_residual_162:out0':
    qtype: u8
    quantizer: asymmetric_affine
    rounding: rtne
    max_value: 29640.583984375
    min_value: -1010.4722290039062
    scale: 120.20022583007812
    zero_point: 8
  '@Mul_sq_mul_layer24_down_proj_164:out0':
    qtype: u8
    quantizer: asymmetric_affine
    rounding: rtne
    max_value: 4.216920375823975
    min_value: -4.108452320098877
    scale: 0.032648518681526184
    zero_point: 126
  '@Reshape_layer25_ctx_merge_heads_166:out0':
    qtype: u8
    quantizer: asymmetric_affine
    rounding: rtne
    max_value: 4.012362480163574
    min_value: -3.7389912605285645
    scale: 0.030397465452551842
    zero_point: 123
  '@Initializer_sq_scale_layer25_out_proj_167:out0':
    qtype: u8
    quantizer: asymmetric_affine
    rounding: rtne
    max_value: 1.8036078214645386
    min_value: 0.0
    scale: 0.007072971668094397
    zero_point: 0
  '@MatMul_layer26_attn_context_170:out0':
    qtype: u8
    quantizer: asymmetric_affine
    rounding: rtne
    max_value: 2.6568763256073
    min_value: -2.7239511013031006
    scale: 0.02110128477215767
    zero_point: 129
  '@Mul_sq_mul_layer26_gate_proj_171:out0':
    qtype: u8
    quantizer: asymmetric_affine
    rounding: rtne
    max_value: 1.6142864227294922
    min_value: -1.5879319906234741
    scale: 0.012557719834148884
    zero_point: 126
  '@Initializer_sq_scale_layer26_gate_proj_173:out0':
    qtype: u8
    quantizer: asymmetric_affine
    rounding: rtne
    max_value: 2.7715227603912354
    min_value: 0.0
    scale: 0.010868716984987259
    zero_point: 0
  '@Mul_layer26_mlp_rms_gamma_174:out0':
    qtype: u8
    quantizer: asymmetric_affine
    rounding: rtne
    max_value: 2.432603597640991
    min_value: -2.4637882709503174
    scale: 0.01920153759419918
    zero_point: 128
  '@Initializer_sq_scale_layer26_up_proj_175:out0':
    qtype: u8
    quantizer: asymmetric_affine
    rounding: rtne
    max_value: 3.037120819091797
    min_value: 0.0
    scale: 0.011910277418792248
    zero_point: 0
  '@Add_layer27_causal_mask_176:out0':
    qtype: u8
    quantizer: asymmetric_affine
    rounding: rtne
    max_value: 9.08073616027832
    min_value: -10004.8701171875
    scale: 39.2703971862793
    zero_point: 255
  '@Reshape_layer27_v_repeat_expand_177:out0':
    qtype: u8
    quantizer: asymmetric_affine
    rounding: rtne
    max_value: 5.05849027633667
    min_value: -6.820591926574707
    scale: 0.046584635972976685
    zero_point: 146
  '@Transpose_layer27_v_heads_178:out0':
    qtype: u8
    quantizer: asymmetric_affine
    rounding: rtne
    max_value: 5.05849027633667
    min_value: -6.820591926574707
    scale: 0.046584635972976685
    zero_point: 146
  '@Reciprocal_layer27_mlp_rms_reciprocal_179:out0':
    qtype: u8
    quantizer: asymmetric_affine
    rounding: rtne
    max_value: 1.0
    min_value: 0.0
    scale: 0.003921568859368563
    zero_point: 0
  '@Divide_180:out0':
    qtype: u8
    quantizer: asymmetric_affine
    rounding: rtne
    max_value: 0.06035633385181427
    min_value: 0.0
    scale: 0.000236691499594599
    zero_point: 0
  '@MatMul_layer28_attn_scores_181:out0':
    qtype: u8
    quantizer: asymmetric_affine
    rounding: rtne
    max_value: 59.520748138427734
    min_value: -44.5026741027832
    scale: 0.4079349935054779
    zero_point: 109
  '@Add_layer28_mlp_rms_eps_184:out0':
    qtype: u8
    quantizer: asymmetric_affine
    rounding: rtne
    max_value: 1515111.5
    min_value: 0.0
    scale: 5941.61376953125
    zero_point: 0
  '@Mul_layer29_q_rope_mul_cos_185:out0':
    qtype: u8
    quantizer: asymmetric_affine
    rounding: rtne
    max_value: 13.185908317565918
    min_value: -13.322578430175781
    scale: 0.10395485162734985
    zero_point: 128
  '@Mul_layer29_q_rope_mul_sin_186:out0':
    qtype: u8
    quantizer: asymmetric_affine
    rounding: rtne
    max_value: 6.858739852905273
    min_value: -9.45234203338623
    scale: 0.06396502256393433
    zero_point: 148
  '@Reshape_layer29_k_repeat_merge_187:out0':
    qtype: u8
    quantizer: asymmetric_affine
    rounding: rtne
    max_value: 11.291545867919922
    min_value: -10.865033149719238
    scale: 0.08688854426145554
    zero_point: 125
  '@Mul_layer29_attn_rms_gamma_188:out0':
    qtype: u8
    quantizer: asymmetric_affine
    rounding: rtne
    max_value: 8.127856254577637
    min_value: -6.1888017654418945
    scale: 0.056143756955862045
    zero_point: 110
  '@Initializer_sq_scale_layer29_v_proj_189:out0':
    qtype: u8
    quantizer: asymmetric_affine
    rounding: rtne
    max_value: 1.8840421438217163
    min_value: 0.0
    scale: 0.007388400379568338
    zero_point: 0
  '@Add_layer23_attn_residual_190:out0':
    qtype: u8
    quantizer: asymmetric_affine
    rounding: rtne
    max_value: 29638.259765625
    min_value: -1010.3423461914062
    scale: 120.19059753417969
    zero_point: 8
  '@Mul_sq_mul_layer24_out_proj_192:out0':
    qtype: u8
    quantizer: asymmetric_affine
    rounding: rtne
    max_value: 2.6216464042663574
    min_value: -2.4006009101867676
    scale: 0.019695088267326355
    zero_point: 122
  '@Mul_layer24_swiglu_mul_194:out0':
    qtype: u8
    quantizer: asymmetric_affine
    rounding: rtne
    max_value: 11.106099128723145
    min_value: -11.106099128723145
    scale: 0.08710666000843048
    zero_point: 128
  '@Initializer_sq_scale_layer24_down_proj_195:out0':
    qtype: u8
    quantizer: asymmetric_affine
    rounding: rtne
    max_value: 1.0714912414550781
    min_value: 0.0
    scale: 0.004201926290988922
    zero_point: 0
  '@Transpose_layer25_ctx_transpose_196:out0':
    qtype: u8
    quantizer: asymmetric_affine
    rounding: rtne
    max_value: 4.012362480163574
    min_value: -3.7389912605285645
    scale: 0.030397465452551842
    zero_point: 123
  '@Mul_sq_mul_layer25_up_proj_199:out0':
    qtype: u8
    quantizer: asymmetric_affine
    rounding: rtne
    max_value: 1.401381492614746
    min_value: -1.2180179357528687
    scale: 0.01027215551584959
    zero_point: 119
  '@Softmax_layer26_softmax_201:out0':
    qtype: u8
    quantizer: asymmetric_affine
    rounding: rtne
    max_value: 1.0
    min_value: 0.0
    scale: 0.003921568859368563
    zero_point: 0
  '@Reshape_layer26_v_repeat_merge_202:out0':
    qtype: u8
    quantizer: asymmetric_affine
    rounding: rtne
    max_value: 8.304281234741211
    min_value: -6.55358362197876
    scale: 0.058266133069992065
    zero_point: 112
  '@Tile_layer26_v_repeat_tile_203:out0':
    qtype: u8
    quantizer: asymmetric_affine
    rounding: rtne
    max_value: 8.304281234741211
    min_value: -6.55358362197876
    scale: 0.058266133069992065
    zero_point: 112
  '@Mul_layer26_mlp_rms_scale_to_unit_204:out0':
    qtype: u8
    quantizer: asymmetric_affine
    rounding: rtne
    max_value: 23.86699676513672
    min_value: -6.502434253692627
    scale: 0.1190958097577095
    zero_point: 55
  '@Initializer_layer26_mlp_gamma_205:out0':
    qtype: u8
    quantizer: asymmetric_affine
    rounding: rtne
    max_value: 0.41796875
    min_value: 0.0
    scale: 0.0016390931559726596
    zero_point: 0
  '@Mul_layer27_attn_scale_206:out0':
    qtype: u8
    quantizer: asymmetric_affine
    rounding: rtne
    max_value: 9.077701568603516
    min_value: -5.057821273803711
    scale: 0.055433422327041626
    zero_point: 91
  '@MatMul_layer27_attn_scores_207:out0':
    qtype: u8
    quantizer: asymmetric_affine
    rounding: rtne
    max_value: 72.62161254882812
    min_value: -40.46257019042969
    scale: 0.443467378616333
    zero_point: 91
  '@Reshape_layer27_v_reshape_208:out0':
    qtype: u8
    quantizer: asymmetric_affine
    rounding: rtne
    max_value: 5.05849027633667
    min_value: -6.820591926574707
    scale: 0.046584635972976685
    zero_point: 146
  '@Sqrt_layer27_mlp_rms_sqrt_209:out0':
    qtype: u8
    quantizer: asymmetric_affine
    rounding: rtne
    max_value: 1240.2626953125
    min_value: 0.0
    scale: 4.863775253295898
    zero_point: 0
  '@Add_layer28_q_rope_rope_add_210:out0':
    qtype: u8
    quantizer: asymmetric_affine
    rounding: rtne
    max_value: 17.684001922607422
    min_value: -13.686820983886719
    scale: 0.12302283197641373
    zero_point: 111
  '@Transpose_layer28_k_transpose_211:out0':
    qtype: u8
    quantizer: asymmetric_affine
    rounding: rtne
    max_value: 12.273266792297363
    min_value: -12.15040397644043
    scale: 0.09577910602092743
    zero_point: 127
  '@ReduceMean_layer28_mlp_rms_mean_214:out0':
    qtype: u8
    quantizer: asymmetric_affine
    rounding: rtne
    max_value: 1515111.5
    min_value: 0.0
    scale: 5941.61376953125
    zero_point: 0
  '@Mul_layer28_mlp_rms_square_215:out0':
    qtype: u8
    quantizer: asymmetric_affine
    rounding: rtne
    max_value: 861117056.0
    min_value: 0.0
    scale: 3376929.75
    zero_point: 0
  '@Transpose_layer29_q_heads_216:out0':
    qtype: u8
    quantizer: asymmetric_affine
    rounding: rtne
    max_value: 13.186271667480469
    min_value: -13.322582244873047
    scale: 0.10395628958940506
    zero_point: 128
  '@Initializer_rope_cos_217:out0':
    qtype: u8
    quantizer: asymmetric_affine
    rounding: rtne
    max_value: 1.0
    min_value: -0.9999967217445374
    scale: 0.007843123748898506
    zero_point: 127
  '@Concat_layer29_q_rope_rotate_half_218:out0':
    qtype: u8
    quantizer: asymmetric_affine
    rounding: rtne
    max_value: 13.186271667480469
    min_value: -13.322582244873047
    scale: 0.10395628958940506
    zero_point: 128
  '@Initializer_rope_sin_219:out0':
    qtype: u8
    quantizer: asymmetric_affine
    rounding: rtne
    max_value: 0.9999929070472717
    min_value: -0.9999902248382568
    scale: 0.007843070663511753
    zero_point: 127
  '@Tile_layer29_k_repeat_tile_220:out0':
    qtype: u8
    quantizer: asymmetric_affine
    rounding: rtne
    max_value: 11.291545867919922
    min_value: -10.865033149719238
    scale: 0.08688854426145554
    zero_point: 125
  '@Mul_layer29_attn_rms_scale_to_unit_221:out0':
    qtype: u8
    quantizer: asymmetric_affine
    rounding: rtne
    max_value: 23.51728630065918
    min_value: -22.79611587524414
    scale: 0.18162117898464203
    zero_point: 126
  '@Initializer_layer29_attn_gamma_222:out0':
    qtype: u8
    quantizer: asymmetric_affine
    rounding: rtne
    max_value: 0.91015625
    min_value: 0.0
    scale: 0.003569240216165781
    zero_point: 0
  '@Add_layer22_mlp_residual_223:out0':
    qtype: u8
    quantizer: asymmetric_affine
    rounding: rtne
    max_value: 29640.8046875
    min_value: -1011.0185546875
    scale: 120.20323181152344
    zero_point: 8
  '@Mul_sq_mul_layer23_down_proj_225:out0':
    qtype: u8
    quantizer: asymmetric_affine
    rounding: rtne
    max_value: 3.624051570892334
    min_value: -3.624051570892334
    scale: 0.028423933312296867
    zero_point: 128
  '@Reshape_layer24_ctx_merge_heads_227:out0':
    qtype: u8
    quantizer: asymmetric_affine
    rounding: rtne
    max_value: 4.275666236877441
    min_value: -3.29313325881958
    scale: 0.02968156710267067
    zero_point: 111
  '@Initializer_sq_scale_layer24_out_proj_228:out0':
    qtype: u8
    quantizer: asymmetric_affine
    rounding: rtne
    max_value: 2.0058035850524902
    min_value: 0.0
    scale: 0.007865896448493004
    zero_point: 0
  '@MatMul_layer25_attn_context_231:out0':
    qtype: u8
    quantizer: asymmetric_affine
    rounding: rtne
    max_value: 4.012362480163574
    min_value: -3.7389912605285645
    scale: 0.030397465452551842
    zero_point: 123
  '@Mul_sq_mul_layer25_gate_proj_232:out0':
    qtype: u8
    quantizer: asymmetric_affine
    rounding: rtne
    max_value: 1.7247275114059448
    min_value: -1.3569713830947876
    scale: 0.01208509411662817
    zero_point: 112
  '@Initializer_sq_scale_layer25_gate_proj_234:out0':
    qtype: u8
    quantizer: asymmetric_affine
    rounding: rtne
    max_value: 4.94877815246582
    min_value: 0.0
    scale: 0.01940697245299816
    zero_point: 0
  '@Mul_layer25_mlp_rms_gamma_235:out0':
    qtype: u8
    quantizer: asymmetric_affine
    rounding: rtne
    max_value: 1.8592920303344727
    min_value: -2.094954252243042
    scale: 0.015506847761571407
    zero_point: 135
  '@Initializer_sq_scale_layer25_up_proj_236:out0':
    qtype: u8
    quantizer: asymmetric_affine
    rounding: rtne
    max_value: 4.659543991088867
    min_value: 0.0
    scale: 0.018272722139954567
    zero_point: 0
  '@Add_layer26_causal_mask_237:out0':
    qtype: u8
    quantizer: asymmetric_affine
    rounding: rtne
    max_value: 11.58691120147705
    min_value: -10004.94921875
    scale: 39.28053283691406
    zero_point: 255
  '@Reshape_layer26_v_repeat_expand_238:out0':
    qtype: u8
    quantizer: asymmetric_affine
    rounding: rtne
    max_value: 8.304281234741211
    min_value: -6.55358362197876
    scale: 0.058266133069992065
    zero_point: 112
  '@Transpose_layer26_v_heads_239:out0':
    qtype: u8
    quantizer: asymmetric_affine
    rounding: rtne
    max_value: 8.304281234741211
    min_value: -6.55358362197876
    scale: 0.058266133069992065
    zero_point: 112
  '@Reciprocal_layer26_mlp_rms_reciprocal_240:out0':
    qtype: u8
    quantizer: asymmetric_affine
    rounding: rtne
    max_value: 1.0
    min_value: 0.0
    scale: 0.003921568859368563
    zero_point: 0
  '@Divide_241:out0':
    qtype: u8
    quantizer: asymmetric_affine
    rounding: rtne
    max_value: 0.06864095479249954
    min_value: 0.0
    scale: 0.00026918022194877267
    zero_point: 0
  '@Add_layer27_q_rope_rope_add_242:out0':
    qtype: u8
    quantizer: asymmetric_affine
    rounding: rtne
    max_value: 15.077810287475586
    min_value: -16.831912994384766
    scale: 0.12513616681098938
    zero_point: 135
  '@Transpose_layer27_k_transpose_243:out0':
    qtype: u8
    quantizer: asymmetric_affine
    rounding: rtne
    max_value: 14.713732719421387
    min_value: -15.171727180480957
    scale: 0.11719787865877151
    zero_point: 129
  '@Add_layer27_mlp_rms_eps_245:out0':
    qtype: u8
    quantizer: asymmetric_affine
    rounding: rtne
    max_value: 1538247.625
    min_value: 0.0
    scale: 6032.34375
    zero_point: 0
  '@Mul_layer28_q_rope_mul_cos_246:out0':
    qtype: u8
    quantizer: asymmetric_affine
    rounding: rtne
    max_value: 17.69280242919922
    min_value: -13.694243431091309
    scale: 0.12308645993471146
    zero_point: 111
  '@Mul_layer28_q_rope_mul_sin_247:out0':
    qtype: u8
    quantizer: asymmetric_affine
    rounding: rtne
    max_value: 4.679455280303955
    min_value: -5.114180564880371
    scale: 0.03840641677379608
    zero_point: 133
  '@Reshape_layer28_k_repeat_merge_248:out0':
    qtype: u8
    quantizer: asymmetric_affine
    rounding: rtne
    max_value: 12.273266792297363
    min_value: -12.15040397644043
    scale: 0.09577910602092743
    zero_point: 127
  '@Mul_sq_mul_layer28_v_proj_249:out0':
    qtype: u8
    quantizer: asymmetric_affine
    rounding: rtne
    max_value: 1.2576743364334106
    min_value: -1.1416904926300049
    scale: 0.009409273974597454
    zero_point: 121
  '@Initializer_sq_scale_layer28_v_proj_251:out0':
    qtype: u8
    quantizer: asymmetric_affine
    rounding: rtne
    max_value: 1.633170485496521
    min_value: 0.0
    scale: 0.006404590327292681
    zero_point: 0
  '@Mul_layer28_attn_rms_gamma_252:out0':
    qtype: u8
    quantizer: asymmetric_affine
    rounding: rtne
    max_value: 6.655692100524902
    min_value: -2.5206170082092285
    scale: 0.03598552942276001
    zero_point: 70
  '@Reshape_layer29_q_reshape_253:out0':
    qtype: u8
    quantizer: asymmetric_affine
    rounding: rtne
    max_value: 13.186271667480469
    min_value: -13.322582244873047
    scale: 0.10395628958940506
    zero_point: 128
  '@Neg_layer29_q_rope_neg_second_254:out0':
    qtype: u8
    quantizer: asymmetric_affine
    rounding: rtne
    max_value: 13.186271667480469
    min_value: -13.322582244873047
    scale: 0.10395628958940506
    zero_point: 128
  '@Slice_layer29_q_rope_slice_first_255:out0':
    qtype: u8
    quantizer: asymmetric_affine
    rounding: rtne
    max_value: 13.186271667480469
    min_value: -13.322582244873047
    scale: 0.10395628958940506
    zero_point: 128
  '@Reshape_layer29_k_repeat_expand_256:out0':
    qtype: u8
    quantizer: asymmetric_affine
    rounding: rtne
    max_value: 11.291545867919922
    min_value: -10.865033149719238
    scale: 0.08688854426145554
    zero_point: 125
  '@Add_layer29_k_rope_rope_add_257:out0':
    qtype: u8
    quantizer: asymmetric_affine
    rounding: rtne
    max_value: 11.291545867919922
    min_value: -10.865033149719238
    scale: 0.08688854426145554
    zero_point: 125
  '@Reciprocal_layer29_attn_rms_reciprocal_258:out0':
    qtype: u8
    quantizer: asymmetric_affine
    rounding: rtne
    max_value: 1.0
    min_value: 0.0
    scale: 0.003921568859368563
    zero_point: 0
  '@Divide_259:out0':
    qtype: u8
    quantizer: asymmetric_affine
    rounding: rtne
    max_value: 0.050680406391620636
    min_value: 0.0
    scale: 0.0001987466966966167
    zero_point: 0
  '@Add_layer22_attn_residual_260:out0':
    qtype: u8
    quantizer: asymmetric_affine
    rounding: rtne
    max_value: 29639.126953125
    min_value: -1010.8681030273438
    scale: 120.19605255126953
    zero_point: 8
  '@Mul_sq_mul_layer23_out_proj_262:out0':
    qtype: u8
    quantizer: asymmetric_affine
    rounding: rtne
    max_value: 1.3040578365325928
    min_value: -1.955348253250122
    scale: 0.012781985104084015
    zero_point: 153
  '@Mul_layer23_swiglu_mul_264:out0':
    qtype: u8
    quantizer: asymmetric_affine
    rounding: rtne
    max_value: 13.67283821105957
    min_value: -20.700000762939453
    scale: 0.13479545712471008
    zero_point: 154
  '@Initializer_sq_scale_layer23_down_proj_265:out0':
    qtype: u8
    quantizer: asymmetric_affine
    rounding: rtne
    max_value: 1.22286057472229
    min_value: 0.0
    scale: 0.004795531742274761
    zero_point: 0
  '@Transpose_layer24_ctx_transpose_266:out0':
    qtype: u8
    quantizer: asymmetric_affine
    rounding: rtne
    max_value: 4.275666236877441
    min_value: -3.29313325881958
    scale: 0.02968156710267067
    zero_point: 111
  '@Mul_sq_mul_layer24_up_proj_269:out0':
    qtype: u8
    quantizer: asymmetric_affine
    rounding: rtne
    max_value: 1.3100908994674683
    min_value: -1.502799153327942
    scale: 0.011030941270291805
    zero_point: 136
  '@Softmax_layer25_softmax_271:out0':
    qtype: u8
    quantizer: asymmetric_affine
    rounding: rtne
    max_value: 1.0
    min_value: 0.0
    scale: 0.003921568859368563
    zero_point: 0
  '@Reshape_layer25_v_repeat_merge_272:out0':
    qtype: u8
    quantizer: asymmetric_affine
    rounding: rtne
    max_value: 7.203986167907715
    min_value: -6.587505340576172
    scale: 0.054084278643131256
    zero_point: 122
  '@Tile_layer25_v_repeat_tile_273:out0':
    qtype: u8
    quantizer: asymmetric_affine
    rounding: rtne
    max_value: 7.203986167907715
    min_value: -6.587505340576172
    scale: 0.054084278643131256
    zero_point: 122
  '@Mul_layer25_mlp_rms_scale_to_unit_274:out0':
    qtype: u8
    quantizer: asymmetric_affine
    rounding: rtne
    max_value: 23.868648529052734
    min_value: -6.808651924133301
    scale: 0.12030313163995743
    zero_point: 57
  '@Initializer_layer25_mlp_gamma_275:out0':
    qtype: u8
    quantizer: asymmetric_affine
    rounding: rtne
    max_value: 0.40625
    min_value: -0.00023555755615234375
    scale: 0.0015940610319375992
    zero_point: 0
  '@Mul_layer26_attn_scale_276:out0':
    qtype: u8
    quantizer: asymmetric_affine
    rounding: rtne
    max_value: 11.57348346710205
    min_value: -5.283256530761719
    scale: 0.06610485911369324
    zero_point: 80
  '@MatMul_layer26_attn_scores_277:out0':
    qtype: u8
    quantizer: asymmetric_affine
    rounding: rtne
    max_value: 92.5878677368164
    min_value: -42.26605224609375
    scale: 0.5288388729095459
    zero_point: 80
  '@Reshape_layer26_v_reshape_278:out0':
    qtype: u8
    quantizer: asymmetric_affine
    rounding: rtne
    max_value: 8.304281234741211
    min_value: -6.55358362197876
    scale: 0.058266133069992065
    zero_point: 112
  '@Sqrt_layer26_mlp_rms_sqrt_279:out0':
    qtype: u8
    quantizer: asymmetric_affine
    rounding: rtne
    max_value: 1241.0233154296875
    min_value: 0.0
    scale: 4.866757869720459
    zero_point: 0
  '@Mul_layer27_q_rope_mul_cos_280:out0':
    qtype: u8
    quantizer: asymmetric_affine
    rounding: rtne
    max_value: 15.079802513122559
    min_value: -16.84390640258789
    scale: 0.12519101798534393
    zero_point: 135
  '@Mul_layer27_q_rope_mul_sin_281:out0':
    qtype: u8
    quantizer: asymmetric_affine
    rounding: rtne
    max_value: 5.618984222412109
    min_value: -6.2499003410339355
    scale: 0.046544648706912994
    zero_point: 134
  '@Reshape_layer27_k_repeat_merge_282:out0':
    qtype: u8
    quantizer: asymmetric_affine
    rounding: rtne
    max_value: 14.713732719421387
    min_value: -15.171727180480957
    scale: 0.11719787865877151
    zero_point: 129
  '@ReduceMean_layer27_mlp_rms_mean_285:out0':
    qtype: u8
    quantizer: asymmetric_affine
    rounding: rtne
    max_value: 1538247.625
    min_value: 0.0
    scale: 6032.34375
    zero_point: 0
  '@Mul_layer27_mlp_rms_square_286:out0':
    qtype: u8
    quantizer: asymmetric_affine
    rounding: rtne
    max_value: 874841216.0
    min_value: 0.0
    scale: 3430749.75
    zero_point: 0
  '@Transpose_layer28_q_heads_287:out0':
    qtype: u8
    quantizer: asymmetric_affine
    rounding: rtne
    max_value: 17.693239212036133
    min_value: -13.694451332092285
    scale: 0.12308898568153381
    zero_point: 111
  '@Concat_layer28_q_rope_rotate_half_289:out0':
    qtype: u8
    quantizer: asymmetric_affine
    rounding: rtne
    max_value: 17.693239212036133
    min_value: -13.694451332092285
    scale: 0.12308898568153381
    zero_point: 111
  '@Tile_layer28_k_repeat_tile_291:out0':
    qtype: u8
    quantizer: asymmetric_affine
    rounding: rtne
    max_value: 12.273266792297363
    min_value: -12.15040397644043
    scale: 0.09577910602092743
    zero_point: 127
  '@Mul_layer28_attn_rms_scale_to_unit_292:out0':
    qtype: u8
    quantizer: asymmetric_affine
    rounding: rtne
    max_value: 23.84151840209961
    min_value: -5.429858207702637
    scale: 0.11478971689939499
    zero_point: 47
  '@Initializer_layer28_attn_gamma_293:out0':
    qtype: u8
    quantizer: asymmetric_affine
    rounding: rtne
    max_value: 0.8828125
    min_value: 0.0
    scale: 0.0034620098304003477
    zero_point: 0
  '@Slice_layer29_q_rope_slice_second_295:out0':
    qtype: u8
    quantizer: asymmetric_affine
    rounding: rtne
    max_value: 13.186271667480469
    min_value: -13.322582244873047
    scale: 0.10395628958940506
    zero_point: 128
  '@Mul_layer29_k_rope_mul_cos_297:out0':
    qtype: u8
    quantizer: asymmetric_affine
    rounding: rtne
    max_value: 11.28152847290039
    min_value: -10.867178916931152
    scale: 0.08685767650604248
    zero_point: 125
  '@Mul_layer29_k_rope_mul_sin_298:out0':
    qtype: u8
    quantizer: asymmetric_affine
    rounding: rtne
    max_value: 3.1612064838409424
    min_value: -2.681849956512451
    scale: 0.022913947701454163
    zero_point: 117
  '@Sqrt_layer29_attn_rms_sqrt_299:out0':
    qtype: u8
    quantizer: asymmetric_affine
    rounding: rtne
    max_value: 586.16259765625
    min_value: 0.0
    scale: 2.2986769676208496
    zero_point: 0
  '@Add_layer21_mlp_residual_300:out0':
    qtype: u8
    quantizer: asymmetric_affine
    rounding: rtne
    max_value: 29645.46484375
    min_value: -1010.1679077148438
    scale: 120.21817016601562
    zero_point: 8
  '@Mul_sq_mul_layer22_down_proj_302:out0':
    qtype: u8
    quantizer: asymmetric_affine
    rounding: rtne
    max_value: 4.010881423950195
    min_value: -2.288304328918457
    scale: 0.024702688679099083
    zero_point: 93
  '@Reshape_layer23_ctx_merge_heads_304:out0':
    qtype: u8
    quantizer: asymmetric_affine
    rounding: rtne
    max_value: 2.229125738143921
    min_value: -2.355816602706909
    scale: 0.017980165779590607
    zero_point: 131
  '@Initializer_sq_scale_layer23_out_proj_305:out0':
    qtype: u8
    quantizer: asymmetric_affine
    rounding: rtne
    max_value: 2.0906882286071777
    min_value: 0.0
    scale: 0.008198777213692665
    zero_point: 0
  '@MatMul_layer24_attn_context_308:out0':
    qtype: u8
    quantizer: asymmetric_affine
    rounding: rtne
    max_value: 4.275666236877441
    min_value: -3.29313325881958
    scale: 0.02968156710267067
    zero_point: 111
  '@Mul_sq_mul_layer24_gate_proj_309:out0':
    qtype: u8
    quantizer: asymmetric_affine
    rounding: rtne
    max_value: 1.7974212169647217
    min_value: -1.5530835390090942
    scale: 0.013139234855771065
    zero_point: 118
  '@Initializer_sq_scale_layer24_gate_proj_311:out0':
    qtype: u8
    quantizer: asymmetric_affine
    rounding: rtne
    max_value: 16.917299270629883
    min_value: 0.0
    scale: 0.06634234637022018
    zero_point: 0
  '@Mul_layer24_mlp_rms_gamma_312:out0':
    qtype: u8
    quantizer: asymmetric_affine
    rounding: rtne
    max_value: 1.851770281791687
    min_value: -2.3096282482147217
    scale: 0.016319209709763527
    zero_point: 142
  '@Initializer_sq_scale_layer24_up_proj_313:out0':
    qtype: u8
    quantizer: asymmetric_affine
    rounding: rtne
    max_value: 18.858945846557617
    min_value: 0.0
    scale: 0.07395665347576141
    zero_point: 0
  '@Add_layer25_causal_mask_314:out0':
    qtype: u8
    quantizer: asymmetric_affine
    rounding: rtne
    max_value: 7.396402835845947
    min_value: -10006.9306640625
    scale: 39.27186965942383
    zero_point: 255
  '@Reshape_layer25_v_repeat_expand_315:out0':
    qtype: u8
    quantizer: asymmetric_affine
    rounding: rtne
    max_value: 7.203986167907715
    min_value: -6.587505340576172
    scale: 0.054084278643131256
    zero_point: 122
  '@Transpose_layer25_v_heads_316:out0':
    qtype: u8
    quantizer: asymmetric_affine
    rounding: rtne
    max_value: 7.203986167907715
    min_value: -6.587505340576172
    scale: 0.054084278643131256
    zero_point: 122
  '@Reciprocal_layer25_mlp_rms_reciprocal_317:out0':
    qtype: u8
    quantizer: asymmetric_affine
    rounding: rtne
    max_value: 1.0
    min_value: 0.0
    scale: 0.003921568859368563
    zero_point: 0
  '@Divide_318:out0':
    qtype: u8
    quantizer: asymmetric_affine
    rounding: rtne
    max_value: 0.07386144250631332
    min_value: 0.0
    scale: 0.00028965272940695286
    zero_point: 0
  '@Add_layer26_q_rope_rope_add_319:out0':
    qtype: u8
    quantizer: asymmetric_affine
    rounding: rtne
    max_value: 13.320551872253418
    min_value: -13.452973365783691
    scale: 0.10499421507120132
    zero_point: 128
  '@Transpose_layer26_k_transpose_320:out0':
    qtype: u8
    quantizer: asymmetric_affine
    rounding: rtne
    max_value: 12.150522232055664
    min_value: -15.72557258605957
    scale: 0.10931801795959473
    zero_point: 144
  '@Add_layer26_mlp_rms_eps_322:out0':
    qtype: u8
    quantizer: asymmetric_affine
    rounding: rtne
    max_value: 1540137.5
    min_value: 0.0
    scale: 6039.7548828125
    zero_point: 0
  '@Transpose_layer27_q_heads_323:out0':
    qtype: u8
    quantizer: asymmetric_affine
    rounding: rtne
    max_value: 15.08003044128418
    min_value: -16.844345092773438
    scale: 0.12519362568855286
    zero_point: 135
  '@Reshape_layer27_q_reshape_324:out0':
    qtype: u8
    quantizer: asymmetric_affine
    rounding: rtne
    max_value: 15.08003044128418
    min_value: -16.844345092773438
    scale: 0.12519362568855286
    zero_point: 135
  '@Concat_layer27_q_rope_rotate_half_325:out0':
    qtype: u8
    quantizer: asymmetric_affine
    rounding: rtne
    max_value: 16.844467163085938
    min_value: -15.663715362548828
    scale: 0.127483069896698
    zero_point: 123
  '@Slice_layer27_q_rope_slice_first_326:out0':
    qtype: u8
    quantizer: asymmetric_affine
    rounding: rtne
    max_value: 15.08003044128418
    min_value: -16.844345092773438
    scale: 0.12519362568855286
    zero_point: 135
  '@Tile_layer27_k_repeat_tile_327:out0':
    qtype: u8
    quantizer: asymmetric_affine
    rounding: rtne
    max_value: 14.713732719421387
    min_value: -15.171727180480957
    scale: 0.11719787865877151
    zero_point: 129
  '@Mul_sq_mul_layer27_v_proj_328:out0':
    qtype: u8
    quantizer: asymmetric_affine
    rounding: rtne
    max_value: 1.4282796382904053
    min_value: -1.4593651294708252
    scale: 0.011324097402393818
    zero_point: 129
  '@Initializer_sq_scale_layer27_v_proj_330:out0':
    qtype: u8
    quantizer: asymmetric_affine
    rounding: rtne
    max_value: 1.6151994466781616
    min_value: 0.0
    scale: 0.006334115285426378
    zero_point: 0
  '@Mul_layer27_attn_rms_gamma_331:out0':
    qtype: u8
    quantizer: asymmetric_affine
    rounding: rtne
    max_value: 7.386476516723633
    min_value: -2.4712436199188232
    scale: 0.03865772858262062
    zero_point: 64
  '@Reshape_layer28_q_reshape_332:out0':
    qtype: u8
    quantizer: asymmetric_affine
    rounding: rtne
    max_value: 17.693239212036133
    min_value: -13.694451332092285
    scale: 0.12308898568153381
    zero_point: 111
  '@Neg_layer28_q_rope_neg_second_333:out0':
    qtype: u8
    quantizer: asymmetric_affine
    rounding: rtne
    max_value: 17.693239212036133
    min_value: -13.694451332092285
    scale: 0.12308898568153381
    zero_point: 111
  '@Slice_layer28_q_rope_slice_first_334:out0':
    qtype: u8
    quantizer: asymmetric_affine
    rounding: rtne
    max_value: 17.693239212036133
    min_value: -13.694451332092285
    scale: 0.12308898568153381
    zero_point: 111
  '@Reshape_layer28_k_repeat_expand_335:out0':
    qtype: u8
    quantizer: asymmetric_affine
    rounding: rtne
    max_value: 12.273266792297363
    min_value: -12.15040397644043
    scale: 0.09577910602092743
    zero_point: 127
  '@Add_layer28_k_rope_rope_add_336:out0':
    qtype: u8
    quantizer: asymmetric_affine
    rounding: rtne
    max_value: 12.273266792297363
    min_value: -12.15040397644043
    scale: 0.09577910602092743
    zero_point: 127
  '@Reciprocal_layer28_attn_rms_reciprocal_337:out0':
    qtype: u8
    quantizer: asymmetric_affine
    rounding: rtne
    max_value: 1.0
    min_value: 0.0
    scale: 0.003921568859368563
    zero_point: 0
  '@Divide_338:out0':
    qtype: u8
    quantizer: asymmetric_affine
    rounding: rtne
    max_value: 0.056377243250608444
    min_value: 0.0
    scale: 0.00022108723351266235
    zero_point: 0
  '@Transpose_layer29_k_heads_340:out0':
    qtype: u8
    quantizer: asymmetric_affine
    rounding: rtne
    max_value: 11.281688690185547
    min_value: -10.867473602294922
    scale: 0.08685945719480515
    zero_point: 125
  '@Reshape_layer29_k_reshape_341:out0':
    qtype: u8
    quantizer: asymmetric_affine
    rounding: rtne
    max_value: 11.281688690185547
    min_value: -10.867473602294922
    scale: 0.08685945719480515
    zero_point: 125
  '@Concat_layer29_k_rope_rotate_half_342:out0':
    qtype: u8
    quantizer: asymmetric_affine
    rounding: rtne
    max_value: 10.355622291564941
    min_value: -11.281676292419434
    scale: 0.08485215157270432
    zero_point: 133
  '@Slice_layer29_k_rope_slice_first_343:out0':
    qtype: u8
    quantizer: asymmetric_affine
    rounding: rtne
    max_value: 11.281688690185547
    min_value: -10.867473602294922
    scale: 0.08685945719480515
    zero_point: 125
  '@Add_layer29_attn_rms_eps_344:out0':
    qtype: u8
    quantizer: asymmetric_affine
    rounding: rtne
    max_value: 343586.0625
    min_value: 0.0
    scale: 1347.3963623046875
    zero_point: 0
  '@Add_layer21_attn_residual_345:out0':
    qtype: u8
    quantizer: asymmetric_affine
    rounding: rtne
    max_value: 29644.013671875
    min_value: -1010.1651000976562
    scale: 120.21247100830078
    zero_point: 8
  '@Mul_sq_mul_layer22_out_proj_347:out0':
    qtype: u8
    quantizer: asymmetric_affine
    rounding: rtne
    max_value: 1.2228213548660278
    min_value: -1.3656216859817505
    scale: 0.010150756686925888
    zero_point: 135
  '@Mul_layer22_swiglu_mul_349:out0':
    qtype: u8
    quantizer: asymmetric_affine
    rounding: rtne
    max_value: 15.919045448303223
    min_value: -7.130187511444092
    scale: 0.09038914740085602
    zero_point: 79
  '@Initializer_sq_scale_layer22_down_proj_350:out0':
    qtype: u8
    quantizer: asymmetric_affine
    rounding: rtne
    max_value: 1.656151533126831
    min_value: 0.0
    scale: 0.006494712084531784
    zero_point: 0
  '@Transpose_layer23_ctx_transpose_351:out0':
    qtype: u8
    quantizer: asymmetric_affine
    rounding: rtne
    max_value: 2.229125738143921
    min_value: -2.355816602706909
    scale: 0.017980165779590607
    zero_point: 131
  '@Mul_sq_mul_layer23_up_proj_354:out0':
    qtype: u8
    quantizer: asymmetric_affine
    rounding: rtne
    max_value: 1.2461212873458862
    min_value: -1.487669587135315
    scale: 0.010720748454332352
    zero_point: 139
  '@Softmax_layer24_softmax_356:out0':
    qtype: u8
    quantizer: asymmetric_affine
    rounding: rtne
    max_value: 1.0
    min_value: 0.0
    scale: 0.003921568859368563
    zero_point: 0
  '@Reshape_layer24_v_repeat_merge_357:out0':
    qtype: u8
    quantizer: asymmetric_affine
    rounding: rtne
    max_value: 11.696494102478027
    min_value: -9.84124755859375
    scale: 0.08446173369884491
    zero_point: 117
  '@Tile_layer24_v_repeat_tile_358:out0':
    qtype: u8
    quantizer: asymmetric_affine
    rounding: rtne
    max_value: 11.696494102478027
    min_value: -9.84124755859375
    scale: 0.08446173369884491
    zero_point: 117
  '@Mul_layer24_mlp_rms_scale_to_unit_359:out0':
    qtype: u8
    quantizer: asymmetric_affine
    rounding: rtne
    max_value: 23.872568130493164
    min_value: -7.4645256996154785
    scale: 0.12289056181907654
    zero_point: 61
  '@Initializer_layer24_mlp_gamma_360:out0':
    qtype: u8
    quantizer: asymmetric_affine
    rounding: rtne
    max_value: 0.435546875
    min_value: -1.4722347259521484e-05
    scale: 0.0017080847173929214
    zero_point: 0
  '@Mul_layer25_attn_scale_361:out0':
    qtype: u8
    quantizer: asymmetric_affine
    rounding: rtne
    max_value: 7.34807014465332
    min_value: -6.925665378570557
    scale: 0.055975429713726044
    zero_point: 124
  '@MatMul_layer25_attn_scores_362:out0':
    qtype: u8
    quantizer: asymmetric_affine
    rounding: rtne
    max_value: 58.78456115722656
    min_value: -55.40532302856445
    scale: 0.44780343770980835
    zero_point: 124
  '@Reshape_layer25_v_reshape_363:out0':
    qtype: u8
    quantizer: asymmetric_affine
    rounding: rtne
    max_value: 7.203986167907715
    min_value: -6.587505340576172
    scale: 0.054084278643131256
    zero_point: 122
  '@Sqrt_layer25_mlp_rms_sqrt_364:out0':
    qtype: u8
    quantizer: asymmetric_affine
    rounding: rtne
    max_value: 1241.250732421875
    min_value: 0.0
    scale: 4.867650032043457
    zero_point: 0
  '@Mul_layer26_q_rope_mul_cos_365:out0':
    qtype: u8
    quantizer: asymmetric_affine
    rounding: rtne
    max_value: 13.329743385314941
    min_value: -14.350870132446289
    scale: 0.10855142772197723
    zero_point: 132
  '@Mul_layer26_q_rope_mul_sin_366:out0':
    qtype: u8
    quantizer: asymmetric_affine
    rounding: rtne
    max_value: 5.08474063873291
    min_value: -4.994998931884766
    scale: 0.039528392255306244
    zero_point: 126
  '@Reshape_layer26_k_repeat_merge_367:out0':
    qtype: u8
    quantizer: asymmetric_affine
    rounding: rtne
    max_value: 12.150522232055664
    min_value: -15.72557258605957
    scale: 0.10931801795959473
    zero_point: 144
  '@ReduceMean_layer26_mlp_rms_mean_370:out0':
    qtype: u8
    quantizer: asymmetric_affine
    rounding: rtne
    max_value: 1540137.5
    min_value: 0.0
    scale: 6039.7548828125
    zero_point: 0
  '@Mul_layer26_mlp_rms_square_371:out0':
    qtype: u8
    quantizer: asymmetric_affine
    rounding: rtne
    max_value: 876036928.0
    min_value: 0.0
    scale: 3435439.0
    zero_point: 0
  '@Neg_layer27_q_rope_neg_second_373:out0':
    qtype: u8
    quantizer: asymmetric_affine
    rounding: rtne
    max_value: 16.844467163085938
    min_value: -15.663715362548828
    scale: 0.127483069896698
    zero_point: 123
  '@Slice_layer27_q_rope_slice_second_374:out0':
    qtype: u8
    quantizer: asymmetric_affine
    rounding: rtne
    max_value: 15.08003044128418
    min_value: -16.844345092773438
    scale: 0.12519362568855286
    zero_point: 135
  '@Reshape_layer27_k_repeat_expand_375:out0':
    qtype: u8
    quantizer: asymmetric_affine
    rounding: rtne
    max_value: 14.713732719421387
    min_value: -15.171727180480957
    scale: 0.11719787865877151
    zero_point: 129
  '@Mul_layer27_attn_rms_scale_to_unit_376:out0':
    qtype: u8
    quantizer: asymmetric_affine
    rounding: rtne
    max_value: 23.8664608001709
    min_value: -6.104176998138428
    scale: 0.117531917989254
    zero_point: 52
  '@Initializer_layer27_attn_gamma_377:out0':
    qtype: u8
    quantizer: asymmetric_affine
    rounding: rtne
    max_value: 1.0078125
    min_value: 0.0
    scale: 0.003952206112444401
    zero_point: 0
  '@Slice_layer28_q_rope_slice_second_379:out0':
    qtype: u8
    quantizer: asymmetric_affine
    rounding: rtne
    max_value: 17.693239212036133
    min_value: -13.694451332092285
    scale: 0.12308898568153381
    zero_point: 111
  '@Mul_layer28_k_rope_mul_cos_381:out0':
    qtype: u8
    quantizer: asymmetric_affine
    rounding: rtne
    max_value: 12.26718807220459
    min_value: -12.148528099060059
    scale: 0.09574790298938751
    zero_point: 127
  '@Mul_layer28_k_rope_mul_sin_382:out0':
    qtype: u8
    quantizer: asymmetric_affine
    rounding: rtne
    max_value: 3.338142156600952
    min_value: -2.601921558380127
    scale: 0.023294366896152496
    zero_point: 112
  '@Sqrt_layer28_attn_rms_sqrt_383:out0':
    qtype: u8
    quantizer: asymmetric_affine
    rounding: rtne
    max_value: 1233.1544189453125
    min_value: 0.0
    scale: 4.835899829864502
    zero_point: 0
  '@Mul_sq_mul_layer29_q_proj_384:out0':
    qtype: u8
    quantizer: asymmetric_affine
    rounding: rtne
    max_value: 3.583561420440674
    min_value: -3.4736533164978027
    scale: 0.02767535112798214
    zero_point: 126
  '@Neg_layer29_k_rope_neg_second_387:out0':
    qtype: u8
    quantizer: asymmetric_affine
    rounding: rtne
    max_value: 10.355622291564941
    min_value: -11.281676292419434
    scale: 0.08485215157270432
    zero_point: 133
  '@Slice_layer29_k_rope_slice_second_388:out0':
    qtype: u8
    quantizer: asymmetric_affine
    rounding: rtne
    max_value: 11.281688690185547
    min_value: -10.867473602294922
    scale: 0.08685945719480515
    zero_point: 125
  '@ReduceMean_layer29_attn_rms_mean_389:out0':
    qtype: u8
    quantizer: asymmetric_affine
    rounding: rtne
    max_value: 343586.0625
    min_value: 0.0
    scale: 1347.3963623046875
    zero_point: 0
  '@Mul_layer29_attn_rms_square_390:out0':
    qtype: u8
    quantizer: asymmetric_affine
    rounding: rtne
    max_value: 190023968.0
    min_value: 0.0
    scale: 745192.0625
    zero_point: 0
  '@Add_layer20_mlp_residual_391:out0':
    qtype: u8
    quantizer: asymmetric_affine
    rounding: rtne
    max_value: 29636.923828125
    min_value: -1013.0077514648438
    scale: 120.19580841064453
    zero_point: 8
  '@Mul_sq_mul_layer21_down_proj_393:out0':
    qtype: u8
    quantizer: asymmetric_affine
    rounding: rtne
    max_value: 2.7567644119262695
    min_value: -2.7567644119262695
    scale: 0.02162168174982071
    zero_point: 128
  '@Reshape_layer22_ctx_merge_heads_395:out0':
    qtype: u8
    quantizer: asymmetric_affine
    rounding: rtne
    max_value: 1.8951706886291504
    min_value: -1.9214420318603516
    scale: 0.014967109076678753
    zero_point: 128
  '@Initializer_sq_scale_layer22_out_proj_396:out0':
    qtype: u8
    quantizer: asymmetric_affine
    rounding: rtne
    max_value: 1.7096604108810425
    min_value: 0.0
    scale: 0.006704550702124834
    zero_point: 0
  '@MatMul_layer23_attn_context_399:out0':
    qtype: u8
    quantizer: asymmetric_affine
    rounding: rtne
    max_value: 2.229125738143921
    min_value: -2.355816602706909
    scale: 0.017980165779590607
    zero_point: 131
  '@Mul_sq_mul_layer23_gate_proj_400:out0':
    qtype: u8
    quantizer: asymmetric_affine
    rounding: rtne
    max_value: 1.2765779495239258
    min_value: -1.7342801094055176
    scale: 0.01180728618055582
    zero_point: 147
  '@Initializer_sq_scale_layer23_gate_proj_402:out0':
    qtype: u8
    quantizer: asymmetric_affine
    rounding: rtne
    max_value: 3.0562996864318848
    min_value: 0.0
    scale: 0.011985489167273045
    zero_point: 0
  '@Mul_layer23_mlp_rms_gamma_403:out0':
    qtype: u8
    quantizer: asymmetric_affine
    rounding: rtne
    max_value: 1.8365542888641357
    min_value: -2.0859808921813965
    scale: 0.015382491052150726
    zero_point: 136
  '@Initializer_sq_scale_layer23_up_proj_404:out0':
    qtype: u8
    quantizer: asymmetric_affine
    rounding: rtne
    max_value: 3.1726481914520264
    min_value: 0.0
    scale: 0.012441758066415787
    zero_point: 0
  '@Add_layer24_causal_mask_405:out0':
    qtype: u8
    quantizer: asymmetric_affine
    rounding: rtne
    max_value: 7.3430376052856445
    min_value: -10006.427734375
    scale: 39.26968765258789
    zero_point: 255
  '@Reshape_layer24_v_repeat_expand_406:out0':
    qtype: u8
    quantizer: asymmetric_affine
    rounding: rtne
    max_value: 11.696494102478027
    min_value: -9.84124755859375
    scale: 0.08446173369884491
    zero_point: 117
  '@Transpose_layer24_v_heads_407:out0':
    qtype: u8
    quantizer: asymmetric_affine
    rounding: rtne
    max_value: 11.696494102478027
    min_value: -9.84124755859375
    scale: 0.08446173369884491
    zero_point: 117
  '@Reciprocal_layer24_mlp_rms_reciprocal_408:out0':
    qtype: u8
    quantizer: asymmetric_affine
    rounding: rtne
    max_value: 1.0
    min_value: 0.0
    scale: 0.003921568859368563
    zero_point: 0
  '@Divide_409:out0':
    qtype: u8
    quantizer: asymmetric_affine
    rounding: rtne
    max_value: 0.08533468842506409
    min_value: 0.0
    scale: 0.0003346458252053708
    zero_point: 0
  '@Add_layer25_q_rope_rope_add_410:out0':
    qtype: u8
    quantizer: asymmetric_affine
    rounding: rtne
    max_value: 9.361244201660156
    min_value: -17.02751922607422
    scale: 0.1034853458404541
    zero_point: 165
  '@Transpose_layer25_k_transpose_411:out0':
    qtype: u8
    quantizer: asymmetric_affine
    rounding: rtne
    max_value: 13.67807674407959
    min_value: -16.20690155029297
    scale: 0.1171959936618805
    zero_point: 138
  '@Add_layer25_mlp_rms_eps_413:out0':
    qtype: u8
    quantizer: asymmetric_affine
    rounding: rtne
    max_value: 1540704.125
    min_value: 0.0
    scale: 6041.97705078125
    zero_point: 0
  '@Transpose_layer26_q_heads_414:out0':
    qtype: u8
    quantizer: asymmetric_affine
    rounding: rtne
    max_value: 13.329851150512695
    min_value: -14.351082801818848
    scale: 0.10855268687009811
    zero_point: 132
  '@Reshape_layer26_q_reshape_415:out0':
    qtype: u8
    quantizer: asymmetric_affine
    rounding: rtne
    max_value: 13.329851150512695
    min_value: -14.351082801818848
    scale: 0.10855268687009811
    zero_point: 132
  '@Concat_layer26_q_rope_rotate_half_416:out0':
    qtype: u8
    quantizer: asymmetric_affine
    rounding: rtne
    max_value: 14.350987434387207
    min_value: -13.174646377563477
    scale: 0.10794366896152496
    zero_point: 122
  '@Slice_layer26_q_rope_slice_first_417:out0':
    qtype: u8
    quantizer: asymmetric_affine
    rounding: rtne
    max_value: 13.329851150512695
    min_value: -14.351082801818848
    scale: 0.10855268687009811
    zero_point: 132
  '@Tile_layer26_k_repeat_tile_418:out0':
    qtype: u8
    quantizer: asymmetric_affine
    rounding: rtne
    max_value: 12.150522232055664
    min_value: -15.72557258605957
    scale: 0.10931801795959473
    zero_point: 144
  '@Mul_sq_mul_layer26_v_proj_419:out0':
    qtype: u8
    quantizer: asymmetric_affine
    rounding: rtne
    max_value: 1.1916626691818237
    min_value: -1.0989471673965454
    scale: 0.008982784114778042
    zero_point: 122
  '@Initializer_sq_scale_layer26_v_proj_421:out0':
    qtype: u8
    quantizer: asymmetric_affine
    rounding: rtne
    max_value: 1.6234768629074097
    min_value: 0.0
    scale: 0.0063665760681033134
    zero_point: 0
  '@Mul_layer26_attn_rms_gamma_422:out0':
    qtype: u8
    quantizer: asymmetric_affine
    rounding: rtne
    max_value: 6.686616897583008
    min_value: -2.5297582149505615
    scale: 0.03614264726638794
    zero_point: 70
  '@Add_layer27_k_rope_rope_add_426:out0':
    qtype: u8
    quantizer: asymmetric_affine
    rounding: rtne
    max_value: 14.713732719421387
    min_value: -15.171727180480957
    scale: 0.11719787865877151
    zero_point: 129
  '@Mul_layer27_k_rope_mul_sin_427:out0':
    qtype: u8
    quantizer: asymmetric_affine
    rounding: rtne
    max_value: 4.051337718963623
    min_value: -4.289034366607666
    scale: 0.0327073410153389
    zero_point: 131
  '@Reciprocal_layer27_attn_rms_reciprocal_428:out0':
    qtype: u8
    quantizer: asymmetric_affine
    rounding: rtne
    max_value: 1.0
    min_value: 0.0
    scale: 0.003921568859368563
    zero_point: 0
  '@Divide_429:out0':
    qtype: u8
    quantizer: asymmetric_affine
    rounding: rtne
    max_value: 0.06636518985033035
    min_value: 0.0
    scale: 0.0002602556487545371
    zero_point: 0
  '@Transpose_layer28_k_heads_431:out0':
    qtype: u8
    quantizer: asymmetric_affine
    rounding: rtne
    max_value: 12.267316818237305
    min_value: -12.148921966552734
    scale: 0.09574995934963226
    zero_point: 127
  '@Reshape_layer28_k_reshape_432:out0':
    qtype: u8
    quantizer: asymmetric_affine
    rounding: rtne
    max_value: 12.267316818237305
    min_value: -12.148921966552734
    scale: 0.09574995934963226
    zero_point: 127
  '@Concat_layer28_k_rope_rotate_half_433:out0':
    qtype: u8
    quantizer: asymmetric_affine
    rounding: rtne
    max_value: 12.148859977722168
    min_value: -12.26738452911377
    scale: 0.09574998170137405
    zero_point: 128
  '@Slice_layer28_k_rope_slice_first_434:out0':
    qtype: u8
    quantizer: asymmetric_affine
    rounding: rtne
    max_value: 12.267316818237305
    min_value: -12.148921966552734
    scale: 0.09574995934963226
    zero_point: 127
  '@Add_layer28_attn_rms_eps_435:out0':
    qtype: u8
    quantizer: asymmetric_affine
    rounding: rtne
    max_value: 1520672.75
    min_value: 0.0
    scale: 5963.42236328125
    zero_point: 0
  '@ReduceMean_layer28_attn_rms_mean_436:out0':
    qtype: u8
    quantizer: asymmetric_affine
    rounding: rtne
    max_value: 1520672.75
    min_value: 0.0
    scale: 5963.42236328125
    zero_point: 0
  '@Initializer_sq_scale_layer29_q_proj_437:out0':
    qtype: u8
    quantizer: asymmetric_affine
    rounding: rtne
    max_value: 1.4521434307098389
    min_value: 0.0
    scale: 0.005694679915904999
    zero_point: 0
  '@Mul_sq_mul_layer29_k_proj_441:out0':
    qtype: u8
    quantizer: asymmetric_affine
    rounding: rtne
    max_value: 2.9709157943725586
    min_value: -1.9879648685455322
    scale: 0.019446589052677155
    zero_point: 102
  '@Initializer_sq_scale_layer29_k_proj_442:out0':
    qtype: u8
    quantizer: asymmetric_affine
    rounding: rtne
    max_value: 1.2105724811553955
    min_value: 0.0
    scale: 0.004747343249619007
    zero_point: 0
  '@Add_layer20_attn_residual_443:out0':
    qtype: u8
    quantizer: asymmetric_affine
    rounding: rtne
    max_value: 29636.384765625
    min_value: -1012.850341796875
    scale: 120.19307708740234
    zero_point: 8
  '@Mul_sq_mul_layer21_out_proj_445:out0':
    qtype: u8
    quantizer: asymmetric_affine
    rounding: rtne
    max_value: 1.343234896659851
    min_value: -2.097641706466675
    scale: 0.013493632897734642
    zero_point: 155
  '@Mul_layer21_swiglu_mul_447:out0':
    qtype: u8
    quantizer: asymmetric_affine
    rounding: rtne
    max_value: 10.308401107788086
    min_value: -11.68174934387207
    scale: 0.0862358808517456
    zero_point: 135
  '@Initializer_sq_scale_layer21_down_proj_448:out0':
    qtype: u8
    quantizer: asymmetric_affine
    rounding: rtne
    max_value: 1.5300973653793335
    min_value: 0.0
    scale: 0.0060003818944096565
    zero_point: 0
  '@Transpose_layer22_ctx_transpose_449:out0':
    qtype: u8
    quantizer: asymmetric_affine
    rounding: rtne
    max_value: 1.8951706886291504
    min_value: -1.9214420318603516
    scale: 0.014967109076678753
    zero_point: 128
  '@Mul_sq_mul_layer22_up_proj_452:out0':
    qtype: u8
    quantizer: asymmetric_affine
    rounding: rtne
    max_value: 1.3631339073181152
    min_value: -1.4520539045333862
    scale: 0.011039952747523785
    zero_point: 132
  '@Softmax_layer23_softmax_454:out0':
    qtype: u8
    quantizer: asymmetric_affine
    rounding: rtne
    max_value: 1.0
    min_value: 0.0
    scale: 0.003921568859368563
    zero_point: 0
  '@Reshape_layer23_v_repeat_merge_455:out0':
    qtype: u8
    quantizer: asymmetric_affine
    rounding: rtne
    max_value: 7.291100025177002
    min_value: -7.890690326690674
    scale: 0.05953643098473549
    zero_point: 133
  '@Tile_layer23_v_repeat_tile_456:out0':
    qtype: u8
    quantizer: asymmetric_affine
    rounding: rtne
    max_value: 7.291100025177002
    min_value: -7.890690326690674
    scale: 0.05953643098473549
    zero_point: 133
  '@Mul_layer23_mlp_rms_scale_to_unit_457:out0':
    qtype: u8
    quantizer: asymmetric_affine
    rounding: rtne
    max_value: 23.903255462646484
    min_value: -12.754055976867676
    scale: 0.14375415444374084
    zero_point: 89
  '@Initializer_layer23_mlp_gamma_458:out0':
    qtype: u8
    quantizer: asymmetric_affine
    rounding: rtne
    max_value: 0.400390625
    min_value: -0.000507354736328125
    scale: 0.001572148990817368
    zero_point: 0
  '@Mul_layer24_attn_scale_459:out0':
    qtype: u8
    quantizer: asymmetric_affine
    rounding: rtne
    max_value: 7.349215507507324
    min_value: -7.555000305175781
    scale: 0.058447904884815216
    zero_point: 129
  '@MatMul_layer24_attn_scores_460:out0':
    qtype: u8
    quantizer: asymmetric_affine
    rounding: rtne
    max_value: 58.793724060058594
    min_value: -60.44000244140625
    scale: 0.46758323907852173
    zero_point: 129
  '@Reshape_layer24_v_reshape_461:out0':
    qtype: u8
    quantizer: asymmetric_affine
    rounding: rtne
    max_value: 11.696494102478027
    min_value: -9.84124755859375
    scale: 0.08446173369884491
    zero_point: 117
  '@Sqrt_layer24_mlp_rms_sqrt_462:out0':
    qtype: u8
    quantizer: asymmetric_affine
    rounding: rtne
    max_value: 1241.1741943359375
    min_value: 0.0
    scale: 4.867349624633789
    zero_point: 0
  '@Mul_layer25_q_rope_mul_cos_463:out0':
    qtype: u8
    quantizer: asymmetric_affine
    rounding: rtne
    max_value: 9.359901428222656
    min_value: -17.029325485229492
    scale: 0.10348716378211975
    zero_point: 165
  '@Mul_layer25_q_rope_mul_sin_464:out0':
    qtype: u8
    quantizer: asymmetric_affine
    rounding: rtne
    max_value: 5.449416637420654
    min_value: -5.449416637420654
    scale: 0.04274052381515503
    zero_point: 128
  '@Reshape_layer25_k_repeat_merge_465:out0':
    qtype: u8
    quantizer: asymmetric_affine
    rounding: rtne
    max_value: 13.67807674407959
    min_value: -16.20690155029297
    scale: 0.1171959936618805
    zero_point: 138
  '@ReduceMean_layer25_mlp_rms_mean_468:out0':
    qtype: u8
    quantizer: asymmetric_affine
    rounding: rtne
    max_value: 1540704.125
    min_value: 0.0
    scale: 6041.97705078125
    zero_point: 0
  '@Mul_layer25_mlp_rms_square_469:out0':
    qtype: u8
    quantizer: asymmetric_affine
    rounding: rtne
    max_value: 876393280.0
    min_value: 0.0
    scale: 3436836.5
    zero_point: 0
  '@Neg_layer26_q_rope_neg_second_471:out0':
    qtype: u8
    quantizer: asymmetric_affine
    rounding: rtne
    max_value: 14.350987434387207
    min_value: -13.174646377563477
    scale: 0.10794366896152496
    zero_point: 122
  '@Slice_layer26_q_rope_slice_second_472:out0':
    qtype: u8
    quantizer: asymmetric_affine
    rounding: rtne
    max_value: 13.329851150512695
    min_value: -14.351082801818848
    scale: 0.10855268687009811
    zero_point: 132
  '@Reshape_layer26_k_repeat_expand_473:out0':
    qtype: u8
    quantizer: asymmetric_affine
    rounding: rtne
    max_value: 12.150522232055664
    min_value: -15.72557258605957
    scale: 0.10931801795959473
    zero_point: 144
  '@Mul_layer26_attn_rms_scale_to_unit_474:out0':
    qtype: u8
    quantizer: asymmetric_affine
    rounding: rtne
    max_value: 23.868541717529297
    min_value: -6.5435566902160645
    scale: 0.11926312744617462
    zero_point: 55
  '@Initializer_layer26_attn_gamma_475:out0':
    qtype: u8
    quantizer: asymmetric_affine
    rounding: rtne
    max_value: 0.8671875
    min_value: 0.0
    scale: 0.0034007353242486715
    zero_point: 0
  '@Mul_sq_mul_layer27_q_proj_476:out0':
    qtype: u8
    quantizer: asymmetric_affine
    rounding: rtne
    max_value: 2.7114641666412354
    min_value: -1.6542848348617554
    scale: 0.01712058298289776
    zero_point: 97
  '@Mul_layer27_k_rope_mul_cos_477:out0':
    qtype: u8
    quantizer: asymmetric_affine
    rounding: rtne
    max_value: 14.70954418182373
    min_value: -15.162552833557129
    scale: 0.11714547872543335
    zero_point: 129
  '@Concat_layer27_k_rope_rotate_half_478:out0':
    qtype: u8
    quantizer: asymmetric_affine
    rounding: rtne
    max_value: 14.597002983093262
    min_value: -15.162925720214844
    scale: 0.11670560389757156
    zero_point: 130
  '@Slice_layer27_k_rope_slice_first_479:out0':
    qtype: u8
    quantizer: asymmetric_affine
    rounding: rtne
    max_value: 14.709720611572266
    min_value: -15.162946701049805
    scale: 0.11714771389961243
    zero_point: 129
  '@Sqrt_layer27_attn_rms_sqrt_480:out0':
    qtype: u8
    quantizer: asymmetric_affine
    rounding: rtne
    max_value: 1240.959716796875
    min_value: 0.0
    scale: 4.866508483886719
    zero_point: 0
  '@Mul_sq_mul_layer28_q_proj_481:out0':
    qtype: u8
    quantizer: asymmetric_affine
    rounding: rtne
    max_value: 3.0344009399414062
    min_value: -1.745950698852539
    scale: 0.018746476620435715
    zero_point: 93
  '@Neg_layer28_k_rope_neg_second_484:out0':
    qtype: u8
    quantizer: asymmetric_affine
    rounding: rtne
    max_value: 12.148859977722168
    min_value: -12.26738452911377
    scale: 0.09574998170137405
    zero_point: 128
  '@Slice_layer28_k_rope_slice_second_485:out0':
    qtype: u8
    quantizer: asymmetric_affine
    rounding: rtne
    max_value: 12.26738452911377
    min_value: -12.148859977722168
    scale: 0.09574998170137405
    zero_point: 127
  '@Mul_layer28_attn_rms_square_486:out0':
    qtype: u8
    quantizer: asymmetric_affine
    rounding: rtne
    max_value: 864363136.0
    min_value: 0.0
    scale: 3389659.25
    zero_point: 0
  '@Add_layer19_mlp_residual_488:out0':
    qtype: u8
    quantizer: asymmetric_affine
    rounding: rtne
    max_value: 29638.69140625
    min_value: -1012.8502197265625
    scale: 120.20211791992188
    zero_point: 8
  '@Mul_sq_mul_layer20_down_proj_490:out0':
    qtype: u8
    quantizer: asymmetric_affine
    rounding: rtne
    max_value: 2.480229616165161
    min_value: -3.5945587158203125
    scale: 0.02382269874215126
    zero_point: 151
  '@Reshape_layer21_ctx_merge_heads_492:out0':
    qtype: u8
    quantizer: asymmetric_affine
    rounding: rtne
    max_value: 2.7864151000976562
    min_value: -3.030477285385132
    scale: 0.022811343893408775
    zero_point: 133
  '@Initializer_sq_scale_layer21_out_proj_493:out0':
    qtype: u8
    quantizer: asymmetric_affine
    rounding: rtne
    max_value: 1.8582862615585327
    min_value: 0.0
    scale: 0.007287397049367428
    zero_point: 0
  '@MatMul_layer22_attn_context_496:out0':
    qtype: u8
    quantizer: asymmetric_affine
    rounding: rtne
    max_value: 1.8951706886291504
    min_value: -1.9214420318603516
    scale: 0.014967109076678753
    zero_point: 128
  '@Mul_sq_mul_layer22_gate_proj_497:out0':
    qtype: u8
    quantizer: asymmetric_affine
    rounding: rtne
    max_value: 1.580452561378479
    min_value: -1.6590312719345093
    scale: 0.012703858315944672
    zero_point: 131
  '@Initializer_sq_scale_layer22_gate_proj_499:out0':
    qtype: u8
    quantizer: asymmetric_affine
    rounding: rtne
    max_value: 13.463013648986816
    min_value: 0.0
    scale: 0.0527961328625679
    zero_point: 0
  '@Mul_layer22_mlp_rms_gamma_500:out0':
    qtype: u8
    quantizer: asymmetric_affine
    rounding: rtne
    max_value: 1.9186186790466309
    min_value: -2.4900565147399902
    scale: 0.017288921400904655
    zero_point: 144
  '@Initializer_sq_scale_layer22_up_proj_501:out0':
    qtype: u8
    quantizer: asymmetric_affine
    rounding: rtne
    max_value: 12.795964241027832
    min_value: 0.0
    scale: 0.05018025264143944
    zero_point: 0
  '@Add_layer23_causal_mask_502:out0':
    qtype: u8
    quantizer: asymmetric_affine
    rounding: rtne
    max_value: 8.171058654785156
    min_value: -10006.4951171875
    scale: 39.27320098876953
    zero_point: 255
  '@Reshape_layer23_v_repeat_expand_503:out0':
    qtype: u8
    quantizer: asymmetric_affine
    rounding: rtne
    max_value: 7.291100025177002
    min_value: -7.890690326690674
    scale: 0.05953643098473549
    zero_point: 133
  '@Transpose_layer23_v_heads_504:out0':
    qtype: u8
    quantizer: asymmetric_affine
    rounding: rtne
    max_value: 7.291100025177002
    min_value: -7.890690326690674
    scale: 0.05953643098473549
    zero_point: 133
  '@Reciprocal_layer23_mlp_rms_reciprocal_505:out0':
    qtype: u8
    quantizer: asymmetric_affine
    rounding: rtne
    max_value: 1.0
    min_value: 0.0
    scale: 0.003921568859368563
    zero_point: 0
  '@Divide_506:out0':
    qtype: u8
    quantizer: asymmetric_affine
    rounding: rtne
    max_value: 0.10916934162378311
    min_value: 0.0
    scale: 0.00042811507591977715
    zero_point: 0
  '@Add_layer24_q_rope_rope_add_507:out0':
    qtype: u8
    quantizer: asymmetric_affine
    rounding: rtne
    max_value: 11.36689281463623
    min_value: -11.320730209350586
    scale: 0.08897106349468231
    zero_point: 127
  '@Transpose_layer24_k_transpose_508:out0':
    qtype: u8
    quantizer: asymmetric_affine
    rounding: rtne
    max_value: 14.058040618896484
    min_value: -11.222261428833008
    scale: 0.09913843870162964
    zero_point: 113
  '@Add_layer24_mlp_rms_eps_510:out0':
    qtype: u8
    quantizer: asymmetric_affine
    rounding: rtne
    max_value: 1540499.625
    min_value: 0.0
    scale: 6041.1748046875
    zero_point: 0
  '@Transpose_layer25_q_heads_511:out0':
    qtype: u8
    quantizer: asymmetric_affine
    rounding: rtne
    max_value: 9.359962463378906
    min_value: -17.029653549194336
    scale: 0.10348869115114212
    zero_point: 165
  '@Reshape_layer25_q_reshape_512:out0':
    qtype: u8
    quantizer: asymmetric_affine
    rounding: rtne
    max_value: 9.359962463378906
    min_value: -17.029653549194336
    scale: 0.10348869115114212
    zero_point: 165
  '@Concat_layer25_q_rope_rotate_half_513:out0':
    qtype: u8
    quantizer: asymmetric_affine
    rounding: rtne
    max_value: 14.79506778717041
    min_value: -17.029664993286133
    scale: 0.12480287998914719
    zero_point: 136
  '@Slice_layer25_q_rope_slice_first_514:out0':
    qtype: u8
    quantizer: asymmetric_affine
    rounding: rtne
    max_value: 9.359962463378906
    min_value: -17.029653549194336
    scale: 0.10348869115114212
    zero_point: 165
  '@Tile_layer25_k_repeat_tile_515:out0':
    qtype: u8
    quantizer: asymmetric_affine
    rounding: rtne
    max_value: 13.67807674407959
    min_value: -16.20690155029297
    scale: 0.1171959936618805
    zero_point: 138
  '@Mul_sq_mul_layer25_v_proj_516:out0':
    qtype: u8
    quantizer: asymmetric_affine
    rounding: rtne
    max_value: 1.559983253479004
    min_value: -1.0573651790618896
    scale: 0.010264111682772636
    zero_point: 103
  '@Initializer_sq_scale_layer25_v_proj_518:out0':
    qtype: u8
    quantizer: asymmetric_affine
    rounding: rtne
    max_value: 1.5322240591049194
    min_value: 0.0
    scale: 0.006008721888065338
    zero_point: 0
  '@Mul_layer25_attn_rms_gamma_519:out0':
    qtype: u8
    quantizer: asymmetric_affine
    rounding: rtne
    max_value: 6.942722797393799
    min_value: -3.117499589920044
    scale: 0.039451852440834045
    zero_point: 79
  '@Add_layer26_k_rope_rope_add_523:out0':
    qtype: u8
    quantizer: asymmetric_affine
    rounding: rtne
    max_value: 12.150522232055664
    min_value: -15.72557258605957
    scale: 0.10931801795959473
    zero_point: 144
  '@Mul_layer26_k_rope_mul_sin_524:out0':
    qtype: u8
    quantizer: asymmetric_affine
    rounding: rtne
    max_value: 2.5438616275787354
    min_value: -3.842925786972046
    scale: 0.025046225637197495
    zero_point: 153
  '@Reciprocal_layer26_attn_rms_reciprocal_525:out0':
    qtype: u8
    quantizer: asymmetric_affine
    rounding: rtne
    max_value: 1.0
    min_value: 0.0
    scale: 0.003921568859368563
    zero_point: 0
  '@Divide_526:out0':
    qtype: u8
    quantizer: asymmetric_affine
    rounding: rtne
    max_value: 0.06886398792266846
    min_value: 0.0
    scale: 0.00027005485026165843
    zero_point: 0
  '@Sqrt_layer26_attn_rms_sqrt_527:out0':
    qtype: u8
    quantizer: asymmetric_affine
    rounding: rtne
    max_value: 1241.240966796875
    min_value: 0.0
    scale: 4.867611408233643
    zero_point: 0
  '@Initializer_sq_scale_layer27_q_proj_528:out0':
    qtype: u8
    quantizer: asymmetric_affine
    rounding: rtne
    max_value: 1.9178954362869263
    min_value: 0.0
    scale: 0.007521158549934626
    zero_point: 0
  '@Transpose_layer27_k_heads_529:out0':
    qtype: u8
    quantizer: asymmetric_affine
    rounding: rtne
    max_value: 14.709720611572266
    min_value: -15.162946701049805
    scale: 0.11714771389961243
    zero_point: 129
  '@Reshape_layer27_k_reshape_530:out0':
    qtype: u8
    quantizer: asymmetric_affine
    rounding: rtne
    max_value: 14.709720611572266
    min_value: -15.162946701049805
    scale: 0.11714771389961243
    zero_point: 129
  '@Neg_layer27_k_rope_neg_second_531:out0':
    qtype: u8
    quantizer: asymmetric_affine
    rounding: rtne
    max_value: 14.597002983093262
    min_value: -15.162925720214844
    scale: 0.11670560389757156
    zero_point: 130
  '@Slice_layer27_k_rope_slice_second_532:out0':
    qtype: u8
    quantizer: asymmetric_affine
    rounding: rtne
    max_value: 14.709720611572266
    min_value: -15.162946701049805
    scale: 0.11714771389961243
    zero_point: 129
  '@Add_layer27_attn_rms_eps_533:out0':
    qtype: u8
    quantizer: asymmetric_affine
    rounding: rtne
    max_value: 1539985.625
    min_value: 0.0
    scale: 6039.1591796875
    zero_point: 0
  '@ReduceMean_layer27_attn_rms_mean_534:out0':
    qtype: u8
    quantizer: asymmetric_affine
    rounding: rtne
    max_value: 1539985.625
    min_value: 0.0
    scale: 6039.1591796875
    zero_point: 0
  '@Initializer_sq_scale_layer28_q_proj_535:out0':
    qtype: u8
    quantizer: asymmetric_affine
    rounding: rtne
    max_value: 1.4083876609802246
    min_value: 0.0
    scale: 0.005523088853806257
    zero_point: 0
  '@Add_layer19_attn_residual_537:out0':
    qtype: u8
    quantizer: asymmetric_affine
    rounding: rtne
    max_value: 29638.029296875
    min_value: -1012.7704467773438
    scale: 120.19921112060547
    zero_point: 8
  '@Mul_sq_mul_layer20_out_proj_539:out0':
    qtype: u8
    quantizer: asymmetric_affine
    rounding: rtne
    max_value: 1.2388375997543335
    min_value: -1.4837130308151245
    scale: 0.010676668956875801
    zero_point: 139
  '@Mul_layer20_swiglu_mul_541:out0':
    qtype: u8
    quantizer: asymmetric_affine
    rounding: rtne
    max_value: 8.69015884399414
    min_value: -8.950750350952148
    scale: 0.06918003410100937
    zero_point: 129
  '@Initializer_sq_scale_layer20_down_proj_542:out0':
    qtype: u8
    quantizer: asymmetric_affine
    rounding: rtne
    max_value: 1.9847404956817627
    min_value: 0.0
    scale: 0.007783296052366495
    zero_point: 0
  '@Transpose_layer21_ctx_transpose_543:out0':
    qtype: u8
    quantizer: asymmetric_affine
    rounding: rtne
    max_value: 2.7864151000976562
    min_value: -3.030477285385132
    scale: 0.022811343893408775
    zero_point: 133
  '@Mul_sq_mul_layer21_up_proj_546:out0':
    qtype: u8
    quantizer: asymmetric_affine
    rounding: rtne
    max_value: 1.1320362091064453
    min_value: -1.1320362091064453
    scale: 0.008878715336322784
    zero_point: 128
  '@Softmax_layer22_softmax_548:out0':
    qtype: u8
    quantizer: asymmetric_affine
    rounding: rtne
    max_value: 1.0
    min_value: 0.0
    scale: 0.003921568859368563
    zero_point: 0
  '@Reshape_layer22_v_repeat_merge_549:out0':
    qtype: u8
    quantizer: asymmetric_affine
    rounding: rtne
    max_value: 4.801940441131592
    min_value: -5.130073070526123
    scale: 0.03894907236099243
    zero_point: 132
  '@Tile_layer22_v_repeat_tile_550:out0':
    qtype: u8
    quantizer: asymmetric_affine
    rounding: rtne
    max_value: 4.801940441131592
    min_value: -5.130073070526123
    scale: 0.03894907236099243
    zero_point: 132
  '@Mul_layer22_mlp_rms_scale_to_unit_551:out0':
    qtype: u8
    quantizer: asymmetric_affine
    rounding: rtne
    max_value: 23.9041805267334
    min_value: -13.782841682434082
    scale: 0.147792249917984
    zero_point: 93
  '@Initializer_layer22_mlp_gamma_552:out0':
    qtype: u8
    quantizer: asymmetric_affine
    rounding: rtne
    max_value: 0.357421875
    min_value: 0.0
    scale: 0.0014016544446349144
    zero_point: 0
  '@Mul_layer23_attn_scale_553:out0':
    qtype: u8
    quantizer: asymmetric_affine
    rounding: rtne
    max_value: 8.377817153930664
    min_value: -8.805278778076172
    scale: 0.06738469004631042
    zero_point: 131
  '@MatMul_layer23_attn_scores_554:out0':
    qtype: u8
    quantizer: asymmetric_affine
    rounding: rtne
    max_value: 67.02253723144531
    min_value: -70.44223022460938
    scale: 0.5390775203704834
    zero_point: 131
  '@Reshape_layer23_v_reshape_555:out0':
    qtype: u8
    quantizer: asymmetric_affine
    rounding: rtne
    max_value: 7.291100025177002
    min_value: -7.890690326690674
    scale: 0.05953643098473549
    zero_point: 133
  '@Sqrt_layer23_mlp_rms_sqrt_556:out0':
    qtype: u8
    quantizer: asymmetric_affine
    rounding: rtne
    max_value: 1242.319091796875
    min_value: 0.0
    scale: 4.87183952331543
    zero_point: 0
  '@Mul_layer24_q_rope_mul_cos_557:out0':
    qtype: u8
    quantizer: asymmetric_affine
    rounding: rtne
    max_value: 11.365114212036133
    min_value: -11.319377899169922
    scale: 0.08895879238843918
    zero_point: 127
  '@Mul_layer24_q_rope_mul_sin_558:out0':
    qtype: u8
    quantizer: asymmetric_affine
    rounding: rtne
    max_value: 5.478205680847168
    min_value: -5.323117733001709
    scale: 0.04235813021659851
    zero_point: 126
  '@Reshape_layer24_k_repeat_merge_559:out0':
    qtype: u8
    quantizer: asymmetric_affine
    rounding: rtne
    max_value: 14.058040618896484
    min_value: -11.222261428833008
    scale: 0.09913843870162964
    zero_point: 113
  '@ReduceMean_layer24_mlp_rms_mean_562:out0':
    qtype: u8
    quantizer: asymmetric_affine
    rounding: rtne
    max_value: 1540499.625
    min_value: 0.0
    scale: 6041.1748046875
    zero_point: 0
  '@Mul_layer24_mlp_rms_square_563:out0':
    qtype: u8
    quantizer: asymmetric_affine
    rounding: rtne
    max_value: 876351744.0
    min_value: 0.0
    scale: 3436673.5
    zero_point: 0
  '@Neg_layer25_q_rope_neg_second_565:out0':
    qtype: u8
    quantizer: asymmetric_affine
    rounding: rtne
    max_value: 14.79506778717041
    min_value: -17.029664993286133
    scale: 0.12480287998914719
    zero_point: 136
  '@Slice_layer25_q_rope_slice_second_566:out0':
    qtype: u8
    quantizer: asymmetric_affine
    rounding: rtne
    max_value: 9.359962463378906
    min_value: -17.029653549194336
    scale: 0.10348869115114212
    zero_point: 165
  '@Reshape_layer25_k_repeat_expand_567:out0':
    qtype: u8
    quantizer: asymmetric_affine
    rounding: rtne
    max_value: 13.67807674407959
    min_value: -16.20690155029297
    scale: 0.1171959936618805
    zero_point: 138
  '@Mul_layer25_attn_rms_scale_to_unit_568:out0':
    qtype: u8
    quantizer: asymmetric_affine
    rounding: rtne
    max_value: 23.872304916381836
    min_value: -7.110858917236328
    scale: 0.1215026006102562
    zero_point: 59
  '@Initializer_layer25_attn_gamma_569:out0':
    qtype: u8
    quantizer: asymmetric_affine
    rounding: rtne
    max_value: 0.7890625
    min_value: 0.0
    scale: 0.0030943627934902906
    zero_point: 0
  '@Mul_sq_mul_layer26_q_proj_570:out0':
    qtype: u8
    quantizer: asymmetric_affine
    rounding: rtne
    max_value: 2.664095401763916
    min_value: -1.619044303894043
    scale: 0.016796626150608063
    zero_point: 96
  '@Mul_layer26_k_rope_mul_cos_571:out0':
    qtype: u8
    quantizer: asymmetric_affine
    rounding: rtne
    max_value: 12.153194427490234
    min_value: -15.714712142944336
    scale: 0.10928590595722198
    zero_point: 144
  '@Concat_layer26_k_rope_rotate_half_572:out0':
    qtype: u8
    quantizer: asymmetric_affine
    rounding: rtne
    max_value: 12.466609001159668
    min_value: -15.71493911743164
    scale: 0.11051587760448456
    zero_point: 142
  '@Slice_layer26_k_rope_slice_first_573:out0':
    qtype: u8
    quantizer: asymmetric_affine
    rounding: rtne
    max_value: 12.153437614440918
    min_value: -15.71493148803711
    scale: 0.10928772389888763
    zero_point: 144
  '@Add_layer26_attn_rms_eps_574:out0':
    qtype: u8
    quantizer: asymmetric_affine
    rounding: rtne
    max_value: 1540680.125
    min_value: 0.0
    scale: 6041.8828125
    zero_point: 0
  '@Mul_layer27_attn_rms_square_577:out0':
    qtype: u8
    quantizer: asymmetric_affine
    rounding: rtne
    max_value: 875936128.0
    min_value: 0.0
    scale: 3435043.75
    zero_point: 0
  '@Mul_sq_mul_layer28_k_proj_578:out0':
    qtype: u8
    quantizer: asymmetric_affine
    rounding: rtne
    max_value: 3.0258827209472656
    min_value: -1.6722480058670044
    scale: 0.01842404156923294
    zero_point: 91
  '@Add_layer18_mlp_residual_580:out0':
    qtype: u8
    quantizer: asymmetric_affine
    rounding: rtne
    max_value: 29646.3046875
    min_value: -1013.4581298828125
    scale: 120.23436737060547
    zero_point: 8
  '@Mul_sq_mul_layer19_down_proj_582:out0':
    qtype: u8
    quantizer: asymmetric_affine
    rounding: rtne
    max_value: 2.616060256958008
    min_value: -2.616060256958008
    scale: 0.020518120378255844
    zero_point: 127
  '@Reshape_layer20_ctx_merge_heads_584:out0':
    qtype: u8
    quantizer: asymmetric_affine
    rounding: rtne
    max_value: 1.4077891111373901
    min_value: -1.4056264162063599
    scale: 0.01103300228714943
    zero_point: 127
  '@Initializer_sq_scale_layer20_out_proj_585:out0':
    qtype: u8
    quantizer: asymmetric_affine
    rounding: rtne
    max_value: 2.484126567840576
    min_value: 0.0
    scale: 0.009741673246026039
    zero_point: 0
  '@MatMul_layer21_attn_context_588:out0':
    qtype: u8
    quantizer: asymmetric_affine
    rounding: rtne
    max_value: 2.7864151000976562
    min_value: -3.030477285385132
    scale: 0.022811343893408775
    zero_point: 133
  '@Mul_sq_mul_layer21_gate_proj_589:out0':
    qtype: u8
    quantizer: asymmetric_affine
    rounding: rtne
    max_value: 1.2319904565811157
    min_value: -1.6102263927459717
    scale: 0.011145948432385921
    zero_point: 144
  '@Initializer_sq_scale_layer21_gate_proj_591:out0':
    qtype: u8
    quantizer: asymmetric_affine
    rounding: rtne
    max_value: 22.238937377929688
    min_value: 0.0
    scale: 0.08721151947975159
    zero_point: 0
  '@Mul_layer21_mlp_rms_gamma_592:out0':
    qtype: u8
    quantizer: asymmetric_affine
    rounding: rtne
    max_value: 1.7994694709777832
    min_value: -2.074836015701294
    scale: 0.015193355269730091
    zero_point: 137
  '@Initializer_sq_scale_layer21_up_proj_593:out0':
    qtype: u8
    quantizer: asymmetric_affine
    rounding: rtne
    max_value: 20.172990798950195
    min_value: 0.0
    scale: 0.07910976558923721
    zero_point: 0
  '@Add_layer22_causal_mask_594:out0':
    qtype: u8
    quantizer: asymmetric_affine
    rounding: rtne
    max_value: 7.745563507080078
    min_value: -10011.3896484375
    scale: 39.29072570800781
    zero_point: 255
  '@Reshape_layer22_v_repeat_expand_595:out0':
    qtype: u8
    quantizer: asymmetric_affine
    rounding: rtne
    max_value: 4.801940441131592
    min_value: -5.130073070526123
    scale: 0.03894907236099243
    zero_point: 132
  '@Transpose_layer22_v_heads_596:out0':
    qtype: u8
    quantizer: asymmetric_affine
    rounding: rtne
    max_value: 4.801940441131592
    min_value: -5.130073070526123
    scale: 0.03894907236099243
    zero_point: 132
  '@Reciprocal_layer22_mlp_rms_reciprocal_597:out0':
    qtype: u8
    quantizer: asymmetric_affine
    rounding: rtne
    max_value: 1.0
    min_value: 0.0
    scale: 0.003921568859368563
    zero_point: 0
  '@Divide_598:out0':
    qtype: u8
    quantizer: asymmetric_affine
    rounding: rtne
    max_value: 0.11995198577642441
    min_value: 0.0
    scale: 0.0004703999438788742
    zero_point: 0
  '@Add_layer23_q_rope_rope_add_599:out0':
    qtype: u8
    quantizer: asymmetric_affine
    rounding: rtne
    max_value: 11.418174743652344
    min_value: -12.410924911499023
    scale: 0.09344744682312012
    zero_point: 133
  '@Transpose_layer23_k_transpose_600:out0':
    qtype: u8
    quantizer: asymmetric_affine
    rounding: rtne
    max_value: 14.375356674194336
    min_value: -13.140167236328125
    scale: 0.10790401697158813
    zero_point: 122
  '@Add_layer23_mlp_rms_eps_602:out0':
    qtype: u8
    quantizer: asymmetric_affine
    rounding: rtne
    max_value: 1543356.0
    min_value: 0.0
    scale: 6052.37646484375
    zero_point: 0
  '@Transpose_layer24_q_heads_603:out0':
    qtype: u8
    quantizer: asymmetric_affine
    rounding: rtne
    max_value: 11.365118026733398
    min_value: -11.319380760192871
    scale: 0.08895881474018097
    zero_point: 127
  '@Reshape_layer24_q_reshape_604:out0':
    qtype: u8
    quantizer: asymmetric_affine
    rounding: rtne
    max_value: 11.365118026733398
    min_value: -11.319380760192871
    scale: 0.08895881474018097
    zero_point: 127
  '@Concat_layer24_q_rope_rotate_half_605:out0':
    qtype: u8
    quantizer: asymmetric_affine
    rounding: rtne
    max_value: 12.119636535644531
    min_value: -11.31940746307373
    scale: 0.09191782027482986
    zero_point: 123
  '@Slice_layer24_q_rope_slice_first_606:out0':
    qtype: u8
    quantizer: asymmetric_affine
    rounding: rtne
    max_value: 11.365118026733398
    min_value: -11.319380760192871
