# !!!This file disallow TABs!!!
version: 2
quantize_parameters:
  '@attach_Mul_final_rms_gamma/out0_0:out0':
    qtype: u8
    quantizer: asymmetric_affine
    rounding: rtne
    max_value: 26.77543067932129
    min_value: -22.84380340576172
    scale: 0.19458521902561188
    zero_point: 117
  '@Mul_final_rms_gamma_1:out0':
    qtype: u8
    quantizer: asymmetric_affine
    rounding: rtne
    max_value: 26.77543067932129
    min_value: -22.84380340576172
    scale: 0.19458521902561188
    zero_point: 117
  '@Mul_final_rms_scale_to_unit_2:out0':
    qtype: u8
    quantizer: asymmetric_affine
    rounding: rtne
    max_value: 18.34916877746582
    min_value: -17.30179214477539
    scale: 0.13980770111083984
    zero_point: 124
  '@Initializer_final_rms_gamma_3:out0':
    qtype: u8
    quantizer: asymmetric_affine
    rounding: rtne
    max_value: 2.09375
    min_value: -0.00142669677734375
    scale: 0.008216379210352898
    zero_point: 0
  '@Add_layer23_mlp_residual_4:out0':
    qtype: u8
    quantizer: asymmetric_affine
    rounding: rtne
    max_value: 44.99818801879883
    min_value: -44.99818801879883
    scale: 0.35292696952819824
    zero_point: 128
  '@Reciprocal_final_rms_reciprocal_5:out0':
    qtype: u8
    quantizer: asymmetric_affine
    rounding: rtne
    max_value: 1.0
    min_value: 0.0
    scale: 0.003921568859368563
    zero_point: 0
  '@Divide_6:out0':
    qtype: u8
    quantizer: asymmetric_affine
    rounding: rtne
    max_value: 0.6195264458656311
    min_value: 0.0
    scale: 0.002429515589028597
    zero_point: 0
  '@Add_layer23_attn_residual_7:out0':
    qtype: u8
    quantizer: asymmetric_affine
    rounding: rtne
    max_value: 18.375612258911133
    min_value: -15.173211097717285
    scale: 0.13156402111053467
    zero_point: 115
  '@Sqrt_final_rms_sqrt_9:out0':
    qtype: u8
    quantizer: asymmetric_affine
    rounding: rtne
    max_value: 3.100301504135132
    min_value: 0.0
    scale: 0.012158045545220375
    zero_point: 0
  '@Add_layer22_mlp_residual_10:out0':
    qtype: u8
    quantizer: asymmetric_affine
    rounding: rtne
    max_value: 70.08800506591797
    min_value: -16.13751983642578
    scale: 0.3381393253803253
    zero_point: 48
  '@Mul_layer23_swiglu_mul_12:out0':
    qtype: u8
    quantizer: asymmetric_affine
    rounding: rtne
    max_value: 46.57794189453125
    min_value: -46.57794189453125
    scale: 0.3653171956539154
    zero_point: 128
  '@Add_final_rms_eps_14:out0':
    qtype: u8
    quantizer: asymmetric_affine
    rounding: rtne
    max_value: 9.611868858337402
    min_value: 0.0
    scale: 0.037693604826927185
    zero_point: 0
  '@Add_layer22_attn_residual_15:out0':
    qtype: u8
    quantizer: asymmetric_affine
    rounding: rtne
    max_value: 69.03557586669922
    min_value: -18.326858520507812
    scale: 0.3425977826118469
    zero_point: 53
  '@Mul_sq_mul_layer23_out_proj_17:out0':
    qtype: u8
    quantizer: asymmetric_affine
    rounding: rtne
    max_value: 1.9311405420303345
    min_value: -1.7312023639678955
    scale: 0.014362129382789135
    zero_point: 121
  '@ReduceMean_final_rms_mean_21:out0':
    qtype: u8
    quantizer: asymmetric_affine
    rounding: rtne
    max_value: 9.611867904663086
    min_value: 0.0
    scale: 0.03769360110163689
    zero_point: 0
  '@Initializer_eps_22:out0':
    qtype: u8
    quantizer: asymmetric_affine
    rounding: rtne
    max_value: 9.999999974752427e-07
    min_value: 0.0
    scale: 3.921568403342234e-09
    zero_point: 0
  '@Add_layer21_mlp_residual_23:out0':
    qtype: u8
    quantizer: asymmetric_affine
    rounding: rtne
    max_value: 69.30194854736328
    min_value: -18.095666885375977
    scale: 0.34273573756217957
    zero_point: 53
  '@Mul_sq_mul_layer22_down_proj_25:out0':
    qtype: u8
    quantizer: asymmetric_affine
    rounding: rtne
    max_value: 1.6923727989196777
    min_value: -1.6923727989196777
    scale: 0.01327351201325655
    zero_point: 128
  '@Reshape_layer23_ctx_merge_heads_27:out0':
    qtype: u8
    quantizer: asymmetric_affine
    rounding: rtne
    max_value: 6.424421310424805
    min_value: -6.679136276245117
    scale: 0.051386501640081406
    zero_point: 130
  '@Initializer_sq_scale_layer23_out_proj_28:out0':
    qtype: u8
    quantizer: asymmetric_affine
    rounding: rtne
    max_value: 0.6619837880134583
    min_value: 0.0
    scale: 0.002596014877781272
    zero_point: 0
  '@Mul_sq_mul_layer23_up_proj_31:out0':
    qtype: u8
    quantizer: asymmetric_affine
    rounding: rtne
    max_value: 2.352728843688965
    min_value: -1.7397236824035645
    scale: 0.01604883372783661
    zero_point: 108
  '@Mul_final_rms_square_33:out0':
    qtype: u8
    quantizer: asymmetric_affine
    rounding: rtne
    max_value: 2643.19091796875
    min_value: 0.0
    scale: 10.36545467376709
    zero_point: 0
  '@Add_layer21_attn_residual_34:out0':
    qtype: u8
    quantizer: asymmetric_affine
    rounding: rtne
    max_value: 1393.903564453125
    min_value: -87.79007720947266
    scale: 5.810563087463379
    zero_point: 15
  '@Mul_sq_mul_layer22_out_proj_36:out0':
    qtype: u8
    quantizer: asymmetric_affine
    rounding: rtne
    max_value: 0.6014033555984497
    min_value: -0.6626058220863342
    scale: 0.004956898745149374
    zero_point: 134
  '@Mul_layer22_swiglu_mul_38:out0':
    qtype: u8
    quantizer: asymmetric_affine
    rounding: rtne
    max_value: 18.9805965423584
    min_value: -18.9805965423584
    scale: 0.1488674283027649
    zero_point: 128
  '@Initializer_sq_scale_layer22_down_proj_39:out0':
    qtype: u8
    quantizer: asymmetric_affine
    rounding: rtne
    max_value: 0.5002086162567139
    min_value: 0.0
    scale: 0.0019616023637354374
    zero_point: 0
  '@Transpose_layer23_ctx_transpose_40:out0':
    qtype: u8
    quantizer: asymmetric_affine
    rounding: rtne
    max_value: 6.424421310424805
    min_value: -6.679136276245117
    scale: 0.051386501640081406
    zero_point: 130
  '@Mul_sq_mul_layer23_gate_proj_41:out0':
    qtype: u8
    quantizer: asymmetric_affine
    rounding: rtne
    max_value: 1.9637969732284546
    min_value: -1.5632470846176147
    scale: 0.01383154559880495
    zero_point: 113
  '@Initializer_sq_scale_layer23_gate_proj_43:out0':
    qtype: u8
    quantizer: asymmetric_affine
    rounding: rtne
    max_value: 3.497136354446411
    min_value: 0.0
    scale: 0.013714260421693325
    zero_point: 0
  '@Mul_layer23_mlp_rms_gamma_44:out0':
    qtype: u8
    quantizer: asymmetric_affine
    rounding: rtne
    max_value: 28.15810203552246
    min_value: -28.151330947875977
    scale: 0.2208213061094284
    zero_point: 127
  '@Initializer_sq_scale_layer23_up_proj_45:out0':
    qtype: u8
    quantizer: asymmetric_affine
    rounding: rtne
    max_value: 3.4443862438201904
    min_value: 0.0
    scale: 0.013507396914064884
    zero_point: 0
  '@Initializer_layer23_mlp_gamma_46:out0':
    qtype: u8
    quantizer: asymmetric_affine
    rounding: rtne
    max_value: 6.3125
    min_value: 0.0
    scale: 0.024754902347922325
    zero_point: 0
  '@Mul_layer23_mlp_rms_scale_to_unit_47:out0':
    qtype: u8
    quantizer: asymmetric_affine
    rounding: rtne
    max_value: 26.482418060302734
    min_value: -5.543674468994141
    scale: 0.12559251487255096
    zero_point: 44
  '@Add_layer20_mlp_residual_48:out0':
    qtype: u8
    quantizer: asymmetric_affine
    rounding: rtne
    max_value: 1393.6868896484375
    min_value: -87.67809295654297
    scale: 5.809274673461914
    zero_point: 15
  '@Mul_sq_mul_layer21_down_proj_50:out0':
    qtype: u8
    quantizer: asymmetric_affine
    rounding: rtne
    max_value: 2.3353724479675293
    min_value: -25.951602935791016
    scale: 0.11092931777238846
    zero_point: 234
  '@Reshape_layer22_ctx_merge_heads_52:out0':
    qtype: u8
    quantizer: asymmetric_affine
    rounding: rtne
    max_value: 4.01934289932251
    min_value: -4.670199394226074
    scale: 0.03407663851976395
    zero_point: 137
  '@Initializer_sq_scale_layer22_out_proj_53:out0':
    qtype: u8
    quantizer: asymmetric_affine
    rounding: rtne
    max_value: 0.7845278382301331
    min_value: 0.0
    scale: 0.0030765796545892954
    zero_point: 0
  '@MatMul_layer23_attn_context_56:out0':
    qtype: u8
    quantizer: asymmetric_affine
    rounding: rtne
    max_value: 6.424421310424805
    min_value: -6.679136276245117
    scale: 0.051386501640081406
    zero_point: 130
  '@Reshape_layer23_v_repeat_merge_57:out0':
    qtype: u8
    quantizer: asymmetric_affine
    rounding: rtne
    max_value: 8.421964645385742
    min_value: -7.999151229858398
    scale: 0.06439653038978577
    zero_point: 124
  '@Tile_layer23_v_repeat_tile_58:out0':
    qtype: u8
    quantizer: asymmetric_affine
    rounding: rtne
    max_value: 8.421964645385742
    min_value: -7.999151229858398
    scale: 0.06439653038978577
    zero_point: 124
  '@Reciprocal_layer23_mlp_rms_reciprocal_59:out0':
    qtype: u8
    quantizer: asymmetric_affine
    rounding: rtne
    max_value: 1.0
    min_value: 0.0
    scale: 0.003921568859368563
    zero_point: 0
  '@Divide_60:out0':
    qtype: u8
    quantizer: asymmetric_affine
    rounding: rtne
    max_value: 0.4954111576080322
    min_value: 0.0
    scale: 0.001942788832820952
    zero_point: 0
  '@Add_layer20_attn_residual_61:out0':
    qtype: u8
    quantizer: asymmetric_affine
    rounding: rtne
    max_value: 1398.2386474609375
    min_value: -88.13884735107422
    scale: 5.8289313316345215
    zero_point: 15
  '@Mul_sq_mul_layer21_out_proj_63:out0':
    qtype: u8
    quantizer: asymmetric_affine
    rounding: rtne
    max_value: 1.113954782485962
    min_value: -1.083997368812561
    scale: 0.008619420230388641
    zero_point: 126
  '@Mul_layer21_swiglu_mul_65:out0':
    qtype: u8
    quantizer: asymmetric_affine
    rounding: rtne
    max_value: 23.6417236328125
    min_value: -1262.386474609375
    scale: 5.043247699737549
    zero_point: 250
  '@Initializer_sq_scale_layer21_down_proj_66:out0':
    qtype: u8
    quantizer: asymmetric_affine
    rounding: rtne
    max_value: 0.5763429999351501
    min_value: 0.0
    scale: 0.0022601685486733913
    zero_point: 0
  '@Transpose_layer22_ctx_transpose_67:out0':
    qtype: u8
    quantizer: asymmetric_affine
    rounding: rtne
    max_value: 4.01934289932251
    min_value: -4.670199394226074
    scale: 0.03407663851976395
    zero_point: 137
  '@Mul_sq_mul_layer22_up_proj_70:out0':
    qtype: u8
    quantizer: asymmetric_affine
    rounding: rtne
    max_value: 2.1117537021636963
    min_value: -1.7419333457946777
    scale: 0.015112497843801975
    zero_point: 115
  '@Softmax_layer23_softmax_72:out0':
    qtype: u8
    quantizer: asymmetric_affine
    rounding: rtne
    max_value: 1.0
    min_value: 0.0
    scale: 0.003921568859368563
    zero_point: 0
  '@Reshape_layer23_v_repeat_expand_73:out0':
    qtype: u8
    quantizer: asymmetric_affine
    rounding: rtne
    max_value: 8.421964645385742
    min_value: -7.999151229858398
    scale: 0.06439653038978577
    zero_point: 124
  '@Sqrt_layer23_mlp_rms_sqrt_74:out0':
    qtype: u8
    quantizer: asymmetric_affine
    rounding: rtne
    max_value: 2.937985897064209
    min_value: 0.0
    scale: 0.01152151357382536
    zero_point: 0
  '@Add_layer19_mlp_residual_75:out0':
    qtype: u8
    quantizer: asymmetric_affine
    rounding: rtne
    max_value: 1397.546875
    min_value: -88.65711212158203
    scale: 5.828250885009766
    zero_point: 15
  '@Mul_sq_mul_layer20_down_proj_77:out0':
    qtype: u8
    quantizer: asymmetric_affine
    rounding: rtne
    max_value: 1.5273587703704834
    min_value: -1.833492636680603
    scale: 0.013179808855056763
    zero_point: 139
  '@Reshape_layer21_ctx_merge_heads_79:out0':
    qtype: u8
    quantizer: asymmetric_affine
    rounding: rtne
    max_value: 4.2639617919921875
    min_value: -8.151270866394043
    scale: 0.04868718609213829
    zero_point: 167
  '@Initializer_sq_scale_layer21_out_proj_80:out0':
    qtype: u8
    quantizer: asymmetric_affine
    rounding: rtne
    max_value: 0.9791789054870605
    min_value: 0.0
    scale: 0.0038399172481149435
    zero_point: 0
  '@MatMul_layer22_attn_context_83:out0':
    qtype: u8
    quantizer: asymmetric_affine
    rounding: rtne
    max_value: 4.01934289932251
    min_value: -4.670199394226074
    scale: 0.03407663851976395
    zero_point: 137
  '@Mul_sq_mul_layer22_gate_proj_84:out0':
    qtype: u8
    quantizer: asymmetric_affine
    rounding: rtne
    max_value: 1.8927652835845947
    min_value: -1.860473394393921
    scale: 0.014718582853674889
    zero_point: 126
  '@Initializer_sq_scale_layer22_gate_proj_86:out0':
    qtype: u8
    quantizer: asymmetric_affine
    rounding: rtne
    max_value: 1.1192301511764526
    min_value: 0.0
    scale: 0.004389137960970402
    zero_point: 0
  '@Mul_layer22_mlp_rms_gamma_87:out0':
    qtype: u8
    quantizer: asymmetric_affine
    rounding: rtne
    max_value: 30.037330627441406
    min_value: -31.945003509521484
    scale: 0.24306797981262207
    zero_point: 131
  '@Initializer_sq_scale_layer22_up_proj_88:out0':
    qtype: u8
    quantizer: asymmetric_affine
    rounding: rtne
    max_value: 1.026737093925476
    min_value: 0.0
    scale: 0.004026419948786497
    zero_point: 0
  '@Add_layer23_causal_mask_89:out0':
    qtype: u8
    quantizer: asymmetric_affine
    rounding: rtne
    max_value: 30.43132972717285
    min_value: -10014.8115234375
    scale: 39.39311218261719
    zero_point: 254
  '@Transpose_layer23_v_heads_90:out0':
    qtype: u8
    quantizer: asymmetric_affine
    rounding: rtne
    max_value: 8.421964645385742
    min_value: -7.999151229858398
    scale: 0.06439653038978577
    zero_point: 124
  '@Add_layer23_mlp_rms_eps_91:out0':
    qtype: u8
    quantizer: asymmetric_affine
    rounding: rtne
    max_value: 8.631712913513184
    min_value: 0.0
    scale: 0.03384985402226448
    zero_point: 0
  '@Add_layer19_attn_residual_92:out0':
    qtype: u8
    quantizer: asymmetric_affine
    rounding: rtne
    max_value: 1398.6905517578125
    min_value: -88.56586456298828
    scale: 5.832378387451172
    zero_point: 15
  '@Mul_sq_mul_layer20_out_proj_94:out0':
    qtype: u8
    quantizer: asymmetric_affine
    rounding: rtne
    max_value: 0.7368474006652832
    min_value: -0.5677059888839722
    scale: 0.00511589553207159
    zero_point: 111
  '@Mul_layer20_swiglu_mul_96:out0':
    qtype: u8
    quantizer: asymmetric_affine
    rounding: rtne
    max_value: 15.057196617126465
    min_value: -15.057196617126465
    scale: 0.11809565871953964
    zero_point: 128
  '@Initializer_sq_scale_layer20_down_proj_97:out0':
    qtype: u8
    quantizer: asymmetric_affine
    rounding: rtne
    max_value: 0.6398958563804626
    min_value: 0.0
    scale: 0.0025093955919146538
    zero_point: 0
  '@Transpose_layer21_ctx_transpose_98:out0':
    qtype: u8
    quantizer: asymmetric_affine
    rounding: rtne
    max_value: 4.2639617919921875
    min_value: -8.151270866394043
    scale: 0.04868718609213829
    zero_point: 167
  '@Mul_sq_mul_layer21_up_proj_101:out0':
    qtype: u8
    quantizer: asymmetric_affine
    rounding: rtne
    max_value: 5.286196708679199
    min_value: -2.176939010620117
    scale: 0.029267199337482452
    zero_point: 74
  '@Softmax_layer22_softmax_103:out0':
    qtype: u8
    quantizer: asymmetric_affine
    rounding: rtne
    max_value: 1.0
    min_value: 0.0
    scale: 0.003921568859368563
    zero_point: 0
  '@Reshape_layer22_v_repeat_merge_104:out0':
    qtype: u8
    quantizer: asymmetric_affine
    rounding: rtne
    max_value: 10.439891815185547
    min_value: -10.977507591247559
    scale: 0.08398980647325516
    zero_point: 131
  '@Tile_layer22_v_repeat_tile_105:out0':
    qtype: u8
    quantizer: asymmetric_affine
    rounding: rtne
    max_value: 10.439891815185547
    min_value: -10.977507591247559
    scale: 0.08398980647325516
    zero_point: 131
  '@Mul_layer22_mlp_rms_scale_to_unit_106:out0':
    qtype: u8
    quantizer: asymmetric_affine
    rounding: rtne
    max_value: 26.886398315429688
    min_value: -8.617471694946289
    scale: 0.1392308622598648
    zero_point: 62
  '@Initializer_layer22_mlp_gamma_107:out0':
    qtype: u8
    quantizer: asymmetric_affine
    rounding: rtne
    max_value: 3.953125
    min_value: 0.0
    scale: 0.015502450987696648
    zero_point: 0
  '@Mul_layer23_attn_scale_108:out0':
    qtype: u8
    quantizer: asymmetric_affine
    rounding: rtne
    max_value: 30.396984100341797
    min_value: -14.757144927978516
    scale: 0.17707501351833344
    zero_point: 83
  '@Initializer_causal_mask_109:out0':
    qtype: u8
    quantizer: asymmetric_affine
    rounding: rtne
    max_value: 0.0
    min_value: -10000.0
    scale: 39.2156867980957
    zero_point: 255
  '@Reshape_layer23_v_reshape_110:out0':
    qtype: u8
    quantizer: asymmetric_affine
    rounding: rtne
    max_value: 8.421964645385742
    min_value: -7.999151229858398
    scale: 0.06439653038978577
    zero_point: 124
  '@ReduceMean_layer23_mlp_rms_mean_111:out0':
    qtype: u8
    quantizer: asymmetric_affine
    rounding: rtne
    max_value: 8.631711959838867
    min_value: 0.0
    scale: 0.03384985029697418
    zero_point: 0
  '@Add_layer18_mlp_residual_113:out0':
    qtype: u8
    quantizer: asymmetric_affine
    rounding: rtne
    max_value: 1398.630859375
    min_value: -88.45249938964844
    scale: 5.831699371337891
    zero_point: 15
  '@Mul_sq_mul_layer19_down_proj_115:out0':
    qtype: u8
    quantizer: asymmetric_affine
    rounding: rtne
    max_value: 1.0550282001495361
    min_value: -1.0550282001495361
    scale: 0.00827473122626543
    zero_point: 128
  '@Reshape_layer20_ctx_merge_heads_117:out0':
    qtype: u8
    quantizer: asymmetric_affine
    rounding: rtne
    max_value: 6.4258809089660645
    min_value: -4.565668106079102
    scale: 0.04310411214828491
    zero_point: 106
  '@Initializer_sq_scale_layer20_out_proj_118:out0':
    qtype: u8
    quantizer: asymmetric_affine
    rounding: rtne
    max_value: 1.4513808488845825
    min_value: 0.0
    scale: 0.0056916894391179085
    zero_point: 0
  '@MatMul_layer21_attn_context_121:out0':
    qtype: u8
    quantizer: asymmetric_affine
    rounding: rtne
    max_value: 4.2639617919921875
    min_value: -8.151270866394043
    scale: 0.04868718609213829
    zero_point: 167
  '@Mul_sq_mul_layer21_gate_proj_122:out0':
    qtype: u8
    quantizer: asymmetric_affine
    rounding: rtne
    max_value: 5.965579986572266
    min_value: -3.088996171951294
    scale: 0.03550814092159271
    zero_point: 87
  '@Initializer_sq_scale_layer21_gate_proj_124:out0':
    qtype: u8
    quantizer: asymmetric_affine
    rounding: rtne
    max_value: 0.4818562865257263
    min_value: 0.0
    scale: 0.001889632549136877
    zero_point: 0
  '@Mul_layer21_mlp_rms_gamma_125:out0':
    qtype: u8
    quantizer: asymmetric_affine
    rounding: rtne
    max_value: 256.6905517578125
    min_value: -30.447423934936523
    scale: 1.1260312795639038
    zero_point: 27
  '@Initializer_sq_scale_layer21_up_proj_126:out0':
    qtype: u8
    quantizer: asymmetric_affine
    rounding: rtne
    max_value: 1.1022695302963257
    min_value: 0.0
    scale: 0.004322625696659088
    zero_point: 0
  '@Add_layer22_causal_mask_127:out0':
    qtype: u8
    quantizer: asymmetric_affine
    rounding: rtne
    max_value: 15.4370756149292
    min_value: -10002.966796875
    scale: 39.28786087036133
    zero_point: 255
  '@Reshape_layer22_v_repeat_expand_128:out0':
    qtype: u8
    quantizer: asymmetric_affine
    rounding: rtne
    max_value: 10.439891815185547
    min_value: -10.977507591247559
    scale: 0.08398980647325516
    zero_point: 131
  '@Transpose_layer22_v_heads_129:out0':
    qtype: u8
    quantizer: asymmetric_affine
    rounding: rtne
    max_value: 10.439891815185547
    min_value: -10.977507591247559
    scale: 0.08398980647325516
    zero_point: 131
  '@Reciprocal_layer22_mlp_rms_reciprocal_130:out0':
    qtype: u8
    quantizer: asymmetric_affine
    rounding: rtne
    max_value: 1.0
    min_value: 0.0
    scale: 0.003921568859368563
    zero_point: 0
  '@Divide_131:out0':
    qtype: u8
    quantizer: asymmetric_affine
    rounding: rtne
    max_value: 0.5397894382476807
    min_value: 0.0
    scale: 0.002116821240633726
    zero_point: 0
  '@MatMul_layer23_attn_scores_132:out0':
    qtype: u8
    quantizer: asymmetric_affine
    rounding: rtne
    max_value: 243.17587280273438
    min_value: -118.05715942382812
    scale: 1.4166001081466675
    zero_point: 83
  '@Initializer_scale_attn_133:out0':
    qtype: u8
    quantizer: asymmetric_affine
    rounding: rtne
    max_value: 0.125
    min_value: 0.0
    scale: 0.0004901961074210703
    zero_point: 0
  '@Mul_layer23_mlp_rms_square_135:out0':
    qtype: u8
    quantizer: asymmetric_affine
    rounding: rtne
    max_value: 5392.02978515625
    min_value: 0.0
    scale: 21.145214080810547
    zero_point: 0
  '@Add_layer18_attn_residual_136:out0':
    qtype: u8
    quantizer: asymmetric_affine
    rounding: rtne
    max_value: 1399.2335205078125
    min_value: -88.59102630615234
    scale: 5.834606170654297
    zero_point: 15
  '@Mul_sq_mul_layer19_out_proj_138:out0':
    qtype: u8
    quantizer: asymmetric_affine
    rounding: rtne
    max_value: 0.5170279741287231
    min_value: -0.44998684525489807
    scale: 0.0037922149058431387
    zero_point: 119
  '@Mul_layer19_swiglu_mul_140:out0':
    qtype: u8
    quantizer: asymmetric_affine
    rounding: rtne
    max_value: 11.437752723693848
    min_value: -11.437752723693848
    scale: 0.0897078663110733
    zero_point: 128
  '@Initializer_sq_scale_layer19_down_proj_141:out0':
    qtype: u8
    quantizer: asymmetric_affine
    rounding: rtne
    max_value: 0.6240233778953552
    min_value: 0.0
    scale: 0.0024471504148095846
    zero_point: 0
  '@Transpose_layer20_ctx_transpose_142:out0':
    qtype: u8
    quantizer: asymmetric_affine
    rounding: rtne
    max_value: 6.4258809089660645
    min_value: -4.565668106079102
    scale: 0.04310411214828491
    zero_point: 106
  '@Mul_sq_mul_layer20_up_proj_145:out0':
    qtype: u8
    quantizer: asymmetric_affine
    rounding: rtne
    max_value: 4.385216236114502
    min_value: -1.7040252685546875
    scale: 0.02387937903404236
    zero_point: 71
  '@Softmax_layer21_softmax_147:out0':
    qtype: u8
    quantizer: asymmetric_affine
    rounding: rtne
    max_value: 1.0
    min_value: 0.0
    scale: 0.003921568859368563
    zero_point: 0
  '@Reshape_layer21_v_repeat_merge_148:out0':
    qtype: u8
    quantizer: asymmetric_affine
    rounding: rtne
    max_value: 9.111989974975586
    min_value: -11.571233749389648
    scale: 0.08111067861318588
    zero_point: 143
  '@Tile_layer21_v_repeat_tile_149:out0':
    qtype: u8
    quantizer: asymmetric_affine
    rounding: rtne
    max_value: 9.111989974975586
    min_value: -11.571233749389648
    scale: 0.08111067861318588
    zero_point: 143
  '@Mul_layer21_mlp_rms_scale_to_unit_150:out0':
    qtype: u8
    quantizer: asymmetric_affine
    rounding: rtne
    max_value: 29.547311782836914
    min_value: -9.743127822875977
    scale: 0.15408015251159668
    zero_point: 63
  '@Initializer_layer21_mlp_gamma_151:out0':
    qtype: u8
    quantizer: asymmetric_affine
    rounding: rtne
    max_value: 8.6875
    min_value: 0.0
    scale: 0.03406862914562225
    zero_point: 0
  '@Mul_layer22_attn_scale_152:out0':
    qtype: u8
    quantizer: asymmetric_affine
    rounding: rtne
    max_value: 15.427660942077637
    min_value: -2.906809091567993
    scale: 0.0718998834490776
    zero_point: 40
  '@Reshape_layer22_v_reshape_154:out0':
    qtype: u8
    quantizer: asymmetric_affine
    rounding: rtne
    max_value: 10.439891815185547
    min_value: -10.977507591247559
    scale: 0.08398980647325516
    zero_point: 131
  '@Sqrt_layer22_mlp_rms_sqrt_155:out0':
    qtype: u8
    quantizer: asymmetric_affine
    rounding: rtne
    max_value: 3.159285545349121
    min_value: 0.0
    scale: 0.012389355339109898
    zero_point: 0
  '@Add_layer23_q_rope_rope_add_156:out0':
    qtype: u8
    quantizer: asymmetric_affine
    rounding: rtne
    max_value: 18.407230377197266
    min_value: -17.609949111938477
    scale: 0.1412438452243805
    zero_point: 125
  '@Transpose_layer23_k_transpose_157:out0':
    qtype: u8
    quantizer: asymmetric_affine
    rounding: rtne
    max_value: 10.699780464172363
    min_value: -11.230437278747559
    scale: 0.08600085228681564
    zero_point: 131
  '@Mul_sq_mul_layer23_v_proj_161:out0':
    qtype: u8
    quantizer: asymmetric_affine
    rounding: rtne
    max_value: 1.9581044912338257
    min_value: -1.8524044752120972
    scale: 0.014943172223865986
    zero_point: 124
  '@Add_layer17_mlp_residual_162:out0':
    qtype: u8
    quantizer: asymmetric_affine
    rounding: rtne
    max_value: 1399.2257080078125
    min_value: -88.55781555175781
    scale: 5.834445476531982
    zero_point: 15
  '@Mul_sq_mul_layer18_down_proj_164:out0':
    qtype: u8
    quantizer: asymmetric_affine
    rounding: rtne
    max_value: 1.1318045854568481
    min_value: -1.1318045854568481
    scale: 0.00887689832597971
    zero_point: 128
  '@Reshape_layer19_ctx_merge_heads_166:out0':
    qtype: u8
    quantizer: asymmetric_affine
    rounding: rtne
    max_value: 2.0505332946777344
    min_value: -1.7261704206466675
    scale: 0.014810603111982346
    zero_point: 117
  '@Initializer_sq_scale_layer19_out_proj_167:out0':
    qtype: u8
    quantizer: asymmetric_affine
    rounding: rtne
    max_value: 0.860771656036377
    min_value: 0.0
    scale: 0.003375575179234147
    zero_point: 0
  '@MatMul_layer20_attn_context_170:out0':
    qtype: u8
    quantizer: asymmetric_affine
    rounding: rtne
    max_value: 6.4258809089660645
    min_value: -4.565668106079102
    scale: 0.04310411214828491
    zero_point: 106
  '@Mul_sq_mul_layer20_gate_proj_171:out0':
    qtype: u8
    quantizer: asymmetric_affine
    rounding: rtne
    max_value: 2.4943056106567383
    min_value: -2.0366628170013428
    scale: 0.017768504098057747
    zero_point: 115
  '@Initializer_sq_scale_layer20_gate_proj_173:out0':
    qtype: u8
    quantizer: asymmetric_affine
    rounding: rtne
    max_value: 0.380825400352478
    min_value: 0.0
    scale: 0.0014934329083189368
    zero_point: 0
  '@Mul_layer20_mlp_rms_gamma_174:out0':
    qtype: u8
    quantizer: asymmetric_affine
    rounding: rtne
    max_value: 57.93074035644531
    min_value: -32.755306243896484
    scale: 0.355631560087204
    zero_point: 92
  '@Initializer_sq_scale_layer20_up_proj_175:out0':
    qtype: u8
    quantizer: asymmetric_affine
    rounding: rtne
    max_value: 0.4220156669616699
    min_value: 0.0
    scale: 0.0016549633583053946
    zero_point: 0
  '@Add_layer21_causal_mask_176:out0':
    qtype: u8
    quantizer: asymmetric_affine
    rounding: rtne
    max_value: 8.1937837600708
    min_value: -10013.609375
    scale: 39.301185607910156
    zero_point: 255
  '@Reshape_layer21_v_repeat_expand_177:out0':
    qtype: u8
    quantizer: asymmetric_affine
    rounding: rtne
    max_value: 9.111989974975586
    min_value: -11.571233749389648
    scale: 0.08111067861318588
    zero_point: 143
  '@Transpose_layer21_v_heads_178:out0':
    qtype: u8
    quantizer: asymmetric_affine
    rounding: rtne
    max_value: 9.111989974975586
    min_value: -11.571233749389648
    scale: 0.08111067861318588
    zero_point: 143
  '@Reciprocal_layer21_mlp_rms_reciprocal_179:out0':
    qtype: u8
    quantizer: asymmetric_affine
    rounding: rtne
    max_value: 1.0
    min_value: 0.0
    scale: 0.003921568859368563
    zero_point: 0
  '@Divide_180:out0':
    qtype: u8
    quantizer: asymmetric_affine
    rounding: rtne
    max_value: 0.6743089556694031
    min_value: 0.0
    scale: 0.0026443488895893097
    zero_point: 0
  '@MatMul_layer22_attn_scores_181:out0':
    qtype: u8
    quantizer: asymmetric_affine
    rounding: rtne
    max_value: 123.4212875366211
    min_value: -23.254472732543945
    scale: 0.5751990675926208
    zero_point: 40
  '@Add_layer22_mlp_rms_eps_184:out0':
    qtype: u8
    quantizer: asymmetric_affine
    rounding: rtne
    max_value: 9.9810209274292
    min_value: 0.0
    scale: 0.03914126008749008
    zero_point: 0
  '@Mul_layer23_q_rope_mul_cos_185:out0':
    qtype: u8
    quantizer: asymmetric_affine
    rounding: rtne
    max_value: 18.98884391784668
    min_value: -18.504650115966797
    scale: 0.14703330397605896
    zero_point: 126
  '@Mul_layer23_q_rope_mul_sin_186:out0':
    qtype: u8
    quantizer: asymmetric_affine
    rounding: rtne
    max_value: 17.214757919311523
    min_value: -16.31062889099121
    scale: 0.13147211074829102
    zero_point: 124
  '@Reshape_layer23_k_repeat_merge_187:out0':
    qtype: u8
    quantizer: asymmetric_affine
    rounding: rtne
    max_value: 10.699780464172363
    min_value: -11.230437278747559
    scale: 0.08600085228681564
    zero_point: 131
  '@Mul_layer23_attn_rms_gamma_188:out0':
    qtype: u8
    quantizer: asymmetric_affine
    rounding: rtne
    max_value: 29.492698669433594
    min_value: -26.513996124267578
    scale: 0.21963410079479218
    zero_point: 121
  '@Initializer_sq_scale_layer23_v_proj_189:out0':
    qtype: u8
    quantizer: asymmetric_affine
    rounding: rtne
    max_value: 0.2879807949066162
    min_value: 0.0
    scale: 0.0011293364223092794
    zero_point: 0
  '@Add_layer17_attn_residual_190:out0':
    qtype: u8
    quantizer: asymmetric_affine
    rounding: rtne
    max_value: 1399.762451171875
    min_value: -88.51588439941406
    scale: 5.836385726928711
    zero_point: 15
  '@Mul_sq_mul_layer18_out_proj_192:out0':
    qtype: u8
    quantizer: asymmetric_affine
    rounding: rtne
    max_value: 0.7138357162475586
    min_value: -0.6998900175094604
    scale: 0.005544022656977177
    zero_point: 126
  '@Mul_layer18_swiglu_mul_194:out0':
    qtype: u8
    quantizer: asymmetric_affine
    rounding: rtne
    max_value: 7.852039813995361
    min_value: -7.852039813995361
    scale: 0.06158462539315224
    zero_point: 128
  '@Initializer_sq_scale_layer18_down_proj_195:out0':
    qtype: u8
    quantizer: asymmetric_affine
    rounding: rtne
    max_value: 0.5847723484039307
    min_value: 0.0
    scale: 0.002293224912136793
    zero_point: 0
  '@Transpose_layer19_ctx_transpose_196:out0':
    qtype: u8
    quantizer: asymmetric_affine
    rounding: rtne
    max_value: 2.0505332946777344
    min_value: -1.7261704206466675
    scale: 0.014810603111982346
    zero_point: 117
  '@Mul_sq_mul_layer19_up_proj_199:out0':
    qtype: u8
    quantizer: asymmetric_affine
    rounding: rtne
    max_value: 2.2420732975006104
    min_value: -1.6799354553222656
    scale: 0.015380426310002804
    zero_point: 109
  '@Softmax_layer20_softmax_201:out0':
    qtype: u8
    quantizer: asymmetric_affine
    rounding: rtne
    max_value: 1.0
    min_value: 0.0
    scale: 0.003921568859368563
    zero_point: 0
  '@Reshape_layer20_v_repeat_merge_202:out0':
    qtype: u8
    quantizer: asymmetric_affine
    rounding: rtne
    max_value: 7.7360429763793945
    min_value: -7.288589000701904
    scale: 0.05892012268304825
    zero_point: 124
  '@Tile_layer20_v_repeat_tile_203:out0':
    qtype: u8
    quantizer: asymmetric_affine
    rounding: rtne
    max_value: 7.7360429763793945
    min_value: -7.288589000701904
    scale: 0.05892012268304825
    zero_point: 124
  '@Mul_layer20_mlp_rms_scale_to_unit_204:out0':
    qtype: u8
    quantizer: asymmetric_affine
    rounding: rtne
    max_value: 29.542278289794922
    min_value: -10.641294479370117
    scale: 0.157582625746727
    zero_point: 68
  '@Initializer_layer20_mlp_gamma_205:out0':
    qtype: u8
    quantizer: asymmetric_affine
    rounding: rtne
    max_value: 4.875
    min_value: 0.0
    scale: 0.019117647781968117
    zero_point: 0
  '@Mul_layer21_attn_scale_206:out0':
    qtype: u8
    quantizer: asymmetric_affine
    rounding: rtne
    max_value: 11.491719245910645
    min_value: -13.603851318359375
    scale: 0.09841399639844894
    zero_point: 138
  '@MatMul_layer21_attn_scores_207:out0':
    qtype: u8
    quantizer: asymmetric_affine
    rounding: rtne
    max_value: 91.93375396728516
    min_value: -108.830810546875
    scale: 0.7873119711875916
    zero_point: 138
  '@Reshape_layer21_v_reshape_208:out0':
    qtype: u8
    quantizer: asymmetric_affine
    rounding: rtne
    max_value: 9.111989974975586
    min_value: -11.571233749389648
    scale: 0.08111067861318588
    zero_point: 143
  '@Sqrt_layer21_mlp_rms_sqrt_209:out0':
    qtype: u8
    quantizer: asymmetric_affine
    rounding: rtne
    max_value: 47.18018341064453
    min_value: 0.0
    scale: 0.1850203275680542
    zero_point: 0
  '@Add_layer22_q_rope_rope_add_210:out0':
    qtype: u8
    quantizer: asymmetric_affine
    rounding: rtne
    max_value: 7.354974746704102
    min_value: -7.186842441558838
    scale: 0.057026732712984085
    zero_point: 126
  '@Transpose_layer22_k_transpose_211:out0':
    qtype: u8
    quantizer: asymmetric_affine
    rounding: rtne
    max_value: 9.172806739807129
    min_value: -8.43233871459961
    scale: 0.06903978437185287
    zero_point: 122
  '@ReduceMean_layer22_mlp_rms_mean_214:out0':
    qtype: u8
    quantizer: asymmetric_affine
    rounding: rtne
    max_value: 9.981019020080566
    min_value: 0.0
    scale: 0.039141252636909485
    zero_point: 0
  '@Mul_layer22_mlp_rms_square_215:out0':
    qtype: u8
    quantizer: asymmetric_affine
    rounding: rtne
    max_value: 7215.00634765625
    min_value: 0.0
    scale: 28.29414176940918
    zero_point: 0
  '@Transpose_layer23_q_heads_216:out0':
    qtype: u8
    quantizer: asymmetric_affine
    rounding: rtne
    max_value: 17.96908950805664
    min_value: -20.22939109802246
    scale: 0.1497979611158371
    zero_point: 135
  '@Initializer_rope_cos_217:out0':
    qtype: u8
    quantizer: asymmetric_affine
    rounding: rtne
    max_value: 1.0
    min_value: -0.9999608397483826
    scale: 0.007842984050512314
    zero_point: 127
  '@Concat_layer23_q_rope_rotate_half_218:out0':
    qtype: u8
    quantizer: asymmetric_affine
    rounding: rtne
    max_value: 17.96908950805664
    min_value: -20.22939109802246
    scale: 0.1497979611158371
    zero_point: 135
  '@Initializer_rope_sin_219:out0':
    qtype: u8
    quantizer: asymmetric_affine
    rounding: rtne
    max_value: 0.9999920725822449
    min_value: -0.9999902248382568
    scale: 0.00784306786954403
    zero_point: 127
  '@Tile_layer23_k_repeat_tile_220:out0':
    qtype: u8
    quantizer: asymmetric_affine
    rounding: rtne
    max_value: 10.699780464172363
    min_value: -11.230437278747559
    scale: 0.08600085228681564
    zero_point: 131
  '@Mul_layer23_attn_rms_scale_to_unit_221:out0':
    qtype: u8
    quantizer: asymmetric_affine
    rounding: rtne
    max_value: 25.963851928710938
    min_value: -6.286348342895508
    scale: 0.1264713704586029
    zero_point: 50
  '@Initializer_layer23_attn_gamma_222:out0':
    qtype: u8
    quantizer: asymmetric_affine
    rounding: rtne
    max_value: 12.375
    min_value: 0.0
    scale: 0.04852941259741783
    zero_point: 0
  '@Add_layer16_mlp_residual_223:out0':
    qtype: u8
    quantizer: asymmetric_affine
    rounding: rtne
    max_value: 1398.8236083984375
    min_value: -89.26886749267578
    scale: 5.835657119750977
    zero_point: 15
  '@Mul_sq_mul_layer17_down_proj_225:out0':
    qtype: u8
    quantizer: asymmetric_affine
    rounding: rtne
    max_value: 1.148553490638733
    min_value: -1.0039547681808472
    scale: 0.008441208861768246
    zero_point: 119
  '@Reshape_layer18_ctx_merge_heads_227:out0':
    qtype: u8
    quantizer: asymmetric_affine
    rounding: rtne
    max_value: 2.633791446685791
    min_value: -2.168327808380127
    scale: 0.01883183978497982
    zero_point: 115
  '@Initializer_sq_scale_layer18_out_proj_228:out0':
    qtype: u8
    quantizer: asymmetric_affine
    rounding: rtne
    max_value: 0.9020229578018188
    min_value: 0.0
    scale: 0.003537344979122281
    zero_point: 0
  '@MatMul_layer19_attn_context_231:out0':
    qtype: u8
    quantizer: asymmetric_affine
    rounding: rtne
    max_value: 2.0505332946777344
    min_value: -1.7261704206466675
    scale: 0.014810603111982346
    zero_point: 117
  '@Mul_sq_mul_layer19_gate_proj_232:out0':
    qtype: u8
    quantizer: asymmetric_affine
    rounding: rtne
    max_value: 4.665675163269043
    min_value: -1.9434560537338257
    scale: 0.025918161496520042
    zero_point: 75
  '@Initializer_sq_scale_layer19_gate_proj_234:out0':
    qtype: u8
    quantizer: asymmetric_affine
    rounding: rtne
    max_value: 0.4009484052658081
    min_value: 0.0
    scale: 0.0015723466640338302
    zero_point: 0
  '@Mul_layer19_mlp_rms_gamma_235:out0':
    qtype: u8
    quantizer: asymmetric_affine
    rounding: rtne
    max_value: 44.769954681396484
    min_value: -29.722246170043945
    scale: 0.29212629795074463
    zero_point: 102
  '@Initializer_sq_scale_layer19_up_proj_236:out0':
    qtype: u8
    quantizer: asymmetric_affine
    rounding: rtne
    max_value: 0.5186046361923218
    min_value: 0.0
    scale: 0.0020337437745183706
    zero_point: 0
  '@Add_layer20_causal_mask_237:out0':
    qtype: u8
    quantizer: asymmetric_affine
    rounding: rtne
    max_value: 8.531072616577148
    min_value: -10009.9208984375
    scale: 39.288047790527344
    zero_point: 255
  '@Reshape_layer20_v_repeat_expand_238:out0':
    qtype: u8
    quantizer: asymmetric_affine
    rounding: rtne
    max_value: 7.7360429763793945
    min_value: -7.288589000701904
    scale: 0.05892012268304825
    zero_point: 124
  '@Transpose_layer20_v_heads_239:out0':
    qtype: u8
    quantizer: asymmetric_affine
    rounding: rtne
    max_value: 7.7360429763793945
    min_value: -7.288589000701904
    scale: 0.05892012268304825
    zero_point: 124
  '@Reciprocal_layer20_mlp_rms_reciprocal_240:out0':
    qtype: u8
    quantizer: asymmetric_affine
    rounding: rtne
    max_value: 1.0
    min_value: 0.0
    scale: 0.003921568859368563
    zero_point: 0
  '@Divide_241:out0':
    qtype: u8
    quantizer: asymmetric_affine
    rounding: rtne
    max_value: 0.8304169774055481
    min_value: 0.0
    scale: 0.003256537253037095
    zero_point: 0
  '@Add_layer21_q_rope_rope_add_242:out0':
    qtype: u8
    quantizer: asymmetric_affine
    rounding: rtne
    max_value: 13.674189567565918
    min_value: -12.641976356506348
    scale: 0.10320065170526505
    zero_point: 122
  '@Transpose_layer21_k_transpose_243:out0':
    qtype: u8
    quantizer: asymmetric_affine
    rounding: rtne
    max_value: 9.908567428588867
    min_value: -8.304505348205566
    scale: 0.07142382115125656
    zero_point: 116
  '@Add_layer21_mlp_rms_eps_245:out0':
    qtype: u8
    quantizer: asymmetric_affine
    rounding: rtne
    max_value: 2225.9697265625
    min_value: 0.0
    scale: 8.729292869567871
    zero_point: 0
  '@Mul_layer22_q_rope_mul_cos_246:out0':
    qtype: u8
    quantizer: asymmetric_affine
    rounding: rtne
    max_value: 7.3551506996154785
    min_value: -7.186956882476807
    scale: 0.057027872651815414
    zero_point: 126
  '@Mul_layer22_q_rope_mul_sin_247:out0':
    qtype: u8
    quantizer: asymmetric_affine
    rounding: rtne
    max_value: 5.1389265060424805
    min_value: -4.391448020935059
    scale: 0.037374015897512436
    zero_point: 118
  '@Reshape_layer22_k_repeat_merge_248:out0':
    qtype: u8
    quantizer: asymmetric_affine
    rounding: rtne
    max_value: 9.172806739807129
    min_value: -8.43233871459961
    scale: 0.06903978437185287
    zero_point: 122
  '@Mul_sq_mul_layer22_v_proj_249:out0':
    qtype: u8
    quantizer: asymmetric_affine
    rounding: rtne
    max_value: 1.464641809463501
    min_value: -1.4558969736099243
    scale: 0.011453093960881233
    zero_point: 127
  '@Initializer_sq_scale_layer22_v_proj_251:out0':
    qtype: u8
    quantizer: asymmetric_affine
    rounding: rtne
    max_value: 0.2832140326499939
    min_value: 0.0
    scale: 0.001110643264837563
    zero_point: 0
  '@Mul_layer22_attn_rms_gamma_252:out0':
    qtype: u8
    quantizer: asymmetric_affine
    rounding: rtne
    max_value: 26.7640438079834
    min_value: -25.658559799194336
    scale: 0.20557883381843567
    zero_point: 125
  '@Reshape_layer23_q_reshape_253:out0':
    qtype: u8
    quantizer: asymmetric_affine
    rounding: rtne
    max_value: 17.96908950805664
    min_value: -20.22939109802246
    scale: 0.1497979611158371
    zero_point: 135
  '@Neg_layer23_q_rope_neg_second_254:out0':
    qtype: u8
    quantizer: asymmetric_affine
    rounding: rtne
    max_value: 17.96908950805664
    min_value: -20.22939109802246
    scale: 0.1497979611158371
    zero_point: 135
  '@Slice_layer23_q_rope_slice_first_255:out0':
    qtype: u8
    quantizer: asymmetric_affine
    rounding: rtne
    max_value: 17.96908950805664
    min_value: -20.22939109802246
    scale: 0.1497979611158371
    zero_point: 135
  '@Reshape_layer23_k_repeat_expand_256:out0':
    qtype: u8
    quantizer: asymmetric_affine
    rounding: rtne
    max_value: 10.699780464172363
    min_value: -11.230437278747559
    scale: 0.08600085228681564
    zero_point: 131
  '@Add_layer23_k_rope_rope_add_257:out0':
    qtype: u8
    quantizer: asymmetric_affine
    rounding: rtne
    max_value: 10.699780464172363
    min_value: -11.230437278747559
    scale: 0.08600085228681564
    zero_point: 131
  '@Reciprocal_layer23_attn_rms_reciprocal_258:out0':
    qtype: u8
    quantizer: asymmetric_affine
    rounding: rtne
    max_value: 1.0
    min_value: 0.0
    scale: 0.003921568859368563
    zero_point: 0
  '@Divide_259:out0':
    qtype: u8
    quantizer: asymmetric_affine
    rounding: rtne
    max_value: 0.47526609897613525
    min_value: 0.0
    scale: 0.0018637885805219412
    zero_point: 0
  '@Add_layer16_attn_residual_260:out0':
    qtype: u8
    quantizer: asymmetric_affine
    rounding: rtne
    max_value: 1398.7510986328125
    min_value: -89.27693939208984
    scale: 5.835404396057129
    zero_point: 15
  '@Mul_sq_mul_layer17_out_proj_262:out0':
    qtype: u8
    quantizer: asymmetric_affine
    rounding: rtne
    max_value: 0.5431442856788635
    min_value: -0.5444721579551697
    scale: 0.004265162628144026
    zero_point: 128
  '@Mul_layer17_swiglu_mul_264:out0':
    qtype: u8
    quantizer: asymmetric_affine
    rounding: rtne
    max_value: 7.407279014587402
    min_value: -7.407279014587402
    scale: 0.058096304535865784
    zero_point: 128
  '@Initializer_sq_scale_layer17_down_proj_265:out0':
    qtype: u8
    quantizer: asymmetric_affine
    rounding: rtne
    max_value: 0.5737895965576172
    min_value: 0.0
    scale: 0.0022501552011817694
    zero_point: 0
  '@Transpose_layer18_ctx_transpose_266:out0':
    qtype: u8
    quantizer: asymmetric_affine
    rounding: rtne
    max_value: 2.633791446685791
    min_value: -2.168327808380127
    scale: 0.01883183978497982
    zero_point: 115
  '@Mul_sq_mul_layer18_up_proj_269:out0':
    qtype: u8
    quantizer: asymmetric_affine
    rounding: rtne
    max_value: 1.872860312461853
    min_value: -1.359147548675537
    scale: 0.012674541212618351
    zero_point: 107
  '@Softmax_layer19_softmax_271:out0':
    qtype: u8
    quantizer: asymmetric_affine
    rounding: rtne
    max_value: 1.0
    min_value: 0.0
    scale: 0.003921568859368563
    zero_point: 0
  '@Reshape_layer19_v_repeat_merge_272:out0':
    qtype: u8
    quantizer: asymmetric_affine
    rounding: rtne
    max_value: 4.932956695556641
    min_value: -3.5465433597564697
    scale: 0.03325293958187103
    zero_point: 107
  '@Tile_layer19_v_repeat_tile_273:out0':
    qtype: u8
    quantizer: asymmetric_affine
    rounding: rtne
    max_value: 4.932956695556641
    min_value: -3.5465433597564697
    scale: 0.03325293958187103
    zero_point: 107
  '@Mul_layer19_mlp_rms_scale_to_unit_274:out0':
    qtype: u8
    quantizer: asymmetric_affine
    rounding: rtne
    max_value: 29.538911819458008
    min_value: -10.808098793029785
    scale: 0.15822356939315796
    zero_point: 68
  '@Initializer_layer19_mlp_gamma_275:out0':
    qtype: u8
    quantizer: asymmetric_affine
    rounding: rtne
    max_value: 3.765625
    min_value: 0.0
    scale: 0.014767156913876534
    zero_point: 0
  '@Mul_layer20_attn_scale_276:out0':
    qtype: u8
    quantizer: asymmetric_affine
    rounding: rtne
    max_value: 8.48612117767334
    min_value: -9.921067237854004
    scale: 0.07218505442142487
    zero_point: 137
  '@MatMul_layer20_attn_scores_277:out0':
    qtype: u8
    quantizer: asymmetric_affine
    rounding: rtne
    max_value: 67.88896942138672
    min_value: -79.36853790283203
    scale: 0.5774804353713989
    zero_point: 137
  '@Reshape_layer20_v_reshape_278:out0':
    qtype: u8
    quantizer: asymmetric_affine
    rounding: rtne
    max_value: 7.7360429763793945
    min_value: -7.288589000701904
    scale: 0.05892012268304825
    zero_point: 124
  '@Sqrt_layer20_mlp_rms_sqrt_279:out0':
    qtype: u8
    quantizer: asymmetric_affine
    rounding: rtne
    max_value: 47.33427810668945
    min_value: 0.0
    scale: 0.1856246143579483
    zero_point: 0
  '@Mul_layer21_q_rope_mul_cos_280:out0':
    qtype: u8
    quantizer: asymmetric_affine
    rounding: rtne
    max_value: 13.674052238464355
    min_value: -12.413642883300781
    scale: 0.10230468958616257
    zero_point: 121
  '@Mul_layer21_q_rope_mul_sin_281:out0':
    qtype: u8
    quantizer: asymmetric_affine
    rounding: rtne
    max_value: 12.489609718322754
    min_value: -12.297527313232422
    scale: 0.09720445424318314
    zero_point: 127
  '@Reshape_layer21_k_repeat_merge_282:out0':
    qtype: u8
    quantizer: asymmetric_affine
    rounding: rtne
    max_value: 9.908567428588867
    min_value: -8.304505348205566
    scale: 0.07142382115125656
    zero_point: 116
  '@ReduceMean_layer21_mlp_rms_mean_285:out0':
    qtype: u8
    quantizer: asymmetric_affine
    rounding: rtne
    max_value: 2225.9697265625
    min_value: 0.0
    scale: 8.729292869567871
    zero_point: 0
  '@Mul_layer21_mlp_rms_square_286:out0':
    qtype: u8
    quantizer: asymmetric_affine
    rounding: rtne
    max_value: 1942967.125
    min_value: 0.0
    scale: 7619.47900390625
    zero_point: 0
  '@Transpose_layer22_q_heads_287:out0':
    qtype: u8
    quantizer: asymmetric_affine
    rounding: rtne
    max_value: 7.3551506996154785
    min_value: -7.186956882476807
    scale: 0.057027872651815414
    zero_point: 126
  '@Concat_layer22_q_rope_rotate_half_289:out0':
    qtype: u8
    quantizer: asymmetric_affine
    rounding: rtne
    max_value: 7.355145454406738
    min_value: -7.111405849456787
    scale: 0.05673157051205635
    zero_point: 125
  '@Tile_layer22_k_repeat_tile_291:out0':
    qtype: u8
    quantizer: asymmetric_affine
    rounding: rtne
    max_value: 9.172806739807129
    min_value: -8.43233871459961
    scale: 0.06903978437185287
    zero_point: 122
  '@Mul_layer22_attn_rms_scale_to_unit_292:out0':
    qtype: u8
    quantizer: asymmetric_affine
    rounding: rtne
    max_value: 26.82524871826172
    min_value: -8.523736000061035
    scale: 0.1386234611272812
    zero_point: 61
  '@Initializer_layer22_attn_gamma_293:out0':
    qtype: u8
    quantizer: asymmetric_affine
    rounding: rtne
    max_value: 7.15625
    min_value: 0.0
    scale: 0.02806372568011284
    zero_point: 0
  '@Slice_layer23_q_rope_slice_second_295:out0':
    qtype: u8
    quantizer: asymmetric_affine
    rounding: rtne
    max_value: 17.96908950805664
    min_value: -20.22939109802246
    scale: 0.1497979611158371
    zero_point: 135
  '@Mul_layer23_k_rope_mul_cos_297:out0':
    qtype: u8
    quantizer: asymmetric_affine
    rounding: rtne
    max_value: 10.699474334716797
    min_value: -11.22991943359375
    scale: 0.08599762618541718
    zero_point: 131
  '@Mul_layer23_k_rope_mul_sin_298:out0':
    qtype: u8
    quantizer: asymmetric_affine
    rounding: rtne
    max_value: 3.3345696926116943
    min_value: -2.7458174228668213
    scale: 0.023844655603170395
    zero_point: 115
  '@Sqrt_layer23_attn_rms_sqrt_299:out0':
    qtype: u8
    quantizer: asymmetric_affine
    rounding: rtne
    max_value: 2.8835878372192383
    min_value: 0.0
    scale: 0.011308187618851662
    zero_point: 0
  '@Add_layer15_mlp_residual_300:out0':
    qtype: u8
    quantizer: asymmetric_affine
    rounding: rtne
    max_value: 1398.6859130859375
    min_value: -89.24251556396484
    scale: 5.835013389587402
    zero_point: 15
  '@Mul_sq_mul_layer16_down_proj_302:out0':
    qtype: u8
    quantizer: asymmetric_affine
    rounding: rtne
    max_value: 0.7944732904434204
    min_value: -0.7944732904434204
    scale: 0.006231163162738085
    zero_point: 128
  '@Reshape_layer17_ctx_merge_heads_304:out0':
    qtype: u8
    quantizer: asymmetric_affine
    rounding: rtne
    max_value: 4.838674068450928
    min_value: -3.8501787185668945
    scale: 0.034073930233716965
    zero_point: 113
  '@Initializer_sq_scale_layer17_out_proj_305:out0':
    qtype: u8
    quantizer: asymmetric_affine
    rounding: rtne
    max_value: 1.8887724876403809
    min_value: 0.0
    scale: 0.007406950928270817
    zero_point: 0
  '@MatMul_layer18_attn_context_308:out0':
    qtype: u8
    quantizer: asymmetric_affine
    rounding: rtne
    max_value: 2.633791446685791
    min_value: -2.168327808380127
    scale: 0.01883183978497982
    zero_point: 115
  '@Mul_sq_mul_layer18_gate_proj_309:out0':
    qtype: u8
    quantizer: asymmetric_affine
    rounding: rtne
    max_value: 2.518710136413574
    min_value: -1.7854299545288086
    scale: 0.01687898114323616
    zero_point: 106
  '@Initializer_sq_scale_layer18_gate_proj_311:out0':
    qtype: u8
    quantizer: asymmetric_affine
    rounding: rtne
    max_value: 0.4711776673793793
    min_value: 0.0
    scale: 0.0018477555131539702
    zero_point: 0
  '@Mul_layer18_mlp_rms_gamma_312:out0':
    qtype: u8
    quantizer: asymmetric_affine
    rounding: rtne
    max_value: 34.378787994384766
    min_value: -24.74024200439453
    scale: 0.23183932900428772
    zero_point: 107
  '@Initializer_sq_scale_layer18_up_proj_313:out0':
    qtype: u8
    quantizer: asymmetric_affine
    rounding: rtne
    max_value: 0.436643123626709
    min_value: 0.0
    scale: 0.0017123259603977203
    zero_point: 0
  '@Add_layer19_causal_mask_314:out0':
    qtype: u8
    quantizer: asymmetric_affine
    rounding: rtne
    max_value: 6.845602035522461
    min_value: -10016.126953125
    scale: 39.3057746887207
    zero_point: 255
  '@Reshape_layer19_v_repeat_expand_315:out0':
    qtype: u8
    quantizer: asymmetric_affine
    rounding: rtne
    max_value: 4.932956695556641
    min_value: -3.5465433597564697
    scale: 0.03325293958187103
    zero_point: 107
  '@Transpose_layer19_v_heads_316:out0':
    qtype: u8
    quantizer: asymmetric_affine
    rounding: rtne
    max_value: 4.932956695556641
    min_value: -3.5465433597564697
    scale: 0.03325293958187103
    zero_point: 107
  '@Reciprocal_layer19_mlp_rms_reciprocal_317:out0':
    qtype: u8
    quantizer: asymmetric_affine
    rounding: rtne
    max_value: 1.0
    min_value: 0.0
    scale: 0.003921568859368563
    zero_point: 0
  '@Divide_318:out0':
    qtype: u8
    quantizer: asymmetric_affine
    rounding: rtne
    max_value: 1.0264242887496948
    min_value: 0.0
    scale: 0.0040251933969557285
    zero_point: 0
  '@Add_layer20_q_rope_rope_add_319:out0':
    qtype: u8
    quantizer: asymmetric_affine
    rounding: rtne
    max_value: 12.779851913452148
    min_value: -13.54805850982666
    scale: 0.10324671119451523
    zero_point: 131
  '@Transpose_layer20_k_transpose_320:out0':
    qtype: u8
    quantizer: asymmetric_affine
    rounding: rtne
    max_value: 13.688920974731445
    min_value: -10.523629188537598
    scale: 0.09495118260383606
    zero_point: 111
  '@Add_layer20_mlp_rms_eps_322:out0':
    qtype: u8
    quantizer: asymmetric_affine
    rounding: rtne
    max_value: 2240.533447265625
    min_value: 0.0
    scale: 8.786405563354492
    zero_point: 0
  '@Transpose_layer21_q_heads_323:out0':
    qtype: u8
    quantizer: asymmetric_affine
    rounding: rtne
    max_value: 13.674103736877441
    min_value: -12.644790649414062
    scale: 0.10321134328842163
    zero_point: 123
  '@Reshape_layer21_q_reshape_324:out0':
    qtype: u8
    quantizer: asymmetric_affine
    rounding: rtne
    max_value: 13.674103736877441
    min_value: -12.644790649414062
    scale: 0.10321134328842163
    zero_point: 123
  '@Concat_layer21_q_rope_rotate_half_325:out0':
    qtype: u8
    quantizer: asymmetric_affine
    rounding: rtne
    max_value: 13.67403793334961
    min_value: -12.641007423400879
    scale: 0.10319625586271286
    zero_point: 122
  '@Slice_layer21_q_rope_slice_first_326:out0':
    qtype: u8
    quantizer: asymmetric_affine
    rounding: rtne
    max_value: 13.674103736877441
    min_value: -12.644790649414062
    scale: 0.10321134328842163
    zero_point: 123
  '@Tile_layer21_k_repeat_tile_327:out0':
    qtype: u8
    quantizer: asymmetric_affine
    rounding: rtne
    max_value: 9.908567428588867
    min_value: -8.304505348205566
    scale: 0.07142382115125656
    zero_point: 116
  '@Mul_sq_mul_layer21_v_proj_328:out0':
    qtype: u8
    quantizer: asymmetric_affine
    rounding: rtne
    max_value: 1.7934917211532593
    min_value: -1.5988094806671143
    scale: 0.013303141109645367
    zero_point: 120
  '@Initializer_sq_scale_layer21_v_proj_330:out0':
    qtype: u8
    quantizer: asymmetric_affine
    rounding: rtne
    max_value: 0.3267512917518616
    min_value: 0.0
    scale: 0.0012813776265829802
    zero_point: 0
  '@Mul_layer21_attn_rms_gamma_331:out0':
    qtype: u8
    quantizer: asymmetric_affine
    rounding: rtne
    max_value: 39.93366241455078
    min_value: -26.03200340270996
    scale: 0.25868889689445496
    zero_point: 101
  '@Reshape_layer22_q_reshape_332:out0':
    qtype: u8
    quantizer: asymmetric_affine
    rounding: rtne
    max_value: 7.3551506996154785
    min_value: -7.186956882476807
    scale: 0.057027872651815414
    zero_point: 126
  '@Neg_layer22_q_rope_neg_second_333:out0':
    qtype: u8
    quantizer: asymmetric_affine
    rounding: rtne
    max_value: 7.355145454406738
    min_value: -7.111405849456787
    scale: 0.05673157051205635
    zero_point: 125
  '@Slice_layer22_q_rope_slice_first_334:out0':
    qtype: u8
    quantizer: asymmetric_affine
    rounding: rtne
    max_value: 7.3551506996154785
    min_value: -7.186956882476807
    scale: 0.057027872651815414
    zero_point: 126
  '@Reshape_layer22_k_repeat_expand_335:out0':
    qtype: u8
    quantizer: asymmetric_affine
    rounding: rtne
    max_value: 9.172806739807129
    min_value: -8.43233871459961
    scale: 0.06903978437185287
    zero_point: 122
  '@Add_layer22_k_rope_rope_add_336:out0':
    qtype: u8
    quantizer: asymmetric_affine
    rounding: rtne
    max_value: 9.172806739807129
    min_value: -8.43233871459961
    scale: 0.06903978437185287
    zero_point: 122
  '@Reciprocal_layer22_attn_rms_reciprocal_337:out0':
    qtype: u8
    quantizer: asymmetric_affine
    rounding: rtne
    max_value: 1.0
    min_value: 0.0
    scale: 0.003921568859368563
    zero_point: 0
  '@Divide_338:out0':
    qtype: u8
    quantizer: asymmetric_affine
    rounding: rtne
    max_value: 0.5270760655403137
    min_value: 0.0
    scale: 0.0020669649820774794
    zero_point: 0
  '@Transpose_layer23_k_heads_340:out0':
    qtype: u8
    quantizer: asymmetric_affine
    rounding: rtne
    max_value: 10.699474334716797
    min_value: -11.22991943359375
    scale: 0.08599762618541718
    zero_point: 131
  '@Reshape_layer23_k_reshape_341:out0':
    qtype: u8
    quantizer: asymmetric_affine
    rounding: rtne
    max_value: 10.699474334716797
    min_value: -11.22991943359375
    scale: 0.08599762618541718
    zero_point: 131
  '@Concat_layer23_k_rope_rotate_half_342:out0':
    qtype: u8
    quantizer: asymmetric_affine
    rounding: rtne
    max_value: 11.229921340942383
    min_value: -9.28432559967041
    scale: 0.08044803142547607
    zero_point: 115
  '@Slice_layer23_k_rope_slice_first_343:out0':
    qtype: u8
    quantizer: asymmetric_affine
    rounding: rtne
    max_value: 10.699474334716797
    min_value: -11.22991943359375
    scale: 0.08599762618541718
    zero_point: 131
  '@Add_layer23_attn_rms_eps_344:out0':
    qtype: u8
    quantizer: asymmetric_affine
    rounding: rtne
    max_value: 8.315025329589844
    min_value: 0.0
    scale: 0.03260794281959534
    zero_point: 0
  '@Add_layer15_attn_residual_345:out0':
    qtype: u8
    quantizer: asymmetric_affine
    rounding: rtne
    max_value: 1397.0140380859375
    min_value: -89.2780532836914
    scale: 5.828596591949463
    zero_point: 15
  '@Mul_sq_mul_layer16_out_proj_347:out0':
    qtype: u8
    quantizer: asymmetric_affine
    rounding: rtne
    max_value: 0.6010649800300598
    min_value: -0.6010649800300598
    scale: 0.004714235197752714
    zero_point: 128
  '@Mul_layer16_swiglu_mul_349:out0':
    qtype: u8
    quantizer: asymmetric_affine
    rounding: rtne
    max_value: 9.524300575256348
    min_value: -9.524300575256348
    scale: 0.07470040023326874
    zero_point: 127
  '@Initializer_sq_scale_layer16_down_proj_350:out0':
    qtype: u8
    quantizer: asymmetric_affine
    rounding: rtne
    max_value: 0.7483348250389099
    min_value: 0.0
    scale: 0.00293464632704854
    zero_point: 0
  '@Transpose_layer17_ctx_transpose_351:out0':
    qtype: u8
    quantizer: asymmetric_affine
    rounding: rtne
    max_value: 4.838674068450928
    min_value: -3.8501787185668945
    scale: 0.034073930233716965
    zero_point: 113
  '@Mul_sq_mul_layer17_up_proj_354:out0':
    qtype: u8
    quantizer: asymmetric_affine
    rounding: rtne
    max_value: 1.790859580039978
    min_value: -1.6077466011047363
    scale: 0.013327867724001408
    zero_point: 121
  '@Softmax_layer18_softmax_356:out0':
    qtype: u8
    quantizer: asymmetric_affine
    rounding: rtne
    max_value: 1.0
    min_value: 0.0
    scale: 0.003921568859368563
    zero_point: 0
  '@Reshape_layer18_v_repeat_merge_357:out0':
    qtype: u8
    quantizer: asymmetric_affine
    rounding: rtne
    max_value: 5.11484956741333
    min_value: -5.0640645027160645
    scale: 0.03991730883717537
    zero_point: 127
  '@Tile_layer18_v_repeat_tile_358:out0':
    qtype: u8
    quantizer: asymmetric_affine
    rounding: rtne
    max_value: 5.11484956741333
    min_value: -5.0640645027160645
    scale: 0.03991730883717537
    zero_point: 127
  '@Mul_layer18_mlp_rms_scale_to_unit_359:out0':
    qtype: u8
    quantizer: asymmetric_affine
    rounding: rtne
    max_value: 29.53345489501953
    min_value: -11.99760627746582
    scale: 0.16286690533161163
    zero_point: 74
  '@Initializer_layer18_mlp_gamma_360:out0':
    qtype: u8
    quantizer: asymmetric_affine
    rounding: rtne
    max_value: 3.59375
    min_value: 0.0
    scale: 0.014093137346208096
    zero_point: 0
  '@Mul_layer19_attn_scale_361:out0':
    qtype: u8
    quantizer: asymmetric_affine
    rounding: rtne
    max_value: 6.772329807281494
    min_value: -16.06230354309082
    scale: 0.08954758197069168
    zero_point: 179
  '@MatMul_layer19_attn_scores_362:out0':
    qtype: u8
    quantizer: asymmetric_affine
    rounding: rtne
    max_value: 54.17863845825195
    min_value: -128.49842834472656
    scale: 0.7163806557655334
    zero_point: 179
  '@Reshape_layer19_v_reshape_363:out0':
    qtype: u8
    quantizer: asymmetric_affine
    rounding: rtne
    max_value: 4.932956695556641
    min_value: -3.5465433597564697
    scale: 0.03325293958187103
    zero_point: 107
  '@Sqrt_layer19_mlp_rms_sqrt_364:out0':
    qtype: u8
    quantizer: asymmetric_affine
    rounding: rtne
    max_value: 47.35126876831055
    min_value: 0.0
    scale: 0.1856912523508072
    zero_point: 0
  '@Mul_layer20_q_rope_mul_cos_365:out0':
    qtype: u8
    quantizer: asymmetric_affine
    rounding: rtne
    max_value: 12.779772758483887
    min_value: -13.547903060913086
    scale: 0.10324578732252121
    zero_point: 131
  '@Mul_layer20_q_rope_mul_sin_366:out0':
    qtype: u8
    quantizer: asymmetric_affine
    rounding: rtne
    max_value: 5.9490461349487305
    min_value: -5.759113788604736
    scale: 0.04591435566544533
    zero_point: 125
  '@Reshape_layer20_k_repeat_merge_367:out0':
    qtype: u8
    quantizer: asymmetric_affine
    rounding: rtne
    max_value: 13.688920974731445
    min_value: -10.523629188537598
    scale: 0.09495118260383606
    zero_point: 111
  '@ReduceMean_layer20_mlp_rms_mean_370:out0':
    qtype: u8
    quantizer: asymmetric_affine
    rounding: rtne
    max_value: 2240.533447265625
    min_value: 0.0
    scale: 8.786405563354492
    zero_point: 0
  '@Mul_layer20_mlp_rms_square_371:out0':
    qtype: u8
    quantizer: asymmetric_affine
    rounding: rtne
    max_value: 1955071.375
    min_value: 0.0
    scale: 7666.94677734375
    zero_point: 0
  '@Neg_layer21_q_rope_neg_second_373:out0':
    qtype: u8
    quantizer: asymmetric_affine
    rounding: rtne
    max_value: 13.67403793334961
    min_value: -12.641007423400879
    scale: 0.10319625586271286
    zero_point: 122
  '@Slice_layer21_q_rope_slice_second_374:out0':
    qtype: u8
    quantizer: asymmetric_affine
    rounding: rtne
    max_value: 13.674103736877441
    min_value: -12.644790649414062
    scale: 0.10321134328842163
    zero_point: 123
  '@Reshape_layer21_k_repeat_expand_375:out0':
    qtype: u8
    quantizer: asymmetric_affine
    rounding: rtne
    max_value: 9.908567428588867
    min_value: -8.304505348205566
    scale: 0.07142382115125656
    zero_point: 116
  '@Mul_layer21_attn_rms_scale_to_unit_376:out0':
    qtype: u8
    quantizer: asymmetric_affine
    rounding: rtne
    max_value: 29.546232223510742
    min_value: -10.172503471374512
    scale: 0.15575973689556122
    zero_point: 65
  '@Initializer_layer21_attn_gamma_377:out0':
    qtype: u8
    quantizer: asymmetric_affine
    rounding: rtne
    max_value: 6.78125
    min_value: 0.0
    scale: 0.02659313753247261
    zero_point: 0
  '@Slice_layer22_q_rope_slice_second_379:out0':
    qtype: u8
    quantizer: asymmetric_affine
    rounding: rtne
    max_value: 7.3551506996154785
    min_value: -7.186956882476807
    scale: 0.057027872651815414
    zero_point: 126
  '@Mul_layer22_k_rope_mul_cos_381:out0':
    qtype: u8
    quantizer: asymmetric_affine
    rounding: rtne
    max_value: 9.173080444335938
    min_value: -8.432703018188477
    scale: 0.06904228776693344
    zero_point: 122
  '@Mul_layer22_k_rope_mul_sin_382:out0':
    qtype: u8
    quantizer: asymmetric_affine
    rounding: rtne
    max_value: 2.1362223625183105
    min_value: -2.5285120010375977
    scale: 0.018293075263500214
    zero_point: 138
  '@Sqrt_layer22_attn_rms_sqrt_383:out0':
    qtype: u8
    quantizer: asymmetric_affine
    rounding: rtne
    max_value: 3.178710699081421
    min_value: 0.0
    scale: 0.012465531937777996
    zero_point: 0
  '@Mul_sq_mul_layer23_q_proj_384:out0':
    qtype: u8
    quantizer: asymmetric_affine
    rounding: rtne
    max_value: 1.6653666496276855
    min_value: -1.6181188821792603
    scale: 0.012876413762569427
    zero_point: 126
  '@Neg_layer23_k_rope_neg_second_387:out0':
    qtype: u8
    quantizer: asymmetric_affine
    rounding: rtne
    max_value: 11.229921340942383
    min_value: -9.28432559967041
    scale: 0.08044803142547607
    zero_point: 115
  '@Slice_layer23_k_rope_slice_second_388:out0':
    qtype: u8
    quantizer: asymmetric_affine
    rounding: rtne
    max_value: 10.699474334716797
    min_value: -11.22991943359375
    scale: 0.08599762618541718
    zero_point: 131
  '@ReduceMean_layer23_attn_rms_mean_389:out0':
    qtype: u8
    quantizer: asymmetric_affine
    rounding: rtne
    max_value: 8.315024375915527
    min_value: 0.0
    scale: 0.03260793909430504
    zero_point: 0
  '@Mul_layer23_attn_rms_square_390:out0':
    qtype: u8
    quantizer: asymmetric_affine
    rounding: rtne
    max_value: 4912.318359375
    min_value: 0.0
    scale: 19.263994216918945
    zero_point: 0
  '@Add_layer14_mlp_residual_391:out0':
    qtype: u8
    quantizer: asymmetric_affine
    rounding: rtne
    max_value: 1396.753173828125
    min_value: -89.19422149658203
    scale: 5.827244758605957
    zero_point: 15
  '@Mul_sq_mul_layer15_down_proj_393:out0':
    qtype: u8
    quantizer: asymmetric_affine
    rounding: rtne
    max_value: 0.6485029458999634
    min_value: -0.6485029458999634
    scale: 0.005086297634989023
    zero_point: 128
  '@Reshape_layer16_ctx_merge_heads_395:out0':
    qtype: u8
    quantizer: asymmetric_affine
    rounding: rtne
    max_value: 1.9015954732894897
    min_value: -1.9015954732894897
    scale: 0.014914474450051785
    zero_point: 128
  '@Initializer_sq_scale_layer16_out_proj_396:out0':
    qtype: u8
    quantizer: asymmetric_affine
    rounding: rtne
    max_value: 14.36738109588623
    min_value: 0.0
    scale: 0.05634267255663872
    zero_point: 0
  '@MatMul_layer17_attn_context_399:out0':
    qtype: u8
    quantizer: asymmetric_affine
    rounding: rtne
    max_value: 4.838674068450928
    min_value: -3.8501787185668945
    scale: 0.034073930233716965
    zero_point: 113
  '@Mul_sq_mul_layer17_gate_proj_400:out0':
    qtype: u8
    quantizer: asymmetric_affine
    rounding: rtne
    max_value: 2.3444650173187256
    min_value: -1.7427420616149902
    scale: 0.016028262674808502
    zero_point: 109
  '@Initializer_sq_scale_layer17_gate_proj_402:out0':
    qtype: u8
    quantizer: asymmetric_affine
    rounding: rtne
    max_value: 0.5097947716712952
    min_value: 0.0
    scale: 0.001999195199459791
    zero_point: 0
  '@Mul_layer17_mlp_rms_gamma_403:out0':
    qtype: u8
    quantizer: asymmetric_affine
    rounding: rtne
    max_value: 33.91388702392578
    min_value: -31.965944290161133
    scale: 0.25835227966308594
    zero_point: 124
  '@Initializer_sq_scale_layer17_up_proj_404:out0':
    qtype: u8
    quantizer: asymmetric_affine
    rounding: rtne
    max_value: 0.4102310538291931
    min_value: 0.0
    scale: 0.0016087492695078254
    zero_point: 0
  '@Add_layer18_causal_mask_405:out0':
    qtype: u8
    quantizer: asymmetric_affine
    rounding: rtne
    max_value: 9.080713272094727
    min_value: -10013.775390625
    scale: 39.305320739746094
    zero_point: 255
  '@Reshape_layer18_v_repeat_expand_406:out0':
    qtype: u8
    quantizer: asymmetric_affine
    rounding: rtne
    max_value: 5.11484956741333
    min_value: -5.0640645027160645
    scale: 0.03991730883717537
    zero_point: 127
  '@Transpose_layer18_v_heads_407:out0':
    qtype: u8
    quantizer: asymmetric_affine
    rounding: rtne
    max_value: 5.11484956741333
    min_value: -5.0640645027160645
    scale: 0.03991730883717537
    zero_point: 127
  '@Reciprocal_layer18_mlp_rms_reciprocal_408:out0':
    qtype: u8
    quantizer: asymmetric_affine
    rounding: rtne
    max_value: 1.0
    min_value: 0.0
    scale: 0.003921568859368563
    zero_point: 0
  '@Divide_409:out0':
    qtype: u8
    quantizer: asymmetric_affine
    rounding: rtne
    max_value: 1.2842520475387573
    min_value: 0.0
    scale: 0.005036282353103161
    zero_point: 0
  '@Add_layer19_q_rope_rope_add_410:out0':
    qtype: u8
    quantizer: asymmetric_affine
    rounding: rtne
    max_value: 19.643653869628906
    min_value: -21.05112648010254
    scale: 0.15958736836910248
    zero_point: 132
  '@Transpose_layer19_k_transpose_411:out0':
    qtype: u8
    quantizer: asymmetric_affine
    rounding: rtne
    max_value: 10.508816719055176
    min_value: -6.566958427429199
    scale: 0.06696382164955139
    zero_point: 98
  '@Add_layer19_mlp_rms_eps_413:out0':
    qtype: u8
    quantizer: asymmetric_affine
    rounding: rtne
    max_value: 2242.142822265625
    min_value: 0.0
    scale: 8.792716979980469
    zero_point: 0
  '@Transpose_layer20_q_heads_414:out0':
    qtype: u8
    quantizer: asymmetric_affine
    rounding: rtne
    max_value: 12.779772758483887
    min_value: -13.547904014587402
    scale: 0.1032457947731018
    zero_point: 131
  '@Reshape_layer20_q_reshape_415:out0':
    qtype: u8
    quantizer: asymmetric_affine
    rounding: rtne
    max_value: 12.779772758483887
    min_value: -13.547904014587402
    scale: 0.1032457947731018
    zero_point: 131
  '@Concat_layer20_q_rope_rotate_half_416:out0':
    qtype: u8
    quantizer: asymmetric_affine
    rounding: rtne
    max_value: 12.779772758483887
    min_value: -13.547904014587402
    scale: 0.1032457947731018
    zero_point: 131
  '@Slice_layer20_q_rope_slice_first_417:out0':
    qtype: u8
    quantizer: asymmetric_affine
    rounding: rtne
    max_value: 12.779772758483887
    min_value: -13.547904014587402
    scale: 0.1032457947731018
    zero_point: 131
  '@Tile_layer20_k_repeat_tile_418:out0':
    qtype: u8
    quantizer: asymmetric_affine
    rounding: rtne
    max_value: 13.688920974731445
    min_value: -10.523629188537598
    scale: 0.09495118260383606
    zero_point: 111
  '@Mul_sq_mul_layer20_v_proj_419:out0':
    qtype: u8
    quantizer: asymmetric_affine
    rounding: rtne
    max_value: 1.5441882610321045
    min_value: -1.3241705894470215
    scale: 0.01124846562743187
    zero_point: 118
  '@Initializer_sq_scale_layer20_v_proj_421:out0':
    qtype: u8
    quantizer: asymmetric_affine
    rounding: rtne
    max_value: 0.260083943605423
    min_value: 0.0
    scale: 0.0010199369862675667
    zero_point: 0
  '@Mul_layer20_attn_rms_gamma_422:out0':
    qtype: u8
    quantizer: asymmetric_affine
    rounding: rtne
    max_value: 39.2342529296875
    min_value: -29.446121215820312
    scale: 0.2693347930908203
    zero_point: 109
  '@Add_layer21_k_rope_rope_add_426:out0':
    qtype: u8
    quantizer: asymmetric_affine
    rounding: rtne
    max_value: 9.908567428588867
    min_value: -8.304505348205566
    scale: 0.07142382115125656
    zero_point: 116
  '@Mul_layer21_k_rope_mul_sin_427:out0':
    qtype: u8
    quantizer: asymmetric_affine
    rounding: rtne
    max_value: 3.0163843631744385
    min_value: -2.4392776489257812
    scale: 0.021394751965999603
    zero_point: 114
  '@Reciprocal_layer21_attn_rms_reciprocal_428:out0':
    qtype: u8
    quantizer: asymmetric_affine
    rounding: rtne
    max_value: 1.0
    min_value: 0.0
    scale: 0.003921568859368563
    zero_point: 0
  '@Divide_429:out0':
    qtype: u8
    quantizer: asymmetric_affine
    rounding: rtne
    max_value: 0.7074049115180969
    min_value: 0.0
    scale: 0.0027741368394345045
    zero_point: 0
  '@Transpose_layer22_k_heads_431:out0':
    qtype: u8
    quantizer: asymmetric_affine
    rounding: rtne
    max_value: 9.173080444335938
    min_value: -8.432703018188477
    scale: 0.06904228776693344
    zero_point: 122
  '@Reshape_layer22_k_reshape_432:out0':
    qtype: u8
    quantizer: asymmetric_affine
    rounding: rtne
    max_value: 9.173080444335938
    min_value: -8.432703018188477
    scale: 0.06904228776693344
    zero_point: 122
  '@Concat_layer22_k_rope_rotate_half_433:out0':
    qtype: u8
    quantizer: asymmetric_affine
    rounding: rtne
    max_value: 7.795820236206055
    min_value: -9.173094749450684
    scale: 0.06654476374387741
    zero_point: 138
  '@Slice_layer22_k_rope_slice_first_434:out0':
    qtype: u8
    quantizer: asymmetric_affine
    rounding: rtne
    max_value: 9.173080444335938
    min_value: -8.432703018188477
    scale: 0.06904228776693344
    zero_point: 122
  '@Add_layer22_attn_rms_eps_435:out0':
    qtype: u8
    quantizer: asymmetric_affine
    rounding: rtne
    max_value: 10.104195594787598
    min_value: 0.0
    scale: 0.03962429612874985
    zero_point: 0
  '@ReduceMean_layer22_attn_rms_mean_436:out0':
    qtype: u8
    quantizer: asymmetric_affine
    rounding: rtne
    max_value: 10.104194641113281
    min_value: 0.0
    scale: 0.03962429240345955
    zero_point: 0
  '@Initializer_sq_scale_layer23_q_proj_437:out0':
    qtype: u8
    quantizer: asymmetric_affine
    rounding: rtne
    max_value: 0.4147714078426361
    min_value: 0.0
    scale: 0.0016265545273199677
    zero_point: 0
  '@Mul_sq_mul_layer23_k_proj_441:out0':
    qtype: u8
    quantizer: asymmetric_affine
    rounding: rtne
    max_value: 1.7511301040649414
    min_value: -1.7511301040649414
    scale: 0.013734353706240654
    zero_point: 128
  '@Initializer_sq_scale_layer23_k_proj_442:out0':
    qtype: u8
    quantizer: asymmetric_affine
    rounding: rtne
    max_value: 0.2836274206638336
    min_value: 0.0
    scale: 0.001112264348194003
    zero_point: 0
  '@Add_layer14_attn_residual_443:out0':
    qtype: u8
    quantizer: asymmetric_affine
    rounding: rtne
    max_value: 1395.5921630859375
    min_value: -89.26101684570312
    scale: 5.822953701019287
    zero_point: 15
  '@Mul_sq_mul_layer15_out_proj_445:out0':
    qtype: u8
    quantizer: asymmetric_affine
    rounding: rtne
    max_value: 0.5696961879730225
    min_value: -0.5819768905639648
    scale: 0.004516365006566048
    zero_point: 129
  '@Mul_layer15_swiglu_mul_447:out0':
    qtype: u8
    quantizer: asymmetric_affine
    rounding: rtne
    max_value: 5.273019313812256
    min_value: -5.273019313812256
    scale: 0.04135701432824135
    zero_point: 128
  '@Initializer_sq_scale_layer15_down_proj_448:out0':
    qtype: u8
    quantizer: asymmetric_affine
    rounding: rtne
    max_value: 1.054595708847046
    min_value: 0.0
    scale: 0.0041356696747243404
    zero_point: 0
  '@Transpose_layer16_ctx_transpose_449:out0':
    qtype: u8
    quantizer: asymmetric_affine
    rounding: rtne
    max_value: 1.9015954732894897
    min_value: -1.9015954732894897
    scale: 0.014914474450051785
    zero_point: 128
  '@Mul_sq_mul_layer16_up_proj_452:out0':
    qtype: u8
    quantizer: asymmetric_affine
    rounding: rtne
    max_value: 1.5873907804489136
    min_value: -1.5040186643600464
    scale: 0.012123174034059048
    zero_point: 124
  '@Softmax_layer17_softmax_454:out0':
    qtype: u8
    quantizer: asymmetric_affine
    rounding: rtne
    max_value: 1.0
    min_value: 0.0
    scale: 0.003921568859368563
    zero_point: 0
  '@Reshape_layer17_v_repeat_merge_455:out0':
    qtype: u8
    quantizer: asymmetric_affine
    rounding: rtne
    max_value: 4.969398021697998
    min_value: -5.176124572753906
    scale: 0.03978636488318443
    zero_point: 130
  '@Tile_layer17_v_repeat_tile_456:out0':
    qtype: u8
    quantizer: asymmetric_affine
    rounding: rtne
    max_value: 4.969398021697998
    min_value: -5.176124572753906
    scale: 0.03978636488318443
    zero_point: 130
  '@Mul_layer17_mlp_rms_scale_to_unit_457:out0':
    qtype: u8
    quantizer: asymmetric_affine
    rounding: rtne
    max_value: 29.530458450317383
    min_value: -12.60079288482666
    scale: 0.16522060334682465
    zero_point: 76
  '@Initializer_layer17_mlp_gamma_458:out0':
    qtype: u8
    quantizer: asymmetric_affine
    rounding: rtne
    max_value: 4.375
    min_value: 0.0
    scale: 0.01715686358511448
    zero_point: 0
  '@Mul_layer18_attn_scale_459:out0':
    qtype: u8
    quantizer: asymmetric_affine
    rounding: rtne
    max_value: 9.062657356262207
    min_value: -11.99545955657959
    scale: 0.08258084952831268
    zero_point: 145
  '@MatMul_layer18_attn_scores_460:out0':
    qtype: u8
    quantizer: asymmetric_affine
    rounding: rtne
    max_value: 72.50125885009766
    min_value: -95.96367645263672
    scale: 0.6606467962265015
    zero_point: 145
  '@Reshape_layer18_v_reshape_461:out0':
    qtype: u8
    quantizer: asymmetric_affine
    rounding: rtne
    max_value: 5.11484956741333
    min_value: -5.0640645027160645
    scale: 0.03991730883717537
    zero_point: 127
  '@Sqrt_layer18_mlp_rms_sqrt_462:out0':
    qtype: u8
    quantizer: asymmetric_affine
    rounding: rtne
    max_value: 47.3779182434082
    min_value: 0.0
    scale: 0.18579575419425964
    zero_point: 0
  '@Mul_layer19_q_rope_mul_cos_463:out0':
    qtype: u8
    quantizer: asymmetric_affine
    rounding: rtne
    max_value: 19.64393424987793
    min_value: -21.05155372619629
    scale: 0.15959015488624573
    zero_point: 132
  '@Mul_layer19_q_rope_mul_sin_464:out0':
    qtype: u8
    quantizer: asymmetric_affine
    rounding: rtne
    max_value: 7.998260021209717
    min_value: -8.65009880065918
    scale: 0.06528768688440323
    zero_point: 132
  '@Reshape_layer19_k_repeat_merge_465:out0':
    qtype: u8
    quantizer: asymmetric_affine
    rounding: rtne
    max_value: 10.508816719055176
    min_value: -6.566958427429199
    scale: 0.06696382164955139
    zero_point: 98
  '@ReduceMean_layer19_mlp_rms_mean_468:out0':
    qtype: u8
    quantizer: asymmetric_affine
    rounding: rtne
    max_value: 2242.142822265625
    min_value: 0.0
    scale: 8.792716979980469
    zero_point: 0
  '@Mul_layer19_mlp_rms_square_469:out0':
    qtype: u8
    quantizer: asymmetric_affine
    rounding: rtne
    max_value: 1956335.25
    min_value: 0.0
    scale: 7671.90283203125
    zero_point: 0
  '@Neg_layer20_q_rope_neg_second_471:out0':
    qtype: u8
    quantizer: asymmetric_affine
    rounding: rtne
    max_value: 12.779772758483887
    min_value: -13.547904014587402
    scale: 0.1032457947731018
    zero_point: 131
  '@Slice_layer20_q_rope_slice_second_472:out0':
    qtype: u8
    quantizer: asymmetric_affine
    rounding: rtne
    max_value: 12.779772758483887
    min_value: -13.547904014587402
    scale: 0.1032457947731018
    zero_point: 131
  '@Reshape_layer20_k_repeat_expand_473:out0':
    qtype: u8
    quantizer: asymmetric_affine
    rounding: rtne
    max_value: 13.688920974731445
    min_value: -10.523629188537598
    scale: 0.09495118260383606
    zero_point: 111
  '@Mul_layer20_attn_rms_scale_to_unit_474:out0':
    qtype: u8
    quantizer: asymmetric_affine
    rounding: rtne
    max_value: 29.541034698486328
    min_value: -10.305571556091309
    scale: 0.15626120567321777
    zero_point: 66
  '@Initializer_layer20_attn_gamma_475:out0':
    qtype: u8
    quantizer: asymmetric_affine
    rounding: rtne
    max_value: 4.5
    min_value: -0.09521484375
    scale: 0.018020451068878174
    zero_point: 5
  '@Mul_sq_mul_layer21_q_proj_476:out0':
    qtype: u8
    quantizer: asymmetric_affine
    rounding: rtne
    max_value: 2.6784307956695557
    min_value: -1.796036720275879
    scale: 0.01754693128168583
    zero_point: 102
  '@Mul_layer21_k_rope_mul_cos_477:out0':
    qtype: u8
    quantizer: asymmetric_affine
    rounding: rtne
    max_value: 9.908028602600098
    min_value: -8.304059028625488
    scale: 0.07141995429992676
    zero_point: 116
  '@Concat_layer21_k_rope_rotate_half_478:out0':
    qtype: u8
    quantizer: asymmetric_affine
    rounding: rtne
    max_value: 8.30408763885498
    min_value: -9.907959938049316
    scale: 0.07141979783773422
    zero_point: 139
  '@Slice_layer21_k_rope_slice_first_479:out0':
    qtype: u8
    quantizer: asymmetric_affine
    rounding: rtne
    max_value: 9.908028602600098
    min_value: -8.304059028625488
    scale: 0.07141995429992676
    zero_point: 116
  '@Sqrt_layer21_attn_rms_sqrt_480:out0':
    qtype: u8
    quantizer: asymmetric_affine
    rounding: rtne
    max_value: 47.17460632324219
    min_value: 0.0
    scale: 0.18499845266342163
    zero_point: 0
  '@Mul_sq_mul_layer22_q_proj_481:out0':
    qtype: u8
    quantizer: asymmetric_affine
    rounding: rtne
    max_value: 1.5180166959762573
    min_value: -1.395941972732544
    scale: 0.011427288874983788
    zero_point: 122
  '@Neg_layer22_k_rope_neg_second_484:out0':
    qtype: u8
    quantizer: asymmetric_affine
    rounding: rtne
    max_value: 7.795820236206055
    min_value: -9.173094749450684
    scale: 0.06654476374387741
    zero_point: 138
  '@Slice_layer22_k_rope_slice_second_485:out0':
    qtype: u8
    quantizer: asymmetric_affine
    rounding: rtne
    max_value: 9.173080444335938
    min_value: -8.432703018188477
    scale: 0.06904228776693344
    zero_point: 122
  '@Mul_layer22_attn_rms_square_486:out0':
    qtype: u8
    quantizer: asymmetric_affine
    rounding: rtne
    max_value: 7270.76953125
    min_value: 0.0
    scale: 28.512821197509766
    zero_point: 0
  '@Add_layer13_mlp_residual_488:out0':
    qtype: u8
    quantizer: asymmetric_affine
    rounding: rtne
    max_value: 1395.5760498046875
    min_value: -89.07218933105469
    scale: 5.822149753570557
    zero_point: 15
  '@Mul_sq_mul_layer14_down_proj_490:out0':
    qtype: u8
    quantizer: asymmetric_affine
    rounding: rtne
    max_value: 0.8021001815795898
    min_value: -0.8021001815795898
    scale: 0.006290982011705637
    zero_point: 127
  '@Reshape_layer15_ctx_merge_heads_492:out0':
    qtype: u8
    quantizer: asymmetric_affine
    rounding: rtne
    max_value: 2.680668354034424
    min_value: -2.0906760692596436
    scale: 0.0187111534178257
    zero_point: 112
  '@Initializer_sq_scale_layer15_out_proj_493:out0':
    qtype: u8
    quantizer: asymmetric_affine
    rounding: rtne
    max_value: 1.1110612154006958
    min_value: 0.0
    scale: 0.004357102792710066
    zero_point: 0
  '@MatMul_layer16_attn_context_496:out0':
    qtype: u8
    quantizer: asymmetric_affine
    rounding: rtne
    max_value: 1.9015954732894897
    min_value: -1.9015954732894897
    scale: 0.014914474450051785
    zero_point: 128
  '@Mul_sq_mul_layer16_gate_proj_497:out0':
    qtype: u8
    quantizer: asymmetric_affine
    rounding: rtne
    max_value: 1.992553949356079
    min_value: -1.6967788934707642
    scale: 0.014467972330749035
    zero_point: 117
  '@Initializer_sq_scale_layer16_gate_proj_499:out0':
    qtype: u8
    quantizer: asymmetric_affine
    rounding: rtne
    max_value: 0.6210702657699585
    min_value: 0.0
    scale: 0.002435569651424885
    zero_point: 0
  '@Mul_layer16_mlp_rms_gamma_500:out0':
    qtype: u8
    quantizer: asymmetric_affine
    rounding: rtne
    max_value: 25.257780075073242
    min_value: -26.973812103271484
    scale: 0.20482976734638214
    zero_point: 132
  '@Initializer_sq_scale_layer16_up_proj_501:out0':
    qtype: u8
    quantizer: asymmetric_affine
    rounding: rtne
    max_value: 0.5070428252220154
    min_value: 0.0
    scale: 0.0019884032662957907
    zero_point: 0
  '@Add_layer17_causal_mask_502:out0':
    qtype: u8
    quantizer: asymmetric_affine
    rounding: rtne
    max_value: 10.769622802734375
    min_value: -10012.1396484375
    scale: 39.30552673339844
    zero_point: 255
  '@Reshape_layer17_v_repeat_expand_503:out0':
    qtype: u8
    quantizer: asymmetric_affine
    rounding: rtne
    max_value: 4.969398021697998
    min_value: -5.176124572753906
    scale: 0.03978636488318443
    zero_point: 130
  '@Transpose_layer17_v_heads_504:out0':
    qtype: u8
    quantizer: asymmetric_affine
    rounding: rtne
    max_value: 4.969398021697998
    min_value: -5.176124572753906
    scale: 0.03978636488318443
    zero_point: 130
  '@Reciprocal_layer17_mlp_rms_reciprocal_505:out0':
    qtype: u8
    quantizer: asymmetric_affine
    rounding: rtne
    max_value: 1.0
    min_value: 0.0
    scale: 0.003921568859368563
    zero_point: 0
  '@Divide_506:out0':
    qtype: u8
    quantizer: asymmetric_affine
    rounding: rtne
    max_value: 1.4438655376434326
    min_value: 0.0
    scale: 0.005662217736244202
    zero_point: 0
  '@Add_layer18_q_rope_rope_add_507:out0':
    qtype: u8
    quantizer: asymmetric_affine
    rounding: rtne
    max_value: 16.62061309814453
    min_value: -23.550214767456055
    scale: 0.15753266215324402
    zero_point: 149
  '@Transpose_layer18_k_transpose_508:out0':
    qtype: u8
    quantizer: asymmetric_affine
    rounding: rtne
    max_value: 7.305561542510986
    min_value: -9.760414123535156
    scale: 0.06692539155483246
    zero_point: 146
  '@Add_layer18_mlp_rms_eps_510:out0':
    qtype: u8
    quantizer: asymmetric_affine
    rounding: rtne
    max_value: 2244.667236328125
    min_value: 0.0
    scale: 8.802617073059082
    zero_point: 0
  '@Transpose_layer19_q_heads_511:out0':
    qtype: u8
    quantizer: asymmetric_affine
    rounding: rtne
    max_value: 19.643938064575195
    min_value: -21.051555633544922
    scale: 0.15959018468856812
    zero_point: 132
  '@Reshape_layer19_q_reshape_512:out0':
    qtype: u8
    quantizer: asymmetric_affine
    rounding: rtne
    max_value: 19.643938064575195
    min_value: -21.051555633544922
    scale: 0.15959018468856812
    zero_point: 132
  '@Concat_layer19_q_rope_rotate_half_513:out0':
    qtype: u8
    quantizer: asymmetric_affine
    rounding: rtne
    max_value: 8.056129455566406
    min_value: -21.051536560058594
    scale: 0.11414770781993866
    zero_point: 184
  '@Slice_layer19_q_rope_slice_first_514:out0':
    qtype: u8
    quantizer: asymmetric_affine
    rounding: rtne
    max_value: 19.643938064575195
    min_value: -21.051555633544922
    scale: 0.15959018468856812
    zero_point: 132
  '@Tile_layer19_k_repeat_tile_515:out0':
    qtype: u8
    quantizer: asymmetric_affine
    rounding: rtne
    max_value: 10.508816719055176
    min_value: -6.566958427429199
    scale: 0.06696382164955139
    zero_point: 98
  '@Mul_sq_mul_layer19_v_proj_516:out0':
    qtype: u8
    quantizer: asymmetric_affine
    rounding: rtne
    max_value: 1.3782960176467896
    min_value: -1.0633047819137573
    scale: 0.009574905037879944
    zero_point: 111
  '@Initializer_sq_scale_layer19_v_proj_518:out0':
    qtype: u8
    quantizer: asymmetric_affine
    rounding: rtne
    max_value: 0.3077603876590729
    min_value: 0.0
    scale: 0.0012069034855812788
    zero_point: 0
  '@Mul_layer19_attn_rms_gamma_519:out0':
    qtype: u8
    quantizer: asymmetric_affine
    rounding: rtne
    max_value: 31.382457733154297
    min_value: -27.08163833618164
    scale: 0.22927096486091614
    zero_point: 118
  '@Add_layer20_k_rope_rope_add_523:out0':
    qtype: u8
    quantizer: asymmetric_affine
    rounding: rtne
    max_value: 13.688920974731445
    min_value: -10.523629188537598
    scale: 0.09495118260383606
    zero_point: 111
  '@Mul_layer20_k_rope_mul_sin_524:out0':
    qtype: u8
    quantizer: asymmetric_affine
    rounding: rtne
    max_value: 2.371980667114258
    min_value: -3.341989278793335
    scale: 0.02240772545337677
    zero_point: 149
  '@Reciprocal_layer20_attn_rms_reciprocal_525:out0':
    qtype: u8
    quantizer: asymmetric_affine
    rounding: rtne
    max_value: 1.0
    min_value: 0.0
    scale: 0.003921568859368563
    zero_point: 0
  '@Divide_526:out0':
    qtype: u8
    quantizer: asymmetric_affine
    rounding: rtne
    max_value: 0.8950580358505249
    min_value: 0.0
    scale: 0.0035100316163152456
    zero_point: 0
  '@Sqrt_layer20_attn_rms_sqrt_527:out0':
    qtype: u8
    quantizer: asymmetric_affine
    rounding: rtne
    max_value: 47.312870025634766
    min_value: 0.0
    scale: 0.18554066121578217
    zero_point: 0
  '@Initializer_sq_scale_layer21_q_proj_528:out0':
    qtype: u8
    quantizer: asymmetric_affine
    rounding: rtne
    max_value: 0.4048926830291748
    min_value: 0.0
    scale: 0.0015878144185990095
    zero_point: 0
  '@Transpose_layer21_k_heads_529:out0':
    qtype: u8
    quantizer: asymmetric_affine
    rounding: rtne
    max_value: 9.908028602600098
    min_value: -8.304059028625488
    scale: 0.07141995429992676
    zero_point: 116
  '@Reshape_layer21_k_reshape_530:out0':
    qtype: u8
    quantizer: asymmetric_affine
    rounding: rtne
    max_value: 9.908028602600098
    min_value: -8.304059028625488
    scale: 0.07141995429992676
    zero_point: 116
  '@Neg_layer21_k_rope_neg_second_531:out0':
    qtype: u8
    quantizer: asymmetric_affine
    rounding: rtne
    max_value: 8.30408763885498
    min_value: -9.907959938049316
    scale: 0.07141979783773422
    zero_point: 139
  '@Slice_layer21_k_rope_slice_second_532:out0':
    qtype: u8
    quantizer: asymmetric_affine
    rounding: rtne
    max_value: 9.907959938049316
    min_value: -8.30408763885498
    scale: 0.07141979783773422
    zero_point: 116
  '@Add_layer21_attn_rms_eps_533:out0':
    qtype: u8
    quantizer: asymmetric_affine
    rounding: rtne
    max_value: 2225.443359375
    min_value: 0.0
    scale: 8.727229118347168
    zero_point: 0
  '@ReduceMean_layer21_attn_rms_mean_534:out0':
    qtype: u8
    quantizer: asymmetric_affine
    rounding: rtne
    max_value: 2225.443359375
    min_value: 0.0
    scale: 8.727229118347168
    zero_point: 0
  '@Initializer_sq_scale_layer22_q_proj_535:out0':
    qtype: u8
    quantizer: asymmetric_affine
    rounding: rtne
    max_value: 0.4035547077655792
    min_value: 0.0
    scale: 0.0015825674636289477
    zero_point: 0
  '@Add_layer13_attn_residual_537:out0':
    qtype: u8
    quantizer: asymmetric_affine
    rounding: rtne
    max_value: 1394.9521484375
    min_value: -89.06797790527344
    scale: 5.8196868896484375
    zero_point: 15
  '@Mul_sq_mul_layer14_out_proj_539:out0':
    qtype: u8
    quantizer: asymmetric_affine
    rounding: rtne
    max_value: 0.6518635749816895
    min_value: -0.6518635749816895
    scale: 0.005112655460834503
    zero_point: 128
  '@Mul_layer14_swiglu_mul_541:out0':
    qtype: u8
    quantizer: asymmetric_affine
    rounding: rtne
    max_value: 5.741120338439941
    min_value: -5.741120338439941
    scale: 0.04502839595079422
    zero_point: 128
  '@Initializer_sq_scale_layer14_down_proj_542:out0':
    qtype: u8
    quantizer: asymmetric_affine
    rounding: rtne
    max_value: 0.9608543515205383
    min_value: 0.0
    scale: 0.0037680561654269695
    zero_point: 0
  '@Transpose_layer15_ctx_transpose_543:out0':
    qtype: u8
    quantizer: asymmetric_affine
    rounding: rtne
    max_value: 2.680668354034424
    min_value: -2.0906760692596436
    scale: 0.0187111534178257
    zero_point: 112
  '@Mul_sq_mul_layer15_up_proj_546:out0':
    qtype: u8
    quantizer: asymmetric_affine
    rounding: rtne
    max_value: 1.88324773311615
    min_value: -1.6374711990356445
    scale: 0.013806741684675217
    zero_point: 119
  '@Softmax_layer16_softmax_548:out0':
    qtype: u8
    quantizer: asymmetric_affine
    rounding: rtne
    max_value: 1.0
    min_value: 0.0
    scale: 0.003921568859368563
    zero_point: 0
  '@Reshape_layer16_v_repeat_merge_549:out0':
    qtype: u8
    quantizer: asymmetric_affine
    rounding: rtne
    max_value: 4.772094249725342
    min_value: -4.171945571899414
    scale: 0.035074666142463684
    zero_point: 119
  '@Tile_layer16_v_repeat_tile_550:out0':
    qtype: u8
    quantizer: asymmetric_affine
    rounding: rtne
    max_value: 4.772094249725342
    min_value: -4.171945571899414
    scale: 0.035074666142463684
    zero_point: 119
  '@Mul_layer16_mlp_rms_scale_to_unit_551:out0':
    qtype: u8
    quantizer: asymmetric_affine
    rounding: rtne
    max_value: 29.525075912475586
    min_value: -14.337390899658203
    scale: 0.1720096617937088
    zero_point: 83
  '@Initializer_layer16_mlp_gamma_552:out0':
    qtype: u8
    quantizer: asymmetric_affine
    rounding: rtne
    max_value: 3.3125
    min_value: 0.0
    scale: 0.012990196235477924
    zero_point: 0
  '@Mul_layer17_attn_scale_553:out0':
    qtype: u8
    quantizer: asymmetric_affine
    rounding: rtne
    max_value: 10.725191116333008
    min_value: -12.136333465576172
    scale: 0.08965303748846054
    zero_point: 135
  '@MatMul_layer17_attn_scores_554:out0':
    qtype: u8
    quantizer: asymmetric_affine
    rounding: rtne
    max_value: 85.80152893066406
    min_value: -97.09066772460938
    scale: 0.7172242999076843
    zero_point: 135
  '@Reshape_layer17_v_reshape_555:out0':
    qtype: u8
    quantizer: asymmetric_affine
    rounding: rtne
    max_value: 4.969398021697998
    min_value: -5.176124572753906
    scale: 0.03978636488318443
    zero_point: 130
  '@Sqrt_layer17_mlp_rms_sqrt_556:out0':
    qtype: u8
    quantizer: asymmetric_affine
    rounding: rtne
    max_value: 47.400638580322266
    min_value: 0.0
    scale: 0.18588486313819885
    zero_point: 0
  '@Mul_layer18_q_rope_mul_cos_557:out0':
    qtype: u8
    quantizer: asymmetric_affine
    rounding: rtne
    max_value: 16.620357513427734
    min_value: -23.550886154174805
    scale: 0.15753428637981415
    zero_point: 149
  '@Mul_layer18_q_rope_mul_sin_558:out0':
    qtype: u8
    quantizer: asymmetric_affine
    rounding: rtne
    max_value: 6.797140121459961
    min_value: -7.1898322105407715
    scale: 0.05485087260603905
    zero_point: 131
  '@Reshape_layer18_k_repeat_merge_559:out0':
    qtype: u8
    quantizer: asymmetric_affine
    rounding: rtne
    max_value: 7.305561542510986
    min_value: -9.760414123535156
    scale: 0.06692539155483246
    zero_point: 146
  '@ReduceMean_layer18_mlp_rms_mean_562:out0':
    qtype: u8
    quantizer: asymmetric_affine
    rounding: rtne
    max_value: 2244.667236328125
    min_value: 0.0
    scale: 8.802617073059082
    zero_point: 0
  '@Mul_layer18_mlp_rms_square_563:out0':
    qtype: u8
    quantizer: asymmetric_affine
    rounding: rtne
    max_value: 1957854.5
    min_value: 0.0
    scale: 7677.86083984375
    zero_point: 0
  '@Neg_layer19_q_rope_neg_second_565:out0':
    qtype: u8
    quantizer: asymmetric_affine
    rounding: rtne
    max_value: 8.056129455566406
    min_value: -21.051536560058594
    scale: 0.11414770781993866
    zero_point: 184
  '@Slice_layer19_q_rope_slice_second_566:out0':
    qtype: u8
    quantizer: asymmetric_affine
    rounding: rtne
    max_value: 19.643938064575195
    min_value: -21.051555633544922
    scale: 0.15959018468856812
    zero_point: 132
  '@Reshape_layer19_k_repeat_expand_567:out0':
    qtype: u8
    quantizer: asymmetric_affine
    rounding: rtne
    max_value: 10.508816719055176
    min_value: -6.566958427429199
    scale: 0.06696382164955139
    zero_point: 98
  '@Mul_layer19_attn_rms_scale_to_unit_568:out0':
    qtype: u8
    quantizer: asymmetric_affine
    rounding: rtne
    max_value: 29.53643035888672
    min_value: -10.537269592285156
    scale: 0.15715175867080688
    zero_point: 67
  '@Initializer_layer19_attn_gamma_569:out0':
    qtype: u8
    quantizer: asymmetric_affine
    rounding: rtne
    max_value: 4.15625
    min_value: -0.06591796875
    scale: 0.016557522118091583
    zero_point: 4
  '@Mul_sq_mul_layer20_q_proj_570:out0':
    qtype: u8
    quantizer: asymmetric_affine
    rounding: rtne
    max_value: 2.0526962280273438
    min_value: -1.3998854160308838
    scale: 0.01353953592479229
    zero_point: 103
  '@Mul_layer20_k_rope_mul_cos_571:out0':
    qtype: u8
    quantizer: asymmetric_affine
    rounding: rtne
    max_value: 13.688017845153809
    min_value: -10.523482322692871
    scale: 0.09494706243276596
    zero_point: 111
  '@Concat_layer20_k_rope_rotate_half_572:out0':
    qtype: u8
    quantizer: asymmetric_affine
    rounding: rtne
    max_value: 10.523482322692871
    min_value: -13.688018798828125
    scale: 0.09494706988334656
    zero_point: 144
  '@Slice_layer20_k_rope_slice_first_573:out0':
    qtype: u8
    quantizer: asymmetric_affine
    rounding: rtne
    max_value: 13.688018798828125
    min_value: -10.523482322692871
    scale: 0.09494706988334656
    zero_point: 111
  '@Add_layer20_attn_rms_eps_574:out0':
    qtype: u8
    quantizer: asymmetric_affine
    rounding: rtne
    max_value: 2238.5078125
    min_value: 0.0
    scale: 8.778462409973145
    zero_point: 0
  '@Mul_layer21_attn_rms_square_577:out0':
    qtype: u8
    quantizer: asymmetric_affine
    rounding: rtne
    max_value: 1942363.125
    min_value: 0.0
    scale: 7617.1103515625
    zero_point: 0
  '@Mul_sq_mul_layer22_k_proj_578:out0':
    qtype: u8
    quantizer: asymmetric_affine
    rounding: rtne
    max_value: 1.747622013092041
    min_value: -1.6653691530227661
    scale: 0.013384278863668442
    zero_point: 124
  '@Add_layer12_mlp_residual_580:out0':
    qtype: u8
    quantizer: asymmetric_affine
    rounding: rtne
    max_value: 1395.0294189453125
    min_value: -88.8501968383789
    scale: 5.819135665893555
    zero_point: 15
  '@Mul_sq_mul_layer13_down_proj_582:out0':
    qtype: u8
    quantizer: asymmetric_affine
    rounding: rtne
    max_value: 0.7502402663230896
    min_value: -0.7660282850265503
    scale: 0.005946150980889797
    zero_point: 129
  '@Reshape_layer14_ctx_merge_heads_584:out0':
    qtype: u8
    quantizer: asymmetric_affine
    rounding: rtne
    max_value: 2.2723801136016846
    min_value: -2.2723801136016846
    scale: 0.017822589725255966
    zero_point: 127
  '@Initializer_sq_scale_layer14_out_proj_585:out0':
    qtype: u8
    quantizer: asymmetric_affine
    rounding: rtne
    max_value: 0.7268835306167603
    min_value: 0.0
    scale: 0.0028505236841738224
    zero_point: 0
  '@MatMul_layer15_attn_context_588:out0':
    qtype: u8
    quantizer: asymmetric_affine
    rounding: rtne
    max_value: 2.680668354034424
    min_value: -2.0906760692596436
    scale: 0.0187111534178257
    zero_point: 112
  '@Mul_sq_mul_layer15_gate_proj_589:out0':
    qtype: u8
    quantizer: asymmetric_affine
    rounding: rtne
    max_value: 1.9427889585494995
    min_value: -2.093332529067993
    scale: 0.015827927738428116
    zero_point: 132
  '@Initializer_sq_scale_layer15_gate_proj_591:out0':
    qtype: u8
    quantizer: asymmetric_affine
    rounding: rtne
    max_value: 0.5529906153678894
    min_value: 0.0
    scale: 0.0021685906685888767
    zero_point: 0
  '@Mul_layer15_mlp_rms_gamma_592:out0':
    qtype: u8
    quantizer: asymmetric_affine
    rounding: rtne
    max_value: 25.94724464416504
    min_value: -21.70047950744629
    scale: 0.18685382604599
    zero_point: 116
  '@Initializer_sq_scale_layer15_up_proj_593:out0':
    qtype: u8
    quantizer: asymmetric_affine
    rounding: rtne
    max_value: 0.47348687052726746
    min_value: 0.0
    scale: 0.0018568112282082438
    zero_point: 0
  '@Add_layer16_causal_mask_594:out0':
    qtype: u8
    quantizer: asymmetric_affine
    rounding: rtne
    max_value: 14.567093849182129
    min_value: -10018.4541015625
    scale: 39.34518051147461
    zero_point: 255
  '@Reshape_layer16_v_repeat_expand_595:out0':
    qtype: u8
    quantizer: asymmetric_affine
    rounding: rtne
    max_value: 4.772094249725342
    min_value: -4.171945571899414
    scale: 0.035074666142463684
    zero_point: 119
  '@Transpose_layer16_v_heads_596:out0':
    qtype: u8
    quantizer: asymmetric_affine
    rounding: rtne
    max_value: 4.772094249725342
    min_value: -4.171945571899414
    scale: 0.035074666142463684
    zero_point: 119
  '@Reciprocal_layer16_mlp_rms_reciprocal_597:out0':
    qtype: u8
    quantizer: asymmetric_affine
    rounding: rtne
    max_value: 1.0
    min_value: 0.0
    scale: 0.003921568859368563
    zero_point: 0
  '@Divide_598:out0':
    qtype: u8
    quantizer: asymmetric_affine
    rounding: rtne
    max_value: 1.6729191541671753
    min_value: 0.0
    scale: 0.006560467183589935
    zero_point: 0
  '@Add_layer17_q_rope_rope_add_599:out0':
    qtype: u8
    quantizer: asymmetric_affine
    rounding: rtne
    max_value: 16.21304702758789
    min_value: -19.495330810546875
    scale: 0.14003285765647888
    zero_point: 139
  '@Transpose_layer17_k_transpose_600:out0':
    qtype: u8
    quantizer: asymmetric_affine
    rounding: rtne
    max_value: 6.560649871826172
    min_value: -10.552459716796875
    scale: 0.06711023300886154
    zero_point: 157
  '@Add_layer17_mlp_rms_eps_602:out0':
    qtype: u8
    quantizer: asymmetric_affine
    rounding: rtne
    max_value: 2246.8203125
    min_value: 0.0
    scale: 8.811059951782227
    zero_point: 0
  '@Transpose_layer18_q_heads_603:out0':
    qtype: u8
    quantizer: asymmetric_affine
    rounding: rtne
    max_value: 16.620357513427734
    min_value: -23.550886154174805
    scale: 0.15753428637981415
    zero_point: 149
  '@Reshape_layer18_q_reshape_604:out0':
    qtype: u8
    quantizer: asymmetric_affine
    rounding: rtne
    max_value: 16.620357513427734
    min_value: -23.550886154174805
    scale: 0.15753428637981415
    zero_point: 149
  '@Concat_layer18_q_rope_rotate_half_605:out0':
    qtype: u8
    quantizer: asymmetric_affine
    rounding: rtne
