# !!!This file disallow TABs!!!
version: 2
quantize_parameters:
  '@attach_MatMul_logits/out0_0:out0':
    qtype: u8
    quantizer: asymmetric_affine
    rounding: rtne
    max_value: 60.210975646972656
    min_value: -65.32597351074219
    scale: 0.4923017621040344
    zero_point: 133
  '@Mul_final_rms_gamma_2:out0':
    qtype: u8
    quantizer: asymmetric_affine
    rounding: rtne
    max_value: 18.308948516845703
    min_value: -15.799844741821289
    scale: 0.1337599754333496
    zero_point: 118
  '@Mul_final_rms_scale_to_unit_4:out0':
    qtype: u8
    quantizer: asymmetric_affine
    rounding: rtne
    max_value: 5.616410732269287
    min_value: -5.608650207519531
    scale: 0.044019848108291626
    zero_point: 127
  '@Initializer_final_rms_gamma_5:out0':
    qtype: u8
    quantizer: asymmetric_affine
    rounding: rtne
    max_value: 3.34375
    min_value: -2.125
    scale: 0.02144607901573181
    zero_point: 99
  '@Add_layer29_mlp_residual_6:out0':
    qtype: u8
    quantizer: asymmetric_affine
    rounding: rtne
    max_value: 5542.91552734375
    min_value: -3821.607421875
    scale: 36.7236213684082
    zero_point: 104
  '@Divide_8:out0':
    qtype: u8
    quantizer: asymmetric_affine
    rounding: rtne
    max_value: 0.06882952153682709
    min_value: 0.0
    scale: 0.00026991969207301736
    zero_point: 0
  '@Add_layer29_attn_residual_9:out0':
    qtype: u8
    quantizer: asymmetric_affine
    rounding: rtne
    max_value: 7666.4921875
    min_value: -1791.794677734375
    scale: 37.09132385253906
    zero_point: 48
  '@Add_layer28_mlp_residual_12:out0':
    qtype: u8
    quantizer: asymmetric_affine
    rounding: rtne
    max_value: 7654.36083984375
    min_value: -1809.5941162109375
    scale: 37.113548278808594
    zero_point: 49
  '@Mul_layer29_swiglu_mul_14:out0':
    qtype: u8
    quantizer: asymmetric_affine
    rounding: rtne
    max_value: 359.6268005371094
    min_value: -449.3146667480469
    scale: 3.1723194122314453
    zero_point: 142
  '@Add_final_rms_eps_16:out0':
    qtype: u8
    quantizer: asymmetric_affine
    rounding: rtne
    max_value: 1145470.75
    min_value: 0.0
    scale: 4492.0419921875
    zero_point: 0
  '@Add_layer28_attn_residual_17:out0':
    qtype: u8
    quantizer: asymmetric_affine
    rounding: rtne
    max_value: 7740.3837890625
    min_value: -1962.1102294921875
    scale: 38.04899597167969
    zero_point: 52
  '@Reshape_layer29_ctx_merge_heads_19:out0':
    qtype: u8
    quantizer: asymmetric_affine
    rounding: rtne
    max_value: 28.932085037231445
    min_value: -25.23725128173828
    scale: 0.2124287635087967
    zero_point: 119
  '@Add_layer27_mlp_residual_25:out0':
    qtype: u8
    quantizer: asymmetric_affine
    rounding: rtne
    max_value: 7572.435546875
    min_value: -1953.953857421875
    scale: 37.35839080810547
    zero_point: 52
  '@Mul_layer28_swiglu_mul_27:out0':
    qtype: u8
    quantizer: asymmetric_affine
    rounding: rtne
    max_value: 140.11070251464844
    min_value: -125.39618682861328
    scale: 1.041203498840332
    zero_point: 120
  '@Transpose_layer29_ctx_transpose_29:out0':
    qtype: u8
    quantizer: asymmetric_affine
    rounding: rtne
    max_value: 28.932085037231445
    min_value: -25.23725128173828
    scale: 0.2124287635087967
    zero_point: 119
  '@Mul_layer29_mlp_rms_gamma_32:out0':
    qtype: u8
    quantizer: asymmetric_affine
    rounding: rtne
    max_value: 7.413967609405518
    min_value: -4.793654918670654
    scale: 0.047873031347990036
    zero_point: 100
  '@Mul_final_rms_square_34:out0':
    qtype: u8
    quantizer: asymmetric_affine
    rounding: rtne
    max_value: 30723912.0
    min_value: 0.0
    scale: 120485.9296875
    zero_point: 0
  '@Add_layer27_attn_residual_35:out0':
    qtype: u8
    quantizer: asymmetric_affine
    rounding: rtne
    max_value: 7155.837890625
    min_value: -1794.7320556640625
    scale: 35.100276947021484
    zero_point: 51
  '@Reshape_layer28_ctx_merge_heads_37:out0':
    qtype: u8
    quantizer: asymmetric_affine
    rounding: rtne
    max_value: 28.238719940185547
    min_value: -28.394668579101562
    scale: 0.22209171950817108
    zero_point: 128
  '@MatMul_layer29_attn_context_41:out0':
    qtype: u8
    quantizer: asymmetric_affine
    rounding: rtne
    max_value: 28.932085037231445
    min_value: -25.23725128173828
    scale: 0.2124287635087967
    zero_point: 119
  '@Reshape_layer29_v_repeat_merge_42:out0':
    qtype: u8
    quantizer: asymmetric_affine
    rounding: rtne
    max_value: 28.932085037231445
    min_value: -25.23725128173828
    scale: 0.2124287635087967
    zero_point: 119
  '@Tile_layer29_v_repeat_tile_44:out0':
    qtype: u8
    quantizer: asymmetric_affine
    rounding: rtne
    max_value: 28.932085037231445
    min_value: -25.23725128173828
    scale: 0.2124287635087967
    zero_point: 119
  '@Mul_layer29_mlp_rms_scale_to_unit_45:out0':
    qtype: u8
    quantizer: asymmetric_affine
    rounding: rtne
    max_value: 5.625940799713135
    min_value: -5.621193885803223
    scale: 0.044106412678956985
    zero_point: 127
  '@Initializer_layer29_mlp_gamma_46:out0':
    qtype: u8
    quantizer: asymmetric_affine
    rounding: rtne
    max_value: 1.375
    min_value: 0.0
    scale: 0.005392157007008791
    zero_point: 0
  '@Divide_48:out0':
    qtype: u8
    quantizer: asymmetric_affine
    rounding: rtne
    max_value: 0.05879021808505058
    min_value: 0.0
    scale: 0.000230549878324382
    zero_point: 0
  '@Add_layer26_mlp_residual_50:out0':
    qtype: u8
    quantizer: asymmetric_affine
    rounding: rtne
    max_value: 7074.6943359375
    min_value: -1803.107666015625
    scale: 34.81490707397461
    zero_point: 52
  '@Mul_layer27_swiglu_mul_52:out0':
    qtype: u8
    quantizer: asymmetric_affine
    rounding: rtne
    max_value: 128.4102325439453
    min_value: -131.74847412109375
    scale: 1.0202301740646362
    zero_point: 129
  '@Transpose_layer28_ctx_transpose_54:out0':
    qtype: u8
    quantizer: asymmetric_affine
    rounding: rtne
    max_value: 28.238719940185547
    min_value: -28.394668579101562
    scale: 0.22209171950817108
    zero_point: 128
  '@Mul_layer28_mlp_rms_gamma_57:out0':
    qtype: u8
    quantizer: asymmetric_affine
    rounding: rtne
    max_value: 3.182040214538574
    min_value: -2.3941149711608887
    scale: 0.02186727523803711
    zero_point: 109
  '@Softmax_layer29_softmax_59:out0':
    qtype: u8
    quantizer: asymmetric_affine
    rounding: rtne
    max_value: 1.0
    min_value: 0.0
    scale: 0.003921568859368563
    zero_point: 0
  '@Reshape_layer29_v_repeat_expand_60:out0':
    qtype: u8
    quantizer: asymmetric_affine
    rounding: rtne
    max_value: 28.932085037231445
    min_value: -25.23725128173828
    scale: 0.2124287635087967
    zero_point: 119
  '@Transpose_layer29_v_heads_61:out0':
    qtype: u8
    quantizer: asymmetric_affine
    rounding: rtne
    max_value: 28.932085037231445
    min_value: -25.23725128173828
    scale: 0.2124287635087967
    zero_point: 119
  '@Add_layer29_mlp_rms_eps_62:out0':
    qtype: u8
    quantizer: asymmetric_affine
    rounding: rtne
    max_value: 2021610.25
    min_value: 0.0
    scale: 7927.88330078125
    zero_point: 0
  '@Add_layer26_attn_residual_63:out0':
    qtype: u8
    quantizer: asymmetric_affine
    rounding: rtne
    max_value: 7196.44677734375
    min_value: -1911.2403564453125
    scale: 35.71642303466797
    zero_point: 54
  '@Reshape_layer27_ctx_merge_heads_65:out0':
    qtype: u8
    quantizer: asymmetric_affine
    rounding: rtne
    max_value: 26.375228881835938
    min_value: -30.164749145507812
    scale: 0.22172540426254272
    zero_point: 136
  '@MatMul_layer28_attn_context_69:out0':
    qtype: u8
    quantizer: asymmetric_affine
    rounding: rtne
    max_value: 28.238719940185547
    min_value: -28.394668579101562
    scale: 0.22209171950817108
    zero_point: 128
  '@Reshape_layer28_v_repeat_merge_70:out0':
    qtype: u8
    quantizer: asymmetric_affine
    rounding: rtne
    max_value: 28.23900032043457
    min_value: -28.394948959350586
    scale: 0.22209392488002777
    zero_point: 128
  '@Tile_layer28_v_repeat_tile_72:out0':
    qtype: u8
    quantizer: asymmetric_affine
    rounding: rtne
    max_value: 28.23900032043457
    min_value: -28.394948959350586
    scale: 0.22209392488002777
    zero_point: 128
  '@Mul_layer28_mlp_rms_scale_to_unit_73:out0':
    qtype: u8
    quantizer: asymmetric_affine
    rounding: rtne
    max_value: 5.606524467468262
    min_value: -5.631617546081543
    scale: 0.04407114535570145
    zero_point: 128
  '@Initializer_layer28_mlp_gamma_74:out0':
    qtype: u8
    quantizer: asymmetric_affine
    rounding: rtne
    max_value: 0.58984375
    min_value: 0.0
    scale: 0.0023131128400564194
    zero_point: 0
  '@Add_layer29_causal_mask_75:out0':
    qtype: u8
    quantizer: asymmetric_affine
    rounding: rtne
    max_value: 69.96427917480469
    min_value: -10042.0478515625
    scale: 39.65494918823242
    zero_point: 253
  '@Reshape_layer29_v_reshape_76:out0':
    qtype: u8
    quantizer: asymmetric_affine
    rounding: rtne
    max_value: 28.932085037231445
    min_value: -25.23725128173828
    scale: 0.2124287635087967
    zero_point: 119
  '@Add_layer25_mlp_residual_79:out0':
    qtype: u8
    quantizer: asymmetric_affine
    rounding: rtne
    max_value: 7224.03173828125
    min_value: -1929.8134765625
    scale: 35.89743423461914
    zero_point: 54
  '@Mul_layer26_swiglu_mul_81:out0':
    qtype: u8
    quantizer: asymmetric_affine
    rounding: rtne
    max_value: 174.66282653808594
    min_value: -129.54559326171875
    scale: 1.1929742097854614
    zero_point: 109
  '@Transpose_layer27_ctx_transpose_83:out0':
    qtype: u8
    quantizer: asymmetric_affine
    rounding: rtne
    max_value: 26.375228881835938
    min_value: -30.164749145507812
    scale: 0.22172540426254272
    zero_point: 136
  '@Mul_layer27_mlp_rms_gamma_86:out0':
    qtype: u8
    quantizer: asymmetric_affine
    rounding: rtne
    max_value: 2.0053093433380127
    min_value: -2.6582162380218506
    scale: 0.01828833483159542
    zero_point: 145
  '@Softmax_layer28_softmax_88:out0':
    qtype: u8
    quantizer: asymmetric_affine
    rounding: rtne
    max_value: 1.0
    min_value: 0.0
    scale: 0.003921568859368563
    zero_point: 0
  '@Reshape_layer28_v_repeat_expand_89:out0':
    qtype: u8
    quantizer: asymmetric_affine
    rounding: rtne
    max_value: 28.23900032043457
    min_value: -28.394948959350586
    scale: 0.22209392488002777
    zero_point: 128
  '@Transpose_layer28_v_heads_90:out0':
    qtype: u8
    quantizer: asymmetric_affine
    rounding: rtne
    max_value: 28.23900032043457
    min_value: -28.394948959350586
    scale: 0.22209392488002777
    zero_point: 128
  '@Divide_92:out0':
    qtype: u8
    quantizer: asymmetric_affine
    rounding: rtne
    max_value: 0.08516210317611694
    min_value: 0.0
    scale: 0.0003339690447319299
    zero_point: 0
  '@Mul_layer29_attn_scale_93:out0':
    qtype: u8
    quantizer: asymmetric_affine
    rounding: rtne
    max_value: 69.96427917480469
    min_value: -50.33502960205078
    scale: 0.4717620015144348
    zero_point: 107
  '@Mul_layer29_mlp_rms_square_96:out0':
    qtype: u8
    quantizer: asymmetric_affine
    rounding: rtne
    max_value: 58775104.0
    min_value: 0.0
    scale: 230490.609375
    zero_point: 0
  '@Add_layer25_attn_residual_97:out0':
    qtype: u8
    quantizer: asymmetric_affine
    rounding: rtne
    max_value: 7122.8720703125
    min_value: -1807.692138671875
    scale: 35.021820068359375
    zero_point: 52
  '@Reshape_layer26_ctx_merge_heads_99:out0':
    qtype: u8
    quantizer: asymmetric_affine
    rounding: rtne
    max_value: 24.404815673828125
    min_value: -27.325897216796875
    scale: 0.20286554098129272
    zero_point: 135
  '@MatMul_layer27_attn_context_103:out0':
    qtype: u8
    quantizer: asymmetric_affine
    rounding: rtne
    max_value: 26.375228881835938
    min_value: -30.164749145507812
    scale: 0.22172540426254272
    zero_point: 136
  '@Reshape_layer27_v_repeat_merge_104:out0':
    qtype: u8
    quantizer: asymmetric_affine
    rounding: rtne
    max_value: 26.375228881835938
    min_value: -30.164749145507812
    scale: 0.22172540426254272
    zero_point: 136
  '@Tile_layer27_v_repeat_tile_106:out0':
    qtype: u8
    quantizer: asymmetric_affine
    rounding: rtne
    max_value: 26.375228881835938
    min_value: -30.164749145507812
    scale: 0.22172540426254272
    zero_point: 136
  '@Mul_layer27_mlp_rms_scale_to_unit_107:out0':
    qtype: u8
    quantizer: asymmetric_affine
    rounding: rtne
    max_value: 5.627221584320068
    min_value: -5.597786903381348
    scale: 0.04401963949203491
    zero_point: 127
  '@Initializer_layer27_mlp_gamma_108:out0':
    qtype: u8
    quantizer: asymmetric_affine
    rounding: rtne
    max_value: 0.51171875
    min_value: 0.0
    scale: 0.0020067403092980385
    zero_point: 0
  '@Add_layer28_causal_mask_109:out0':
    qtype: u8
    quantizer: asymmetric_affine
    rounding: rtne
    max_value: 16.9092960357666
    min_value: -10055.41796875
    scale: 39.49932098388672
    zero_point: 255
  '@Reshape_layer28_v_reshape_110:out0':
    qtype: u8
    quantizer: asymmetric_affine
    rounding: rtne
    max_value: 28.23900032043457
    min_value: -28.394948959350586
    scale: 0.22209392488002777
    zero_point: 128
  '@MatMul_layer29_attn_scores_112:out0':
    qtype: u8
    quantizer: asymmetric_affine
    rounding: rtne
    max_value: 559.7142333984375
    min_value: -402.68023681640625
    scale: 3.7740960121154785
    zero_point: 107
  '@Initializer_scale_attn_113:out0':
    qtype: u8
    quantizer: asymmetric_affine
    rounding: rtne
    max_value: 0.125
    min_value: 0.0
    scale: 0.0004901961074210703
    zero_point: 0
  '@Mul_layer29_attn_rms_gamma_117:out0':
    qtype: u8
    quantizer: asymmetric_affine
    rounding: rtne
    max_value: 4.365757465362549
    min_value: -4.275802135467529
    scale: 0.03388847038149834
    zero_point: 126
  '@Add_layer24_mlp_residual_118:out0':
    qtype: u8
    quantizer: asymmetric_affine
    rounding: rtne
    max_value: 7211.8154296875
    min_value: -1799.3807373046875
    scale: 35.3380241394043
    zero_point: 51
  '@Mul_layer25_swiglu_mul_120:out0':
    qtype: u8
    quantizer: asymmetric_affine
    rounding: rtne
    max_value: 123.0292739868164
    min_value: -128.36593627929688
    scale: 0.9858635663986206
    zero_point: 130
  '@Transpose_layer26_ctx_transpose_122:out0':
    qtype: u8
    quantizer: asymmetric_affine
    rounding: rtne
    max_value: 24.404815673828125
    min_value: -27.325897216796875
    scale: 0.20286554098129272
    zero_point: 135
  '@Mul_layer26_mlp_rms_gamma_125:out0':
    qtype: u8
    quantizer: asymmetric_affine
    rounding: rtne
    max_value: 2.037727117538452
    min_value: -2.1669321060180664
    scale: 0.01648886129260063
    zero_point: 131
  '@Softmax_layer27_softmax_127:out0':
    qtype: u8
    quantizer: asymmetric_affine
    rounding: rtne
    max_value: 1.0
    min_value: 0.0
    scale: 0.003921568859368563
    zero_point: 0
  '@Reshape_layer27_v_repeat_expand_128:out0':
    qtype: u8
    quantizer: asymmetric_affine
    rounding: rtne
    max_value: 26.375228881835938
    min_value: -30.164749145507812
    scale: 0.22172540426254272
    zero_point: 136
  '@Transpose_layer27_v_heads_129:out0':
    qtype: u8
    quantizer: asymmetric_affine
    rounding: rtne
    max_value: 26.375228881835938
    min_value: -30.164749145507812
    scale: 0.22172540426254272
    zero_point: 136
  '@Divide_131:out0':
    qtype: u8
    quantizer: asymmetric_affine
    rounding: rtne
    max_value: 0.08859843015670776
    min_value: 0.0
    scale: 0.00034744481672532856
    zero_point: 0
  '@Mul_layer28_attn_scale_132:out0':
    qtype: u8
    quantizer: asymmetric_affine
    rounding: rtne
    max_value: 16.9092960357666
    min_value: -55.417625427246094
    scale: 0.2836349904537201
    zero_point: 195
  '@Add_layer28_mlp_rms_eps_135:out0':
    qtype: u8
    quantizer: asymmetric_affine
    rounding: rtne
    max_value: 2058674.125
    min_value: 0.0
    scale: 8073.23193359375
    zero_point: 0
  '@Add_layer29_q_rope_rope_add_136:out0':
    qtype: u8
    quantizer: asymmetric_affine
    rounding: rtne
    max_value: 27.765174865722656
    min_value: -27.765174865722656
    scale: 0.21776607632637024
    zero_point: 128
  '@Transpose_layer29_k_transpose_137:out0':
    qtype: u8
    quantizer: asymmetric_affine
    rounding: rtne
    max_value: 23.174158096313477
    min_value: -17.218914031982422
    scale: 0.15840421617031097
    zero_point: 109
  '@Mul_layer29_attn_rms_scale_to_unit_138:out0':
    qtype: u8
    quantizer: asymmetric_affine
    rounding: rtne
    max_value: 5.617173194885254
    min_value: -5.63505744934082
    scale: 0.044126395136117935
    zero_point: 128
  '@Initializer_layer29_attn_gamma_139:out0':
    qtype: u8
    quantizer: asymmetric_affine
    rounding: rtne
    max_value: 0.91015625
    min_value: 0.0
    scale: 0.003569240216165781
    zero_point: 0
  '@Add_layer24_attn_residual_140:out0':
    qtype: u8
    quantizer: asymmetric_affine
    rounding: rtne
    max_value: 6854.60400390625
    min_value: -2134.460205078125
    scale: 35.2512321472168
    zero_point: 61
  '@Reshape_layer25_ctx_merge_heads_142:out0':
    qtype: u8
    quantizer: asymmetric_affine
    rounding: rtne
    max_value: 26.176952362060547
    min_value: -35.58717346191406
    scale: 0.24221225082874298
    zero_point: 147
  '@MatMul_layer26_attn_context_146:out0':
    qtype: u8
    quantizer: asymmetric_affine
    rounding: rtne
    max_value: 24.404815673828125
    min_value: -27.325897216796875
    scale: 0.20286554098129272
    zero_point: 135
  '@Reshape_layer26_v_repeat_merge_147:out0':
    qtype: u8
    quantizer: asymmetric_affine
    rounding: rtne
    max_value: 24.411617279052734
    min_value: -27.325897216796875
    scale: 0.2028922140598297
    zero_point: 135
  '@Tile_layer26_v_repeat_tile_149:out0':
    qtype: u8
    quantizer: asymmetric_affine
    rounding: rtne
    max_value: 24.411617279052734
    min_value: -27.325897216796875
    scale: 0.2028922140598297
    zero_point: 135
  '@Mul_layer26_mlp_rms_scale_to_unit_150:out0':
    qtype: u8
    quantizer: asymmetric_affine
    rounding: rtne
    max_value: 5.59317684173584
    min_value: -5.604954719543457
    scale: 0.04391423985362053
    zero_point: 128
  '@Initializer_layer26_mlp_gamma_151:out0':
    qtype: u8
    quantizer: asymmetric_affine
    rounding: rtne
    max_value: 0.41796875
    min_value: 0.0
    scale: 0.0016390931559726596
    zero_point: 0
  '@Add_layer27_causal_mask_152:out0':
    qtype: u8
    quantizer: asymmetric_affine
    rounding: rtne
    max_value: 36.56291198730469
    min_value: -10065.6708984375
    scale: 39.616600036621094
    zero_point: 254
  '@Reshape_layer27_v_reshape_153:out0':
    qtype: u8
    quantizer: asymmetric_affine
    rounding: rtne
    max_value: 26.375228881835938
    min_value: -30.164749145507812
    scale: 0.22172540426254272
    zero_point: 136
  '@MatMul_layer28_attn_scores_155:out0':
    qtype: u8
    quantizer: asymmetric_affine
    rounding: rtne
    max_value: 135.2743682861328
    min_value: -443.34100341796875
    scale: 2.2690799236297607
    zero_point: 195
  '@Mul_layer28_mlp_rms_square_160:out0':
    qtype: u8
    quantizer: asymmetric_affine
    rounding: rtne
    max_value: 59913540.0
    min_value: 0.0
    scale: 234955.0625
    zero_point: 0
  '@Mul_layer29_q_rope_mul_cos_161:out0':
    qtype: u8
    quantizer: asymmetric_affine
    rounding: rtne
    max_value: 40.5014762878418
    min_value: -31.102882385253906
    scale: 0.280801385641098
    zero_point: 111
  '@Mul_layer29_q_rope_mul_sin_162:out0':
    qtype: u8
    quantizer: asymmetric_affine
    rounding: rtne
    max_value: 13.298661231994629
    min_value: -10.06464672088623
    scale: 0.09162081778049469
    zero_point: 110
  '@Reshape_layer29_k_repeat_merge_163:out0':
    qtype: u8
    quantizer: asymmetric_affine
    rounding: rtne
    max_value: 23.174158096313477
    min_value: -17.218914031982422
    scale: 0.15840421617031097
    zero_point: 109
  '@Tile_layer29_k_repeat_tile_164:out0':
    qtype: u8
    quantizer: asymmetric_affine
    rounding: rtne
    max_value: 23.174158096313477
    min_value: -17.218914031982422
    scale: 0.15840421617031097
    zero_point: 109
  '@Divide_166:out0':
    qtype: u8
    quantizer: asymmetric_affine
    rounding: rtne
    max_value: 0.0734211653470993
    min_value: 0.0
    scale: 0.00028792614466510713
    zero_point: 0
  '@Add_layer23_mlp_residual_167:out0':
    qtype: u8
    quantizer: asymmetric_affine
    rounding: rtne
    max_value: 6945.94921875
    min_value: -2147.52099609375
    scale: 35.66067123413086
    zero_point: 60
  '@Mul_layer24_swiglu_mul_169:out0':
    qtype: u8
    quantizer: asymmetric_affine
    rounding: rtne
    max_value: 81.56515502929688
    min_value: -115.45465850830078
    scale: 0.7726266980171204
    zero_point: 149
  '@Transpose_layer25_ctx_transpose_171:out0':
    qtype: u8
    quantizer: asymmetric_affine
    rounding: rtne
    max_value: 26.176952362060547
    min_value: -35.58717346191406
    scale: 0.24221225082874298
    zero_point: 147
  '@Mul_layer25_mlp_rms_gamma_174:out0':
    qtype: u8
    quantizer: asymmetric_affine
    rounding: rtne
    max_value: 1.8679431676864624
    min_value: -2.0846400260925293
    scale: 0.01550032664090395
    zero_point: 134
  '@Softmax_layer26_softmax_176:out0':
    qtype: u8
    quantizer: asymmetric_affine
    rounding: rtne
    max_value: 1.0
    min_value: 0.0
    scale: 0.003921568859368563
    zero_point: 0
  '@Reshape_layer26_v_repeat_expand_177:out0':
    qtype: u8
    quantizer: asymmetric_affine
    rounding: rtne
    max_value: 24.411617279052734
    min_value: -27.325897216796875
    scale: 0.2028922140598297
    zero_point: 135
  '@Transpose_layer26_v_heads_178:out0':
    qtype: u8
    quantizer: asymmetric_affine
    rounding: rtne
    max_value: 24.411617279052734
    min_value: -27.325897216796875
    scale: 0.2028922140598297
    zero_point: 135
  '@Divide_180:out0':
    qtype: u8
    quantizer: asymmetric_affine
    rounding: rtne
    max_value: 0.1658151000738144
    min_value: 0.0
    scale: 0.0006502553005702794
    zero_point: 0
  '@Mul_layer27_attn_scale_181:out0':
    qtype: u8
    quantizer: asymmetric_affine
    rounding: rtne
    max_value: 36.56291198730469
    min_value: -65.6706314086914
    scale: 0.40091586112976074
    zero_point: 164
  '@MatMul_layer27_attn_scores_182:out0':
    qtype: u8
    quantizer: asymmetric_affine
    rounding: rtne
    max_value: 292.5032958984375
    min_value: -525.3650512695312
    scale: 3.207326889038086
    zero_point: 164
  '@Add_layer27_mlp_rms_eps_184:out0':
    qtype: u8
    quantizer: asymmetric_affine
    rounding: rtne
    max_value: 1768096.5
    min_value: 0.0
    scale: 6933.7119140625
    zero_point: 0
  '@Add_layer28_q_rope_rope_add_185:out0':
    qtype: u8
    quantizer: asymmetric_affine
    rounding: rtne
    max_value: 22.3057861328125
    min_value: -30.220407485961914
    scale: 0.20598506927490234
    zero_point: 147
  '@Transpose_layer28_k_transpose_186:out0':
    qtype: u8
    quantizer: asymmetric_affine
    rounding: rtne
    max_value: 21.696245193481445
    min_value: -17.108964920043945
    scale: 0.15217728912830353
    zero_point: 112
  '@Mul_layer28_attn_rms_gamma_187:out0':
    qtype: u8
    quantizer: asymmetric_affine
    rounding: rtne
    max_value: 4.4465107917785645
    min_value: -4.2403154373168945
    scale: 0.034065987914800644
    zero_point: 124
  '@Initializer_layer28_attn_gamma_189:out0':
    qtype: u8
    quantizer: asymmetric_affine
    rounding: rtne
    max_value: 0.8828125
    min_value: 0.0
    scale: 0.0034620098304003477
    zero_point: 0
  '@Mul_layer28_attn_rms_scale_to_unit_190:out0':
    qtype: u8
    quantizer: asymmetric_affine
    rounding: rtne
    max_value: 5.625528335571289
    min_value: -5.6222639083862305
    scale: 0.04410899057984352
    zero_point: 127
  '@Transpose_layer29_q_heads_191:out0':
    qtype: u8
    quantizer: asymmetric_affine
    rounding: rtne
    max_value: 40.502506256103516
    min_value: -31.103267669677734
    scale: 0.2808069586753845
    zero_point: 111
  '@Initializer_rope_cos_192:out0':
    qtype: u8
    quantizer: asymmetric_affine
    rounding: rtne
    max_value: 1.0
    min_value: -0.9999967217445374
    scale: 0.007843123748898506
    zero_point: 127
  '@Concat_layer29_q_rope_rotate_half_193:out0':
    qtype: u8
    quantizer: asymmetric_affine
    rounding: rtne
    max_value: 40.502506256103516
    min_value: -31.103267669677734
    scale: 0.2808069586753845
    zero_point: 111
  '@Initializer_rope_sin_194:out0':
    qtype: u8
    quantizer: asymmetric_affine
    rounding: rtne
    max_value: 0.9999929070472717
    min_value: -0.9999902248382568
    scale: 0.007843070663511753
    zero_point: 127
  '@Reshape_layer29_k_repeat_expand_195:out0':
    qtype: u8
    quantizer: asymmetric_affine
    rounding: rtne
    max_value: 23.174158096313477
    min_value: -17.218914031982422
    scale: 0.15840421617031097
    zero_point: 109
  '@Add_layer23_attn_residual_197:out0':
    qtype: u8
    quantizer: asymmetric_affine
    rounding: rtne
    max_value: 7518.9619140625
    min_value: -2100.832763671875
    scale: 37.72468566894531
    zero_point: 56
  '@Reshape_layer24_ctx_merge_heads_199:out0':
    qtype: u8
    quantizer: asymmetric_affine
    rounding: rtne
    max_value: 23.366384506225586
    min_value: -25.466060638427734
    scale: 0.19149978458881378
    zero_point: 133
  '@MatMul_layer25_attn_context_203:out0':
    qtype: u8
    quantizer: asymmetric_affine
    rounding: rtne
    max_value: 26.176952362060547
    min_value: -35.58717346191406
    scale: 0.24221225082874298
    zero_point: 147
  '@Reshape_layer25_v_repeat_merge_204:out0':
    qtype: u8
    quantizer: asymmetric_affine
    rounding: rtne
    max_value: 26.176952362060547
    min_value: -35.58717346191406
    scale: 0.24221225082874298
    zero_point: 147
  '@Tile_layer25_v_repeat_tile_206:out0':
    qtype: u8
    quantizer: asymmetric_affine
    rounding: rtne
    max_value: 26.176952362060547
    min_value: -35.58717346191406
    scale: 0.24221225082874298
    zero_point: 147
  '@Mul_layer25_mlp_rms_scale_to_unit_207:out0':
    qtype: u8
    quantizer: asymmetric_affine
    rounding: rtne
    max_value: 5.599708080291748
    min_value: -5.591499328613281
    scale: 0.04388708993792534
    zero_point: 127
  '@Initializer_layer25_mlp_gamma_208:out0':
    qtype: u8
    quantizer: asymmetric_affine
    rounding: rtne
    max_value: 0.40625
    min_value: -0.00023555755615234375
    scale: 0.0015940610319375992
    zero_point: 0
  '@Add_layer26_causal_mask_209:out0':
    qtype: u8
    quantizer: asymmetric_affine
    rounding: rtne
    max_value: 27.621309280395508
    min_value: -10051.53515625
    scale: 39.52610397338867
    zero_point: 254
  '@Reshape_layer26_v_reshape_210:out0':
    qtype: u8
    quantizer: asymmetric_affine
    rounding: rtne
    max_value: 24.411617279052734
    min_value: -27.325897216796875
    scale: 0.2028922140598297
    zero_point: 135
  '@Add_layer27_q_rope_rope_add_212:out0':
    qtype: u8
    quantizer: asymmetric_affine
    rounding: rtne
    max_value: 22.043415069580078
    min_value: -29.099828720092773
    scale: 0.2005617320537567
    zero_point: 145
  '@Transpose_layer27_k_transpose_213:out0':
    qtype: u8
    quantizer: asymmetric_affine
    rounding: rtne
    max_value: 33.275733947753906
    min_value: -27.59695053100586
    scale: 0.23871640861034393
    zero_point: 116
  '@Mul_layer27_mlp_rms_square_217:out0':
    qtype: u8
    quantizer: asymmetric_affine
    rounding: rtne
    max_value: 51206016.0
    min_value: 0.0
    scale: 200807.90625
    zero_point: 0
  '@Mul_layer28_q_rope_mul_cos_218:out0':
    qtype: u8
    quantizer: asymmetric_affine
    rounding: rtne
    max_value: 22.358552932739258
    min_value: -30.23504638671875
    scale: 0.20624940097332
    zero_point: 147
  '@Mul_layer28_q_rope_mul_sin_219:out0':
    qtype: u8
    quantizer: asymmetric_affine
    rounding: rtne
    max_value: 8.789538383483887
    min_value: -11.061854362487793
    scale: 0.07784859836101532
    zero_point: 142
  '@Reshape_layer28_k_repeat_merge_220:out0':
    qtype: u8
    quantizer: asymmetric_affine
    rounding: rtne
    max_value: 21.696245193481445
    min_value: -17.108964920043945
    scale: 0.15217728912830353
    zero_point: 112
  '@Tile_layer28_k_repeat_tile_221:out0':
    qtype: u8
    quantizer: asymmetric_affine
    rounding: rtne
    max_value: 21.696245193481445
    min_value: -17.108964920043945
    scale: 0.15217728912830353
    zero_point: 112
  '@Divide_223:out0':
    qtype: u8
    quantizer: asymmetric_affine
    rounding: rtne
    max_value: 0.08472639322280884
    min_value: 0.0
    scale: 0.00033226035884581506
    zero_point: 0
  '@Reshape_layer29_q_reshape_224:out0':
    qtype: u8
    quantizer: asymmetric_affine
    rounding: rtne
    max_value: 40.502506256103516
    min_value: -31.103267669677734
    scale: 0.2808069586753845
    zero_point: 111
  '@Neg_layer29_q_rope_neg_second_225:out0':
    qtype: u8
    quantizer: asymmetric_affine
    rounding: rtne
    max_value: 40.502506256103516
    min_value: -31.103267669677734
    scale: 0.2808069586753845
    zero_point: 111
  '@Slice_layer29_q_rope_slice_first_226:out0':
    qtype: u8
    quantizer: asymmetric_affine
    rounding: rtne
    max_value: 40.502506256103516
    min_value: -31.103267669677734
    scale: 0.2808069586753845
    zero_point: 111
  '@Add_layer29_k_rope_rope_add_227:out0':
    qtype: u8
    quantizer: asymmetric_affine
    rounding: rtne
    max_value: 23.174158096313477
    min_value: -17.218914031982422
    scale: 0.15840421617031097
    zero_point: 109
  '@Add_layer29_attn_rms_eps_228:out0':
    qtype: u8
    quantizer: asymmetric_affine
    rounding: rtne
    max_value: 2013929.875
    min_value: 0.0
    scale: 7897.76416015625
    zero_point: 0
  '@Add_layer22_mlp_residual_229:out0':
    qtype: u8
    quantizer: asymmetric_affine
    rounding: rtne
    max_value: 7502.6064453125
    min_value: -2104.140869140625
    scale: 37.673519134521484
    zero_point: 56
  '@Mul_layer23_swiglu_mul_231:out0':
    qtype: u8
    quantizer: asymmetric_affine
    rounding: rtne
    max_value: 74.7008285522461
    min_value: -91.4476318359375
    scale: 0.6515626311302185
    zero_point: 140
  '@Transpose_layer24_ctx_transpose_233:out0':
    qtype: u8
    quantizer: asymmetric_affine
    rounding: rtne
    max_value: 23.366384506225586
    min_value: -25.466060638427734
    scale: 0.19149978458881378
    zero_point: 133
  '@Mul_layer24_mlp_rms_gamma_236:out0':
    qtype: u8
    quantizer: asymmetric_affine
    rounding: rtne
    max_value: 1.731452465057373
    min_value: -2.264172315597534
    scale: 0.015669116750359535
    zero_point: 144
  '@Softmax_layer25_softmax_238:out0':
    qtype: u8
    quantizer: asymmetric_affine
    rounding: rtne
    max_value: 1.0
    min_value: 0.0
    scale: 0.003921568859368563
    zero_point: 0
  '@Reshape_layer25_v_repeat_expand_239:out0':
    qtype: u8
    quantizer: asymmetric_affine
    rounding: rtne
    max_value: 26.176952362060547
    min_value: -35.58717346191406
    scale: 0.24221225082874298
    zero_point: 147
  '@Transpose_layer25_v_heads_240:out0':
    qtype: u8
    quantizer: asymmetric_affine
    rounding: rtne
    max_value: 26.176952362060547
    min_value: -35.58717346191406
    scale: 0.24221225082874298
    zero_point: 147
  '@Divide_242:out0':
    qtype: u8
    quantizer: asymmetric_affine
    rounding: rtne
    max_value: 0.14685873687267303
    min_value: 0.0
    scale: 0.0005759166087955236
    zero_point: 0
  '@Mul_layer26_attn_scale_243:out0':
    qtype: u8
    quantizer: asymmetric_affine
    rounding: rtne
    max_value: 27.621309280395508
    min_value: -81.80057525634766
    scale: 0.4291054308414459
    zero_point: 191
  '@MatMul_layer26_attn_scores_244:out0':
    qtype: u8
    quantizer: asymmetric_affine
    rounding: rtne
    max_value: 220.97047424316406
    min_value: -654.4046020507812
    scale: 3.4328434467315674
    zero_point: 191
  '@Add_layer26_mlp_rms_eps_246:out0':
    qtype: u8
    quantizer: asymmetric_affine
    rounding: rtne
    max_value: 1768895.375
    min_value: 0.0
    scale: 6936.8447265625
    zero_point: 0
  '@Mul_layer27_q_rope_mul_cos_247:out0':
    qtype: u8
    quantizer: asymmetric_affine
    rounding: rtne
    max_value: 22.072702407836914
    min_value: -29.142539978027344
    scale: 0.20084407925605774
    zero_point: 145
  '@Mul_layer27_q_rope_mul_sin_248:out0':
    qtype: u8
    quantizer: asymmetric_affine
    rounding: rtne
    max_value: 14.326016426086426
    min_value: -11.740340232849121
    scale: 0.10222100466489792
    zero_point: 115
  '@Reshape_layer27_k_repeat_merge_249:out0':
    qtype: u8
    quantizer: asymmetric_affine
    rounding: rtne
    max_value: 33.275733947753906
    min_value: -27.59695053100586
    scale: 0.23871640861034393
    zero_point: 116
  '@Mul_layer27_attn_rms_gamma_250:out0':
    qtype: u8
    quantizer: asymmetric_affine
    rounding: rtne
    max_value: 3.960031270980835
    min_value: -4.9635772705078125
    scale: 0.034994542598724365
    zero_point: 142
  '@Initializer_layer27_attn_gamma_252:out0':
    qtype: u8
    quantizer: asymmetric_affine
    rounding: rtne
    max_value: 1.0078125
    min_value: 0.0
    scale: 0.003952206112444401
    zero_point: 0
  '@Mul_layer27_attn_rms_scale_to_unit_253:out0':
    qtype: u8
    quantizer: asymmetric_affine
    rounding: rtne
    max_value: 5.6107401847839355
    min_value: -5.60875129699707
    scale: 0.043998006731271744
    zero_point: 127
  '@Transpose_layer28_q_heads_254:out0':
    qtype: u8
    quantizer: asymmetric_affine
    rounding: rtne
    max_value: 22.358829498291016
    min_value: -30.235422134399414
    scale: 0.20625197887420654
    zero_point: 147
  '@Concat_layer28_q_rope_rotate_half_256:out0':
    qtype: u8
    quantizer: asymmetric_affine
    rounding: rtne
    max_value: 22.358829498291016
    min_value: -30.235422134399414
    scale: 0.20625197887420654
    zero_point: 147
  '@Reshape_layer28_k_repeat_expand_258:out0':
    qtype: u8
    quantizer: asymmetric_affine
    rounding: rtne
    max_value: 21.696245193481445
    min_value: -17.108964920043945
    scale: 0.15217728912830353
    zero_point: 112
  '@Slice_layer29_q_rope_slice_second_261:out0':
    qtype: u8
    quantizer: asymmetric_affine
    rounding: rtne
    max_value: 40.502506256103516
    min_value: -31.103267669677734
    scale: 0.2808069586753845
    zero_point: 111
  '@Mul_layer29_k_rope_mul_cos_263:out0':
    qtype: u8
    quantizer: asymmetric_affine
    rounding: rtne
    max_value: 23.154735565185547
    min_value: -17.221363067626953
    scale: 0.15833763778209686
    zero_point: 109
  '@Mul_layer29_k_rope_mul_sin_264:out0':
    qtype: u8
    quantizer: asymmetric_affine
    rounding: rtne
    max_value: 9.414007186889648
    min_value: -16.465038299560547
    scale: 0.1014864519238472
    zero_point: 162
  '@Mul_layer29_attn_rms_square_266:out0':
    qtype: u8
    quantizer: asymmetric_affine
    rounding: rtne
    max_value: 58589240.0
    min_value: 0.0
    scale: 229761.71875
    zero_point: 0
  '@Add_layer22_attn_residual_267:out0':
    qtype: u8
    quantizer: asymmetric_affine
    rounding: rtne
    max_value: 7659.166015625
    min_value: -2185.375
    scale: 38.60604476928711
    zero_point: 57
  '@Reshape_layer23_ctx_merge_heads_269:out0':
    qtype: u8
    quantizer: asymmetric_affine
    rounding: rtne
    max_value: 24.918699264526367
    min_value: -37.13965606689453
    scale: 0.24336610734462738
    zero_point: 153
  '@MatMul_layer24_attn_context_273:out0':
    qtype: u8
    quantizer: asymmetric_affine
    rounding: rtne
    max_value: 23.366384506225586
    min_value: -25.466060638427734
    scale: 0.19149978458881378
    zero_point: 133
  '@Reshape_layer24_v_repeat_merge_274:out0':
    qtype: u8
    quantizer: asymmetric_affine
    rounding: rtne
    max_value: 33.58001708984375
    min_value: -25.466060638427734
    scale: 0.23155324161052704
    zero_point: 110
  '@Tile_layer24_v_repeat_tile_276:out0':
    qtype: u8
    quantizer: asymmetric_affine
    rounding: rtne
    max_value: 33.58001708984375
    min_value: -25.466060638427734
    scale: 0.23155324161052704
    zero_point: 110
  '@Mul_layer24_mlp_rms_scale_to_unit_277:out0':
    qtype: u8
    quantizer: asymmetric_affine
    rounding: rtne
    max_value: 5.58510160446167
    min_value: -5.59078311920166
    scale: 0.04382699728012085
    zero_point: 128
  '@Initializer_layer24_mlp_gamma_278:out0':
    qtype: u8
    quantizer: asymmetric_affine
    rounding: rtne
    max_value: 0.435546875
    min_value: -1.4722347259521484e-05
    scale: 0.0017080847173929214
    zero_point: 0
  '@Add_layer25_causal_mask_279:out0':
    qtype: u8
    quantizer: asymmetric_affine
    rounding: rtne
    max_value: 83.60559844970703
    min_value: -10053.466796875
    scale: 39.75322341918945
    zero_point: 253
  '@Reshape_layer25_v_reshape_280:out0':
    qtype: u8
    quantizer: asymmetric_affine
    rounding: rtne
    max_value: 26.176952362060547
    min_value: -35.58717346191406
    scale: 0.24221225082874298
    zero_point: 147
  '@Add_layer26_q_rope_rope_add_282:out0':
    qtype: u8
    quantizer: asymmetric_affine
    rounding: rtne
    max_value: 25.025440216064453
    min_value: -23.256994247436523
    scale: 0.18934287130832672
    zero_point: 123
  '@Transpose_layer26_k_transpose_283:out0':
    qtype: u8
    quantizer: asymmetric_affine
    rounding: rtne
    max_value: 18.242412567138672
    min_value: -18.07540512084961
    scale: 0.14242281019687653
    zero_point: 127
  '@Mul_layer26_mlp_rms_square_287:out0':
    qtype: u8
    quantizer: asymmetric_affine
    rounding: rtne
    max_value: 51788848.0
    min_value: 0.0
    scale: 203093.515625
    zero_point: 0
  '@Transpose_layer27_q_heads_288:out0':
    qtype: u8
    quantizer: asymmetric_affine
    rounding: rtne
    max_value: 22.072975158691406
    min_value: -29.142900466918945
    scale: 0.2008465677499771
    zero_point: 145
  '@Reshape_layer27_q_reshape_289:out0':
    qtype: u8
    quantizer: asymmetric_affine
    rounding: rtne
    max_value: 22.072975158691406
    min_value: -29.142900466918945
    scale: 0.2008465677499771
    zero_point: 145
  '@Concat_layer27_q_rope_rotate_half_290:out0':
    qtype: u8
    quantizer: asymmetric_affine
    rounding: rtne
    max_value: 26.006868362426758
    min_value: -29.142900466918945
    scale: 0.21627360582351685
    zero_point: 135
  '@Slice_layer27_q_rope_slice_first_291:out0':
    qtype: u8
    quantizer: asymmetric_affine
    rounding: rtne
    max_value: 22.072975158691406
    min_value: -29.142900466918945
    scale: 0.2008465677499771
    zero_point: 145
  '@Tile_layer27_k_repeat_tile_292:out0':
    qtype: u8
    quantizer: asymmetric_affine
    rounding: rtne
    max_value: 33.275733947753906
    min_value: -27.59695053100586
    scale: 0.23871640861034393
    zero_point: 116
  '@Reshape_layer27_k_repeat_expand_293:out0':
    qtype: u8
    quantizer: asymmetric_affine
    rounding: rtne
    max_value: 33.275733947753906
    min_value: -27.59695053100586
    scale: 0.23871640861034393
    zero_point: 116
  '@Divide_295:out0':
    qtype: u8
    quantizer: asymmetric_affine
    rounding: rtne
    max_value: 0.09538416564464569
    min_value: 0.0
    scale: 0.00037405555485747755
    zero_point: 0
  '@Reshape_layer28_q_reshape_296:out0':
    qtype: u8
    quantizer: asymmetric_affine
    rounding: rtne
    max_value: 22.358829498291016
    min_value: -30.235422134399414
    scale: 0.20625197887420654
    zero_point: 147
  '@Neg_layer28_q_rope_neg_second_297:out0':
    qtype: u8
    quantizer: asymmetric_affine
    rounding: rtne
    max_value: 22.358829498291016
    min_value: -30.235422134399414
    scale: 0.20625197887420654
    zero_point: 147
  '@Slice_layer28_q_rope_slice_first_298:out0':
    qtype: u8
    quantizer: asymmetric_affine
    rounding: rtne
    max_value: 22.358829498291016
    min_value: -30.235422134399414
    scale: 0.20625197887420654
    zero_point: 147
  '@Add_layer28_k_rope_rope_add_299:out0':
    qtype: u8
    quantizer: asymmetric_affine
    rounding: rtne
    max_value: 21.696245193481445
    min_value: -17.108964920043945
    scale: 0.15217728912830353
    zero_point: 112
  '@Add_layer28_attn_rms_eps_300:out0':
    qtype: u8
    quantizer: asymmetric_affine
    rounding: rtne
    max_value: 1971151.125
    min_value: 0.0
    scale: 7730.00439453125
    zero_point: 0
  '@Transpose_layer29_k_heads_302:out0':
    qtype: u8
    quantizer: asymmetric_affine
    rounding: rtne
    max_value: 23.1550235748291
    min_value: -17.58173370361328
    scale: 0.1597519814968109
    zero_point: 110
  '@Reshape_layer29_k_reshape_303:out0':
    qtype: u8
    quantizer: asymmetric_affine
    rounding: rtne
    max_value: 23.1550235748291
    min_value: -17.58173370361328
    scale: 0.1597519814968109
    zero_point: 110
  '@Concat_layer29_k_rope_rotate_half_304:out0':
    qtype: u8
    quantizer: asymmetric_affine
    rounding: rtne
    max_value: 23.1550235748291
    min_value: -23.1550235748291
    scale: 0.18160802125930786
    zero_point: 128
  '@Slice_layer29_k_rope_slice_first_305:out0':
    qtype: u8
    quantizer: asymmetric_affine
    rounding: rtne
    max_value: 23.1550235748291
    min_value: -17.58173370361328
    scale: 0.1597519814968109
    zero_point: 110
  '@Neg_layer29_k_rope_neg_second_306:out0':
    qtype: u8
    quantizer: asymmetric_affine
    rounding: rtne
    max_value: 23.1550235748291
    min_value: -23.1550235748291
    scale: 0.18160802125930786
    zero_point: 128
  '@Slice_layer29_k_rope_slice_second_307:out0':
    qtype: u8
    quantizer: asymmetric_affine
    rounding: rtne
    max_value: 23.1550235748291
    min_value: -17.58173370361328
    scale: 0.1597519814968109
    zero_point: 110
  '@Add_layer21_mlp_residual_308:out0':
    qtype: u8
    quantizer: asymmetric_affine
    rounding: rtne
    max_value: 7770.53515625
    min_value: -2146.750732421875
    scale: 38.891319274902344
    zero_point: 55
  '@Mul_layer22_swiglu_mul_310:out0':
    qtype: u8
    quantizer: asymmetric_affine
    rounding: rtne
    max_value: 133.3980255126953
    min_value: -88.72712707519531
    scale: 0.8710790276527405
    zero_point: 102
  '@Transpose_layer23_ctx_transpose_312:out0':
    qtype: u8
    quantizer: asymmetric_affine
    rounding: rtne
    max_value: 24.918699264526367
    min_value: -37.13965606689453
    scale: 0.24336610734462738
    zero_point: 153
  '@Mul_layer23_mlp_rms_gamma_315:out0':
    qtype: u8
    quantizer: asymmetric_affine
    rounding: rtne
    max_value: 1.6191209554672241
    min_value: -2.090054750442505
    scale: 0.014545786194503307
    zero_point: 144
  '@Softmax_layer24_softmax_317:out0':
    qtype: u8
    quantizer: asymmetric_affine
    rounding: rtne
    max_value: 1.0
    min_value: 0.0
    scale: 0.003921568859368563
    zero_point: 0
  '@Reshape_layer24_v_repeat_expand_318:out0':
    qtype: u8
    quantizer: asymmetric_affine
    rounding: rtne
    max_value: 33.58001708984375
    min_value: -25.466060638427734
    scale: 0.23155324161052704
    zero_point: 110
  '@Transpose_layer24_v_heads_319:out0':
    qtype: u8
    quantizer: asymmetric_affine
    rounding: rtne
    max_value: 33.58001708984375
    min_value: -25.466060638427734
    scale: 0.23155324161052704
    zero_point: 110
  '@Divide_321:out0':
    qtype: u8
    quantizer: asymmetric_affine
    rounding: rtne
    max_value: 0.10340879112482071
    min_value: 0.0
    scale: 0.00040552468271926045
    zero_point: 0
  '@Mul_layer25_attn_scale_322:out0':
    qtype: u8
    quantizer: asymmetric_affine
    rounding: rtne
    max_value: 83.60559844970703
    min_value: -73.69855499267578
    scale: 0.6168790459632874
    zero_point: 119
  '@MatMul_layer25_attn_scores_323:out0':
    qtype: u8
    quantizer: asymmetric_affine
    rounding: rtne
    max_value: 668.8447875976562
    min_value: -589.5884399414062
    scale: 4.935032367706299
    zero_point: 119
  '@Add_layer25_mlp_rms_eps_325:out0':
    qtype: u8
    quantizer: asymmetric_affine
    rounding: rtne
    max_value: 1730440.5
    min_value: 0.0
    scale: 6786.041015625
    zero_point: 0
  '@Mul_layer26_q_rope_mul_cos_326:out0':
    qtype: u8
    quantizer: asymmetric_affine
    rounding: rtne
    max_value: 25.026750564575195
    min_value: -23.26328468322754
    scale: 0.1893726885318756
    zero_point: 123
  '@Mul_layer26_q_rope_mul_sin_327:out0':
    qtype: u8
    quantizer: asymmetric_affine
    rounding: rtne
    max_value: 17.98188591003418
    min_value: -16.83042335510254
    scale: 0.13651886582374573
    zero_point: 123
  '@Reshape_layer26_k_repeat_merge_328:out0':
    qtype: u8
    quantizer: asymmetric_affine
    rounding: rtne
    max_value: 18.242412567138672
    min_value: -18.07540512084961
    scale: 0.14242281019687653
    zero_point: 127
  '@Mul_layer26_attn_rms_gamma_329:out0':
    qtype: u8
    quantizer: asymmetric_affine
    rounding: rtne
    max_value: 3.9366180896759033
    min_value: -4.211866855621338
    scale: 0.031954843550920486
    zero_point: 132
  '@Initializer_layer26_attn_gamma_331:out0':
    qtype: u8
    quantizer: asymmetric_affine
    rounding: rtne
    max_value: 0.8671875
    min_value: 0.0
    scale: 0.0034007353242486715
    zero_point: 0
  '@Mul_layer26_attn_rms_scale_to_unit_332:out0':
    qtype: u8
    quantizer: asymmetric_affine
    rounding: rtne
    max_value: 5.593620300292969
    min_value: -5.615265846252441
    scale: 0.043956417590379715
    zero_point: 128
  '@Neg_layer27_q_rope_neg_second_334:out0':
    qtype: u8
    quantizer: asymmetric_affine
    rounding: rtne
    max_value: 26.006868362426758
    min_value: -29.142900466918945
    scale: 0.21627360582351685
    zero_point: 135
  '@Slice_layer27_q_rope_slice_second_335:out0':
    qtype: u8
    quantizer: asymmetric_affine
    rounding: rtne
    max_value: 22.072975158691406
    min_value: -29.142900466918945
    scale: 0.2008465677499771
    zero_point: 145
  '@Add_layer27_k_rope_rope_add_336:out0':
    qtype: u8
    quantizer: asymmetric_affine
    rounding: rtne
    max_value: 33.275733947753906
    min_value: -27.59695053100586
    scale: 0.23871640861034393
    zero_point: 116
  '@Slice_layer28_q_rope_slice_second_339:out0':
    qtype: u8
    quantizer: asymmetric_affine
    rounding: rtne
    max_value: 22.358829498291016
    min_value: -30.235422134399414
    scale: 0.20625197887420654
    zero_point: 147
  '@Mul_layer28_k_rope_mul_cos_341:out0':
    qtype: u8
    quantizer: asymmetric_affine
    rounding: rtne
    max_value: 21.686616897583008
    min_value: -17.118581771850586
    scale: 0.15217724442481995
    zero_point: 112
  '@Mul_layer28_k_rope_mul_sin_342:out0':
    qtype: u8
    quantizer: asymmetric_affine
    rounding: rtne
    max_value: 5.820301055908203
    min_value: -7.1699538230896
    scale: 0.050942178815603256
    zero_point: 141
  '@Mul_layer28_attn_rms_square_344:out0':
    qtype: u8
    quantizer: asymmetric_affine
    rounding: rtne
    max_value: 57341780.0
    min_value: 0.0
    scale: 224869.71875
    zero_point: 0
  '@Concat_layer28_k_rope_rotate_half_345:out0':
    qtype: u8
    quantizer: asymmetric_affine
    rounding: rtne
    max_value: 21.686885833740234
    min_value: -21.686885833740234
    scale: 0.17009322345256805
    zero_point: 128
  '@Add_layer21_attn_residual_349:out0':
    qtype: u8
    quantizer: asymmetric_affine
    rounding: rtne
    max_value: 7760.79052734375
    min_value: -2074.6103515625
    scale: 38.57019805908203
    zero_point: 54
  '@Reshape_layer22_ctx_merge_heads_351:out0':
    qtype: u8
    quantizer: asymmetric_affine
    rounding: rtne
    max_value: 18.55593490600586
    min_value: -16.952682495117188
    scale: 0.13924947381019592
    zero_point: 122
  '@MatMul_layer23_attn_context_355:out0':
    qtype: u8
    quantizer: asymmetric_affine
    rounding: rtne
    max_value: 24.918699264526367
    min_value: -37.13965606689453
    scale: 0.24336610734462738
    zero_point: 153
  '@Reshape_layer23_v_repeat_merge_356:out0':
    qtype: u8
    quantizer: asymmetric_affine
    rounding: rtne
    max_value: 26.168357849121094
    min_value: -37.3348388671875
    scale: 0.2490321397781372
    zero_point: 150
  '@Tile_layer23_v_repeat_tile_358:out0':
    qtype: u8
    quantizer: asymmetric_affine
    rounding: rtne
    max_value: 26.168357849121094
    min_value: -37.3348388671875
    scale: 0.2490321397781372
    zero_point: 150
  '@Mul_layer23_mlp_rms_scale_to_unit_359:out0':
    qtype: u8
    quantizer: asymmetric_affine
    rounding: rtne
    max_value: 5.574796676635742
    min_value: -5.614603519439697
    scale: 0.043880000710487366
    zero_point: 128
  '@Initializer_layer23_mlp_gamma_360:out0':
    qtype: u8
    quantizer: asymmetric_affine
    rounding: rtne
    max_value: 0.400390625
    min_value: -0.000507354736328125
    scale: 0.001572148990817368
    zero_point: 0
  '@Add_layer24_causal_mask_361:out0':
    qtype: u8
    quantizer: asymmetric_affine
    rounding: rtne
    max_value: 39.37287521362305
    min_value: -10059.470703125
    scale: 39.603309631347656
    zero_point: 254
  '@Reshape_layer24_v_reshape_362:out0':
    qtype: u8
    quantizer: asymmetric_affine
    rounding: rtne
    max_value: 33.58001708984375
    min_value: -25.466060638427734
    scale: 0.23155324161052704
    zero_point: 110
  '@Add_layer25_q_rope_rope_add_364:out0':
    qtype: u8
    quantizer: asymmetric_affine
    rounding: rtne
    max_value: 22.36026954650879
    min_value: -22.446823120117188
    scale: 0.17571407556533813
    zero_point: 128
  '@Transpose_layer25_k_transpose_365:out0':
    qtype: u8
    quantizer: asymmetric_affine
    rounding: rtne
    max_value: 16.635534286499023
    min_value: -16.8211612701416
    scale: 0.13120272755622864
    zero_point: 128
  '@Mul_layer25_mlp_rms_square_369:out0':
    qtype: u8
    quantizer: asymmetric_affine
    rounding: rtne
    max_value: 50735308.0
    min_value: 0.0
    scale: 198961.984375
    zero_point: 0
  '@Transpose_layer26_q_heads_370:out0':
    qtype: u8
    quantizer: asymmetric_affine
    rounding: rtne
    max_value: 25.026752471923828
    min_value: -23.263572692871094
    scale: 0.18937382102012634
    zero_point: 123
  '@Reshape_layer26_q_reshape_371:out0':
    qtype: u8
    quantizer: asymmetric_affine
    rounding: rtne
    max_value: 25.026752471923828
    min_value: -23.263572692871094
    scale: 0.18937382102012634
    zero_point: 123
  '@Concat_layer26_q_rope_rotate_half_372:out0':
    qtype: u8
    quantizer: asymmetric_affine
    rounding: rtne
    max_value: 25.026752471923828
    min_value: -23.263572692871094
    scale: 0.18937382102012634
    zero_point: 123
  '@Slice_layer26_q_rope_slice_first_373:out0':
    qtype: u8
    quantizer: asymmetric_affine
    rounding: rtne
    max_value: 25.026752471923828
    min_value: -23.263572692871094
    scale: 0.18937382102012634
    zero_point: 123
  '@Tile_layer26_k_repeat_tile_374:out0':
    qtype: u8
    quantizer: asymmetric_affine
    rounding: rtne
    max_value: 18.242412567138672
    min_value: -18.07540512084961
    scale: 0.14242281019687653
    zero_point: 127
  '@Reshape_layer26_k_repeat_expand_375:out0':
    qtype: u8
    quantizer: asymmetric_affine
    rounding: rtne
    max_value: 18.242412567138672
    min_value: -18.07540512084961
    scale: 0.14242281019687653
    zero_point: 127
  '@Divide_377:out0':
    qtype: u8
    quantizer: asymmetric_affine
    rounding: rtne
    max_value: 0.10239358991384506
    min_value: 0.0
    scale: 0.0004015434824395925
    zero_point: 0
  '@Mul_layer27_k_rope_mul_cos_381:out0':
    qtype: u8
    quantizer: asymmetric_affine
    rounding: rtne
    max_value: 33.25702667236328
    min_value: -27.564655303955078
    scale: 0.2385164052248001
    zero_point: 116
  '@Mul_layer27_k_rope_mul_sin_382:out0':
    qtype: u8
    quantizer: asymmetric_affine
    rounding: rtne
    max_value: 14.666911125183105
    min_value: -13.53721809387207
    scale: 0.110604427754879
    zero_point: 122
  '@Add_layer27_attn_rms_eps_383:out0':
    qtype: u8
    quantizer: asymmetric_affine
    rounding: rtne
    max_value: 1727877.0
    min_value: 0.0
    scale: 6775.98828125
    zero_point: 0
  '@Transpose_layer28_k_heads_385:out0':
    qtype: u8
    quantizer: asymmetric_affine
    rounding: rtne
    max_value: 21.686885833740234
    min_value: -17.119016647338867
    scale: 0.1521800011396408
    zero_point: 112
  '@Reshape_layer28_k_reshape_386:out0':
    qtype: u8
    quantizer: asymmetric_affine
    rounding: rtne
    max_value: 21.686885833740234
    min_value: -17.119016647338867
    scale: 0.1521800011396408
    zero_point: 112
  '@Neg_layer28_k_rope_neg_second_387:out0':
    qtype: u8
    quantizer: asymmetric_affine
    rounding: rtne
    max_value: 21.686885833740234
    min_value: -21.686885833740234
    scale: 0.17009322345256805
    zero_point: 128
  '@Slice_layer28_k_rope_slice_first_388:out0':
    qtype: u8
    quantizer: asymmetric_affine
    rounding: rtne
    max_value: 21.686885833740234
    min_value: -17.119016647338867
    scale: 0.1521800011396408
    zero_point: 112
  '@Add_layer20_mlp_residual_390:out0':
    qtype: u8
    quantizer: asymmetric_affine
    rounding: rtne
    max_value: 7888.966796875
    min_value: -2057.624267578125
    scale: 39.0062370300293
    zero_point: 53
  '@Mul_layer21_swiglu_mul_392:out0':
    qtype: u8
    quantizer: asymmetric_affine
    rounding: rtne
    max_value: 111.10455322265625
    min_value: -112.92151641845703
    scale: 0.8785336017608643
    zero_point: 129
  '@Transpose_layer22_ctx_transpose_394:out0':
    qtype: u8
    quantizer: asymmetric_affine
    rounding: rtne
    max_value: 18.55593490600586
    min_value: -16.952682495117188
    scale: 0.13924947381019592
    zero_point: 122
  '@Mul_layer22_mlp_rms_gamma_397:out0':
    qtype: u8
    quantizer: asymmetric_affine
    rounding: rtne
    max_value: 1.5793851613998413
    min_value: -1.8861154317855835
    scale: 0.013590198010206223
    zero_point: 139
  '@Softmax_layer23_softmax_399:out0':
    qtype: u8
    quantizer: asymmetric_affine
    rounding: rtne
    max_value: 1.0
    min_value: 0.0
    scale: 0.003921568859368563
    zero_point: 0
  '@Reshape_layer23_v_repeat_expand_400:out0':
    qtype: u8
    quantizer: asymmetric_affine
    rounding: rtne
    max_value: 26.168357849121094
    min_value: -37.3348388671875
    scale: 0.2490321397781372
    zero_point: 150
  '@Transpose_layer23_v_heads_401:out0':
    qtype: u8
    quantizer: asymmetric_affine
    rounding: rtne
    max_value: 26.168357849121094
    min_value: -37.3348388671875
    scale: 0.2490321397781372
    zero_point: 150
  '@Divide_403:out0':
    qtype: u8
    quantizer: asymmetric_affine
    rounding: rtne
    max_value: 0.10729748755693436
    min_value: 0.0
    scale: 0.00042077444959431887
    zero_point: 0
  '@Mul_layer24_attn_scale_404:out0':
    qtype: u8
    quantizer: asymmetric_affine
    rounding: rtne
    max_value: 39.37287521362305
    min_value: -59.47043991088867
    scale: 0.38762083649635315
    zero_point: 153
  '@MatMul_layer24_attn_scores_405:out0':
    qtype: u8
    quantizer: asymmetric_affine
    rounding: rtne
    max_value: 314.9830017089844
    min_value: -475.7635192871094
    scale: 3.100966691970825
    zero_point: 153
  '@Add_layer24_mlp_rms_eps_407:out0':
    qtype: u8
    quantizer: asymmetric_affine
    rounding: rtne
    max_value: 1621481.5
    min_value: 0.0
    scale: 6358.7509765625
    zero_point: 0
  '@Mul_layer25_q_rope_mul_cos_408:out0':
    qtype: u8
    quantizer: asymmetric_affine
    rounding: rtne
    max_value: 22.43142318725586
    min_value: -22.444822311401367
    scale: 0.17598526179790497
    zero_point: 128
  '@Mul_layer25_q_rope_mul_sin_409:out0':
    qtype: u8
    quantizer: asymmetric_affine
    rounding: rtne
    max_value: 12.48609733581543
    min_value: -12.441241264343262
    scale: 0.09775426238775253
    zero_point: 127
  '@Reshape_layer25_k_repeat_merge_410:out0':
    qtype: u8
    quantizer: asymmetric_affine
    rounding: rtne
    max_value: 16.635534286499023
    min_value: -16.8211612701416
    scale: 0.13120272755622864
    zero_point: 128
  '@Mul_layer25_attn_rms_gamma_411:out0':
    qtype: u8
    quantizer: asymmetric_affine
    rounding: rtne
    max_value: 3.4361112117767334
    min_value: -3.82311749458313
    scale: 0.028467563912272453
    zero_point: 134
  '@Initializer_layer25_attn_gamma_413:out0':
    qtype: u8
    quantizer: asymmetric_affine
    rounding: rtne
    max_value: 0.7890625
    min_value: 0.0
    scale: 0.0030943627934902906
    zero_point: 0
  '@Mul_layer25_attn_rms_scale_to_unit_414:out0':
    qtype: u8
    quantizer: asymmetric_affine
    rounding: rtne
    max_value: 5.592337131500244
    min_value: -5.607345104217529
    scale: 0.04392032325267792
    zero_point: 128
  '@Neg_layer26_q_rope_neg_second_416:out0':
    qtype: u8
    quantizer: asymmetric_affine
    rounding: rtne
    max_value: 25.026752471923828
    min_value: -23.263572692871094
    scale: 0.18937382102012634
    zero_point: 123
  '@Slice_layer26_q_rope_slice_second_417:out0':
    qtype: u8
    quantizer: asymmetric_affine
    rounding: rtne
    max_value: 25.026752471923828
    min_value: -23.263572692871094
    scale: 0.18937382102012634
    zero_point: 123
  '@Add_layer26_k_rope_rope_add_418:out0':
    qtype: u8
    quantizer: asymmetric_affine
    rounding: rtne
    max_value: 18.242412567138672
    min_value: -18.07540512084961
    scale: 0.14242281019687653
    zero_point: 127
  '@Add_layer26_attn_rms_eps_420:out0':
    qtype: u8
    quantizer: asymmetric_affine
    rounding: rtne
    max_value: 1779492.375
    min_value: 0.0
    scale: 6978.4013671875
    zero_point: 0
  '@Transpose_layer27_k_heads_421:out0':
    qtype: u8
    quantizer: asymmetric_affine
    rounding: rtne
    max_value: 33.25743865966797
    min_value: -27.56499671936035
    scale: 0.2385193407535553
    zero_point: 116
  '@Reshape_layer27_k_reshape_422:out0':
    qtype: u8
    quantizer: asymmetric_affine
    rounding: rtne
    max_value: 33.25743865966797
    min_value: -27.56499671936035
    scale: 0.2385193407535553
    zero_point: 116
  '@Concat_layer27_k_rope_rotate_half_423:out0':
    qtype: u8
    quantizer: asymmetric_affine
    rounding: rtne
    max_value: 33.25743865966797
    min_value: -33.25743865966797
    scale: 0.2608426511287689
    zero_point: 128
  '@Slice_layer27_k_rope_slice_first_424:out0':
    qtype: u8
    quantizer: asymmetric_affine
    rounding: rtne
    max_value: 33.25743865966797
    min_value: -27.56499671936035
    scale: 0.2385193407535553
    zero_point: 116
  '@Mul_layer27_attn_rms_square_426:out0':
    qtype: u8
    quantizer: asymmetric_affine
    rounding: rtne
    max_value: 50051300.0
    min_value: 0.0
    scale: 196279.609375
    zero_point: 0
  '@Neg_layer27_k_rope_neg_second_427:out0':
    qtype: u8
    quantizer: asymmetric_affine
    rounding: rtne
    max_value: 33.25743865966797
    min_value: -33.25743865966797
    scale: 0.2608426511287689
    zero_point: 128
  '@Slice_layer28_k_rope_slice_second_430:out0':
    qtype: u8
    quantizer: asymmetric_affine
    rounding: rtne
    max_value: 21.686885833740234
    min_value: -17.119016647338867
    scale: 0.1521800011396408
    zero_point: 112
  '@Add_layer20_attn_residual_434:out0':
    qtype: u8
    quantizer: asymmetric_affine
    rounding: rtne
    max_value: 8243.720703125
    min_value: -2067.702880859375
    scale: 40.436954498291016
    zero_point: 51
  '@Reshape_layer21_ctx_merge_heads_436:out0':
    qtype: u8
    quantizer: asymmetric_affine
    rounding: rtne
    max_value: 17.774391174316406
    min_value: -14.746006965637207
    scale: 0.12753096222877502
    zero_point: 116
  '@MatMul_layer22_attn_context_440:out0':
    qtype: u8
    quantizer: asymmetric_affine
    rounding: rtne
    max_value: 18.55593490600586
    min_value: -16.952682495117188
    scale: 0.13924947381019592
    zero_point: 122
  '@Reshape_layer22_v_repeat_merge_441:out0':
    qtype: u8
    quantizer: asymmetric_affine
    rounding: rtne
    max_value: 18.55593490600586
    min_value: -16.952682495117188
    scale: 0.13924947381019592
    zero_point: 122
  '@Tile_layer22_v_repeat_tile_443:out0':
    qtype: u8
    quantizer: asymmetric_affine
    rounding: rtne
    max_value: 18.55593490600586
    min_value: -16.952682495117188
    scale: 0.13924947381019592
    zero_point: 122
  '@Mul_layer22_mlp_rms_scale_to_unit_444:out0':
    qtype: u8
    quantizer: asymmetric_affine
    rounding: rtne
    max_value: 5.6412034034729
    min_value: -5.60632848739624
    scale: 0.04410796985030174
    zero_point: 127
  '@Initializer_layer22_mlp_gamma_445:out0':
    qtype: u8
    quantizer: asymmetric_affine
    rounding: rtne
    max_value: 0.357421875
    min_value: 0.0
    scale: 0.0014016544446349144
    zero_point: 0
  '@Add_layer23_causal_mask_446:out0':
    qtype: u8
    quantizer: asymmetric_affine
    rounding: rtne
    max_value: 19.897384643554688
    min_value: -10082.3671875
    scale: 39.61672592163086
    zero_point: 254
  '@Reshape_layer23_v_reshape_447:out0':
    qtype: u8
    quantizer: asymmetric_affine
    rounding: rtne
    max_value: 26.168357849121094
    min_value: -37.3348388671875
    scale: 0.2490321397781372
    zero_point: 150
  '@Add_layer24_q_rope_rope_add_449:out0':
    qtype: u8
    quantizer: asymmetric_affine
    rounding: rtne
    max_value: 28.225656509399414
    min_value: -24.306438446044922
    scale: 0.20600822567939758
    zero_point: 118
  '@Transpose_layer24_k_transpose_450:out0':
    qtype: u8
    quantizer: asymmetric_affine
    rounding: rtne
    max_value: 17.947101593017578
    min_value: -19.116043090820312
    scale: 0.14534565806388855
    zero_point: 132
  '@Mul_layer24_mlp_rms_square_454:out0':
    qtype: u8
    quantizer: asymmetric_affine
    rounding: rtne
    max_value: 46985596.0
    min_value: 0.0
    scale: 184257.234375
    zero_point: 0
  '@Transpose_layer25_q_heads_455:out0':
    qtype: u8
    quantizer: asymmetric_affine
    rounding: rtne
    max_value: 22.44158172607422
    min_value: -22.44539451599121
    scale: 0.17602737247943878
    zero_point: 128
  '@Reshape_layer25_q_reshape_456:out0':
    qtype: u8
    quantizer: asymmetric_affine
    rounding: rtne
    max_value: 22.44158172607422
    min_value: -22.44539451599121
    scale: 0.17602737247943878
    zero_point: 128
  '@Concat_layer25_q_rope_rotate_half_457:out0':
    qtype: u8
    quantizer: asymmetric_affine
    rounding: rtne
    max_value: 22.44158172607422
    min_value: -22.44539451599121
    scale: 0.17602737247943878
    zero_point: 128
  '@Slice_layer25_q_rope_slice_first_458:out0':
    qtype: u8
    quantizer: asymmetric_affine
    rounding: rtne
    max_value: 22.44158172607422
    min_value: -22.44539451599121
    scale: 0.17602737247943878
    zero_point: 128
  '@Tile_layer25_k_repeat_tile_459:out0':
    qtype: u8
    quantizer: asymmetric_affine
    rounding: rtne
    max_value: 16.635534286499023
    min_value: -16.8211612701416
    scale: 0.13120272755622864
    zero_point: 128
  '@Reshape_layer25_k_repeat_expand_460:out0':
    qtype: u8
    quantizer: asymmetric_affine
    rounding: rtne
    max_value: 16.635534286499023
    min_value: -16.8211612701416
    scale: 0.13120272755622864
    zero_point: 128
  '@Divide_462:out0':
    qtype: u8
    quantizer: asymmetric_affine
    rounding: rtne
    max_value: 0.16270779073238373
    min_value: 0.0
    scale: 0.0006380697595886886
    zero_point: 0
  '@Mul_layer26_k_rope_mul_cos_466:out0':
    qtype: u8
    quantizer: asymmetric_affine
    rounding: rtne
    max_value: 18.24144744873047
    min_value: -18.0634765625
    scale: 0.1423722505569458
    zero_point: 127
  '@Mul_layer26_k_rope_mul_sin_467:out0':
    qtype: u8
    quantizer: asymmetric_affine
    rounding: rtne
    max_value: 8.488426208496094
    min_value: -9.686751365661621
    scale: 0.07127521187067032
    zero_point: 136
  '@Mul_layer26_attn_rms_square_469:out0':
    qtype: u8
    quantizer: asymmetric_affine
    rounding: rtne
    max_value: 52186636.0
    min_value: 0.0
    scale: 204653.46875
    zero_point: 0
  '@Slice_layer27_k_rope_slice_second_471:out0':
    qtype: u8
    quantizer: asymmetric_affine
    rounding: rtne
    max_value: 33.25743865966797
    min_value: -27.56499671936035
    scale: 0.2385193407535553
    zero_point: 116
  '@Add_layer19_mlp_residual_474:out0':
    qtype: u8
    quantizer: asymmetric_affine
    rounding: rtne
    max_value: 8282.1748046875
    min_value: -2060.31298828125
    scale: 40.55877685546875
    zero_point: 51
  '@Mul_layer20_swiglu_mul_476:out0':
    qtype: u8
    quantizer: asymmetric_affine
    rounding: rtne
    max_value: 110.33470916748047
    min_value: -104.63563537597656
    scale: 0.8430209159851074
    zero_point: 124
  '@Transpose_layer21_ctx_transpose_478:out0':
    qtype: u8
    quantizer: asymmetric_affine
    rounding: rtne
    max_value: 17.774391174316406
    min_value: -14.746006965637207
    scale: 0.12753096222877502
    zero_point: 116
  '@Mul_layer21_mlp_rms_gamma_481:out0':
    qtype: u8
    quantizer: asymmetric_affine
    rounding: rtne
    max_value: 1.6893839836120605
    min_value: -2.005633592605591
    scale: 0.014490265399217606
    zero_point: 138
  '@Softmax_layer22_softmax_483:out0':
    qtype: u8
    quantizer: asymmetric_affine
    rounding: rtne
    max_value: 1.0
    min_value: 0.0
    scale: 0.003921568859368563
    zero_point: 0
  '@Reshape_layer22_v_repeat_expand_484:out0':
    qtype: u8
    quantizer: asymmetric_affine
    rounding: rtne
    max_value: 18.55593490600586
    min_value: -16.952682495117188
    scale: 0.13924947381019592
    zero_point: 122
  '@Transpose_layer22_v_heads_485:out0':
    qtype: u8
    quantizer: asymmetric_affine
    rounding: rtne
    max_value: 18.55593490600586
    min_value: -16.952682495117188
    scale: 0.13924947381019592
    zero_point: 122
  '@Divide_487:out0':
    qtype: u8
    quantizer: asymmetric_affine
    rounding: rtne
    max_value: 0.1098240315914154
    min_value: 0.0
    scale: 0.0004306824703235179
    zero_point: 0
  '@Mul_layer23_attn_scale_488:out0':
    qtype: u8
    quantizer: asymmetric_affine
    rounding: rtne
    max_value: 19.897384643554688
    min_value: -82.36763000488281
    scale: 0.4010392725467682
    zero_point: 205
  '@MatMul_layer23_attn_scores_489:out0':
    qtype: u8
    quantizer: asymmetric_affine
    rounding: rtne
    max_value: 159.1790771484375
    min_value: -658.9410400390625
    scale: 3.2083141803741455
    zero_point: 205
  '@Add_layer23_mlp_rms_eps_491:out0':
    qtype: u8
    quantizer: asymmetric_affine
    rounding: rtne
    max_value: 1940765.25
    min_value: 0.0
    scale: 7610.84423828125
    zero_point: 0
  '@Mul_layer24_q_rope_mul_cos_492:out0':
    qtype: u8
    quantizer: asymmetric_affine
    rounding: rtne
    max_value: 28.227285385131836
    min_value: -22.97159767150879
    scale: 0.20077992975711823
    zero_point: 114
  '@Mul_layer24_q_rope_mul_sin_493:out0':
    qtype: u8
    quantizer: asymmetric_affine
    rounding: rtne
    max_value: 12.249911308288574
    min_value: -23.68338966369629
    scale: 0.1409149020910263
    zero_point: 168
  '@Reshape_layer24_k_repeat_merge_494:out0':
    qtype: u8
    quantizer: asymmetric_affine
    rounding: rtne
    max_value: 17.947101593017578
    min_value: -19.116043090820312
    scale: 0.14534565806388855
    zero_point: 132
  '@Mul_layer24_attn_rms_gamma_495:out0':
    qtype: u8
    quantizer: asymmetric_affine
    rounding: rtne
    max_value: 4.088756084442139
    min_value: -4.586755752563477
    scale: 0.034021615982055664
    zero_point: 135
  '@Initializer_layer24_attn_gamma_497:out0':
    qtype: u8
    quantizer: asymmetric_affine
    rounding: rtne
    max_value: 0.85546875
    min_value: 0.0
    scale: 0.0033547794446349144
    zero_point: 0
  '@Mul_layer24_attn_rms_scale_to_unit_498:out0':
    qtype: u8
    quantizer: asymmetric_affine
    rounding: rtne
    max_value: 5.555819034576416
    min_value: -5.599348545074463
    scale: 0.04374575614929199
    zero_point: 128
  '@Neg_layer25_q_rope_neg_second_500:out0':
    qtype: u8
    quantizer: asymmetric_affine
    rounding: rtne
    max_value: 22.44158172607422
    min_value: -22.44539451599121
    scale: 0.17602737247943878
    zero_point: 128
  '@Slice_layer25_q_rope_slice_second_501:out0':
    qtype: u8
    quantizer: asymmetric_affine
    rounding: rtne
    max_value: 22.44158172607422
    min_value: -22.44539451599121
    scale: 0.17602737247943878
    zero_point: 128
  '@Add_layer25_k_rope_rope_add_502:out0':
    qtype: u8
    quantizer: asymmetric_affine
    rounding: rtne
    max_value: 16.635534286499023
    min_value: -16.8211612701416
    scale: 0.13120272755622864
    zero_point: 128
  '@Add_layer25_attn_rms_eps_504:out0':
    qtype: u8
    quantizer: asymmetric_affine
    rounding: rtne
    max_value: 1773667.375
    min_value: 0.0
    scale: 6955.55810546875
    zero_point: 0
  '@Transpose_layer26_k_heads_505:out0':
    qtype: u8
    quantizer: asymmetric_affine
    rounding: rtne
    max_value: 18.2414493560791
    min_value: -18.06358528137207
    scale: 0.14237268269062042
    zero_point: 127
  '@Reshape_layer26_k_reshape_506:out0':
    qtype: u8
    quantizer: asymmetric_affine
    rounding: rtne
    max_value: 18.2414493560791
    min_value: -18.06358528137207
    scale: 0.14237268269062042
    zero_point: 127
  '@Concat_layer26_k_rope_rotate_half_507:out0':
    qtype: u8
    quantizer: asymmetric_affine
    rounding: rtne
    max_value: 18.2414493560791
    min_value: -18.06358528137207
    scale: 0.14237268269062042
    zero_point: 127
  '@Slice_layer26_k_rope_slice_first_508:out0':
    qtype: u8
    quantizer: asymmetric_affine
    rounding: rtne
    max_value: 18.2414493560791
    min_value: -18.06358528137207
    scale: 0.14237268269062042
    zero_point: 127
  '@Neg_layer26_k_rope_neg_second_509:out0':
    qtype: u8
    quantizer: asymmetric_affine
    rounding: rtne
    max_value: 18.2414493560791
    min_value: -18.06358528137207
    scale: 0.14237268269062042
    zero_point: 127
  '@Slice_layer26_k_rope_slice_second_510:out0':
    qtype: u8
    quantizer: asymmetric_affine
    rounding: rtne
    max_value: 18.2414493560791
    min_value: -18.06358528137207
    scale: 0.14237268269062042
    zero_point: 127
  '@Add_layer19_attn_residual_512:out0':
    qtype: u8
    quantizer: asymmetric_affine
    rounding: rtne
    max_value: 8308.091796875
    min_value: -2059.27685546875
    scale: 40.656349182128906
    zero_point: 51
  '@Reshape_layer20_ctx_merge_heads_514:out0':
    qtype: u8
    quantizer: asymmetric_affine
    rounding: rtne
    max_value: 20.246227264404297
    min_value: -17.1859073638916
    scale: 0.1467926949262619
    zero_point: 117
  '@MatMul_layer21_attn_context_518:out0':
    qtype: u8
    quantizer: asymmetric_affine
    rounding: rtne
    max_value: 17.774391174316406
    min_value: -14.746006965637207
    scale: 0.12753096222877502
    zero_point: 116
  '@Reshape_layer21_v_repeat_merge_519:out0':
    qtype: u8
    quantizer: asymmetric_affine
    rounding: rtne
    max_value: 17.774391174316406
    min_value: -14.746021270751953
    scale: 0.1275310218334198
    zero_point: 116
  '@Tile_layer21_v_repeat_tile_521:out0':
    qtype: u8
    quantizer: asymmetric_affine
    rounding: rtne
    max_value: 17.774391174316406
    min_value: -14.746021270751953
    scale: 0.1275310218334198
    zero_point: 116
  '@Mul_layer21_mlp_rms_scale_to_unit_522:out0':
    qtype: u8
    quantizer: asymmetric_affine
    rounding: rtne
    max_value: 5.631906986236572
    min_value: -5.613264560699463
    scale: 0.044098712503910065
    zero_point: 127
  '@Initializer_layer21_mlp_gamma_523:out0':
    qtype: u8
    quantizer: asymmetric_affine
    rounding: rtne
    max_value: 0.3828125
    min_value: -1.049041748046875e-05
    scale: 0.001501266611739993
    zero_point: 0
  '@Add_layer22_causal_mask_524:out0':
    qtype: u8
    quantizer: asymmetric_affine
    rounding: rtne
    max_value: 63.436065673828125
    min_value: -10050.6826171875
    scale: 39.663211822509766
    zero_point: 253
  '@Reshape_layer22_v_reshape_525:out0':
    qtype: u8
    quantizer: asymmetric_affine
    rounding: rtne
    max_value: 18.55593490600586
    min_value: -16.952682495117188
    scale: 0.13924947381019592
    zero_point: 122
  '@Add_layer23_q_rope_rope_add_527:out0':
    qtype: u8
    quantizer: asymmetric_affine
    rounding: rtne
    max_value: 21.477018356323242
    min_value: -25.594804763793945
    scale: 0.18459539115428925
    zero_point: 139
  '@Transpose_layer23_k_transpose_528:out0':
    qtype: u8
    quantizer: asymmetric_affine
    rounding: rtne
    max_value: 17.423473358154297
    min_value: -20.831087112426758
    scale: 0.1500178873538971
    zero_point: 139
  '@Mul_layer23_mlp_rms_square_532:out0':
    qtype: u8
    quantizer: asymmetric_affine
    rounding: rtne
    max_value: 56534788.0
    min_value: 0.0
    scale: 221705.046875
    zero_point: 0
  '@Transpose_layer24_q_heads_533:out0':
    qtype: u8
    quantizer: asymmetric_affine
    rounding: rtne
    max_value: 28.227294921875
    min_value: -22.51773452758789
    scale: 0.19900012016296387
    zero_point: 113
  '@Reshape_layer24_q_reshape_534:out0':
    qtype: u8
    quantizer: asymmetric_affine
    rounding: rtne
    max_value: 28.227294921875
    min_value: -22.51773452758789
    scale: 0.19900012016296387
    zero_point: 113
  '@Concat_layer24_q_rope_rotate_half_535:out0':
    qtype: u8
    quantizer: asymmetric_affine
    rounding: rtne
    max_value: 28.227294921875
    min_value: -27.085603713989258
    scale: 0.21691332757472992
    zero_point: 125
  '@Slice_layer24_q_rope_slice_first_536:out0':
    qtype: u8
    quantizer: asymmetric_affine
    rounding: rtne
    max_value: 28.227294921875
    min_value: -22.51773452758789
    scale: 0.19900012016296387
    zero_point: 113
  '@Tile_layer24_k_repeat_tile_537:out0':
    qtype: u8
    quantizer: asymmetric_affine
    rounding: rtne
    max_value: 17.947101593017578
    min_value: -19.116043090820312
    scale: 0.14534565806388855
    zero_point: 132
  '@Reshape_layer24_k_repeat_expand_538:out0':
    qtype: u8
    quantizer: asymmetric_affine
    rounding: rtne
    max_value: 17.947101593017578
    min_value: -19.116043090820312
    scale: 0.14534565806388855
    zero_point: 132
  '@Divide_540:out0':
    qtype: u8
    quantizer: asymmetric_affine
    rounding: rtne
    max_value: 0.09046115726232529
    min_value: 0.0
    scale: 0.00035474964533932507
    zero_point: 0
  '@Mul_layer25_k_rope_mul_cos_544:out0':
    qtype: u8
    quantizer: asymmetric_affine
    rounding: rtne
    max_value: 16.615694046020508
    min_value: -16.81672477722168
    scale: 0.13110752403736115
    zero_point: 128
  '@Mul_layer25_k_rope_mul_sin_545:out0':
    qtype: u8
    quantizer: asymmetric_affine
    rounding: rtne
    max_value: 8.489294052124023
    min_value: -11.793726921081543
    scale: 0.07954125851392746
    zero_point: 148
  '@Mul_layer25_attn_rms_square_547:out0':
    qtype: u8
    quantizer: asymmetric_affine
    rounding: rtne
    max_value: 52010280.0
    min_value: 0.0
    scale: 203961.875
    zero_point: 0
  '@Add_layer18_mlp_residual_552:out0':
    qtype: u8
    quantizer: asymmetric_affine
    rounding: rtne
    max_value: 8402.9912109375
    min_value: -2074.164306640625
    scale: 41.086883544921875
    zero_point: 50
  '@Mul_layer19_swiglu_mul_554:out0':
    qtype: u8
    quantizer: asymmetric_affine
    rounding: rtne
    max_value: 70.48210906982422
    min_value: -148.7381591796875
    scale: 0.859687328338623
    zero_point: 173
  '@Transpose_layer20_ctx_transpose_556:out0':
    qtype: u8
    quantizer: asymmetric_affine
    rounding: rtne
    max_value: 20.246227264404297
    min_value: -17.1859073638916
    scale: 0.1467926949262619
    zero_point: 117
  '@Mul_layer20_mlp_rms_gamma_559:out0':
    qtype: u8
    quantizer: asymmetric_affine
    rounding: rtne
    max_value: 1.3970311880111694
    min_value: -1.862625241279602
    scale: 0.01278296671807766
    zero_point: 146
  '@Softmax_layer21_softmax_561:out0':
    qtype: u8
    quantizer: asymmetric_affine
    rounding: rtne
    max_value: 1.0
    min_value: 0.0
    scale: 0.003921568859368563
    zero_point: 0
  '@Reshape_layer21_v_repeat_expand_562:out0':
    qtype: u8
    quantizer: asymmetric_affine
    rounding: rtne
    max_value: 17.774391174316406
    min_value: -14.746021270751953
    scale: 0.1275310218334198
    zero_point: 116
  '@Transpose_layer21_v_heads_563:out0':
    qtype: u8
    quantizer: asymmetric_affine
    rounding: rtne
    max_value: 17.774391174316406
    min_value: -14.746021270751953
    scale: 0.1275310218334198
    zero_point: 116
  '@Divide_565:out0':
    qtype: u8
    quantizer: asymmetric_affine
    rounding: rtne
    max_value: 0.10667247325181961
    min_value: 0.0
    scale: 0.0004183234123047441
    zero_point: 0
  '@Mul_layer22_attn_scale_566:out0':
    qtype: u8
    quantizer: asymmetric_affine
    rounding: rtne
    max_value: 63.436065673828125
    min_value: -53.75877380371094
    scale: 0.45958760380744934
    zero_point: 117
  '@MatMul_layer22_attn_scores_567:out0':
    qtype: u8
    quantizer: asymmetric_affine
    rounding: rtne
    max_value: 507.488525390625
    min_value: -430.0701904296875
    scale: 3.6767008304595947
    zero_point: 117
  '@Add_layer22_mlp_rms_eps_569:out0':
    qtype: u8
    quantizer: asymmetric_affine
    rounding: rtne
    max_value: 2029214.0
    min_value: 0.0
    scale: 7957.7021484375
    zero_point: 0
  '@Mul_layer23_q_rope_mul_cos_570:out0':
    qtype: u8
    quantizer: asymmetric_affine
    rounding: rtne
    max_value: 20.755573272705078
    min_value: -25.594566345214844
    scale: 0.18176525831222534
    zero_point: 141
  '@Mul_layer23_q_rope_mul_sin_571:out0':
    qtype: u8
    quantizer: asymmetric_affine
    rounding: rtne
    max_value: 9.308865547180176
    min_value: -11.796377182006836
    scale: 0.08276566118001938
    zero_point: 143
  '@Reshape_layer23_k_repeat_merge_572:out0':
    qtype: u8
    quantizer: asymmetric_affine
    rounding: rtne
    max_value: 17.423473358154297
    min_value: -20.831087112426758
    scale: 0.1500178873538971
    zero_point: 139
  '@Mul_layer23_attn_rms_gamma_573:out0':
    qtype: u8
    quantizer: asymmetric_affine
    rounding: rtne
    max_value: 3.728538990020752
    min_value: -3.83888840675354
    scale: 0.02967618592083454
    zero_point: 129
  '@Initializer_layer23_attn_gamma_575:out0':
    qtype: u8
    quantizer: asymmetric_affine
    rounding: rtne
    max_value: 0.71484375
    min_value: 0.0
    scale: 0.002803308889269829
    zero_point: 0
  '@Mul_layer23_attn_rms_scale_to_unit_576:out0':
    qtype: u8
    quantizer: asymmetric_affine
    rounding: rtne
    max_value: 5.631064414978027
    min_value: -5.595083236694336
    scale: 0.044024109840393066
    zero_point: 127
  '@Neg_layer24_q_rope_neg_second_578:out0':
    qtype: u8
    quantizer: asymmetric_affine
    rounding: rtne
    max_value: 28.227294921875
    min_value: -27.085603713989258
    scale: 0.21691332757472992
    zero_point: 125
  '@Slice_layer24_q_rope_slice_second_579:out0':
    qtype: u8
    quantizer: asymmetric_affine
    rounding: rtne
    max_value: 28.227294921875
    min_value: -22.51773452758789
    scale: 0.19900012016296387
    zero_point: 113
  '@Add_layer24_k_rope_rope_add_580:out0':
    qtype: u8
    quantizer: asymmetric_affine
    rounding: rtne
    max_value: 17.947101593017578
    min_value: -19.116043090820312
    scale: 0.14534565806388855
    zero_point: 132
  '@Add_layer24_attn_rms_eps_582:out0':
    qtype: u8
    quantizer: asymmetric_affine
    rounding: rtne
    max_value: 1669386.125
    min_value: 0.0
    scale: 6546.6123046875
    zero_point: 0
  '@Transpose_layer25_k_heads_583:out0':
    qtype: u8
    quantizer: asymmetric_affine
    rounding: rtne
    max_value: 16.615741729736328
    min_value: -16.816932678222656
    scale: 0.13110852241516113
    zero_point: 128
  '@Reshape_layer25_k_reshape_584:out0':
    qtype: u8
    quantizer: asymmetric_affine
    rounding: rtne
    max_value: 16.615741729736328
    min_value: -16.816932678222656
    scale: 0.13110852241516113
    zero_point: 128
  '@Concat_layer25_k_rope_rotate_half_585:out0':
    qtype: u8
    quantizer: asymmetric_affine
    rounding: rtne
    max_value: 16.615741729736328
    min_value: -16.816932678222656
    scale: 0.13110852241516113
    zero_point: 128
  '@Slice_layer25_k_rope_slice_first_586:out0':
    qtype: u8
    quantizer: asymmetric_affine
    rounding: rtne
    max_value: 16.615741729736328
    min_value: -16.816932678222656
    scale: 0.13110852241516113
    zero_point: 128
  '@Neg_layer25_k_rope_neg_second_587:out0':
    qtype: u8
    quantizer: asymmetric_affine
    rounding: rtne
    max_value: 16.615741729736328
    min_value: -16.816932678222656
    scale: 0.13110852241516113
    zero_point: 128
  '@Slice_layer25_k_rope_slice_second_588:out0':
    qtype: u8
    quantizer: asymmetric_affine
    rounding: rtne
    max_value: 16.615741729736328
    min_value: -16.816932678222656
    scale: 0.13110852241516113
    zero_point: 128
  '@Add_layer18_attn_residual_591:out0':
    qtype: u8
    quantizer: asymmetric_affine
    rounding: rtne
    max_value: 8932.029296875
    min_value: -2096.98779296875
    scale: 43.25104904174805
    zero_point: 48
  '@Reshape_layer19_ctx_merge_heads_593:out0':
    qtype: u8
    quantizer: asymmetric_affine
    rounding: rtne
    max_value: 16.584922790527344
    min_value: -37.33711242675781
    scale: 0.2114589661359787
    zero_point: 177
  '@MatMul_layer20_attn_context_597:out0':
    qtype: u8
    quantizer: asymmetric_affine
    rounding: rtne
    max_value: 20.246227264404297
    min_value: -17.1859073638916
    scale: 0.1467926949262619
    zero_point: 117
  '@Reshape_layer20_v_repeat_merge_598:out0':
    qtype: u8
    quantizer: asymmetric_affine
    rounding: rtne
    max_value: 20.24873161315918
    min_value: -17.185928344726562
    scale: 0.14680258929729462
    zero_point: 117
  '@Tile_layer20_v_repeat_tile_600:out0':
    qtype: u8
    quantizer: asymmetric_affine
    rounding: rtne
    max_value: 20.24873161315918
    min_value: -17.185928344726562
    scale: 0.14680258929729462
    zero_point: 117
  '@Mul_layer20_mlp_rms_scale_to_unit_601:out0':
    qtype: u8
    quantizer: asymmetric_affine
    rounding: rtne
    max_value: 5.64387321472168
    min_value: -5.636916637420654
    scale: 0.044238392263650894
    zero_point: 127
  '@Initializer_layer20_mlp_gamma_602:out0':
    qtype: u8
    quantizer: asymmetric_affine
    rounding: rtne
    max_value: 0.353515625
    min_value: -0.000629425048828125
    scale: 0.0013888041721656919
    zero_point: 0
  '@Add_layer21_causal_mask_603:out0':
    qtype: u8
    quantizer: asymmetric_affine
    rounding: rtne
    max_value: 136.95806884765625
    min_value: -10082.56640625
    scale: 40.07656478881836
    zero_point: 252
  '@Reshape_layer21_v_reshape_604:out0':
    qtype: u8
    quantizer: asymmetric_affine
    rounding: rtne
    max_value: 17.774391174316406
    min_value: -14.746021270751953
    scale: 0.1275310218334198
    zero_point: 116
  '@Add_layer22_q_rope_rope_add_606:out0':
    qtype: u8
    quantizer: asymmetric_affine
    rounding: rtne
    max_value: 22.843278884887695
    min_value: -23.930578231811523
    scale: 0.1834268867969513
    zero_point: 130
  '@Transpose_layer22_k_transpose_607:out0':
    qtype: u8
    quantizer: asymmetric_affine
    rounding: rtne
    max_value: 18.954065322875977
    min_value: -19.50726890563965
    scale: 0.1508287638425827
    zero_point: 129
  '@Mul_layer22_mlp_rms_square_611:out0':
    qtype: u8
    quantizer: asymmetric_affine
    rounding: rtne
    max_value: 58662824.0
    min_value: 0.0
    scale: 230050.296875
    zero_point: 0
  '@Transpose_layer23_q_heads_612:out0':
    qtype: u8
    quantizer: asymmetric_affine
    rounding: rtne
    max_value: 20.923778533935547
    min_value: -25.59488296508789
    scale: 0.18242612481117249
    zero_point: 140
  '@Reshape_layer23_q_reshape_613:out0':
    qtype: u8
    quantizer: asymmetric_affine
    rounding: rtne
    max_value: 20.923778533935547
    min_value: -25.59488296508789
    scale: 0.18242612481117249
    zero_point: 140
  '@Concat_layer23_q_rope_rotate_half_614:out0':
    qtype: u8
    quantizer: asymmetric_affine
    rounding: rtne
    max_value: 21.36107635498047
    min_value: -25.59488296508789
    scale: 0.18414101004600525
    zero_point: 139
  '@Slice_layer23_q_rope_slice_first_615:out0':
    qtype: u8
    quantizer: asymmetric_affine
    rounding: rtne
    max_value: 20.923778533935547
    min_value: -25.59488296508789
    scale: 0.18242612481117249
    zero_point: 140
  '@Tile_layer23_k_repeat_tile_616:out0':
    qtype: u8
    quantizer: asymmetric_affine
    rounding: rtne
    max_value: 17.423473358154297
    min_value: -20.831087112426758
    scale: 0.1500178873538971
    zero_point: 139
  '@Reshape_layer23_k_repeat_expand_617:out0':
    qtype: u8
    quantizer: asymmetric_affine
    rounding: rtne
    max_value: 17.423473358154297
    min_value: -20.831087112426758
    scale: 0.1500178873538971
    zero_point: 139
  '@Divide_619:out0':
    qtype: u8
    quantizer: asymmetric_affine
    rounding: rtne
    max_value: 0.15030066668987274
    min_value: 0.0
    scale: 0.0005894143832847476
    zero_point: 0
  '@Mul_layer24_k_rope_mul_cos_623:out0':
    qtype: u8
    quantizer: asymmetric_affine
    rounding: rtne
    max_value: 17.94867515563965
    min_value: -19.11342430114746
    scale: 0.14534156024456024
    zero_point: 132
  '@Mul_layer24_k_rope_mul_sin_624:out0':
    qtype: u8
    quantizer: asymmetric_affine
    rounding: rtne
    max_value: 5.1274614334106445
    min_value: -6.204587459564209
    scale: 0.0444394052028656
    zero_point: 140
  '@Mul_layer24_attn_rms_square_626:out0':
    qtype: u8
    quantizer: asymmetric_affine
    rounding: rtne
    max_value: 48246212.0
    min_value: 0.0
    scale: 189200.828125
    zero_point: 0
  '@Add_layer17_mlp_residual_629:out0':
    qtype: u8
    quantizer: asymmetric_affine
    rounding: rtne
    max_value: 8942.7294921875
    min_value: -2095.747314453125
    scale: 43.288143157958984
    zero_point: 48
  '@Mul_layer18_swiglu_mul_631:out0':
    qtype: u8
    quantizer: asymmetric_affine
    rounding: rtne
    max_value: 81.33135223388672
    min_value: -86.23583221435547
    scale: 0.6571261882781982
    zero_point: 131
  '@Transpose_layer19_ctx_transpose_633:out0':
    qtype: u8
    quantizer: asymmetric_affine
    rounding: rtne
    max_value: 16.584922790527344
    min_value: -37.33711242675781
    scale: 0.2114589661359787
    zero_point: 177
  '@Mul_layer19_mlp_rms_gamma_636:out0':
    qtype: u8
    quantizer: asymmetric_affine
    rounding: rtne
    max_value: 1.5560154914855957
    min_value: -1.8229769468307495
    scale: 0.013250951655209064
    zero_point: 138
  '@Softmax_layer20_softmax_638:out0':
    qtype: u8
    quantizer: asymmetric_affine
    rounding: rtne
    max_value: 1.0
    min_value: 0.0
    scale: 0.003921568859368563
    zero_point: 0
  '@Reshape_layer20_v_repeat_expand_639:out0':
    qtype: u8
    quantizer: asymmetric_affine
    rounding: rtne
    max_value: 20.24873161315918
    min_value: -17.185928344726562
    scale: 0.14680258929729462
    zero_point: 117
  '@Transpose_layer20_v_heads_640:out0':
    qtype: u8
    quantizer: asymmetric_affine
    rounding: rtne
    max_value: 20.24873161315918
    min_value: -17.185928344726562
    scale: 0.14680258929729462
    zero_point: 117
  '@Divide_642:out0':
    qtype: u8
    quantizer: asymmetric_affine
    rounding: rtne
    max_value: 0.13130933046340942
    min_value: 0.0
    scale: 0.0005149385542608798
    zero_point: 0
  '@Mul_layer21_attn_scale_643:out0':
    qtype: u8
    quantizer: asymmetric_affine
    rounding: rtne
    max_value: 136.95806884765625
    min_value: -82.5667953491211
    scale: 0.8608818650245667
    zero_point: 96
  '@MatMul_layer21_attn_scores_644:out0':
    qtype: u8
    quantizer: asymmetric_affine
    rounding: rtne
    max_value: 1095.66455078125
    min_value: -660.5343627929688
    scale: 6.887054920196533
    zero_point: 96
  '@Add_layer21_mlp_rms_eps_646:out0':
    qtype: u8
    quantizer: asymmetric_affine
    rounding: rtne
    max_value: 2100240.0
    min_value: 0.0
    scale: 8236.2353515625
    zero_point: 0
  '@Mul_layer22_q_rope_mul_cos_647:out0':
    qtype: u8
    quantizer: asymmetric_affine
    rounding: rtne
    max_value: 22.924074172973633
    min_value: -23.94597816467285
    scale: 0.18380412459373474
    zero_point: 130
  '@Mul_layer22_q_rope_mul_sin_648:out0':
    qtype: u8
    quantizer: asymmetric_affine
    rounding: rtne
    max_value: 14.547432899475098
    min_value: -10.8016996383667
    scale: 0.09940836578607559
    zero_point: 109
  '@Reshape_layer22_k_repeat_merge_649:out0':
    qtype: u8
    quantizer: asymmetric_affine
    rounding: rtne
    max_value: 18.954065322875977
    min_value: -19.50726890563965
    scale: 0.1508287638425827
    zero_point: 129
  '@Mul_layer22_attn_rms_gamma_650:out0':
    qtype: u8
    quantizer: asymmetric_affine
    rounding: rtne
    max_value: 3.4650449752807617
    min_value: -3.1135079860687256
    scale: 0.025798248127102852
    zero_point: 121
  '@Initializer_layer22_attn_gamma_652:out0':
    qtype: u8
    quantizer: asymmetric_affine
    rounding: rtne
    max_value: 0.68359375
    min_value: 0.0
    scale: 0.0026807598769664764
    zero_point: 0
  '@Mul_layer22_attn_rms_scale_to_unit_653:out0':
    qtype: u8
    quantizer: asymmetric_affine
    rounding: rtne
    max_value: 5.642959117889404
    min_value: -5.618427276611328
    scale: 0.04416230320930481
    zero_point: 127
  '@Neg_layer23_q_rope_neg_second_655:out0':
    qtype: u8
    quantizer: asymmetric_affine
    rounding: rtne
    max_value: 21.36107635498047
    min_value: -25.59488296508789
    scale: 0.18414101004600525
    zero_point: 139
  '@Slice_layer23_q_rope_slice_second_656:out0':
    qtype: u8
    quantizer: asymmetric_affine
    rounding: rtne
    max_value: 20.923778533935547
    min_value: -25.59488296508789
    scale: 0.18242612481117249
    zero_point: 140
  '@Add_layer23_k_rope_rope_add_657:out0':
    qtype: u8
    quantizer: asymmetric_affine
    rounding: rtne
    max_value: 17.423473358154297
    min_value: -20.831087112426758
    scale: 0.1500178873538971
    zero_point: 139
  '@Add_layer23_attn_rms_eps_659:out0':
    qtype: u8
    quantizer: asymmetric_affine
    rounding: rtne
    max_value: 1936162.75
    min_value: 0.0
    scale: 7592.794921875
    zero_point: 0
  '@Transpose_layer24_k_heads_660:out0':
    qtype: u8
    quantizer: asymmetric_affine
    rounding: rtne
    max_value: 17.94867706298828
    min_value: -19.113910675048828
    scale: 0.14534348249435425
    zero_point: 132
  '@Reshape_layer24_k_reshape_661:out0':
    qtype: u8
    quantizer: asymmetric_affine
    rounding: rtne
    max_value: 17.94867706298828
    min_value: -19.113910675048828
    scale: 0.14534348249435425
    zero_point: 132
  '@Concat_layer24_k_rope_rotate_half_662:out0':
    qtype: u8
    quantizer: asymmetric_affine
    rounding: rtne
    max_value: 19.113910675048828
    min_value: -19.113910675048828
    scale: 0.149913027882576
    zero_point: 128
  '@Slice_layer24_k_rope_slice_first_663:out0':
    qtype: u8
    quantizer: asymmetric_affine
    rounding: rtne
    max_value: 17.94867706298828
    min_value: -19.113910675048828
    scale: 0.14534348249435425
    zero_point: 132
  '@Neg_layer24_k_rope_neg_second_664:out0':
    qtype: u8
    quantizer: asymmetric_affine
    rounding: rtne
    max_value: 19.113910675048828
    min_value: -19.113910675048828
    scale: 0.149913027882576
    zero_point: 128
  '@Slice_layer24_k_rope_slice_second_665:out0':
    qtype: u8
    quantizer: asymmetric_affine
    rounding: rtne
    max_value: 17.94867706298828
    min_value: -19.113910675048828
    scale: 0.14534348249435425
    zero_point: 132
  '@Add_layer17_attn_residual_668:out0':
    qtype: u8
    quantizer: asymmetric_affine
    rounding: rtne
    max_value: 9352.4755859375
    min_value: -2467.46044921875
    scale: 46.35268783569336
    zero_point: 53
  '@Reshape_layer18_ctx_merge_heads_670:out0':
    qtype: u8
    quantizer: asymmetric_affine
    rounding: rtne
    max_value: 19.006689071655273
    min_value: -20.928754806518555
    scale: 0.15660957992076874
    zero_point: 134
  '@MatMul_layer19_attn_context_674:out0':
    qtype: u8
    quantizer: asymmetric_affine
    rounding: rtne
    max_value: 16.584922790527344
    min_value: -37.33711242675781
    scale: 0.2114589661359787
    zero_point: 177
  '@Reshape_layer19_v_repeat_merge_675:out0':
    qtype: u8
    quantizer: asymmetric_affine
    rounding: rtne
    max_value: 16.637277603149414
    min_value: -37.34690475463867
    scale: 0.21170268952846527
    zero_point: 176
  '@Tile_layer19_v_repeat_tile_677:out0':
    qtype: u8
    quantizer: asymmetric_affine
    rounding: rtne
    max_value: 16.637277603149414
    min_value: -37.34690475463867
    scale: 0.21170268952846527
    zero_point: 176
  '@Mul_layer19_mlp_rms_scale_to_unit_678:out0':
    qtype: u8
    quantizer: asymmetric_affine
    rounding: rtne
    max_value: 5.635836601257324
    min_value: -5.613661766052246
    scale: 0.04411568120121956
    zero_point: 127
  '@Initializer_layer19_mlp_gamma_679:out0':
    qtype: u8
    quantizer: asymmetric_affine
    rounding: rtne
    max_value: 0.34765625
    min_value: 0.0
    scale: 0.0013633578782901168
    zero_point: 0
  '@Add_layer20_causal_mask_680:out0':
    qtype: u8
    quantizer: asymmetric_affine
    rounding: rtne
    max_value: 24.427961349487305
    min_value: -10062.130859375
    scale: 39.55513000488281
    zero_point: 254
  '@Reshape_layer20_v_reshape_681:out0':
    qtype: u8
    quantizer: asymmetric_affine
    rounding: rtne
    max_value: 20.24873161315918
    min_value: -17.185928344726562
    scale: 0.14680258929729462
    zero_point: 117
  '@Add_layer21_q_rope_rope_add_683:out0':
    qtype: u8
    quantizer: asymmetric_affine
    rounding: rtne
    max_value: 26.291086196899414
    min_value: -18.620670318603516
    scale: 0.17612454295158386
    zero_point: 106
  '@Transpose_layer21_k_transpose_684:out0':
    qtype: u8
    quantizer: asymmetric_affine
    rounding: rtne
    max_value: 17.46006965637207
    min_value: -17.904678344726562
    scale: 0.13868528604507446
    zero_point: 129
  '@Mul_layer21_mlp_rms_square_688:out0':
    qtype: u8
    quantizer: asymmetric_affine
    rounding: rtne
    max_value: 60229868.0
    min_value: 0.0
    scale: 236195.5625
    zero_point: 0
  '@Transpose_layer22_q_heads_689:out0':
    qtype: u8
    quantizer: asymmetric_affine
    rounding: rtne
    max_value: 22.93445587158203
    min_value: -23.946048736572266
    scale: 0.18384511768817902
    zero_point: 130
  '@Reshape_layer22_q_reshape_690:out0':
    qtype: u8
    quantizer: asymmetric_affine
    rounding: rtne
    max_value: 22.93445587158203
    min_value: -23.946048736572266
    scale: 0.18384511768817902
    zero_point: 130
  '@Concat_layer22_q_rope_rotate_half_691:out0':
    qtype: u8
    quantizer: asymmetric_affine
    rounding: rtne
    max_value: 23.946048736572266
    min_value: -23.946048736572266
    scale: 0.18781214952468872
    zero_point: 128
  '@Slice_layer22_q_rope_slice_first_692:out0':
    qtype: u8
    quantizer: asymmetric_affine
    rounding: rtne
    max_value: 22.93445587158203
    min_value: -23.946048736572266
    scale: 0.18384511768817902
    zero_point: 130
  '@Tile_layer22_k_repeat_tile_693:out0':
    qtype: u8
    quantizer: asymmetric_affine
    rounding: rtne
    max_value: 18.954065322875977
    min_value: -19.50726890563965
    scale: 0.1508287638425827
    zero_point: 129
  '@Reshape_layer22_k_repeat_expand_694:out0':
    qtype: u8
    quantizer: asymmetric_affine
    rounding: rtne
    max_value: 18.954065322875977
    min_value: -19.50726890563965
    scale: 0.1508287638425827
    zero_point: 129
  '@Divide_696:out0':
    qtype: u8
    quantizer: asymmetric_affine
    rounding: rtne
    max_value: 0.1097899079322815
    min_value: 0.0
    scale: 0.00043054865091107786
    zero_point: 0
  '@Mul_layer23_k_rope_mul_cos_700:out0':
    qtype: u8
    quantizer: asymmetric_affine
    rounding: rtne
    max_value: 17.410322189331055
    min_value: -20.833295822143555
    scale: 0.1499749720096588
    zero_point: 139
  '@Mul_layer23_k_rope_mul_sin_701:out0':
    qtype: u8
    quantizer: asymmetric_affine
    rounding: rtne
    max_value: 4.801218032836914
    min_value: -5.653372287750244
    scale: 0.040998391807079315
    zero_point: 138
  '@Mul_layer23_attn_rms_square_703:out0':
    qtype: u8
    quantizer: asymmetric_affine
    rounding: rtne
    max_value: 56289104.0
    min_value: 0.0
    scale: 220741.578125
    zero_point: 0
  '@Add_layer16_mlp_residual_706:out0':
    qtype: u8
    quantizer: asymmetric_affine
    rounding: rtne
    max_value: 9355.279296875
    min_value: -2455.630615234375
    scale: 46.31729507446289
    zero_point: 53
  '@Mul_layer17_swiglu_mul_708:out0':
    qtype: u8
    quantizer: asymmetric_affine
    rounding: rtne
    max_value: 196.35284423828125
    min_value: -63.677616119384766
    scale: 1.0197272300720215
    zero_point: 62
  '@Transpose_layer18_ctx_transpose_710:out0':
    qtype: u8
    quantizer: asymmetric_affine
    rounding: rtne
    max_value: 19.006689071655273
    min_value: -20.928754806518555
    scale: 0.15660957992076874
    zero_point: 134
  '@Mul_layer18_mlp_rms_gamma_713:out0':
    qtype: u8
    quantizer: asymmetric_affine
    rounding: rtne
    max_value: 1.7150890827178955
    min_value: -1.9640624523162842
    scale: 0.014428045600652695
    zero_point: 136
  '@Softmax_layer19_softmax_715:out0':
    qtype: u8
    quantizer: asymmetric_affine
    rounding: rtne
    max_value: 1.0
    min_value: 0.0
    scale: 0.003921568859368563
    zero_point: 0
  '@Reshape_layer19_v_repeat_expand_716:out0':
    qtype: u8
    quantizer: asymmetric_affine
    rounding: rtne
    max_value: 16.637277603149414
    min_value: -37.34690475463867
    scale: 0.21170268952846527
    zero_point: 176
  '@Transpose_layer19_v_heads_717:out0':
    qtype: u8
    quantizer: asymmetric_affine
    rounding: rtne
    max_value: 16.637277603149414
    min_value: -37.34690475463867
    scale: 0.21170268952846527
    zero_point: 176
  '@Divide_719:out0':
    qtype: u8
    quantizer: asymmetric_affine
    rounding: rtne
    max_value: 0.11907148361206055
    min_value: 0.0
    scale: 0.0004669470072258264
    zero_point: 0
  '@Mul_layer20_attn_scale_720:out0':
    qtype: u8
    quantizer: asymmetric_affine
    rounding: rtne
    max_value: 24.427961349487305
    min_value: -68.402587890625
    scale: 0.36404138803482056
    zero_point: 188
  '@MatMul_layer20_attn_scores_721:out0':
    qtype: u8
    quantizer: asymmetric_affine
    rounding: rtne
    max_value: 195.42369079589844
    min_value: -547.220703125
    scale: 2.9123311042785645
    zero_point: 188
  '@Add_layer20_mlp_rms_eps_723:out0':
    qtype: u8
    quantizer: asymmetric_affine
    rounding: rtne
