# !!!This file disallow TABs!!!
version: 2
quantize_parameters:
  '@attach_Mul_final_rms_gamma/out0_0:out0':
    qtype: u8
    quantizer: asymmetric_affine
    rounding: rtne
    max_value: 38.79206466674805
    min_value: -47.556488037109375
    scale: 0.3386217951774597
    zero_point: 140
  '@Mul_final_rms_gamma_1:out0':
    qtype: u8
    quantizer: asymmetric_affine
    rounding: rtne
    max_value: 38.79206466674805
    min_value: -47.556488037109375
    scale: 0.3386217951774597
    zero_point: 140
  '@Mul_final_rms_scale_to_unit_2:out0':
    qtype: u8
    quantizer: asymmetric_affine
    rounding: rtne
    max_value: 12.378838539123535
    min_value: -26.194242477416992
    scale: 0.15126699209213257
    zero_point: 173
  '@Initializer_final_rms_gamma_3:out0':
    qtype: u8
    quantizer: asymmetric_affine
    rounding: rtne
    max_value: 3.75
    min_value: -0.08154296875
    scale: 0.015025658532977104
    zero_point: 5
  '@Add_layer31_mlp_residual_4:out0':
    qtype: u8
    quantizer: asymmetric_affine
    rounding: rtne
    max_value: 609.2471313476562
    min_value: -1258.068115234375
    scale: 7.3228044509887695
    zero_point: 172
  '@Reciprocal_final_rms_reciprocal_5:out0':
    qtype: u8
    quantizer: asymmetric_affine
    rounding: rtne
    max_value: 1.0
    min_value: 0.0
    scale: 0.003921568859368563
    zero_point: 0
  '@Divide_6:out0':
    qtype: u8
    quantizer: asymmetric_affine
    rounding: rtne
    max_value: 0.04023919999599457
    min_value: 0.0
    scale: 0.00015780077956151217
    zero_point: 0
  '@Add_layer31_attn_residual_7:out0':
    qtype: u8
    quantizer: asymmetric_affine
    rounding: rtne
    max_value: 12448.796875
    min_value: -17613.1171875
    scale: 117.88986206054688
    zero_point: 149
  '@Sqrt_final_rms_sqrt_9:out0':
    qtype: u8
    quantizer: asymmetric_affine
    rounding: rtne
    max_value: 57.915103912353516
    min_value: 0.0
    scale: 0.22711805999279022
    zero_point: 0
  '@Add_layer30_mlp_residual_10:out0':
    qtype: u8
    quantizer: asymmetric_affine
    rounding: rtne
    max_value: 12448.728515625
    min_value: -17602.818359375
    scale: 117.84920501708984
    zero_point: 149
  '@Mul_layer31_swiglu_mul_12:out0':
    qtype: u8
    quantizer: asymmetric_affine
    rounding: rtne
    max_value: 502.9543151855469
    min_value: -664.1123046875
    scale: 4.576732158660889
    zero_point: 145
  '@Add_final_rms_eps_14:out0':
    qtype: u8
    quantizer: asymmetric_affine
    rounding: rtne
    max_value: 3354.128173828125
    min_value: 0.0
    scale: 13.153444290161133
    zero_point: 0
  '@Add_layer30_attn_residual_15:out0':
    qtype: u8
    quantizer: asymmetric_affine
    rounding: rtne
    max_value: 12488.3408203125
    min_value: -21121.56640625
    scale: 131.80355834960938
    zero_point: 160
  '@Mul_sq_mul_layer31_out_proj_17:out0':
    qtype: u8
    quantizer: asymmetric_affine
    rounding: rtne
    max_value: 2.3815321922302246
    min_value: -2.3815321922302246
    scale: 0.018678683787584305
    zero_point: 128
  '@ReduceMean_final_rms_mean_21:out0':
    qtype: u8
    quantizer: asymmetric_affine
    rounding: rtne
    max_value: 3354.128173828125
    min_value: 0.0
    scale: 13.153444290161133
    zero_point: 0
  '@Initializer_eps_22:out0':
    qtype: u8
    quantizer: asymmetric_affine
    rounding: rtne
    max_value: 9.999999747378751e-06
    min_value: 0.0
    scale: 3.921568492160076e-08
    zero_point: 0
  '@Add_layer29_mlp_residual_23:out0':
    qtype: u8
    quantizer: asymmetric_affine
    rounding: rtne
    max_value: 12491.8359375
    min_value: -21119.69921875
    scale: 131.8099365234375
    zero_point: 160
  '@Mul_sq_mul_layer30_down_proj_25:out0':
    qtype: u8
    quantizer: asymmetric_affine
    rounding: rtne
    max_value: 7.357696533203125
    min_value: -28.65347671508789
    scale: 0.14122028648853302
    zero_point: 203
  '@Reshape_layer31_ctx_merge_heads_27:out0':
    qtype: u8
    quantizer: asymmetric_affine
    rounding: rtne
    max_value: 3.8327414989471436
    min_value: -3.8327414989471436
    scale: 0.030060717836022377
    zero_point: 128
  '@Initializer_sq_scale_layer31_out_proj_28:out0':
    qtype: u8
    quantizer: asymmetric_affine
    rounding: rtne
    max_value: 1.2309987545013428
    min_value: 0.0
    scale: 0.004827446304261684
    zero_point: 0
  '@Mul_sq_mul_layer31_up_proj_31:out0':
    qtype: u8
    quantizer: asymmetric_affine
    rounding: rtne
    max_value: 14.397990226745605
    min_value: -2.0596354007720947
    scale: 0.06453970819711685
    zero_point: 32
  '@Mul_final_rms_square_33:out0':
    qtype: u8
    quantizer: asymmetric_affine
    rounding: rtne
    max_value: 1687801.0
    min_value: 0.0
    scale: 6618.82763671875
    zero_point: 0
  '@Add_layer29_attn_residual_34:out0':
    qtype: u8
    quantizer: asymmetric_affine
    rounding: rtne
    max_value: 12572.2734375
    min_value: -22710.83203125
    scale: 138.3651123046875
    zero_point: 164
  '@Mul_sq_mul_layer30_out_proj_36:out0':
    qtype: u8
    quantizer: asymmetric_affine
    rounding: rtne
    max_value: 3.5495245456695557
    min_value: -3.5495245456695557
    scale: 0.027839407324790955
    zero_point: 128
  '@Mul_layer30_swiglu_mul_38:out0':
    qtype: u8
    quantizer: asymmetric_affine
    rounding: rtne
    max_value: 44.02804183959961
    min_value: -175.84507751464844
    scale: 0.8622475266456604
    zero_point: 204
  '@Initializer_sq_scale_layer30_down_proj_39:out0':
    qtype: u8
    quantizer: asymmetric_affine
    rounding: rtne
    max_value: 0.7931869029998779
    min_value: 0.0
    scale: 0.003110536839812994
    zero_point: 0
  '@Transpose_layer31_ctx_transpose_40:out0':
    qtype: u8
    quantizer: asymmetric_affine
    rounding: rtne
    max_value: 3.8327414989471436
    min_value: -3.8327414989471436
    scale: 0.030060717836022377
    zero_point: 128
  '@Mul_sq_mul_layer31_gate_proj_41:out0':
    qtype: u8
    quantizer: asymmetric_affine
    rounding: rtne
    max_value: 10.68605899810791
    min_value: -2.755779504776001
    scale: 0.05271309241652489
    zero_point: 52
  '@Initializer_sq_scale_layer31_gate_proj_43:out0':
    qtype: u8
    quantizer: asymmetric_affine
    rounding: rtne
    max_value: 2.261162042617798
    min_value: 0.0
    scale: 0.008867301978170872
    zero_point: 0
  '@Mul_layer31_mlp_rms_gamma_44:out0':
    qtype: u8
    quantizer: asymmetric_affine
    rounding: rtne
    max_value: 28.108762741088867
    min_value: -6.350278377532959
    scale: 0.13513348996639252
    zero_point: 47
  '@Initializer_sq_scale_layer31_up_proj_45:out0':
    qtype: u8
    quantizer: asymmetric_affine
    rounding: rtne
    max_value: 1.9075310230255127
    min_value: 0.0
    scale: 0.007480513770133257
    zero_point: 0
  '@Initializer_layer31_mlp_gamma_46:out0':
    qtype: u8
    quantizer: asymmetric_affine
    rounding: rtne
    max_value: 1.578125
    min_value: 0.0
    scale: 0.006188725586980581
    zero_point: 0
  '@Mul_layer31_mlp_rms_scale_to_unit_47:out0':
    qtype: u8
    quantizer: asymmetric_affine
    rounding: rtne
    max_value: 17.811492919921875
    min_value: -28.520305633544922
    scale: 0.18169333040714264
    zero_point: 157
  '@Add_layer28_mlp_residual_48:out0':
    qtype: u8
    quantizer: asymmetric_affine
    rounding: rtne
    max_value: 12574.802734375
    min_value: -22646.84375
    scale: 138.12411499023438
    zero_point: 164
  '@Mul_sq_mul_layer29_down_proj_50:out0':
    qtype: u8
    quantizer: asymmetric_affine
    rounding: rtne
    max_value: 22.962697982788086
    min_value: -11.069372177124023
    scale: 0.13345910608768463
    zero_point: 83
  '@Reshape_layer30_ctx_merge_heads_52:out0':
    qtype: u8
    quantizer: asymmetric_affine
    rounding: rtne
    max_value: 6.699296474456787
    min_value: -7.700751781463623
    scale: 0.056470777839422226
    zero_point: 136
  '@Initializer_sq_scale_layer30_out_proj_53:out0':
    qtype: u8
    quantizer: asymmetric_affine
    rounding: rtne
    max_value: 0.9935210347175598
    min_value: 0.0
    scale: 0.0038961609825491905
    zero_point: 0
  '@MatMul_layer31_attn_context_56:out0':
    qtype: u8
    quantizer: asymmetric_affine
    rounding: rtne
    max_value: 3.8327414989471436
    min_value: -3.8327414989471436
    scale: 0.030060717836022377
    zero_point: 128
  '@Reshape_layer31_v_repeat_merge_57:out0':
    qtype: u8
    quantizer: asymmetric_affine
    rounding: rtne
    max_value: 7.149533748626709
    min_value: -6.665191173553467
    scale: 0.05417539179325104
    zero_point: 123
  '@Tile_layer31_v_repeat_tile_58:out0':
    qtype: u8
    quantizer: asymmetric_affine
    rounding: rtne
    max_value: 7.149533748626709
    min_value: -6.665191173553467
    scale: 0.05417539179325104
    zero_point: 123
  '@Reciprocal_layer31_mlp_rms_reciprocal_59:out0':
    qtype: u8
    quantizer: asymmetric_affine
    rounding: rtne
    max_value: 1.0
    min_value: 0.0
    scale: 0.003921568859368563
    zero_point: 0
  '@Divide_60:out0':
    qtype: u8
    quantizer: asymmetric_affine
    rounding: rtne
    max_value: 0.034783389419317245
    min_value: 0.0
    scale: 0.00013640544784720987
    zero_point: 0
  '@Add_layer28_attn_residual_61:out0':
    qtype: u8
    quantizer: asymmetric_affine
    rounding: rtne
    max_value: 12602.9375
    min_value: -22978.55859375
    scale: 139.5352783203125
    zero_point: 165
  '@Mul_sq_mul_layer29_out_proj_63:out0':
    qtype: u8
    quantizer: asymmetric_affine
    rounding: rtne
    max_value: 3.073688268661499
    min_value: -3.6521389484405518
    scale: 0.026375792920589447
    zero_point: 138
  '@Mul_layer29_swiglu_mul_65:out0':
    qtype: u8
    quantizer: asymmetric_affine
    rounding: rtne
    max_value: 158.4331512451172
    min_value: -39.1102294921875
    scale: 0.7746798992156982
    zero_point: 50
  '@Initializer_sq_scale_layer29_down_proj_66:out0':
    qtype: u8
    quantizer: asymmetric_affine
    rounding: rtne
    max_value: 0.9764849543571472
    min_value: 0.0
    scale: 0.003829352790489793
    zero_point: 0
  '@Transpose_layer30_ctx_transpose_67:out0':
    qtype: u8
    quantizer: asymmetric_affine
    rounding: rtne
    max_value: 6.699296474456787
    min_value: -7.700751781463623
    scale: 0.056470777839422226
    zero_point: 136
  '@Mul_sq_mul_layer30_up_proj_70:out0':
    qtype: u8
    quantizer: asymmetric_affine
    rounding: rtne
    max_value: 7.662278652191162
    min_value: -1.710784912109375
    scale: 0.03675711527466774
    zero_point: 47
  '@Softmax_layer31_softmax_72:out0':
    qtype: u8
    quantizer: asymmetric_affine
    rounding: rtne
    max_value: 1.0
    min_value: 0.0
    scale: 0.003921568859368563
    zero_point: 0
  '@Reshape_layer31_v_repeat_expand_73:out0':
    qtype: u8
    quantizer: asymmetric_affine
    rounding: rtne
    max_value: 7.149533748626709
    min_value: -6.665191173553467
    scale: 0.05417539179325104
    zero_point: 123
  '@Sqrt_layer31_mlp_rms_sqrt_74:out0':
    qtype: u8
    quantizer: asymmetric_affine
    rounding: rtne
    max_value: 698.9196166992188
    min_value: 0.0
    scale: 2.740861177444458
    zero_point: 0
  '@Add_layer27_mlp_residual_75:out0':
    qtype: u8
    quantizer: asymmetric_affine
    rounding: rtne
    max_value: 12608.5791015625
    min_value: -22964.568359375
    scale: 139.50254821777344
    zero_point: 165
  '@Mul_sq_mul_layer28_down_proj_77:out0':
    qtype: u8
    quantizer: asymmetric_affine
    rounding: rtne
    max_value: 12.860411643981934
    min_value: -6.9971818923950195
    scale: 0.07787291705608368
    zero_point: 90
  '@Reshape_layer29_ctx_merge_heads_79:out0':
    qtype: u8
    quantizer: asymmetric_affine
    rounding: rtne
    max_value: 7.099419593811035
    min_value: -7.099419593811035
    scale: 0.05568172410130501
    zero_point: 127
  '@Initializer_sq_scale_layer29_out_proj_80:out0':
    qtype: u8
    quantizer: asymmetric_affine
    rounding: rtne
    max_value: 0.9646540880203247
    min_value: 0.0
    scale: 0.0037829570937901735
    zero_point: 0
  '@MatMul_layer30_attn_context_83:out0':
    qtype: u8
    quantizer: asymmetric_affine
    rounding: rtne
    max_value: 6.699296474456787
    min_value: -7.700751781463623
    scale: 0.056470777839422226
    zero_point: 136
  '@Mul_sq_mul_layer30_gate_proj_84:out0':
    qtype: u8
    quantizer: asymmetric_affine
    rounding: rtne
    max_value: 8.266180992126465
    min_value: -1.7438510656356812
    scale: 0.03925502672791481
    zero_point: 44
  '@Initializer_sq_scale_layer30_gate_proj_86:out0':
    qtype: u8
    quantizer: asymmetric_affine
    rounding: rtne
    max_value: 5.286825180053711
    min_value: 0.0
    scale: 0.02073264867067337
    zero_point: 0
  '@Mul_layer30_mlp_rms_gamma_87:out0':
    qtype: u8
    quantizer: asymmetric_affine
    rounding: rtne
    max_value: 21.228662490844727
    min_value: -2.607811689376831
    scale: 0.09347636997699738
    zero_point: 28
  '@Initializer_sq_scale_layer30_up_proj_88:out0':
    qtype: u8
    quantizer: asymmetric_affine
    rounding: rtne
    max_value: 5.06333589553833
    min_value: 0.0
    scale: 0.019856220111250877
    zero_point: 0
  '@Add_layer31_causal_mask_89:out0':
    qtype: u8
    quantizer: asymmetric_affine
    rounding: rtne
    max_value: 21.851451873779297
    min_value: -10008.693359375
    scale: 39.335472106933594
    zero_point: 254
  '@Transpose_layer31_v_heads_90:out0':
    qtype: u8
    quantizer: asymmetric_affine
    rounding: rtne
    max_value: 7.149533748626709
    min_value: -6.665191173553467
    scale: 0.05417539179325104
    zero_point: 123
  '@Add_layer31_mlp_rms_eps_91:out0':
    qtype: u8
    quantizer: asymmetric_affine
    rounding: rtne
    max_value: 488488.5625
    min_value: 0.0
    scale: 1915.6414794921875
    zero_point: 0
  '@Add_layer27_attn_residual_92:out0':
    qtype: u8
    quantizer: asymmetric_affine
    rounding: rtne
    max_value: 12687.6298828125
    min_value: -23367.23046875
    scale: 141.3916015625
    zero_point: 165
  '@Mul_sq_mul_layer28_out_proj_94:out0':
    qtype: u8
    quantizer: asymmetric_affine
    rounding: rtne
    max_value: 2.8446083068847656
    min_value: -2.8446083068847656
    scale: 0.0223106537014246
    zero_point: 128
  '@Mul_layer28_swiglu_mul_96:out0':
    qtype: u8
    quantizer: asymmetric_affine
    rounding: rtne
    max_value: 42.339385986328125
    min_value: -28.473358154296875
    scale: 0.27769702672958374
    zero_point: 103
  '@Initializer_sq_scale_layer28_down_proj_97:out0':
    qtype: u8
    quantizer: asymmetric_affine
    rounding: rtne
    max_value: 0.8556125164031982
    min_value: 0.0
    scale: 0.0033553431276232004
    zero_point: 0
  '@Transpose_layer29_ctx_transpose_98:out0':
    qtype: u8
    quantizer: asymmetric_affine
    rounding: rtne
    max_value: 7.099419593811035
    min_value: -7.099419593811035
    scale: 0.05568172410130501
    zero_point: 127
  '@Mul_sq_mul_layer29_up_proj_101:out0':
    qtype: u8
    quantizer: asymmetric_affine
    rounding: rtne
    max_value: 3.933863401412964
    min_value: -1.6171963214874268
    scale: 0.021768862381577492
    zero_point: 74
  '@Softmax_layer30_softmax_103:out0':
    qtype: u8
    quantizer: asymmetric_affine
    rounding: rtne
    max_value: 1.0
    min_value: 0.0
    scale: 0.003921568859368563
    zero_point: 0
  '@Reshape_layer30_v_repeat_merge_104:out0':
    qtype: u8
    quantizer: asymmetric_affine
    rounding: rtne
    max_value: 8.724327087402344
    min_value: -10.281869888305664
    scale: 0.0745341032743454
    zero_point: 138
  '@Tile_layer30_v_repeat_tile_105:out0':
    qtype: u8
    quantizer: asymmetric_affine
    rounding: rtne
    max_value: 8.724327087402344
    min_value: -10.281869888305664
    scale: 0.0745341032743454
    zero_point: 138
  '@Mul_layer30_mlp_rms_scale_to_unit_106:out0':
    qtype: u8
    quantizer: asymmetric_affine
    rounding: rtne
    max_value: 15.706756591796875
    min_value: -28.407865524291992
    scale: 0.17299853265285492
    zero_point: 164
  '@Initializer_layer30_mlp_gamma_107:out0':
    qtype: u8
    quantizer: asymmetric_affine
    rounding: rtne
    max_value: 1.3515625
    min_value: -0.00017833709716796875
    scale: 0.005300944671034813
    zero_point: 0
  '@Mul_layer31_attn_scale_108:out0':
    qtype: u8
    quantizer: asymmetric_affine
    rounding: rtne
    max_value: 21.807697296142578
    min_value: -8.639569282531738
    scale: 0.11940104514360428
    zero_point: 72
  '@Initializer_causal_mask_109:out0':
    qtype: u8
    quantizer: asymmetric_affine
    rounding: rtne
    max_value: 0.0
    min_value: -10000.0
    scale: 39.2156867980957
    zero_point: 255
  '@Reshape_layer31_v_reshape_110:out0':
    qtype: u8
    quantizer: asymmetric_affine
    rounding: rtne
    max_value: 7.149533748626709
    min_value: -6.665191173553467
    scale: 0.05417539179325104
    zero_point: 123
  '@ReduceMean_layer31_mlp_rms_mean_111:out0':
    qtype: u8
    quantizer: asymmetric_affine
    rounding: rtne
    max_value: 488488.5625
    min_value: 0.0
    scale: 1915.6414794921875
    zero_point: 0
  '@Add_layer26_mlp_residual_113:out0':
    qtype: u8
    quantizer: asymmetric_affine
    rounding: rtne
    max_value: 12694.162109375
    min_value: -23391.8828125
    scale: 141.513916015625
    zero_point: 165
  '@Mul_sq_mul_layer27_down_proj_115:out0':
    qtype: u8
    quantizer: asymmetric_affine
    rounding: rtne
    max_value: 7.009263515472412
    min_value: -18.37765884399414
    scale: 0.09955655783414841
    zero_point: 185
  '@Reshape_layer28_ctx_merge_heads_117:out0':
    qtype: u8
    quantizer: asymmetric_affine
    rounding: rtne
    max_value: 5.024356842041016
    min_value: -5.024356842041016
    scale: 0.03940672054886818
    zero_point: 128
  '@Initializer_sq_scale_layer28_out_proj_118:out0':
    qtype: u8
    quantizer: asymmetric_affine
    rounding: rtne
    max_value: 1.323428750038147
    min_value: 0.0
    scale: 0.005189916584640741
    zero_point: 0
  '@MatMul_layer29_attn_context_121:out0':
    qtype: u8
    quantizer: asymmetric_affine
    rounding: rtne
    max_value: 7.099419593811035
    min_value: -7.099419593811035
    scale: 0.05568172410130501
    zero_point: 127
  '@Mul_sq_mul_layer29_gate_proj_122:out0':
    qtype: u8
    quantizer: asymmetric_affine
    rounding: rtne
    max_value: 3.526399612426758
    min_value: -1.6672742366790771
    scale: 0.020367348566651344
    zero_point: 82
  '@Initializer_sq_scale_layer29_gate_proj_124:out0':
    qtype: u8
    quantizer: asymmetric_affine
    rounding: rtne
    max_value: 15.231513023376465
    min_value: 0.0
    scale: 0.05973142385482788
    zero_point: 0
  '@Mul_layer29_mlp_rms_gamma_125:out0':
    qtype: u8
    quantizer: asymmetric_affine
    rounding: rtne
    max_value: 11.790689468383789
    min_value: -2.30318284034729
    scale: 0.05527008697390556
    zero_point: 42
  '@Initializer_sq_scale_layer29_up_proj_126:out0':
    qtype: u8
    quantizer: asymmetric_affine
    rounding: rtne
    max_value: 15.341490745544434
    min_value: 0.0
    scale: 0.060162708163261414
    zero_point: 0
  '@Add_layer30_causal_mask_127:out0':
    qtype: u8
    quantizer: asymmetric_affine
    rounding: rtne
    max_value: 21.7526912689209
    min_value: -10020.337890625
    scale: 39.3807487487793
    zero_point: 254
  '@Reshape_layer30_v_repeat_expand_128:out0':
    qtype: u8
    quantizer: asymmetric_affine
    rounding: rtne
    max_value: 8.724327087402344
    min_value: -10.281869888305664
    scale: 0.0745341032743454
    zero_point: 138
  '@Transpose_layer30_v_heads_129:out0':
    qtype: u8
    quantizer: asymmetric_affine
    rounding: rtne
    max_value: 8.724327087402344
    min_value: -10.281869888305664
    scale: 0.0745341032743454
    zero_point: 138
  '@Reciprocal_layer30_mlp_rms_reciprocal_130:out0':
    qtype: u8
    quantizer: asymmetric_affine
    rounding: rtne
    max_value: 1.0
    min_value: 0.0
    scale: 0.003921568859368563
    zero_point: 0
  '@Divide_131:out0':
    qtype: u8
    quantizer: asymmetric_affine
    rounding: rtne
    max_value: 0.03832485154271126
    min_value: 0.0
    scale: 0.00015029353380668908
    zero_point: 0
  '@MatMul_layer31_attn_scores_132:out0':
    qtype: u8
    quantizer: asymmetric_affine
    rounding: rtne
    max_value: 174.46157836914062
    min_value: -69.1165542602539
    scale: 0.9552083611488342
    zero_point: 72
  '@Initializer_scale_attn_133:out0':
    qtype: u8
    quantizer: asymmetric_affine
    rounding: rtne
    max_value: 0.125
    min_value: 0.0
    scale: 0.0004901961074210703
    zero_point: 0
  '@Mul_layer31_mlp_rms_square_135:out0':
    qtype: u8
    quantizer: asymmetric_affine
    rounding: rtne
    max_value: 310221888.0
    min_value: 0.0
    scale: 1216556.375
    zero_point: 0
  '@Add_layer26_attn_residual_136:out0':
    qtype: u8
    quantizer: asymmetric_affine
    rounding: rtne
    max_value: 12700.9658203125
    min_value: -23444.373046875
    scale: 141.74642944335938
    zero_point: 165
  '@Mul_sq_mul_layer27_out_proj_138:out0':
    qtype: u8
    quantizer: asymmetric_affine
    rounding: rtne
    max_value: 3.540494918823242
    min_value: -3.2491071224212646
    scale: 0.026625892147421837
    zero_point: 122
  '@Mul_layer27_swiglu_mul_140:out0':
    qtype: u8
    quantizer: asymmetric_affine
    rounding: rtne
    max_value: 34.785179138183594
    min_value: -91.20360565185547
    scale: 0.49407365918159485
    zero_point: 185
  '@Initializer_sq_scale_layer27_down_proj_141:out0':
    qtype: u8
    quantizer: asymmetric_affine
    rounding: rtne
    max_value: 0.847941517829895
    min_value: 0.0
    scale: 0.003325260942801833
    zero_point: 0
  '@Transpose_layer28_ctx_transpose_142:out0':
    qtype: u8
    quantizer: asymmetric_affine
    rounding: rtne
    max_value: 5.024356842041016
    min_value: -5.024356842041016
    scale: 0.03940672054886818
    zero_point: 128
  '@Mul_sq_mul_layer28_up_proj_145:out0':
    qtype: u8
    quantizer: asymmetric_affine
    rounding: rtne
    max_value: 4.721031665802002
    min_value: -1.414656639099121
    scale: 0.024061523377895355
    zero_point: 59
  '@Softmax_layer29_softmax_147:out0':
    qtype: u8
    quantizer: asymmetric_affine
    rounding: rtne
    max_value: 1.0
    min_value: 0.0
    scale: 0.003921568859368563
    zero_point: 0
  '@Reshape_layer29_v_repeat_merge_148:out0':
    qtype: u8
    quantizer: asymmetric_affine
    rounding: rtne
    max_value: 9.37032413482666
    min_value: -9.37032413482666
    scale: 0.07349273562431335
    zero_point: 128
  '@Tile_layer29_v_repeat_tile_149:out0':
    qtype: u8
    quantizer: asymmetric_affine
    rounding: rtne
    max_value: 9.37032413482666
    min_value: -9.37032413482666
    scale: 0.07349273562431335
    zero_point: 128
  '@Mul_layer29_mlp_rms_scale_to_unit_150:out0':
    qtype: u8
    quantizer: asymmetric_affine
    rounding: rtne
    max_value: 14.942655563354492
    min_value: -28.16687774658203
    scale: 0.1690569967031479
    zero_point: 167
  '@Initializer_layer29_mlp_gamma_151:out0':
    qtype: u8
    quantizer: asymmetric_affine
    rounding: rtne
    max_value: 0.7890625
    min_value: -2.0623207092285156e-05
    scale: 0.0030944435857236385
    zero_point: 0
  '@Mul_layer30_attn_scale_152:out0':
    qtype: u8
    quantizer: asymmetric_affine
    rounding: rtne
    max_value: 20.351116180419922
    min_value: -20.309200286865234
    scale: 0.15945221483707428
    zero_point: 127
  '@Reshape_layer30_v_reshape_154:out0':
    qtype: u8
    quantizer: asymmetric_affine
    rounding: rtne
    max_value: 8.724327087402344
    min_value: -10.281869888305664
    scale: 0.0745341032743454
    zero_point: 138
  '@Sqrt_layer30_mlp_rms_sqrt_155:out0':
    qtype: u8
    quantizer: asymmetric_affine
    rounding: rtne
    max_value: 795.0938110351562
    min_value: 0.0
    scale: 3.1180150508880615
    zero_point: 0
  '@Add_layer31_q_rope_rope_add_156:out0':
    qtype: u8
    quantizer: asymmetric_affine
    rounding: rtne
    max_value: 17.059865951538086
    min_value: -17.059865951538086
    scale: 0.1338028758764267
    zero_point: 127
  '@Transpose_layer31_k_transpose_157:out0':
    qtype: u8
    quantizer: asymmetric_affine
    rounding: rtne
    max_value: 12.771196365356445
    min_value: -12.845927238464355
    scale: 0.10045930743217468
    zero_point: 128
  '@Mul_sq_mul_layer31_v_proj_161:out0':
    qtype: u8
    quantizer: asymmetric_affine
    rounding: rtne
    max_value: 1.1318857669830322
    min_value: -1.2557930946350098
    scale: 0.00936344638466835
    zero_point: 134
  '@Add_layer25_mlp_residual_162:out0':
    qtype: u8
    quantizer: asymmetric_affine
    rounding: rtne
    max_value: 12705.486328125
    min_value: -23452.263671875
    scale: 141.79510498046875
    zero_point: 165
  '@Mul_sq_mul_layer26_down_proj_164:out0':
    qtype: u8
    quantizer: asymmetric_affine
    rounding: rtne
    max_value: 6.047237396240234
    min_value: -6.507073879241943
    scale: 0.049232594668865204
    zero_point: 132
  '@Reshape_layer27_ctx_merge_heads_166:out0':
    qtype: u8
    quantizer: asymmetric_affine
    rounding: rtne
    max_value: 5.8377461433410645
    min_value: -5.802143573760986
    scale: 0.04564662650227547
    zero_point: 127
  '@Initializer_sq_scale_layer27_out_proj_167:out0':
    qtype: u8
    quantizer: asymmetric_affine
    rounding: rtne
    max_value: 1.2198036909103394
    min_value: 0.0
    scale: 0.004783543758094311
    zero_point: 0
  '@MatMul_layer28_attn_context_170:out0':
    qtype: u8
    quantizer: asymmetric_affine
    rounding: rtne
    max_value: 5.024356842041016
    min_value: -5.024356842041016
    scale: 0.03940672054886818
    zero_point: 128
  '@Mul_sq_mul_layer28_gate_proj_171:out0':
    qtype: u8
    quantizer: asymmetric_affine
    rounding: rtne
    max_value: 2.345989465713501
    min_value: -1.5586856603622437
    scale: 0.01531245093792677
    zero_point: 102
  '@Initializer_sq_scale_layer28_gate_proj_173:out0':
    qtype: u8
    quantizer: asymmetric_affine
    rounding: rtne
    max_value: 3.211768865585327
    min_value: 0.0
    scale: 0.01259517204016447
    zero_point: 0
  '@Mul_layer28_mlp_rms_gamma_174:out0':
    qtype: u8
    quantizer: asymmetric_affine
    rounding: rtne
    max_value: 8.751172065734863
    min_value: -2.293531894683838
    scale: 0.043312568217515945
    zero_point: 53
  '@Initializer_sq_scale_layer28_up_proj_175:out0':
    qtype: u8
    quantizer: asymmetric_affine
    rounding: rtne
    max_value: 2.922205686569214
    min_value: 0.0
    scale: 0.011459629982709885
    zero_point: 0
  '@Add_layer29_causal_mask_176:out0':
    qtype: u8
    quantizer: asymmetric_affine
    rounding: rtne
    max_value: 14.806617736816406
    min_value: -10014.5400390625
    scale: 39.330772399902344
    zero_point: 255
  '@Reshape_layer29_v_repeat_expand_177:out0':
    qtype: u8
    quantizer: asymmetric_affine
    rounding: rtne
    max_value: 9.37032413482666
    min_value: -9.37032413482666
    scale: 0.07349273562431335
    zero_point: 128
  '@Transpose_layer29_v_heads_178:out0':
    qtype: u8
    quantizer: asymmetric_affine
    rounding: rtne
    max_value: 9.37032413482666
    min_value: -9.37032413482666
    scale: 0.07349273562431335
    zero_point: 128
  '@Reciprocal_layer29_mlp_rms_reciprocal_179:out0':
    qtype: u8
    quantizer: asymmetric_affine
    rounding: rtne
    max_value: 1.0
    min_value: 0.0
    scale: 0.003921568859368563
    zero_point: 0
  '@Divide_180:out0':
    qtype: u8
    quantizer: asymmetric_affine
    rounding: rtne
    max_value: 0.04206840321421623
    min_value: 0.0
    scale: 0.00016497413162142038
    zero_point: 0
  '@MatMul_layer30_attn_scores_181:out0':
    qtype: u8
    quantizer: asymmetric_affine
    rounding: rtne
    max_value: 162.80892944335938
    min_value: -162.47360229492188
    scale: 1.2756177186965942
    zero_point: 127
  '@Add_layer30_mlp_rms_eps_184:out0':
    qtype: u8
    quantizer: asymmetric_affine
    rounding: rtne
    max_value: 632174.125
    min_value: 0.0
    scale: 2479.1142578125
    zero_point: 0
  '@Mul_layer31_q_rope_mul_cos_185:out0':
    qtype: u8
    quantizer: asymmetric_affine
    rounding: rtne
    max_value: 17.059558868408203
    min_value: -17.059558868408203
    scale: 0.1338004618883133
    zero_point: 128
  '@Mul_layer31_q_rope_mul_sin_186:out0':
    qtype: u8
    quantizer: asymmetric_affine
    rounding: rtne
    max_value: 5.986843109130859
    min_value: -5.457029342651367
    scale: 0.04487793147563934
    zero_point: 122
  '@Reshape_layer31_k_repeat_merge_187:out0':
    qtype: u8
    quantizer: asymmetric_affine
    rounding: rtne
    max_value: 12.771196365356445
    min_value: -12.845927238464355
    scale: 0.10045930743217468
    zero_point: 128
  '@Mul_layer31_attn_rms_gamma_188:out0':
    qtype: u8
    quantizer: asymmetric_affine
    rounding: rtne
    max_value: 3.283386707305908
    min_value: -5.418989181518555
    scale: 0.03412696346640587
    zero_point: 159
  '@Initializer_sq_scale_layer31_v_proj_189:out0':
    qtype: u8
    quantizer: asymmetric_affine
    rounding: rtne
    max_value: 1.5035910606384277
    min_value: 0.0
    scale: 0.005896435584872961
    zero_point: 0
  '@Add_layer25_attn_residual_190:out0':
    qtype: u8
    quantizer: asymmetric_affine
    rounding: rtne
    max_value: 12709.7548828125
    min_value: -23468.5078125
    scale: 141.8755340576172
    zero_point: 165
  '@Mul_sq_mul_layer26_out_proj_192:out0':
    qtype: u8
    quantizer: asymmetric_affine
    rounding: rtne
    max_value: 2.579803228378296
    min_value: -2.579803228378296
    scale: 0.020233750343322754
    zero_point: 128
  '@Mul_layer26_swiglu_mul_194:out0':
    qtype: u8
    quantizer: asymmetric_affine
    rounding: rtne
    max_value: 20.441761016845703
    min_value: -20.441761016845703
    scale: 0.16032753884792328
    zero_point: 128
  '@Initializer_sq_scale_layer26_down_proj_195:out0':
    qtype: u8
    quantizer: asymmetric_affine
    rounding: rtne
    max_value: 1.0459072589874268
    min_value: 0.0
    scale: 0.004101597238332033
    zero_point: 0
  '@Transpose_layer27_ctx_transpose_196:out0':
    qtype: u8
    quantizer: asymmetric_affine
    rounding: rtne
    max_value: 5.8377461433410645
    min_value: -5.802143573760986
    scale: 0.04564662650227547
    zero_point: 127
  '@Mul_sq_mul_layer27_up_proj_199:out0':
    qtype: u8
    quantizer: asymmetric_affine
    rounding: rtne
    max_value: 3.97103214263916
    min_value: -1.7067161798477173
    scale: 0.022265680134296417
    zero_point: 77
  '@Softmax_layer28_softmax_201:out0':
    qtype: u8
    quantizer: asymmetric_affine
    rounding: rtne
    max_value: 1.0
    min_value: 0.0
    scale: 0.003921568859368563
    zero_point: 0
  '@Reshape_layer28_v_repeat_merge_202:out0':
    qtype: u8
    quantizer: asymmetric_affine
    rounding: rtne
    max_value: 10.938953399658203
    min_value: -11.804656028747559
    scale: 0.08919063210487366
    zero_point: 132
  '@Tile_layer28_v_repeat_tile_203:out0':
    qtype: u8
    quantizer: asymmetric_affine
    rounding: rtne
    max_value: 10.938953399658203
    min_value: -11.804656028747559
    scale: 0.08919063210487366
    zero_point: 132
  '@Mul_layer28_mlp_rms_scale_to_unit_204:out0':
    qtype: u8
    quantizer: asymmetric_affine
    rounding: rtne
    max_value: 14.836743354797363
    min_value: -27.554454803466797
    scale: 0.16623999178409576
    zero_point: 166
  '@Initializer_layer28_mlp_gamma_205:out0':
    qtype: u8
    quantizer: asymmetric_affine
    rounding: rtne
    max_value: 0.58984375
    min_value: -0.000518798828125
    scale: 0.002315147314220667
    zero_point: 0
  '@Mul_layer29_attn_scale_206:out0':
    qtype: u8
    quantizer: asymmetric_affine
    rounding: rtne
    max_value: 13.853906631469727
    min_value: -13.853906631469727
    scale: 0.1086580902338028
    zero_point: 128
  '@MatMul_layer29_attn_scores_207:out0':
    qtype: u8
    quantizer: asymmetric_affine
    rounding: rtne
    max_value: 110.83125305175781
    min_value: -110.83125305175781
    scale: 0.8692647218704224
    zero_point: 128
  '@Reshape_layer29_v_reshape_208:out0':
    qtype: u8
    quantizer: asymmetric_affine
    rounding: rtne
    max_value: 9.37032413482666
    min_value: -9.37032413482666
    scale: 0.07349273562431335
    zero_point: 128
  '@Sqrt_layer29_mlp_rms_sqrt_209:out0':
    qtype: u8
    quantizer: asymmetric_affine
    rounding: rtne
    max_value: 841.3681640625
    min_value: 0.0
    scale: 3.299483060836792
    zero_point: 0
  '@Add_layer30_q_rope_rope_add_210:out0':
    qtype: u8
    quantizer: asymmetric_affine
    rounding: rtne
    max_value: 12.63597297668457
    min_value: -19.26015853881836
    scale: 0.125082865357399
    zero_point: 154
  '@Transpose_layer30_k_transpose_211:out0':
    qtype: u8
    quantizer: asymmetric_affine
    rounding: rtne
    max_value: 14.192187309265137
    min_value: -16.652379989624023
    scale: 0.1209590807557106
    zero_point: 138
  '@ReduceMean_layer30_mlp_rms_mean_214:out0':
    qtype: u8
    quantizer: asymmetric_affine
    rounding: rtne
    max_value: 632174.125
    min_value: 0.0
    scale: 2479.1142578125
    zero_point: 0
  '@Mul_layer30_mlp_rms_square_215:out0':
    qtype: u8
    quantizer: asymmetric_affine
    rounding: rtne
    max_value: 446120576.0
    min_value: 0.0
    scale: 1749492.5
    zero_point: 0
  '@Transpose_layer31_q_heads_216:out0':
    qtype: u8
    quantizer: asymmetric_affine
    rounding: rtne
    max_value: 17.060165405273438
    min_value: -17.060165405273438
    scale: 0.13380521535873413
    zero_point: 128
  '@Initializer_rope_cos_217:out0':
    qtype: u8
    quantizer: asymmetric_affine
    rounding: rtne
    max_value: 1.0
    min_value: -0.9999967217445374
    scale: 0.007843123748898506
    zero_point: 127
  '@Concat_layer31_q_rope_rotate_half_218:out0':
    qtype: u8
    quantizer: asymmetric_affine
    rounding: rtne
    max_value: 17.621437072753906
    min_value: -17.060094833374023
    scale: 0.13600601255893707
    zero_point: 125
  '@Initializer_rope_sin_219:out0':
    qtype: u8
    quantizer: asymmetric_affine
    rounding: rtne
    max_value: 0.9999929070472717
    min_value: -0.9999902248382568
    scale: 0.007843070663511753
    zero_point: 127
  '@Tile_layer31_k_repeat_tile_220:out0':
    qtype: u8
    quantizer: asymmetric_affine
    rounding: rtne
    max_value: 12.771196365356445
    min_value: -12.845927238464355
    scale: 0.10045930743217468
    zero_point: 128
  '@Mul_layer31_attn_rms_scale_to_unit_221:out0':
    qtype: u8
    quantizer: asymmetric_affine
    rounding: rtne
    max_value: 17.81905746459961
    min_value: -28.45660972595215
    scale: 0.18147319555282593
    zero_point: 157
  '@Initializer_layer31_attn_gamma_222:out0':
    qtype: u8
    quantizer: asymmetric_affine
    rounding: rtne
    max_value: 1.078125
    min_value: 0.0
    scale: 0.004227941390126944
    zero_point: 0
  '@Add_layer24_mlp_residual_223:out0':
    qtype: u8
    quantizer: asymmetric_affine
    rounding: rtne
    max_value: 12711.2734375
    min_value: -23476.08984375
    scale: 141.91122436523438
    zero_point: 165
  '@Mul_sq_mul_layer25_down_proj_225:out0':
    qtype: u8
    quantizer: asymmetric_affine
    rounding: rtne
    max_value: 4.666255474090576
    min_value: -4.666255474090576
    scale: 0.0365980826318264
    zero_point: 128
  '@Reshape_layer26_ctx_merge_heads_227:out0':
    qtype: u8
    quantizer: asymmetric_affine
    rounding: rtne
    max_value: 5.9820990562438965
    min_value: -5.9820990562438965
    scale: 0.04691842570900917
    zero_point: 127
  '@Initializer_sq_scale_layer26_out_proj_228:out0':
    qtype: u8
    quantizer: asymmetric_affine
    rounding: rtne
    max_value: 1.0333844423294067
    min_value: 0.0
    scale: 0.004052488133311272
    zero_point: 0
  '@MatMul_layer27_attn_context_231:out0':
    qtype: u8
    quantizer: asymmetric_affine
    rounding: rtne
    max_value: 5.8377461433410645
    min_value: -5.802143573760986
    scale: 0.04564662650227547
    zero_point: 127
  '@Mul_sq_mul_layer27_gate_proj_232:out0':
    qtype: u8
    quantizer: asymmetric_affine
    rounding: rtne
    max_value: 2.7030255794525146
    min_value: -1.5310677289962769
    scale: 0.016604287549853325
    zero_point: 92
  '@Initializer_sq_scale_layer27_gate_proj_234:out0':
    qtype: u8
    quantizer: asymmetric_affine
    rounding: rtne
    max_value: 10.20554256439209
    min_value: 0.0
    scale: 0.040021736174821854
    zero_point: 0
  '@Mul_layer27_mlp_rms_gamma_235:out0':
    qtype: u8
    quantizer: asymmetric_affine
    rounding: rtne
    max_value: 6.728147506713867
    min_value: -2.2984297275543213
    scale: 0.035398341715335846
    zero_point: 65
  '@Initializer_sq_scale_layer27_up_proj_236:out0':
    qtype: u8
    quantizer: asymmetric_affine
    rounding: rtne
    max_value: 10.542695045471191
    min_value: 0.0
    scale: 0.04134390130639076
    zero_point: 0
  '@Add_layer28_causal_mask_237:out0':
    qtype: u8
    quantizer: asymmetric_affine
    rounding: rtne
    max_value: 15.442791938781738
    min_value: -10009.5673828125
    scale: 39.31376266479492
    zero_point: 255
  '@Reshape_layer28_v_repeat_expand_238:out0':
    qtype: u8
    quantizer: asymmetric_affine
    rounding: rtne
    max_value: 10.938953399658203
    min_value: -11.804656028747559
    scale: 0.08919063210487366
    zero_point: 132
  '@Transpose_layer28_v_heads_239:out0':
    qtype: u8
    quantizer: asymmetric_affine
    rounding: rtne
    max_value: 10.938953399658203
    min_value: -11.804656028747559
    scale: 0.08919063210487366
    zero_point: 132
  '@Reciprocal_layer28_mlp_rms_reciprocal_240:out0':
    qtype: u8
    quantizer: asymmetric_affine
    rounding: rtne
    max_value: 1.0
    min_value: 0.0
    scale: 0.003921568859368563
    zero_point: 0
  '@Divide_241:out0':
    qtype: u8
    quantizer: asymmetric_affine
    rounding: rtne
    max_value: 0.04846681281924248
    min_value: 0.0
    scale: 0.0001900659262901172
    zero_point: 0
  '@Add_layer29_q_rope_rope_add_242:out0':
    qtype: u8
    quantizer: asymmetric_affine
    rounding: rtne
    max_value: 18.967235565185547
    min_value: -14.098175048828125
    scale: 0.12966828048229218
    zero_point: 109
  '@Transpose_layer29_k_transpose_243:out0':
    qtype: u8
    quantizer: asymmetric_affine
    rounding: rtne
    max_value: 14.793357849121094
    min_value: -16.005250930786133
    scale: 0.12077885866165161
    zero_point: 133
  '@Add_layer29_mlp_rms_eps_245:out0':
    qtype: u8
    quantizer: asymmetric_affine
    rounding: rtne
    max_value: 707900.4375
    min_value: 0.0
    scale: 2776.080078125
    zero_point: 0
  '@Mul_layer30_q_rope_mul_cos_246:out0':
    qtype: u8
    quantizer: asymmetric_affine
    rounding: rtne
    max_value: 12.635175704956055
    min_value: -19.265674591064453
    scale: 0.12510137259960175
    zero_point: 154
  '@Mul_layer30_q_rope_mul_sin_247:out0':
    qtype: u8
    quantizer: asymmetric_affine
    rounding: rtne
    max_value: 6.281659126281738
    min_value: -6.281659126281738
    scale: 0.04926791414618492
    zero_point: 128
  '@Reshape_layer30_k_repeat_merge_248:out0':
    qtype: u8
    quantizer: asymmetric_affine
    rounding: rtne
    max_value: 14.192187309265137
    min_value: -16.652379989624023
    scale: 0.1209590807557106
    zero_point: 138
  '@Mul_sq_mul_layer30_v_proj_249:out0':
    qtype: u8
    quantizer: asymmetric_affine
    rounding: rtne
    max_value: 1.5526310205459595
    min_value: -1.5526310205459595
    scale: 0.012177498079836369
    zero_point: 128
  '@Initializer_sq_scale_layer30_v_proj_251:out0':
    qtype: u8
    quantizer: asymmetric_affine
    rounding: rtne
    max_value: 1.9797821044921875
    min_value: 0.0
    scale: 0.007763851433992386
    zero_point: 0
  '@Mul_layer30_attn_rms_gamma_252:out0':
    qtype: u8
    quantizer: asymmetric_affine
    rounding: rtne
    max_value: 3.2602286338806152
    min_value: -6.790462017059326
    scale: 0.03941447287797928
    zero_point: 172
  '@Reshape_layer31_q_reshape_253:out0':
    qtype: u8
    quantizer: asymmetric_affine
    rounding: rtne
    max_value: 17.060165405273438
    min_value: -17.060165405273438
    scale: 0.13380521535873413
    zero_point: 128
  '@Neg_layer31_q_rope_neg_second_254:out0':
    qtype: u8
    quantizer: asymmetric_affine
    rounding: rtne
    max_value: 17.621437072753906
    min_value: -17.060094833374023
    scale: 0.13600601255893707
    zero_point: 125
  '@Slice_layer31_q_rope_slice_first_255:out0':
    qtype: u8
    quantizer: asymmetric_affine
    rounding: rtne
    max_value: 17.060165405273438
    min_value: -17.060165405273438
    scale: 0.13380521535873413
    zero_point: 128
  '@Reshape_layer31_k_repeat_expand_256:out0':
    qtype: u8
    quantizer: asymmetric_affine
    rounding: rtne
    max_value: 12.771196365356445
    min_value: -12.845927238464355
    scale: 0.10045930743217468
    zero_point: 128
  '@Add_layer31_k_rope_rope_add_257:out0':
    qtype: u8
    quantizer: asymmetric_affine
    rounding: rtne
    max_value: 12.771196365356445
    min_value: -12.845927238464355
    scale: 0.10045930743217468
    zero_point: 128
  '@Reciprocal_layer31_attn_rms_reciprocal_258:out0':
    qtype: u8
    quantizer: asymmetric_affine
    rounding: rtne
    max_value: 1.0
    min_value: 0.0
    scale: 0.003921568859368563
    zero_point: 0
  '@Divide_259:out0':
    qtype: u8
    quantizer: asymmetric_affine
    rounding: rtne
    max_value: 0.035321906208992004
    min_value: 0.0
    scale: 0.00013851727999281138
    zero_point: 0
  '@Add_layer24_attn_residual_260:out0':
    qtype: u8
    quantizer: asymmetric_affine
    rounding: rtne
    max_value: 12717.1201171875
    min_value: -23485.8671875
    scale: 141.97250366210938
    zero_point: 165
  '@Mul_sq_mul_layer25_out_proj_262:out0':
    qtype: u8
    quantizer: asymmetric_affine
    rounding: rtne
    max_value: 2.3361713886260986
    min_value: -2.3361713886260986
    scale: 0.018322912976145744
    zero_point: 128
  '@Mul_layer25_swiglu_mul_264:out0':
    qtype: u8
    quantizer: asymmetric_affine
    rounding: rtne
    max_value: 16.715625762939453
    min_value: -16.715625762939453
    scale: 0.13110294938087463
    zero_point: 128
  '@Initializer_sq_scale_layer25_down_proj_265:out0':
    qtype: u8
    quantizer: asymmetric_affine
    rounding: rtne
    max_value: 1.2566766738891602
    min_value: 0.0
    scale: 0.004928143694996834
    zero_point: 0
  '@Transpose_layer26_ctx_transpose_266:out0':
    qtype: u8
    quantizer: asymmetric_affine
    rounding: rtne
    max_value: 5.9820990562438965
    min_value: -5.9820990562438965
    scale: 0.04691842570900917
    zero_point: 127
  '@Mul_sq_mul_layer26_up_proj_269:out0':
    qtype: u8
    quantizer: asymmetric_affine
    rounding: rtne
    max_value: 2.5899369716644287
    min_value: -1.6111289262771606
    scale: 0.01647476851940155
    zero_point: 98
  '@Softmax_layer27_softmax_271:out0':
    qtype: u8
    quantizer: asymmetric_affine
    rounding: rtne
    max_value: 1.0
    min_value: 0.0
    scale: 0.003921568859368563
    zero_point: 0
  '@Reshape_layer27_v_repeat_merge_272:out0':
    qtype: u8
    quantizer: asymmetric_affine
    rounding: rtne
    max_value: 13.187721252441406
    min_value: -10.105591773986816
    scale: 0.09134632349014282
    zero_point: 111
  '@Tile_layer27_v_repeat_tile_273:out0':
    qtype: u8
    quantizer: asymmetric_affine
    rounding: rtne
    max_value: 13.187721252441406
    min_value: -10.105591773986816
    scale: 0.09134632349014282
    zero_point: 111
  '@Mul_layer27_mlp_rms_scale_to_unit_274:out0':
    qtype: u8
    quantizer: asymmetric_affine
    rounding: rtne
    max_value: 14.721416473388672
    min_value: -27.1129207611084
    scale: 0.1640562117099762
    zero_point: 165
  '@Initializer_layer27_mlp_gamma_275:out0':
    qtype: u8
    quantizer: asymmetric_affine
    rounding: rtne
    max_value: 0.45703125
    min_value: -4.6253204345703125e-05
    scale: 0.0017924607964232564
    zero_point: 0
  '@Mul_layer28_attn_scale_276:out0':
    qtype: u8
    quantizer: asymmetric_affine
    rounding: rtne
    max_value: 12.531092643737793
    min_value: -9.683879852294922
    scale: 0.08711754530668259
    zero_point: 111
  '@MatMul_layer28_attn_scores_277:out0':
    qtype: u8
    quantizer: asymmetric_affine
    rounding: rtne
    max_value: 100.24874114990234
    min_value: -77.47103881835938
    scale: 0.6969403624534607
    zero_point: 111
  '@Reshape_layer28_v_reshape_278:out0':
    qtype: u8
    quantizer: asymmetric_affine
    rounding: rtne
    max_value: 10.938953399658203
    min_value: -11.804656028747559
    scale: 0.08919063210487366
    zero_point: 132
  '@Sqrt_layer28_mlp_rms_sqrt_279:out0':
    qtype: u8
    quantizer: asymmetric_affine
    rounding: rtne
    max_value: 849.4592895507812
    min_value: 0.0
    scale: 3.3312129974365234
    zero_point: 0
  '@Mul_layer29_q_rope_mul_cos_280:out0':
    qtype: u8
    quantizer: asymmetric_affine
    rounding: rtne
    max_value: 18.979398727416992
    min_value: -14.098175048828125
    scale: 0.12971597909927368
    zero_point: 109
  '@Mul_layer29_q_rope_mul_sin_281:out0':
    qtype: u8
    quantizer: asymmetric_affine
    rounding: rtne
    max_value: 5.908729553222656
    min_value: -5.908729553222656
    scale: 0.04634297639131546
    zero_point: 128
  '@Reshape_layer29_k_repeat_merge_282:out0':
    qtype: u8
    quantizer: asymmetric_affine
    rounding: rtne
    max_value: 14.793357849121094
    min_value: -16.005250930786133
    scale: 0.12077885866165161
    zero_point: 133
  '@ReduceMean_layer29_mlp_rms_mean_285:out0':
    qtype: u8
    quantizer: asymmetric_affine
    rounding: rtne
    max_value: 707900.4375
    min_value: 0.0
    scale: 2776.080078125
    zero_point: 0
  '@Mul_layer29_mlp_rms_square_286:out0':
    qtype: u8
    quantizer: asymmetric_affine
    rounding: rtne
    max_value: 515781888.0
    min_value: 0.0
    scale: 2022674.125
    zero_point: 0
  '@Transpose_layer30_q_heads_287:out0':
    qtype: u8
    quantizer: asymmetric_affine
    rounding: rtne
    max_value: 12.635161399841309
    min_value: -19.26593589782715
    scale: 0.12510234117507935
    zero_point: 154
  '@Concat_layer30_q_rope_rotate_half_289:out0':
    qtype: u8
    quantizer: asymmetric_affine
    rounding: rtne
    max_value: 19.265905380249023
    min_value: -11.857089042663574
    scale: 0.12205095589160919
    zero_point: 97
  '@Tile_layer30_k_repeat_tile_291:out0':
    qtype: u8
    quantizer: asymmetric_affine
    rounding: rtne
    max_value: 14.192187309265137
    min_value: -16.652379989624023
    scale: 0.1209590807557106
    zero_point: 138
  '@Mul_layer30_attn_rms_scale_to_unit_292:out0':
    qtype: u8
    quantizer: asymmetric_affine
    rounding: rtne
    max_value: 15.71140193939209
    min_value: -28.381568908691406
    scale: 0.17291361093521118
    zero_point: 164
  '@Initializer_layer30_attn_gamma_293:out0':
    qtype: u8
    quantizer: asymmetric_affine
    rounding: rtne
    max_value: 0.9140625
    min_value: 0.0
    scale: 0.0035845588427037
    zero_point: 0
  '@Slice_layer31_q_rope_slice_second_295:out0':
    qtype: u8
    quantizer: asymmetric_affine
    rounding: rtne
    max_value: 17.060165405273438
    min_value: -17.060165405273438
    scale: 0.13380521535873413
    zero_point: 128
  '@Mul_layer31_k_rope_mul_cos_297:out0':
    qtype: u8
    quantizer: asymmetric_affine
    rounding: rtne
    max_value: 12.770928382873535
    min_value: -13.701709747314453
    scale: 0.1038142666220665
    zero_point: 132
  '@Mul_layer31_k_rope_mul_sin_298:out0':
    qtype: u8
    quantizer: asymmetric_affine
    rounding: rtne
    max_value: 3.8284058570861816
    min_value: -3.7765653133392334
    scale: 0.029823414981365204
    zero_point: 127
  '@Sqrt_layer31_attn_rms_sqrt_299:out0':
    qtype: u8
    quantizer: asymmetric_affine
    rounding: rtne
    max_value: 698.6189575195312
    min_value: 0.0
    scale: 2.739682197570801
    zero_point: 0
  '@Add_layer23_mlp_residual_300:out0':
    qtype: u8
    quantizer: asymmetric_affine
    rounding: rtne
    max_value: 12727.4921875
    min_value: -23469.732421875
    scale: 141.9499053955078
    zero_point: 165
  '@Mul_sq_mul_layer24_down_proj_302:out0':
    qtype: u8
    quantizer: asymmetric_affine
    rounding: rtne
    max_value: 4.804259777069092
    min_value: -4.920437812805176
    scale: 0.0381360687315464
    zero_point: 129
  '@Reshape_layer25_ctx_merge_heads_304:out0':
    qtype: u8
    quantizer: asymmetric_affine
    rounding: rtne
    max_value: 4.09058141708374
    min_value: -4.09058141708374
    scale: 0.03208298981189728
    zero_point: 128
  '@Initializer_sq_scale_layer25_out_proj_305:out0':
    qtype: u8
    quantizer: asymmetric_affine
    rounding: rtne
    max_value: 1.1216707229614258
    min_value: 0.0
    scale: 0.004398708697408438
    zero_point: 0
  '@MatMul_layer26_attn_context_308:out0':
    qtype: u8
    quantizer: asymmetric_affine
    rounding: rtne
    max_value: 5.9820990562438965
    min_value: -5.9820990562438965
    scale: 0.04691842570900917
    zero_point: 127
  '@Mul_sq_mul_layer26_gate_proj_309:out0':
    qtype: u8
    quantizer: asymmetric_affine
    rounding: rtne
    max_value: 1.8827869892120361
    min_value: -1.8607919216156006
    scale: 0.014680701307952404
    zero_point: 127
  '@Initializer_sq_scale_layer26_gate_proj_311:out0':
    qtype: u8
    quantizer: asymmetric_affine
    rounding: rtne
    max_value: 113.40440368652344
    min_value: 0.0
    scale: 0.4447231590747833
    zero_point: 0
  '@Mul_layer26_mlp_rms_gamma_312:out0':
    qtype: u8
    quantizer: asymmetric_affine
    rounding: rtne
    max_value: 4.850819110870361
    min_value: -2.556020498275757
    scale: 0.029046429321169853
    zero_point: 88
  '@Initializer_sq_scale_layer26_up_proj_313:out0':
    qtype: u8
    quantizer: asymmetric_affine
    rounding: rtne
    max_value: 117.20672607421875
    min_value: 0.0
    scale: 0.4596342146396637
    zero_point: 0
  '@Add_layer27_causal_mask_314:out0':
    qtype: u8
    quantizer: asymmetric_affine
    rounding: rtne
    max_value: 10.337897300720215
    min_value: -10010.6884765625
    scale: 39.29814147949219
    zero_point: 255
  '@Reshape_layer27_v_repeat_expand_315:out0':
    qtype: u8
    quantizer: asymmetric_affine
    rounding: rtne
    max_value: 13.187721252441406
    min_value: -10.105591773986816
    scale: 0.09134632349014282
    zero_point: 111
  '@Transpose_layer27_v_heads_316:out0':
    qtype: u8
    quantizer: asymmetric_affine
    rounding: rtne
    max_value: 13.187721252441406
    min_value: -10.105591773986816
    scale: 0.09134632349014282
    zero_point: 111
  '@Reciprocal_layer27_mlp_rms_reciprocal_317:out0':
    qtype: u8
    quantizer: asymmetric_affine
    rounding: rtne
    max_value: 1.0
    min_value: 0.0
    scale: 0.003921568859368563
    zero_point: 0
  '@Divide_318:out0':
    qtype: u8
    quantizer: asymmetric_affine
    rounding: rtne
    max_value: 0.05549919977784157
    min_value: 0.0
    scale: 0.0002176439156755805
    zero_point: 0
  '@Add_layer28_q_rope_rope_add_319:out0':
    qtype: u8
    quantizer: asymmetric_affine
    rounding: rtne
    max_value: 14.410501480102539
    min_value: -14.410501480102539
    scale: 0.113023541867733
    zero_point: 128
  '@Transpose_layer28_k_transpose_320:out0':
    qtype: u8
    quantizer: asymmetric_affine
    rounding: rtne
    max_value: 14.96155071258545
    min_value: -11.006842613220215
    scale: 0.10183683782815933
    zero_point: 108
  '@Add_layer28_mlp_rms_eps_322:out0':
    qtype: u8
    quantizer: asymmetric_affine
    rounding: rtne
    max_value: 721581.1875
    min_value: 0.0
    scale: 2829.730224609375
    zero_point: 0
  '@Transpose_layer29_q_heads_323:out0':
    qtype: u8
    quantizer: asymmetric_affine
    rounding: rtne
    max_value: 18.979642868041992
    min_value: -14.098193168640137
    scale: 0.12971700727939606
    zero_point: 109
  '@Reshape_layer29_q_reshape_324:out0':
    qtype: u8
    quantizer: asymmetric_affine
    rounding: rtne
    max_value: 18.979642868041992
    min_value: -14.098193168640137
    scale: 0.12971700727939606
    zero_point: 109
  '@Concat_layer29_q_rope_rotate_half_325:out0':
    qtype: u8
    quantizer: asymmetric_affine
    rounding: rtne
    max_value: 16.005401611328125
    min_value: -18.979646682739258
    scale: 0.13719625771045685
    zero_point: 138
  '@Slice_layer29_q_rope_slice_first_326:out0':
    qtype: u8
    quantizer: asymmetric_affine
    rounding: rtne
    max_value: 18.979642868041992
    min_value: -14.098193168640137
    scale: 0.12971700727939606
    zero_point: 109
  '@Tile_layer29_k_repeat_tile_327:out0':
    qtype: u8
    quantizer: asymmetric_affine
    rounding: rtne
    max_value: 14.793357849121094
    min_value: -16.005250930786133
    scale: 0.12077885866165161
    zero_point: 133
  '@Mul_sq_mul_layer29_v_proj_328:out0':
    qtype: u8
    quantizer: asymmetric_affine
    rounding: rtne
    max_value: 1.4097942113876343
    min_value: -1.4097942113876343
    scale: 0.011057209223508835
    zero_point: 128
  '@Initializer_sq_scale_layer29_v_proj_330:out0':
    qtype: u8
    quantizer: asymmetric_affine
    rounding: rtne
    max_value: 1.5221651792526245
    min_value: 0.0
    scale: 0.005969275254756212
    zero_point: 0
  '@Mul_layer29_attn_rms_gamma_331:out0':
    qtype: u8
    quantizer: asymmetric_affine
    rounding: rtne
    max_value: 4.018635272979736
    min_value: -4.425938606262207
    scale: 0.03311597928404808
    zero_point: 134
  '@Reshape_layer30_q_reshape_332:out0':
    qtype: u8
    quantizer: asymmetric_affine
    rounding: rtne
    max_value: 12.635161399841309
    min_value: -19.26593589782715
    scale: 0.12510234117507935
    zero_point: 154
  '@Neg_layer30_q_rope_neg_second_333:out0':
    qtype: u8
    quantizer: asymmetric_affine
    rounding: rtne
    max_value: 19.265905380249023
    min_value: -11.857089042663574
    scale: 0.12205095589160919
    zero_point: 97
  '@Slice_layer30_q_rope_slice_first_334:out0':
    qtype: u8
    quantizer: asymmetric_affine
    rounding: rtne
    max_value: 12.635161399841309
    min_value: -19.26593589782715
    scale: 0.12510234117507935
    zero_point: 154
  '@Reshape_layer30_k_repeat_expand_335:out0':
    qtype: u8
    quantizer: asymmetric_affine
    rounding: rtne
    max_value: 14.192187309265137
    min_value: -16.652379989624023
    scale: 0.1209590807557106
    zero_point: 138
  '@Add_layer30_k_rope_rope_add_336:out0':
    qtype: u8
    quantizer: asymmetric_affine
    rounding: rtne
    max_value: 14.192187309265137
    min_value: -16.652379989624023
    scale: 0.1209590807557106
    zero_point: 138
  '@Reciprocal_layer30_attn_rms_reciprocal_337:out0':
    qtype: u8
    quantizer: asymmetric_affine
    rounding: rtne
    max_value: 1.0
    min_value: 0.0
    scale: 0.003921568859368563
    zero_point: 0
  '@Divide_338:out0':
    qtype: u8
    quantizer: asymmetric_affine
    rounding: rtne
    max_value: 0.03883014991879463
    min_value: 0.0
    scale: 0.00015227509720716625
    zero_point: 0
  '@Transpose_layer31_k_heads_340:out0':
    qtype: u8
    quantizer: asymmetric_affine
    rounding: rtne
    max_value: 12.770928382873535
    min_value: -13.701857566833496
    scale: 0.10381484776735306
    zero_point: 132
  '@Reshape_layer31_k_reshape_341:out0':
    qtype: u8
    quantizer: asymmetric_affine
    rounding: rtne
    max_value: 12.770928382873535
    min_value: -13.701857566833496
    scale: 0.10381484776735306
    zero_point: 132
  '@Concat_layer31_k_rope_rotate_half_342:out0':
    qtype: u8
    quantizer: asymmetric_affine
    rounding: rtne
    max_value: 13.701908111572266
    min_value: -12.851418495178223
    scale: 0.10413068532943726
    zero_point: 123
  '@Slice_layer31_k_rope_slice_first_343:out0':
    qtype: u8
    quantizer: asymmetric_affine
    rounding: rtne
    max_value: 12.770928382873535
    min_value: -13.701857566833496
    scale: 0.10381484776735306
    zero_point: 132
  '@Add_layer31_attn_rms_eps_344:out0':
    qtype: u8
    quantizer: asymmetric_affine
    rounding: rtne
    max_value: 488068.5
    min_value: 0.0
    scale: 1913.994140625
    zero_point: 0
  '@Add_layer23_attn_residual_345:out0':
    qtype: u8
    quantizer: asymmetric_affine
    rounding: rtne
    max_value: 12739.7626953125
    min_value: -23475.931640625
    scale: 142.0223388671875
    zero_point: 165
  '@Mul_sq_mul_layer24_out_proj_347:out0':
    qtype: u8
    quantizer: asymmetric_affine
    rounding: rtne
    max_value: 3.1154565811157227
    min_value: -2.645690679550171
    scale: 0.022592734545469284
    zero_point: 117
  '@Mul_layer24_swiglu_mul_349:out0':
    qtype: u8
    quantizer: asymmetric_affine
    rounding: rtne
    max_value: 15.528109550476074
    min_value: -15.528109550476074
    scale: 0.12178909778594971
    zero_point: 128
  '@Initializer_sq_scale_layer24_down_proj_350:out0':
    qtype: u8
    quantizer: asymmetric_affine
    rounding: rtne
    max_value: 1.3584378957748413
    min_value: 0.0
    scale: 0.005327207501977682
    zero_point: 0
  '@Transpose_layer25_ctx_transpose_351:out0':
    qtype: u8
    quantizer: asymmetric_affine
    rounding: rtne
    max_value: 4.09058141708374
    min_value: -4.09058141708374
    scale: 0.03208298981189728
    zero_point: 128
  '@Mul_sq_mul_layer25_up_proj_354:out0':
    qtype: u8
    quantizer: asymmetric_affine
    rounding: rtne
    max_value: 1.825269103050232
    min_value: -1.6470552682876587
    scale: 0.013616958633065224
    zero_point: 121
  '@Softmax_layer26_softmax_356:out0':
    qtype: u8
    quantizer: asymmetric_affine
    rounding: rtne
    max_value: 1.0
    min_value: 0.0
    scale: 0.003921568859368563
    zero_point: 0
  '@Reshape_layer26_v_repeat_merge_357:out0':
    qtype: u8
    quantizer: asymmetric_affine
    rounding: rtne
    max_value: 11.371115684509277
    min_value: -11.621729850769043
    scale: 0.09016802161931992
    zero_point: 129
  '@Tile_layer26_v_repeat_tile_358:out0':
    qtype: u8
    quantizer: asymmetric_affine
    rounding: rtne
    max_value: 11.371115684509277
    min_value: -11.621729850769043
    scale: 0.09016802161931992
    zero_point: 129
  '@Mul_layer26_mlp_rms_scale_to_unit_359:out0':
    qtype: u8
    quantizer: asymmetric_affine
    rounding: rtne
    max_value: 14.695972442626953
    min_value: -27.126901626586914
    scale: 0.16401128470897675
    zero_point: 165
  '@Initializer_layer26_mlp_gamma_360:out0':
    qtype: u8
    quantizer: asymmetric_affine
    rounding: rtne
    max_value: 0.330078125
    min_value: 0.0
    scale: 0.001294424058869481
    zero_point: 0
  '@Mul_layer27_attn_scale_361:out0':
    qtype: u8
    quantizer: asymmetric_affine
    rounding: rtne
    max_value: 10.337261199951172
    min_value: -10.337261199951172
    scale: 0.08107655495405197
    zero_point: 128
  '@MatMul_layer27_attn_scores_362:out0':
    qtype: u8
    quantizer: asymmetric_affine
    rounding: rtne
    max_value: 82.69808959960938
    min_value: -82.69808959960938
    scale: 0.6486124396324158
    zero_point: 128
  '@Reshape_layer27_v_reshape_363:out0':
    qtype: u8
    quantizer: asymmetric_affine
    rounding: rtne
    max_value: 13.187721252441406
    min_value: -10.105591773986816
    scale: 0.09134632349014282
    zero_point: 111
  '@Sqrt_layer27_mlp_rms_sqrt_364:out0':
    qtype: u8
    quantizer: asymmetric_affine
    rounding: rtne
    max_value: 861.8486328125
    min_value: 0.0
    scale: 3.379798650741577
    zero_point: 0
  '@Mul_layer28_q_rope_mul_cos_365:out0':
    qtype: u8
    quantizer: asymmetric_affine
    rounding: rtne
    max_value: 14.395723342895508
    min_value: -14.395723342895508
    scale: 0.11290763318538666
    zero_point: 128
  '@Mul_layer28_q_rope_mul_sin_366:out0':
    qtype: u8
    quantizer: asymmetric_affine
    rounding: rtne
    max_value: 6.3860907554626465
    min_value: -6.3860907554626465
    scale: 0.050086986273527145
    zero_point: 128
  '@Reshape_layer28_k_repeat_merge_367:out0':
    qtype: u8
    quantizer: asymmetric_affine
    rounding: rtne
    max_value: 14.96155071258545
    min_value: -11.006842613220215
    scale: 0.10183683782815933
    zero_point: 108
  '@ReduceMean_layer28_mlp_rms_mean_370:out0':
    qtype: u8
    quantizer: asymmetric_affine
    rounding: rtne
    max_value: 721581.1875
    min_value: 0.0
    scale: 2829.730224609375
    zero_point: 0
  '@Mul_layer28_mlp_rms_square_371:out0':
    qtype: u8
    quantizer: asymmetric_affine
    rounding: rtne
    max_value: 528014144.0
    min_value: 0.0
    scale: 2070643.75
    zero_point: 0
  '@Neg_layer29_q_rope_neg_second_373:out0':
    qtype: u8
    quantizer: asymmetric_affine
    rounding: rtne
    max_value: 16.005401611328125
    min_value: -18.979646682739258
    scale: 0.13719625771045685
    zero_point: 138
  '@Slice_layer29_q_rope_slice_second_374:out0':
    qtype: u8
    quantizer: asymmetric_affine
    rounding: rtne
    max_value: 18.979646682739258
    min_value: -14.098129272460938
    scale: 0.12971675395965576
    zero_point: 109
  '@Reshape_layer29_k_repeat_expand_375:out0':
    qtype: u8
    quantizer: asymmetric_affine
    rounding: rtne
    max_value: 14.793357849121094
    min_value: -16.005250930786133
    scale: 0.12077885866165161
    zero_point: 133
  '@Mul_layer29_attn_rms_scale_to_unit_376:out0':
    qtype: u8
    quantizer: asymmetric_affine
    rounding: rtne
    max_value: 14.97705078125
    min_value: -27.965070724487305
    scale: 0.16840048134326935
    zero_point: 166
  '@Initializer_layer29_attn_gamma_377:out0':
    qtype: u8
    quantizer: asymmetric_affine
    rounding: rtne
    max_value: 0.98828125
    min_value: 0.0
    scale: 0.003875612746924162
    zero_point: 0
  '@Slice_layer30_q_rope_slice_second_379:out0':
    qtype: u8
    quantizer: asymmetric_affine
    rounding: rtne
    max_value: 12.635161399841309
    min_value: -19.26593589782715
    scale: 0.12510234117507935
    zero_point: 154
  '@Mul_layer30_k_rope_mul_cos_381:out0':
    qtype: u8
    quantizer: asymmetric_affine
    rounding: rtne
    max_value: 14.192066192626953
    min_value: -16.638086318969727
    scale: 0.12090256065130234
    zero_point: 138
  '@Mul_layer30_k_rope_mul_sin_382:out0':
    qtype: u8
    quantizer: asymmetric_affine
    rounding: rtne
    max_value: 4.707525730133057
    min_value: -4.174217224121094
    scale: 0.03483036160469055
    zero_point: 120
  '@Sqrt_layer30_attn_rms_sqrt_383:out0':
    qtype: u8
    quantizer: asymmetric_affine
    rounding: rtne
    max_value: 795.0809936523438
    min_value: 0.0
    scale: 3.117964744567871
    zero_point: 0
  '@Mul_sq_mul_layer31_q_proj_384:out0':
    qtype: u8
    quantizer: asymmetric_affine
    rounding: rtne
    max_value: 2.8330912590026855
    min_value: -2.345977783203125
    scale: 0.02031007409095764
    zero_point: 116
  '@Neg_layer31_k_rope_neg_second_387:out0':
    qtype: u8
    quantizer: asymmetric_affine
    rounding: rtne
    max_value: 13.701908111572266
    min_value: -12.851418495178223
    scale: 0.10413068532943726
    zero_point: 123
  '@Slice_layer31_k_rope_slice_second_388:out0':
    qtype: u8
    quantizer: asymmetric_affine
    rounding: rtne
    max_value: 12.770928382873535
    min_value: -13.701857566833496
    scale: 0.10381484776735306
    zero_point: 132
  '@ReduceMean_layer31_attn_rms_mean_389:out0':
    qtype: u8
    quantizer: asymmetric_affine
    rounding: rtne
    max_value: 488068.5
    min_value: 0.0
    scale: 1913.994140625
    zero_point: 0
  '@Mul_layer31_attn_rms_square_390:out0':
    qtype: u8
    quantizer: asymmetric_affine
    rounding: rtne
    max_value: 309859200.0
    min_value: 0.0
    scale: 1215134.125
    zero_point: 0
  '@Add_layer22_mlp_residual_391:out0':
    qtype: u8
    quantizer: asymmetric_affine
    rounding: rtne
    max_value: 12744.6435546875
    min_value: -23493.021484375
    scale: 142.10848999023438
    zero_point: 165
  '@Mul_sq_mul_layer23_down_proj_393:out0':
    qtype: u8
    quantizer: asymmetric_affine
    rounding: rtne
    max_value: 3.935067892074585
    min_value: -3.935067892074585
    scale: 0.03086327761411667
    zero_point: 128
  '@Reshape_layer24_ctx_merge_heads_395:out0':
    qtype: u8
    quantizer: asymmetric_affine
    rounding: rtne
    max_value: 4.447996616363525
    min_value: -4.389038562774658
    scale: 0.03465503826737404
    zero_point: 127
  '@Initializer_sq_scale_layer24_out_proj_396:out0':
    qtype: u8
    quantizer: asymmetric_affine
    rounding: rtne
    max_value: 1.325868010520935
    min_value: 0.0
    scale: 0.005199482198804617
    zero_point: 0
  '@MatMul_layer25_attn_context_399:out0':
    qtype: u8
    quantizer: asymmetric_affine
    rounding: rtne
    max_value: 4.09058141708374
    min_value: -4.09058141708374
    scale: 0.03208298981189728
    zero_point: 128
  '@Mul_sq_mul_layer25_gate_proj_400:out0':
    qtype: u8
    quantizer: asymmetric_affine
    rounding: rtne
    max_value: 1.975160837173462
    min_value: -1.5097157955169678
    scale: 0.01366618275642395
    zero_point: 110
  '@Initializer_sq_scale_layer25_gate_proj_402:out0':
    qtype: u8
    quantizer: asymmetric_affine
    rounding: rtne
    max_value: 4.795042037963867
    min_value: 0.0
    scale: 0.01880408637225628
    zero_point: 0
  '@Mul_layer25_mlp_rms_gamma_403:out0':
    qtype: u8
    quantizer: asymmetric_affine
    rounding: rtne
    max_value: 4.419126510620117
    min_value: -2.544151544570923
    scale: 0.027306972071528435
    zero_point: 93
  '@Initializer_sq_scale_layer25_up_proj_404:out0':
    qtype: u8
    quantizer: asymmetric_affine
    rounding: rtne
    max_value: 4.628462314605713
    min_value: 0.0
    scale: 0.018150832504034042
    zero_point: 0
  '@Add_layer26_causal_mask_405:out0':
    qtype: u8
    quantizer: asymmetric_affine
    rounding: rtne
    max_value: 14.220590591430664
    min_value: -10013.1591796875
    scale: 39.32305908203125
    zero_point: 255
  '@Reshape_layer26_v_repeat_expand_406:out0':
    qtype: u8
    quantizer: asymmetric_affine
    rounding: rtne
    max_value: 11.371115684509277
    min_value: -11.621729850769043
    scale: 0.09016802161931992
    zero_point: 129
  '@Transpose_layer26_v_heads_407:out0':
    qtype: u8
    quantizer: asymmetric_affine
    rounding: rtne
    max_value: 11.371115684509277
    min_value: -11.621729850769043
    scale: 0.09016802161931992
    zero_point: 129
  '@Reciprocal_layer26_mlp_rms_reciprocal_408:out0':
    qtype: u8
    quantizer: asymmetric_affine
    rounding: rtne
    max_value: 1.0
    min_value: 0.0
    scale: 0.003921568859368563
    zero_point: 0
  '@Divide_409:out0':
    qtype: u8
    quantizer: asymmetric_affine
    rounding: rtne
    max_value: 0.0621638186275959
    min_value: 0.0
    scale: 0.0002437796792946756
    zero_point: 0
  '@Add_layer27_q_rope_rope_add_410:out0':
    qtype: u8
    quantizer: asymmetric_affine
    rounding: rtne
    max_value: 15.393911361694336
    min_value: -13.343097686767578
    scale: 0.112694151699543
    zero_point: 118
  '@Transpose_layer27_k_transpose_411:out0':
    qtype: u8
    quantizer: asymmetric_affine
    rounding: rtne
    max_value: 9.220894813537598
    min_value: -14.224810600280762
    scale: 0.09194394201040268
    zero_point: 155
  '@Add_layer27_mlp_rms_eps_413:out0':
    qtype: u8
    quantizer: asymmetric_affine
    rounding: rtne
    max_value: 742782.9375
    min_value: 0.0
    scale: 2912.874267578125
    zero_point: 0
  '@Transpose_layer28_q_heads_414:out0':
    qtype: u8
    quantizer: asymmetric_affine
    rounding: rtne
    max_value: 14.39657211303711
    min_value: -14.39657211303711
    scale: 0.11291429400444031
    zero_point: 128
  '@Reshape_layer28_q_reshape_415:out0':
    qtype: u8
    quantizer: asymmetric_affine
    rounding: rtne
    max_value: 14.39657211303711
    min_value: -14.39657211303711
    scale: 0.11291429400444031
    zero_point: 128
  '@Concat_layer28_q_rope_rotate_half_416:out0':
    qtype: u8
    quantizer: asymmetric_affine
    rounding: rtne
    max_value: 11.444740295410156
    min_value: -15.088014602661133
    scale: 0.10405001789331436
    zero_point: 145
  '@Slice_layer28_q_rope_slice_first_417:out0':
    qtype: u8
    quantizer: asymmetric_affine
    rounding: rtne
    max_value: 14.39657211303711
    min_value: -14.39657211303711
    scale: 0.11291429400444031
    zero_point: 128
  '@Tile_layer28_k_repeat_tile_418:out0':
    qtype: u8
    quantizer: asymmetric_affine
    rounding: rtne
    max_value: 14.96155071258545
    min_value: -11.006842613220215
    scale: 0.10183683782815933
    zero_point: 108
  '@Mul_sq_mul_layer28_v_proj_419:out0':
    qtype: u8
    quantizer: asymmetric_affine
    rounding: rtne
    max_value: 1.6392377614974976
    min_value: -1.6392377614974976
    scale: 0.01285676658153534
    zero_point: 128
  '@Initializer_sq_scale_layer28_v_proj_421:out0':
    qtype: u8
    quantizer: asymmetric_affine
    rounding: rtne
    max_value: 1.8030540943145752
    min_value: 0.0
    scale: 0.007070800289511681
    zero_point: 0
  '@Mul_layer28_attn_rms_gamma_422:out0':
    qtype: u8
    quantizer: asymmetric_affine
    rounding: rtne
    max_value: 4.767785549163818
    min_value: -4.767785549163818
    scale: 0.03739439696073532
    zero_point: 128
  '@Add_layer29_k_rope_rope_add_426:out0':
    qtype: u8
    quantizer: asymmetric_affine
    rounding: rtne
    max_value: 14.793357849121094
    min_value: -16.005250930786133
    scale: 0.12077885866165161
    zero_point: 133
  '@Mul_layer29_k_rope_mul_sin_427:out0':
    qtype: u8
    quantizer: asymmetric_affine
    rounding: rtne
    max_value: 4.680296421051025
    min_value: -4.565370559692383
    scale: 0.03625751659274101
    zero_point: 126
  '@Reciprocal_layer29_attn_rms_reciprocal_428:out0':
    qtype: u8
    quantizer: asymmetric_affine
    rounding: rtne
    max_value: 1.0
    min_value: 0.0
    scale: 0.003921568859368563
    zero_point: 0
  '@Divide_429:out0':
    qtype: u8
    quantizer: asymmetric_affine
    rounding: rtne
    max_value: 0.04352740943431854
    min_value: 0.0
    scale: 0.0001706957264104858
    zero_point: 0
  '@Transpose_layer30_k_heads_431:out0':
    qtype: u8
    quantizer: asymmetric_affine
    rounding: rtne
    max_value: 14.192068099975586
    min_value: -16.6384334564209
    scale: 0.12090392410755157
    zero_point: 138
  '@Reshape_layer30_k_reshape_432:out0':
    qtype: u8
    quantizer: asymmetric_affine
    rounding: rtne
    max_value: 14.192068099975586
    min_value: -16.6384334564209
    scale: 0.12090392410755157
    zero_point: 138
  '@Concat_layer30_k_rope_rotate_half_433:out0':
    qtype: u8
    quantizer: asymmetric_affine
    rounding: rtne
    max_value: 11.643654823303223
    min_value: -16.638364791870117
    scale: 0.11090988665819168
    zero_point: 150
  '@Slice_layer30_k_rope_slice_first_434:out0':
    qtype: u8
    quantizer: asymmetric_affine
    rounding: rtne
    max_value: 14.192068099975586
    min_value: -16.6384334564209
    scale: 0.12090392410755157
    zero_point: 138
  '@Add_layer30_attn_rms_eps_435:out0':
    qtype: u8
    quantizer: asymmetric_affine
    rounding: rtne
    max_value: 632153.875
    min_value: 0.0
    scale: 2479.034912109375
    zero_point: 0
  '@ReduceMean_layer30_attn_rms_mean_436:out0':
    qtype: u8
    quantizer: asymmetric_affine
    rounding: rtne
    max_value: 632153.875
    min_value: 0.0
    scale: 2479.034912109375
    zero_point: 0
  '@Initializer_sq_scale_layer31_q_proj_437:out0':
    qtype: u8
    quantizer: asymmetric_affine
    rounding: rtne
    max_value: 1.39560866355896
    min_value: 0.0
    scale: 0.005472975317388773
    zero_point: 0
  '@Mul_sq_mul_layer31_k_proj_441:out0':
    qtype: u8
    quantizer: asymmetric_affine
    rounding: rtne
    max_value: 1.9708749055862427
    min_value: -3.1608855724334717
    scale: 0.02012455090880394
    zero_point: 157
  '@Initializer_sq_scale_layer31_k_proj_442:out0':
    qtype: u8
    quantizer: asymmetric_affine
    rounding: rtne
    max_value: 1.0801684856414795
    min_value: 0.0
    scale: 0.0042359549552202225
    zero_point: 0
  '@Add_layer22_attn_residual_443:out0':
    qtype: u8
    quantizer: asymmetric_affine
    rounding: rtne
    max_value: 12761.6787109375
    min_value: -23481.5703125
    scale: 142.13038635253906
    zero_point: 165
  '@Mul_sq_mul_layer23_out_proj_445:out0':
    qtype: u8
    quantizer: asymmetric_affine
    rounding: rtne
    max_value: 2.308089017868042
    min_value: -2.308089017868042
    scale: 0.018102658912539482
    zero_point: 128
  '@Mul_layer23_swiglu_mul_447:out0':
    qtype: u8
    quantizer: asymmetric_affine
    rounding: rtne
    max_value: 12.908512115478516
    min_value: -12.908512115478516
    scale: 0.10124323517084122
    zero_point: 128
  '@Initializer_sq_scale_layer23_down_proj_448:out0':
    qtype: u8
    quantizer: asymmetric_affine
    rounding: rtne
    max_value: 1.4459877014160156
    min_value: 0.0
    scale: 0.005670540034770966
    zero_point: 0
  '@Transpose_layer24_ctx_transpose_449:out0':
    qtype: u8
    quantizer: asymmetric_affine
    rounding: rtne
    max_value: 4.447996616363525
    min_value: -4.389038562774658
    scale: 0.03465503826737404
    zero_point: 127
  '@Mul_sq_mul_layer24_up_proj_452:out0':
    qtype: u8
    quantizer: asymmetric_affine
    rounding: rtne
    max_value: 2.09519624710083
    min_value: -1.7892680168151855
    scale: 0.015233193524181843
    zero_point: 117
  '@Softmax_layer25_softmax_454:out0':
    qtype: u8
    quantizer: asymmetric_affine
    rounding: rtne
    max_value: 1.0
    min_value: 0.0
    scale: 0.003921568859368563
    zero_point: 0
  '@Reshape_layer25_v_repeat_merge_455:out0':
    qtype: u8
    quantizer: asymmetric_affine
    rounding: rtne
    max_value: 6.6181111335754395
    min_value: -7.021777153015137
    scale: 0.05348975956439972
    zero_point: 131
  '@Tile_layer25_v_repeat_tile_456:out0':
    qtype: u8
    quantizer: asymmetric_affine
    rounding: rtne
    max_value: 6.6181111335754395
    min_value: -7.021777153015137
    scale: 0.05348975956439972
    zero_point: 131
  '@Mul_layer25_mlp_rms_scale_to_unit_457:out0':
    qtype: u8
    quantizer: asymmetric_affine
    rounding: rtne
    max_value: 14.692160606384277
    min_value: -27.129009246826172
    scale: 0.1640045940876007
    zero_point: 165
  '@Initializer_layer25_mlp_gamma_458:out0':
    qtype: u8
    quantizer: asymmetric_affine
    rounding: rtne
    max_value: 0.30859375
    min_value: 0.0
    scale: 0.0012101716129109263
    zero_point: 0
  '@Mul_layer26_attn_scale_459:out0':
    qtype: u8
    quantizer: asymmetric_affine
    rounding: rtne
    max_value: 13.984661102294922
    min_value: -13.127848625183105
    scale: 0.10632357001304626
    zero_point: 123
  '@MatMul_layer26_attn_scores_460:out0':
    qtype: u8
    quantizer: asymmetric_affine
    rounding: rtne
    max_value: 111.87728881835938
    min_value: -105.02278900146484
    scale: 0.8505885601043701
    zero_point: 123
  '@Reshape_layer26_v_reshape_461:out0':
    qtype: u8
    quantizer: asymmetric_affine
    rounding: rtne
    max_value: 11.371115684509277
    min_value: -11.621729850769043
    scale: 0.09016802161931992
    zero_point: 129
  '@Sqrt_layer26_mlp_rms_sqrt_462:out0':
    qtype: u8
    quantizer: asymmetric_affine
    rounding: rtne
    max_value: 864.2481689453125
    min_value: 0.0
    scale: 3.3892085552215576
    zero_point: 0
  '@Mul_layer27_q_rope_mul_cos_463:out0':
    qtype: u8
    quantizer: asymmetric_affine
    rounding: rtne
    max_value: 15.405349731445312
    min_value: -13.341455459594727
    scale: 0.11273256689310074
    zero_point: 118
  '@Mul_layer27_q_rope_mul_sin_464:out0':
    qtype: u8
    quantizer: asymmetric_affine
    rounding: rtne
    max_value: 6.007418155670166
    min_value: -6.159564018249512
    scale: 0.04771365597844124
    zero_point: 129
  '@Reshape_layer27_k_repeat_merge_465:out0':
    qtype: u8
    quantizer: asymmetric_affine
    rounding: rtne
    max_value: 9.220894813537598
    min_value: -14.224810600280762
    scale: 0.09194394201040268
    zero_point: 155
  '@ReduceMean_layer27_mlp_rms_mean_468:out0':
    qtype: u8
    quantizer: asymmetric_affine
    rounding: rtne
    max_value: 742782.9375
    min_value: 0.0
    scale: 2912.874267578125
    zero_point: 0
  '@Mul_layer27_mlp_rms_square_469:out0':
    qtype: u8
    quantizer: asymmetric_affine
    rounding: rtne
    max_value: 546027456.0
    min_value: 0.0
    scale: 2141284.25
    zero_point: 0
  '@Neg_layer28_q_rope_neg_second_471:out0':
    qtype: u8
    quantizer: asymmetric_affine
    rounding: rtne
    max_value: 11.444740295410156
    min_value: -15.088014602661133
    scale: 0.10405001789331436
    zero_point: 145
  '@Slice_layer28_q_rope_slice_second_472:out0':
    qtype: u8
    quantizer: asymmetric_affine
    rounding: rtne
    max_value: 14.39657211303711
    min_value: -14.39657211303711
    scale: 0.11291429400444031
    zero_point: 128
  '@Reshape_layer28_k_repeat_expand_473:out0':
    qtype: u8
    quantizer: asymmetric_affine
    rounding: rtne
    max_value: 14.96155071258545
    min_value: -11.006842613220215
    scale: 0.10183683782815933
    zero_point: 108
  '@Mul_layer28_attn_rms_scale_to_unit_474:out0':
    qtype: u8
    quantizer: asymmetric_affine
    rounding: rtne
    max_value: 14.848236083984375
    min_value: -27.32948875427246
    scale: 0.1654028445482254
    zero_point: 165
  '@Initializer_layer28_attn_gamma_475:out0':
    qtype: u8
    quantizer: asymmetric_affine
    rounding: rtne
    max_value: 0.859375
    min_value: 0.0
    scale: 0.0033700980711728334
    zero_point: 0
  '@Mul_sq_mul_layer29_q_proj_476:out0':
    qtype: u8
    quantizer: asymmetric_affine
    rounding: rtne
    max_value: 2.5280656814575195
    min_value: -2.291166305541992
    scale: 0.018898949027061462
    zero_point: 121
  '@Mul_layer29_k_rope_mul_cos_477:out0':
    qtype: u8
    quantizer: asymmetric_affine
    rounding: rtne
    max_value: 14.790623664855957
    min_value: -15.995079040527344
    scale: 0.12072823941707611
    zero_point: 132
  '@Concat_layer29_k_rope_rotate_half_478:out0':
    qtype: u8
    quantizer: asymmetric_affine
    rounding: rtne
    max_value: 17.056882858276367
    min_value: -10.884492874145508
    scale: 0.10957401990890503
    zero_point: 99
  '@Slice_layer29_k_rope_slice_first_479:out0':
    qtype: u8
    quantizer: asymmetric_affine
    rounding: rtne
    max_value: 14.790785789489746
    min_value: -15.99499797821045
    scale: 0.12072856724262238
    zero_point: 132
  '@Sqrt_layer29_attn_rms_sqrt_480:out0':
    qtype: u8
    quantizer: asymmetric_affine
    rounding: rtne
    max_value: 839.6049194335938
    min_value: 0.0
    scale: 3.2925682067871094
    zero_point: 0
  '@Mul_sq_mul_layer30_q_proj_481:out0':
    qtype: u8
    quantizer: asymmetric_affine
    rounding: rtne
    max_value: 2.6590077877044678
    min_value: -2.64626407623291
    scale: 0.020804988220334053
    zero_point: 127
  '@Neg_layer30_k_rope_neg_second_484:out0':
    qtype: u8
    quantizer: asymmetric_affine
    rounding: rtne
    max_value: 11.643654823303223
    min_value: -16.638364791870117
    scale: 0.11090988665819168
    zero_point: 150
  '@Slice_layer30_k_rope_slice_second_485:out0':
    qtype: u8
    quantizer: asymmetric_affine
    rounding: rtne
    max_value: 14.192068099975586
    min_value: -16.6384334564209
    scale: 0.12090392410755157
    zero_point: 138
  '@Mul_layer30_attn_rms_square_486:out0':
    qtype: u8
    quantizer: asymmetric_affine
    rounding: rtne
    max_value: 446041696.0
    min_value: 0.0
    scale: 1749183.125
    zero_point: 0
  '@Add_layer21_mlp_residual_488:out0':
    qtype: u8
    quantizer: asymmetric_affine
    rounding: rtne
    max_value: 12773.2841796875
    min_value: -23542.984375
    scale: 142.416748046875
    zero_point: 165
  '@Mul_sq_mul_layer22_down_proj_490:out0':
    qtype: u8
    quantizer: asymmetric_affine
    rounding: rtne
    max_value: 3.5858864784240723
    min_value: -3.5858864784240723
    scale: 0.028124600648880005
    zero_point: 128
  '@Reshape_layer23_ctx_merge_heads_492:out0':
    qtype: u8
    quantizer: asymmetric_affine
    rounding: rtne
    max_value: 3.5188608169555664
    min_value: -3.5188608169555664
    scale: 0.0275989081710577
    zero_point: 128
  '@Initializer_sq_scale_layer23_out_proj_493:out0':
    qtype: u8
    quantizer: asymmetric_affine
    rounding: rtne
    max_value: 1.5723567008972168
    min_value: 0.0
    scale: 0.006166104692965746
    zero_point: 0
  '@MatMul_layer24_attn_context_496:out0':
    qtype: u8
    quantizer: asymmetric_affine
    rounding: rtne
    max_value: 4.447996616363525
    min_value: -4.389038562774658
    scale: 0.03465503826737404
    zero_point: 127
  '@Mul_sq_mul_layer24_gate_proj_497:out0':
    qtype: u8
    quantizer: asymmetric_affine
    rounding: rtne
    max_value: 1.7740161418914795
    min_value: -1.6759023666381836
    scale: 0.013529092073440552
    zero_point: 124
  '@Initializer_sq_scale_layer24_gate_proj_499:out0':
    qtype: u8
    quantizer: asymmetric_affine
    rounding: rtne
    max_value: 2.835240125656128
    min_value: 0.0
    scale: 0.011118588969111443
    zero_point: 0
  '@Mul_layer24_mlp_rms_gamma_500:out0':
    qtype: u8
    quantizer: asymmetric_affine
    rounding: rtne
    max_value: 4.131621360778809
    min_value: -2.6933553218841553
    scale: 0.02676461450755596
    zero_point: 101
  '@Initializer_sq_scale_layer24_up_proj_501:out0':
    qtype: u8
    quantizer: asymmetric_affine
    rounding: rtne
    max_value: 2.867337226867676
    min_value: 0.0
    scale: 0.011244460009038448
    zero_point: 0
  '@Add_layer25_causal_mask_502:out0':
    qtype: u8
    quantizer: asymmetric_affine
    rounding: rtne
    max_value: 15.099157333374023
    min_value: -10009.3271484375
    scale: 39.31147766113281
    zero_point: 255
  '@Reshape_layer25_v_repeat_expand_503:out0':
    qtype: u8
    quantizer: asymmetric_affine
    rounding: rtne
    max_value: 6.6181111335754395
    min_value: -7.021777153015137
    scale: 0.05348975956439972
    zero_point: 131
  '@Transpose_layer25_v_heads_504:out0':
    qtype: u8
    quantizer: asymmetric_affine
    rounding: rtne
    max_value: 6.6181111335754395
    min_value: -7.021777153015137
    scale: 0.05348975956439972
    zero_point: 131
  '@Reciprocal_layer25_mlp_rms_reciprocal_505:out0':
    qtype: u8
    quantizer: asymmetric_affine
    rounding: rtne
    max_value: 1.0
    min_value: 0.0
    scale: 0.003921568859368563
    zero_point: 0
  '@Divide_506:out0':
    qtype: u8
    quantizer: asymmetric_affine
    rounding: rtne
    max_value: 0.06715043634176254
    min_value: 0.0
    scale: 0.00026333503774367273
    zero_point: 0
  '@Add_layer26_q_rope_rope_add_507:out0':
    qtype: u8
    quantizer: asymmetric_affine
    rounding: rtne
    max_value: 19.006189346313477
    min_value: -17.007814407348633
    scale: 0.14123138785362244
    zero_point: 120
  '@Transpose_layer26_k_transpose_508:out0':
    qtype: u8
    quantizer: asymmetric_affine
    rounding: rtne
    max_value: 10.544466972351074
    min_value: -13.671154975891113
    scale: 0.09496322274208069
    zero_point: 144
  '@Add_layer26_mlp_rms_eps_510:out0':
    qtype: u8
    quantizer: asymmetric_affine
    rounding: rtne
    max_value: 746925.0
    min_value: 0.0
    scale: 2929.11767578125
    zero_point: 0
  '@Transpose_layer27_q_heads_511:out0':
    qtype: u8
    quantizer: asymmetric_affine
    rounding: rtne
    max_value: 15.40555191040039
    min_value: -13.341472625732422
    scale: 0.11273343116044998
    zero_point: 118
  '@Reshape_layer27_q_reshape_512:out0':
    qtype: u8
    quantizer: asymmetric_affine
    rounding: rtne
    max_value: 15.40555191040039
    min_value: -13.341472625732422
    scale: 0.11273343116044998
    zero_point: 118
  '@Concat_layer27_q_rope_rotate_half_513:out0':
    qtype: u8
    quantizer: asymmetric_affine
    rounding: rtne
    max_value: 15.40555191040039
    min_value: -12.291088104248047
    scale: 0.10861427336931229
    zero_point: 113
  '@Slice_layer27_q_rope_slice_first_514:out0':
    qtype: u8
    quantizer: asymmetric_affine
    rounding: rtne
    max_value: 15.40555191040039
    min_value: -13.341472625732422
    scale: 0.11273343116044998
    zero_point: 118
  '@Tile_layer27_k_repeat_tile_515:out0':
    qtype: u8
    quantizer: asymmetric_affine
    rounding: rtne
    max_value: 9.220894813537598
    min_value: -14.224810600280762
    scale: 0.09194394201040268
    zero_point: 155
  '@Mul_sq_mul_layer27_v_proj_516:out0':
    qtype: u8
    quantizer: asymmetric_affine
    rounding: rtne
    max_value: 2.164743185043335
    min_value: -1.637200951576233
    scale: 0.014909585006535053
    zero_point: 110
  '@Initializer_sq_scale_layer27_v_proj_518:out0':
    qtype: u8
    quantizer: asymmetric_affine
    rounding: rtne
    max_value: 1.6419918537139893
    min_value: 0.0
    scale: 0.006439183838665485
    zero_point: 0
  '@Mul_layer27_attn_rms_gamma_519:out0':
    qtype: u8
    quantizer: asymmetric_affine
    rounding: rtne
    max_value: 4.882569789886475
    min_value: -4.882569789886475
    scale: 0.03829466551542282
    zero_point: 128
  '@Add_layer28_k_rope_rope_add_523:out0':
    qtype: u8
    quantizer: asymmetric_affine
    rounding: rtne
    max_value: 14.96155071258545
    min_value: -11.006842613220215
    scale: 0.10183683782815933
    zero_point: 108
  '@Mul_layer28_k_rope_mul_sin_524:out0':
    qtype: u8
    quantizer: asymmetric_affine
    rounding: rtne
    max_value: 4.126534461975098
    min_value: -3.241095781326294
    scale: 0.02889266610145569
    zero_point: 112
  '@Reciprocal_layer28_attn_rms_reciprocal_525:out0':
    qtype: u8
    quantizer: asymmetric_affine
    rounding: rtne
    max_value: 1.0
    min_value: 0.0
    scale: 0.003921568859368563
    zero_point: 0
  '@Divide_526:out0':
    qtype: u8
    quantizer: asymmetric_affine
    rounding: rtne
    max_value: 0.05005956068634987
    min_value: 0.0
    scale: 0.00019631200120784342
    zero_point: 0
  '@Sqrt_layer28_attn_rms_sqrt_527:out0':
    qtype: u8
    quantizer: asymmetric_affine
    rounding: rtne
    max_value: 849.16357421875
    min_value: 0.0
    scale: 3.3300533294677734
    zero_point: 0
  '@Initializer_sq_scale_layer29_q_proj_528:out0':
    qtype: u8
    quantizer: asymmetric_affine
    rounding: rtne
    max_value: 1.9530742168426514
    min_value: 0.0
    scale: 0.007659114431589842
    zero_point: 0
  '@Transpose_layer29_k_heads_529:out0':
    qtype: u8
    quantizer: asymmetric_affine
    rounding: rtne
    max_value: 14.790785789489746
    min_value: -15.99499797821045
    scale: 0.12072856724262238
    zero_point: 132
  '@Reshape_layer29_k_reshape_530:out0':
    qtype: u8
    quantizer: asymmetric_affine
    rounding: rtne
    max_value: 14.790785789489746
    min_value: -15.99499797821045
    scale: 0.12072856724262238
    zero_point: 132
  '@Neg_layer29_k_rope_neg_second_531:out0':
    qtype: u8
    quantizer: asymmetric_affine
    rounding: rtne
    max_value: 17.056882858276367
    min_value: -10.884492874145508
    scale: 0.10957401990890503
    zero_point: 99
  '@Slice_layer29_k_rope_slice_second_532:out0':
    qtype: u8
    quantizer: asymmetric_affine
    rounding: rtne
    max_value: 14.790785789489746
    min_value: -15.99499797821045
    scale: 0.12072856724262238
    zero_point: 132
  '@Add_layer29_attn_rms_eps_533:out0':
    qtype: u8
    quantizer: asymmetric_affine
    rounding: rtne
    max_value: 704936.3125
    min_value: 0.0
    scale: 2764.4560546875
    zero_point: 0
  '@ReduceMean_layer29_attn_rms_mean_534:out0':
    qtype: u8
    quantizer: asymmetric_affine
    rounding: rtne
    max_value: 704936.3125
    min_value: 0.0
    scale: 2764.4560546875
    zero_point: 0
  '@Initializer_sq_scale_layer30_q_proj_535:out0':
    qtype: u8
    quantizer: asymmetric_affine
    rounding: rtne
    max_value: 1.7158656120300293
    min_value: 0.0
    scale: 0.006728884764015675
    zero_point: 0
  '@Add_layer21_attn_residual_537:out0':
    qtype: u8
    quantizer: asymmetric_affine
    rounding: rtne
    max_value: 12778.1669921875
    min_value: -23532.703125
    scale: 142.39556884765625
    zero_point: 165
  '@Mul_sq_mul_layer22_out_proj_539:out0':
    qtype: u8
    quantizer: asymmetric_affine
    rounding: rtne
    max_value: 2.874797821044922
    min_value: -2.7529191970825195
    scale: 0.022069478407502174
    zero_point: 125
  '@Mul_layer22_swiglu_mul_541:out0':
    qtype: u8
    quantizer: asymmetric_affine
    rounding: rtne
    max_value: 6.427319049835205
    min_value: -6.427319049835205
    scale: 0.05041034519672394
    zero_point: 128
  '@Initializer_sq_scale_layer22_down_proj_542:out0':
    qtype: u8
    quantizer: asymmetric_affine
    rounding: rtne
    max_value: 1.7486131191253662
    min_value: 0.0
    scale: 0.006857306230813265
    zero_point: 0
  '@Transpose_layer23_ctx_transpose_543:out0':
    qtype: u8
    quantizer: asymmetric_affine
    rounding: rtne
    max_value: 3.5188608169555664
    min_value: -3.5188608169555664
    scale: 0.0275989081710577
    zero_point: 128
  '@Mul_sq_mul_layer23_up_proj_546:out0':
    qtype: u8
    quantizer: asymmetric_affine
    rounding: rtne
    max_value: 1.9292209148406982
    min_value: -1.5078412294387817
    scale: 0.013478675857186317
    zero_point: 112
  '@Softmax_layer24_softmax_548:out0':
    qtype: u8
    quantizer: asymmetric_affine
    rounding: rtne
    max_value: 1.0
    min_value: 0.0
    scale: 0.003921568859368563
    zero_point: 0
  '@Reshape_layer24_v_repeat_merge_549:out0':
    qtype: u8
    quantizer: asymmetric_affine
    rounding: rtne
    max_value: 6.1351847648620605
    min_value: -6.553194046020508
    scale: 0.04975834861397743
    zero_point: 132
  '@Tile_layer24_v_repeat_tile_550:out0':
    qtype: u8
    quantizer: asymmetric_affine
    rounding: rtne
    max_value: 6.1351847648620605
    min_value: -6.553194046020508
    scale: 0.04975834861397743
    zero_point: 132
  '@Mul_layer24_mlp_rms_scale_to_unit_551:out0':
    qtype: u8
    quantizer: asymmetric_affine
    rounding: rtne
    max_value: 14.69020938873291
    min_value: -27.129751205444336
    scale: 0.16399985551834106
    zero_point: 165
  '@Initializer_layer24_mlp_gamma_552:out0':
    qtype: u8
    quantizer: asymmetric_affine
    rounding: rtne
    max_value: 0.294921875
    min_value: -0.000598907470703125
    scale: 0.0011589049827307463
    zero_point: 1
  '@Mul_layer25_attn_scale_553:out0':
    qtype: u8
    quantizer: asymmetric_affine
    rounding: rtne
    max_value: 13.203750610351562
    min_value: -10.192460060119629
    scale: 0.09174983948469162
    zero_point: 111
  '@MatMul_layer25_attn_scores_554:out0':
    qtype: u8
    quantizer: asymmetric_affine
    rounding: rtne
    max_value: 105.6300048828125
    min_value: -81.53968048095703
    scale: 0.733998715877533
    zero_point: 111
  '@Reshape_layer25_v_reshape_555:out0':
    qtype: u8
    quantizer: asymmetric_affine
    rounding: rtne
    max_value: 6.6181111335754395
    min_value: -7.021777153015137
    scale: 0.05348975956439972
    zero_point: 131
  '@Sqrt_layer25_mlp_rms_sqrt_556:out0':
    qtype: u8
    quantizer: asymmetric_affine
    rounding: rtne
    max_value: 865.070556640625
    min_value: 0.0
    scale: 3.3924336433410645
    zero_point: 0
  '@Mul_layer26_q_rope_mul_cos_557:out0':
    qtype: u8
    quantizer: asymmetric_affine
    rounding: rtne
    max_value: 19.012754440307617
    min_value: -17.010889053344727
    scale: 0.14126919209957123
    zero_point: 120
  '@Mul_layer26_q_rope_mul_sin_558:out0':
    qtype: u8
    quantizer: asymmetric_affine
    rounding: rtne
    max_value: 6.030704021453857
    min_value: -5.838504791259766
    scale: 0.04654591903090477
    zero_point: 125
  '@Reshape_layer26_k_repeat_merge_559:out0':
    qtype: u8
    quantizer: asymmetric_affine
    rounding: rtne
    max_value: 10.544466972351074
    min_value: -13.671154975891113
    scale: 0.09496322274208069
    zero_point: 144
  '@ReduceMean_layer26_mlp_rms_mean_562:out0':
    qtype: u8
    quantizer: asymmetric_affine
    rounding: rtne
    max_value: 746925.0
    min_value: 0.0
    scale: 2929.11767578125
    zero_point: 0
  '@Mul_layer26_mlp_rms_square_563:out0':
    qtype: u8
    quantizer: asymmetric_affine
    rounding: rtne
    max_value: 549638656.0
    min_value: 0.0
    scale: 2155445.75
    zero_point: 0
  '@Neg_layer27_q_rope_neg_second_565:out0':
    qtype: u8
    quantizer: asymmetric_affine
    rounding: rtne
    max_value: 15.40555191040039
    min_value: -12.291088104248047
    scale: 0.10861427336931229
    zero_point: 113
  '@Slice_layer27_q_rope_slice_second_566:out0':
    qtype: u8
    quantizer: asymmetric_affine
    rounding: rtne
    max_value: 15.40555191040039
    min_value: -13.341472625732422
    scale: 0.11273343116044998
    zero_point: 118
  '@Reshape_layer27_k_repeat_expand_567:out0':
    qtype: u8
    quantizer: asymmetric_affine
    rounding: rtne
    max_value: 9.220894813537598
    min_value: -14.224810600280762
    scale: 0.09194394201040268
    zero_point: 155
  '@Mul_layer27_attn_rms_scale_to_unit_568:out0':
    qtype: u8
    quantizer: asymmetric_affine
    rounding: rtne
    max_value: 14.715404510498047
    min_value: -27.116479873657227
    scale: 0.16404661536216736
    zero_point: 165
  '@Initializer_layer27_attn_gamma_569:out0':
    qtype: u8
    quantizer: asymmetric_affine
    rounding: rtne
    max_value: 0.82421875
    min_value: 0.0
    scale: 0.003232230432331562
    zero_point: 0
  '@Mul_sq_mul_layer28_q_proj_570:out0':
    qtype: u8
    quantizer: asymmetric_affine
    rounding: rtne
    max_value: 1.9006459712982178
    min_value: -1.9400203227996826
    scale: 0.015061436221003532
    zero_point: 129
  '@Mul_layer28_k_rope_mul_cos_571:out0':
    qtype: u8
    quantizer: asymmetric_affine
    rounding: rtne
    max_value: 14.959249496459961
    min_value: -11.023271560668945
    scale: 0.10189224034547806
    zero_point: 108
  '@Concat_layer28_k_rope_rotate_half_572:out0':
    qtype: u8
    quantizer: asymmetric_affine
    rounding: rtne
    max_value: 11.974940299987793
    min_value: -14.959352493286133
    scale: 0.10562467575073242
    zero_point: 142
  '@Slice_layer28_k_rope_slice_first_573:out0':
    qtype: u8
    quantizer: asymmetric_affine
    rounding: rtne
    max_value: 14.95932674407959
    min_value: -11.023825645446777
    scale: 0.10189471393823624
    zero_point: 108
  '@Add_layer28_attn_rms_eps_574:out0':
    qtype: u8
    quantizer: asymmetric_affine
    rounding: rtne
    max_value: 721078.6875
    min_value: 0.0
    scale: 2827.759521484375
    zero_point: 0
  '@Mul_layer29_attn_rms_square_577:out0':
    qtype: u8
    quantizer: asymmetric_affine
    rounding: rtne
    max_value: 512879520.0
    min_value: 0.0
    scale: 2011292.25
    zero_point: 0
  '@Mul_sq_mul_layer30_k_proj_578:out0':
    qtype: u8
    quantizer: asymmetric_affine
    rounding: rtne
    max_value: 2.0217201709747314
    min_value: -3.392946481704712
    scale: 0.02123398706316948
    zero_point: 160
  '@Add_layer20_mlp_residual_580:out0':
    qtype: u8
    quantizer: asymmetric_affine
    rounding: rtne
    max_value: 12787.095703125
    min_value: -23546.177734375
    scale: 142.48342895507812
    zero_point: 165
  '@Mul_sq_mul_layer21_down_proj_582:out0':
    qtype: u8
    quantizer: asymmetric_affine
    rounding: rtne
    max_value: 3.05008864402771
    min_value: -3.05008864402771
    scale: 0.023922264575958252
    zero_point: 128
  '@Reshape_layer22_ctx_merge_heads_584:out0':
    qtype: u8
    quantizer: asymmetric_affine
    rounding: rtne
    max_value: 3.5542759895324707
    min_value: -3.3890299797058105
    scale: 0.02722865156829357
    zero_point: 124
  '@Initializer_sq_scale_layer22_out_proj_585:out0':
    qtype: u8
    quantizer: asymmetric_affine
    rounding: rtne
    max_value: 1.7896478176116943
    min_value: 0.0
    scale: 0.0070182266645133495
    zero_point: 0
  '@MatMul_layer23_attn_context_588:out0':
    qtype: u8
    quantizer: asymmetric_affine
    rounding: rtne
    max_value: 3.5188608169555664
    min_value: -3.5188608169555664
    scale: 0.0275989081710577
    zero_point: 128
  '@Mul_sq_mul_layer23_gate_proj_589:out0':
    qtype: u8
    quantizer: asymmetric_affine
    rounding: rtne
    max_value: 1.6726865768432617
    min_value: -1.5830752849578857
    scale: 0.01276769395917654
    zero_point: 124
  '@Initializer_sq_scale_layer23_gate_proj_591:out0':
    qtype: u8
    quantizer: asymmetric_affine
    rounding: rtne
    max_value: 3.8162877559661865
    min_value: 0.0
    scale: 0.014965834096074104
    zero_point: 0
  '@Mul_layer23_mlp_rms_gamma_592:out0':
    qtype: u8
    quantizer: asymmetric_affine
    rounding: rtne
    max_value: 3.937209367752075
    min_value: -2.816725969314575
    scale: 0.026486020535230637
    zero_point: 106
  '@Initializer_sq_scale_layer23_up_proj_593:out0':
    qtype: u8
    quantizer: asymmetric_affine
    rounding: rtne
    max_value: 3.8535208702087402
    min_value: 0.0
    scale: 0.015111846849322319
    zero_point: 0
  '@Add_layer24_causal_mask_594:out0':
    qtype: u8
    quantizer: asymmetric_affine
    rounding: rtne
    max_value: 17.55579948425293
    min_value: -10024.0400390625
    scale: 39.378807067871094
    zero_point: 255
  '@Reshape_layer24_v_repeat_expand_595:out0':
    qtype: u8
    quantizer: asymmetric_affine
    rounding: rtne
    max_value: 6.1351847648620605
    min_value: -6.553194046020508
    scale: 0.04975834861397743
    zero_point: 132
  '@Transpose_layer24_v_heads_596:out0':
    qtype: u8
    quantizer: asymmetric_affine
    rounding: rtne
    max_value: 6.1351847648620605
    min_value: -6.553194046020508
    scale: 0.04975834861397743
    zero_point: 132
  '@Reciprocal_layer24_mlp_rms_reciprocal_597:out0':
    qtype: u8
    quantizer: asymmetric_affine
    rounding: rtne
    max_value: 1.0
    min_value: 0.0
    scale: 0.003921568859368563
    zero_point: 0
  '@Divide_598:out0':
    qtype: u8
    quantizer: asymmetric_affine
    rounding: rtne
    max_value: 0.0768442153930664
    min_value: 0.0
    scale: 0.0003013498499058187
    zero_point: 0
  '@Add_layer25_q_rope_rope_add_599:out0':
    qtype: u8
    quantizer: asymmetric_affine
    rounding: rtne
    max_value: 18.493696212768555
    min_value: -14.160736083984375
    scale: 0.128056600689888
    zero_point: 111
  '@Transpose_layer25_k_transpose_600:out0':
    qtype: u8
    quantizer: asymmetric_affine
    rounding: rtne
    max_value: 15.29245376586914
    min_value: -14.629952430725098
    scale: 0.1173427626490593
    zero_point: 125
  '@Add_layer25_mlp_rms_eps_602:out0':
    qtype: u8
    quantizer: asymmetric_affine
    rounding: rtne
    max_value: 748347.1875
    min_value: 0.0
    scale: 2934.69482421875
    zero_point: 0
  '@Transpose_layer26_q_heads_603:out0':
    qtype: u8
    quantizer: asymmetric_affine
    rounding: rtne
    max_value: 19.013065338134766
    min_value: -17.0113525390625
    scale: 0.14127223193645477
    zero_point: 120
  '@Reshape_layer26_q_reshape_604:out0':
    qtype: u8
    quantizer: asymmetric_affine
    rounding: rtne
    max_value: 19.013065338134766
    min_value: -17.0113525390625
    scale: 0.14127223193645477
    zero_point: 120
  '@Concat_layer26_q_rope_rotate_half_605:out0':
    qtype: u8
    quantizer: asymmetric_affine
    rounding: rtne
    max_value: 19.013164520263672
    min_value: -12.147970199584961
    scale: 0.12220052629709244
    zero_point: 99
  '@Slice_layer26_q_rope_slice_first_606:out0':
    qtype: u8
    quantizer: asymmetric_affine
    rounding: rtne
