# !!!This file disallow TABs!!!
version: 2
quantize_parameters:
  '@attach_Mul_final_rms_gamma/out0_0:out0':
    qtype: u8
    quantizer: asymmetric_affine
    rounding: rtne
    max_value: 54.06593704223633
    min_value: -26.903362274169922
    scale: 0.3175266683101654
    zero_point: 85
  '@Mul_final_rms_gamma_1:out0':
    qtype: u8
    quantizer: asymmetric_affine
    rounding: rtne
    max_value: 54.06593704223633
    min_value: -26.903362274169922
    scale: 0.3175266683101654
    zero_point: 85
  '@Mul_final_rms_scale_to_unit_2:out0':
    qtype: u8
    quantizer: asymmetric_affine
    rounding: rtne
    max_value: 20.626083374023438
    min_value: -20.626083374023438
    scale: 0.1617732048034668
    zero_point: 128
  '@Initializer_final_rms_gamma_3:out0':
    qtype: u8
    quantizer: asymmetric_affine
    rounding: rtne
    max_value: 3.34375
    min_value: -2.125
    scale: 0.02144607901573181
    zero_point: 99
  '@Add_layer29_mlp_residual_4:out0':
    qtype: u8
    quantizer: asymmetric_affine
    rounding: rtne
    max_value: 4651.1650390625
    min_value: -4651.1650390625
    scale: 36.4797248840332
    zero_point: 128
  '@Reciprocal_final_rms_reciprocal_5:out0':
    qtype: u8
    quantizer: asymmetric_affine
    rounding: rtne
    max_value: 1.0
    min_value: 0.0
    scale: 0.003921568859368563
    zero_point: 0
  '@Divide_6:out0':
    qtype: u8
    quantizer: asymmetric_affine
    rounding: rtne
    max_value: 0.07056163251399994
    min_value: 0.0
    scale: 0.00027671229327097535
    zero_point: 0
  '@Add_layer29_attn_residual_7:out0':
    qtype: u8
    quantizer: asymmetric_affine
    rounding: rtne
    max_value: 10706.2607421875
    min_value: -5681.77734375
    scale: 64.2668228149414
    zero_point: 88
  '@Sqrt_final_rms_sqrt_9:out0':
    qtype: u8
    quantizer: asymmetric_affine
    rounding: rtne
    max_value: 375.7688293457031
    min_value: 0.0
    scale: 1.4736032485961914
    zero_point: 0
  '@Add_layer28_mlp_residual_10:out0':
    qtype: u8
    quantizer: asymmetric_affine
    rounding: rtne
    max_value: 10709.03515625
    min_value: -5686.7783203125
    scale: 64.29730224609375
    zero_point: 88
  '@Mul_layer29_swiglu_mul_12:out0':
    qtype: u8
    quantizer: asymmetric_affine
    rounding: rtne
    max_value: 541.590087890625
    min_value: -332.8453369140625
    scale: 3.4291584491729736
    zero_point: 97
  '@Add_final_rms_eps_14:out0':
    qtype: u8
    quantizer: asymmetric_affine
    rounding: rtne
    max_value: 141201.234375
    min_value: 0.0
    scale: 553.7303466796875
    zero_point: 0
  '@Add_layer28_attn_residual_15:out0':
    qtype: u8
    quantizer: asymmetric_affine
    rounding: rtne
    max_value: 28004.47265625
    min_value: -1049.3443603515625
    scale: 113.93653869628906
    zero_point: 9
  '@Mul_sq_mul_layer29_out_proj_17:out0':
    qtype: u8
    quantizer: asymmetric_affine
    rounding: rtne
    max_value: 2.3872671127319336
    min_value: -2.3872671127319336
    scale: 0.018723662942647934
    zero_point: 128
  '@ReduceMean_final_rms_mean_21:out0':
    qtype: u8
    quantizer: asymmetric_affine
    rounding: rtne
    max_value: 141201.234375
    min_value: 0.0
    scale: 553.7303466796875
    zero_point: 0
  '@Initializer_eps_22:out0':
    qtype: u8
    quantizer: asymmetric_affine
    rounding: rtne
    max_value: 9.999999747378751e-06
    min_value: 0.0
    scale: 3.921568492160076e-08
    zero_point: 0
  '@Add_layer27_mlp_residual_23:out0':
    qtype: u8
    quantizer: asymmetric_affine
    rounding: rtne
    max_value: 28056.283203125
    min_value: -1048.7213134765625
    scale: 114.13726806640625
    zero_point: 9
  '@Mul_sq_mul_layer28_down_proj_25:out0':
    qtype: u8
    quantizer: asymmetric_affine
    rounding: rtne
    max_value: 122.7236557006836
    min_value: -13.356449127197266
    scale: 0.5336474776268005
    zero_point: 25
  '@Reshape_layer29_ctx_merge_heads_27:out0':
    qtype: u8
    quantizer: asymmetric_affine
    rounding: rtne
    max_value: 4.983565330505371
    min_value: -4.983565330505371
    scale: 0.03908678516745567
    zero_point: 128
  '@Initializer_sq_scale_layer29_out_proj_28:out0':
    qtype: u8
    quantizer: asymmetric_affine
    rounding: rtne
    max_value: 2.1438100337982178
    min_value: 0.0
    scale: 0.00840709824115038
    zero_point: 0
  '@Mul_sq_mul_layer29_up_proj_31:out0':
    qtype: u8
    quantizer: asymmetric_affine
    rounding: rtne
    max_value: 8.903756141662598
    min_value: -8.705522537231445
    scale: 0.06905599683523178
    zero_point: 126
  '@Mul_final_rms_square_33:out0':
    qtype: u8
    quantizer: asymmetric_affine
    rounding: rtne
    max_value: 68312816.0
    min_value: 0.0
    scale: 267893.40625
    zero_point: 0
  '@Add_layer27_attn_residual_34:out0':
    qtype: u8
    quantizer: asymmetric_affine
    rounding: rtne
    max_value: 28222.650390625
    min_value: -1026.524658203125
    scale: 114.70265197753906
    zero_point: 9
  '@Mul_sq_mul_layer28_out_proj_36:out0':
    qtype: u8
    quantizer: asymmetric_affine
    rounding: rtne
    max_value: 4.355502605438232
    min_value: -4.397105693817139
    scale: 0.034323953092098236
    zero_point: 128
  '@Mul_layer28_swiglu_mul_38:out0':
    qtype: u8
    quantizer: asymmetric_affine
    rounding: rtne
    max_value: 2603.484619140625
    min_value: -109.93610382080078
    scale: 10.640865325927734
    zero_point: 10
  '@Initializer_sq_scale_layer28_down_proj_39:out0':
    qtype: u8
    quantizer: asymmetric_affine
    rounding: rtne
    max_value: 1.119447112083435
    min_value: 0.0
    scale: 0.004389988724142313
    zero_point: 0
  '@Transpose_layer29_ctx_transpose_40:out0':
    qtype: u8
    quantizer: asymmetric_affine
    rounding: rtne
    max_value: 4.983565330505371
    min_value: -4.983565330505371
    scale: 0.03908678516745567
    zero_point: 128
  '@Mul_sq_mul_layer29_gate_proj_41:out0':
    qtype: u8
    quantizer: asymmetric_affine
    rounding: rtne
    max_value: 7.194269180297852
    min_value: -7.0340728759765625
    scale: 0.05579742044210434
    zero_point: 126
  '@Initializer_sq_scale_layer29_gate_proj_43:out0':
    qtype: u8
    quantizer: asymmetric_affine
    rounding: rtne
    max_value: 1.8592312335968018
    min_value: 0.0
    scale: 0.007291102781891823
    zero_point: 0
  '@Mul_layer29_mlp_rms_gamma_44:out0':
    qtype: u8
    quantizer: asymmetric_affine
    rounding: rtne
    max_value: 32.35757064819336
    min_value: -31.636863708496094
    scale: 0.25095856189727783
    zero_point: 126
  '@Initializer_sq_scale_layer29_up_proj_45:out0':
    qtype: u8
    quantizer: asymmetric_affine
    rounding: rtne
    max_value: 2.296358585357666
    min_value: 0.0
    scale: 0.009005327709019184
    zero_point: 0
  '@Initializer_layer29_mlp_gamma_46:out0':
    qtype: u8
    quantizer: asymmetric_affine
    rounding: rtne
    max_value: 1.375
    min_value: 0.0
    scale: 0.005392157007008791
    zero_point: 0
  '@Mul_layer29_mlp_rms_scale_to_unit_47:out0':
    qtype: u8
    quantizer: asymmetric_affine
    rounding: rtne
    max_value: 23.532743453979492
    min_value: -23.008678436279297
    scale: 0.18251536786556244
    zero_point: 126
  '@Add_layer26_mlp_residual_48:out0':
    qtype: u8
    quantizer: asymmetric_affine
    rounding: rtne
    max_value: 28240.109375
    min_value: -1022.79296875
    scale: 114.75647735595703
    zero_point: 9
  '@Mul_sq_mul_layer27_down_proj_50:out0':
    qtype: u8
    quantizer: asymmetric_affine
    rounding: rtne
    max_value: 12.22314453125
    min_value: -13.76606273651123
    scale: 0.10191846638917923
    zero_point: 135
  '@Reshape_layer28_ctx_merge_heads_52:out0':
    qtype: u8
    quantizer: asymmetric_affine
    rounding: rtne
    max_value: 4.2512688636779785
    min_value: -4.521585464477539
    scale: 0.034403350204229355
    zero_point: 131
  '@Initializer_sq_scale_layer28_out_proj_53:out0':
    qtype: u8
    quantizer: asymmetric_affine
    rounding: rtne
    max_value: 1.8429847955703735
    min_value: 0.0
    scale: 0.007227391470223665
    zero_point: 0
  '@MatMul_layer29_attn_context_56:out0':
    qtype: u8
    quantizer: asymmetric_affine
    rounding: rtne
    max_value: 4.983565330505371
    min_value: -4.983565330505371
    scale: 0.03908678516745567
    zero_point: 128
  '@Reshape_layer29_v_repeat_merge_57:out0':
    qtype: u8
    quantizer: asymmetric_affine
    rounding: rtne
    max_value: 8.910494804382324
    min_value: -8.707989692687988
    scale: 0.06909209489822388
    zero_point: 126
  '@Tile_layer29_v_repeat_tile_58:out0':
    qtype: u8
    quantizer: asymmetric_affine
    rounding: rtne
    max_value: 8.910494804382324
    min_value: -8.707989692687988
    scale: 0.06909209489822388
    zero_point: 126
  '@Reciprocal_layer29_mlp_rms_reciprocal_59:out0':
    qtype: u8
    quantizer: asymmetric_affine
    rounding: rtne
    max_value: 1.0
    min_value: 0.0
    scale: 0.003921568859368563
    zero_point: 0
  '@Divide_60:out0':
    qtype: u8
    quantizer: asymmetric_affine
    rounding: rtne
    max_value: 0.0510709173977375
    min_value: 0.0
    scale: 0.00020027811115141958
    zero_point: 0
  '@Add_layer26_attn_residual_61:out0':
    qtype: u8
    quantizer: asymmetric_affine
    rounding: rtne
    max_value: 28241.548828125
    min_value: -1022.5595703125
    scale: 114.76121520996094
    zero_point: 9
  '@Mul_sq_mul_layer27_out_proj_63:out0':
    qtype: u8
    quantizer: asymmetric_affine
    rounding: rtne
    max_value: 2.8063058853149414
    min_value: -2.8063058853149414
    scale: 0.02201024256646633
    zero_point: 128
  '@Mul_layer27_swiglu_mul_65:out0':
    qtype: u8
    quantizer: asymmetric_affine
    rounding: rtne
    max_value: 28.7867431640625
    min_value: -67.68931579589844
    scale: 0.37833747267723083
    zero_point: 179
  '@Initializer_sq_scale_layer27_down_proj_66:out0':
    qtype: u8
    quantizer: asymmetric_affine
    rounding: rtne
    max_value: 1.1112443208694458
    min_value: 0.0
    scale: 0.004357820842415094
    zero_point: 0
  '@Transpose_layer28_ctx_transpose_67:out0':
    qtype: u8
    quantizer: asymmetric_affine
    rounding: rtne
    max_value: 4.2512688636779785
    min_value: -4.521585464477539
    scale: 0.034403350204229355
    zero_point: 131
  '@Mul_sq_mul_layer28_up_proj_70:out0':
    qtype: u8
    quantizer: asymmetric_affine
    rounding: rtne
    max_value: 6.253917694091797
    min_value: -3.7234973907470703
    scale: 0.03912711888551712
    zero_point: 95
  '@Softmax_layer29_softmax_72:out0':
    qtype: u8
    quantizer: asymmetric_affine
    rounding: rtne
    max_value: 1.0
    min_value: 0.0
    scale: 0.003921568859368563
    zero_point: 0
  '@Reshape_layer29_v_repeat_expand_73:out0':
    qtype: u8
    quantizer: asymmetric_affine
    rounding: rtne
    max_value: 8.910494804382324
    min_value: -8.707989692687988
    scale: 0.06909209489822388
    zero_point: 126
  '@Sqrt_layer29_mlp_rms_sqrt_74:out0':
    qtype: u8
    quantizer: asymmetric_affine
    rounding: rtne
    max_value: 606.4064331054688
    min_value: 0.0
    scale: 2.3780643939971924
    zero_point: 0
  '@Add_layer25_mlp_residual_75:out0':
    qtype: u8
    quantizer: asymmetric_affine
    rounding: rtne
    max_value: 28246.966796875
    min_value: -1021.9922485351562
    scale: 114.78022766113281
    zero_point: 9
  '@Mul_sq_mul_layer26_down_proj_77:out0':
    qtype: u8
    quantizer: asymmetric_affine
    rounding: rtne
    max_value: 8.586538314819336
    min_value: -8.586538314819336
    scale: 0.06734539568424225
    zero_point: 128
  '@Reshape_layer27_ctx_merge_heads_79:out0':
    qtype: u8
    quantizer: asymmetric_affine
    rounding: rtne
    max_value: 3.9834001064300537
    min_value: -3.9834001064300537
    scale: 0.031242353841662407
    zero_point: 128
  '@Initializer_sq_scale_layer27_out_proj_80:out0':
    qtype: u8
    quantizer: asymmetric_affine
    rounding: rtne
    max_value: 1.204464077949524
    min_value: 0.0
    scale: 0.004723388701677322
    zero_point: 0
  '@MatMul_layer28_attn_context_83:out0':
    qtype: u8
    quantizer: asymmetric_affine
    rounding: rtne
    max_value: 4.2512688636779785
    min_value: -4.521585464477539
    scale: 0.034403350204229355
    zero_point: 131
  '@Mul_sq_mul_layer28_gate_proj_84:out0':
    qtype: u8
    quantizer: asymmetric_affine
    rounding: rtne
    max_value: 6.218656539916992
    min_value: -3.6486692428588867
    scale: 0.03869539499282837
    zero_point: 94
  '@Initializer_sq_scale_layer28_gate_proj_86:out0':
    qtype: u8
    quantizer: asymmetric_affine
    rounding: rtne
    max_value: 2.957446575164795
    min_value: 0.0
    scale: 0.01159782987087965
    zero_point: 0
  '@Mul_layer28_mlp_rms_gamma_87:out0':
    qtype: u8
    quantizer: asymmetric_affine
    rounding: rtne
    max_value: 14.062647819519043
    min_value: -3.3053369522094727
    scale: 0.06810974329710007
    zero_point: 49
  '@Initializer_sq_scale_layer28_up_proj_88:out0':
    qtype: u8
    quantizer: asymmetric_affine
    rounding: rtne
    max_value: 4.082491397857666
    min_value: 0.0
    scale: 0.016009770333766937
    zero_point: 0
  '@Add_layer29_causal_mask_89:out0':
    qtype: u8
    quantizer: asymmetric_affine
    rounding: rtne
    max_value: 15.13632869720459
    min_value: -10015.126953125
    scale: 39.33436584472656
    zero_point: 255
  '@Transpose_layer29_v_heads_90:out0':
    qtype: u8
    quantizer: asymmetric_affine
    rounding: rtne
    max_value: 8.910494804382324
    min_value: -8.707989692687988
    scale: 0.06909209489822388
    zero_point: 126
  '@Add_layer29_mlp_rms_eps_91:out0':
    qtype: u8
    quantizer: asymmetric_affine
    rounding: rtne
    max_value: 367729.5
    min_value: 0.0
    scale: 1442.076416015625
    zero_point: 0
  '@Add_layer25_attn_residual_92:out0':
    qtype: u8
    quantizer: asymmetric_affine
    rounding: rtne
    max_value: 28247.294921875
    min_value: -1021.996826171875
    scale: 114.78153228759766
    zero_point: 9
  '@Mul_sq_mul_layer26_out_proj_94:out0':
    qtype: u8
    quantizer: asymmetric_affine
    rounding: rtne
    max_value: 2.593784809112549
    min_value: -2.593784809112549
    scale: 0.020343409851193428
    zero_point: 128
  '@Mul_layer26_swiglu_mul_96:out0':
    qtype: u8
    quantizer: asymmetric_affine
    rounding: rtne
    max_value: 25.3619327545166
    min_value: -25.3619327545166
    scale: 0.19891712069511414
    zero_point: 128
  '@Initializer_sq_scale_layer26_down_proj_97:out0':
    qtype: u8
    quantizer: asymmetric_affine
    rounding: rtne
    max_value: 1.0886434316635132
    min_value: 0.0
    scale: 0.0042691901326179504
    zero_point: 0
  '@Transpose_layer27_ctx_transpose_98:out0':
    qtype: u8
    quantizer: asymmetric_affine
    rounding: rtne
    max_value: 3.9834001064300537
    min_value: -3.9834001064300537
    scale: 0.031242353841662407
    zero_point: 128
  '@Mul_sq_mul_layer27_up_proj_101:out0':
    qtype: u8
    quantizer: asymmetric_affine
    rounding: rtne
    max_value: 1.9504706859588623
    min_value: -1.9504706859588623
    scale: 0.01529780961573124
    zero_point: 128
  '@Softmax_layer28_softmax_103:out0':
    qtype: u8
    quantizer: asymmetric_affine
    rounding: rtne
    max_value: 1.0
    min_value: 0.0
    scale: 0.003921568859368563
    zero_point: 0
  '@Reshape_layer28_v_repeat_merge_104:out0':
    qtype: u8
    quantizer: asymmetric_affine
    rounding: rtne
    max_value: 11.591573715209961
    min_value: -11.591573715209961
    scale: 0.0909143015742302
    zero_point: 128
  '@Tile_layer28_v_repeat_tile_105:out0':
    qtype: u8
    quantizer: asymmetric_affine
    rounding: rtne
    max_value: 11.591573715209961
    min_value: -11.591573715209961
    scale: 0.0909143015742302
    zero_point: 128
  '@Mul_layer28_mlp_rms_scale_to_unit_106:out0':
    qtype: u8
    quantizer: asymmetric_affine
    rounding: rtne
    max_value: 23.841230392456055
    min_value: -7.170993328094482
    scale: 0.12161656469106674
    zero_point: 59
  '@Initializer_layer28_mlp_gamma_107:out0':
    qtype: u8
    quantizer: asymmetric_affine
    rounding: rtne
    max_value: 0.58984375
    min_value: 0.0
    scale: 0.0023131128400564194
    zero_point: 0
  '@Mul_layer29_attn_scale_108:out0':
    qtype: u8
    quantizer: asymmetric_affine
    rounding: rtne
    max_value: 14.127530097961426
    min_value: -14.127530097961426
    scale: 0.11080415546894073
    zero_point: 128
  '@Initializer_causal_mask_109:out0':
    qtype: u8
    quantizer: asymmetric_affine
    rounding: rtne
    max_value: 0.0
    min_value: -10000.0
    scale: 39.2156867980957
    zero_point: 255
  '@Reshape_layer29_v_reshape_110:out0':
    qtype: u8
    quantizer: asymmetric_affine
    rounding: rtne
    max_value: 8.910494804382324
    min_value: -8.707989692687988
    scale: 0.06909209489822388
    zero_point: 126
  '@ReduceMean_layer29_mlp_rms_mean_111:out0':
    qtype: u8
    quantizer: asymmetric_affine
    rounding: rtne
    max_value: 367729.5
    min_value: 0.0
    scale: 1442.076416015625
    zero_point: 0
  '@Add_layer24_mlp_residual_113:out0':
    qtype: u8
    quantizer: asymmetric_affine
    rounding: rtne
    max_value: 28245.48828125
    min_value: -1019.0824584960938
    scale: 114.76302337646484
    zero_point: 9
  '@Mul_sq_mul_layer25_down_proj_115:out0':
    qtype: u8
    quantizer: asymmetric_affine
    rounding: rtne
    max_value: 6.312419414520264
    min_value: -6.312419414520264
    scale: 0.04950917139649391
    zero_point: 128
  '@Reshape_layer26_ctx_merge_heads_117:out0':
    qtype: u8
    quantizer: asymmetric_affine
    rounding: rtne
    max_value: 4.1365437507629395
    min_value: -4.206143856048584
    scale: 0.03271642327308655
    zero_point: 129
  '@Initializer_sq_scale_layer26_out_proj_118:out0':
    qtype: u8
    quantizer: asymmetric_affine
    rounding: rtne
    max_value: 1.94755220413208
    min_value: 0.0
    scale: 0.00763745978474617
    zero_point: 0
  '@MatMul_layer27_attn_context_121:out0':
    qtype: u8
    quantizer: asymmetric_affine
    rounding: rtne
    max_value: 3.9834001064300537
    min_value: -3.9834001064300537
    scale: 0.031242353841662407
    zero_point: 128
  '@Mul_sq_mul_layer27_gate_proj_122:out0':
    qtype: u8
    quantizer: asymmetric_affine
    rounding: rtne
    max_value: 4.920870304107666
    min_value: -4.661034107208252
    scale: 0.0375760942697525
    zero_point: 124
  '@Initializer_sq_scale_layer27_gate_proj_124:out0':
    qtype: u8
    quantizer: asymmetric_affine
    rounding: rtne
    max_value: 3.6106369495391846
    min_value: 0.0
    scale: 0.014159360900521278
    zero_point: 0
  '@Mul_layer27_mlp_rms_gamma_125:out0':
    qtype: u8
    quantizer: asymmetric_affine
    rounding: rtne
    max_value: 3.285672187805176
    min_value: -3.285672187805176
    scale: 0.025769978761672974
    zero_point: 127
  '@Initializer_sq_scale_layer27_up_proj_126:out0':
    qtype: u8
    quantizer: asymmetric_affine
    rounding: rtne
    max_value: 3.304269313812256
    min_value: 0.0
    scale: 0.012957918457686901
    zero_point: 0
  '@Add_layer28_causal_mask_127:out0':
    qtype: u8
    quantizer: asymmetric_affine
    rounding: rtne
    max_value: 12.607711791992188
    min_value: -10015.453125
    scale: 39.32572937011719
    zero_point: 255
  '@Reshape_layer28_v_repeat_expand_128:out0':
    qtype: u8
    quantizer: asymmetric_affine
    rounding: rtne
    max_value: 11.591573715209961
    min_value: -11.591573715209961
    scale: 0.0909143015742302
    zero_point: 128
  '@Transpose_layer28_v_heads_129:out0':
    qtype: u8
    quantizer: asymmetric_affine
    rounding: rtne
    max_value: 11.591573715209961
    min_value: -11.591573715209961
    scale: 0.0909143015742302
    zero_point: 128
  '@Reciprocal_layer28_mlp_rms_reciprocal_130:out0':
    qtype: u8
    quantizer: asymmetric_affine
    rounding: rtne
    max_value: 1.0
    min_value: 0.0
    scale: 0.003921568859368563
    zero_point: 0
  '@Divide_131:out0':
    qtype: u8
    quantizer: asymmetric_affine
    rounding: rtne
    max_value: 0.05606624111533165
    min_value: 0.0
    scale: 0.00021986760839354247
    zero_point: 0
  '@MatMul_layer29_attn_scores_132:out0':
    qtype: u8
    quantizer: asymmetric_affine
    rounding: rtne
    max_value: 113.0202407836914
    min_value: -113.0202407836914
    scale: 0.8864332437515259
    zero_point: 128
  '@Initializer_scale_attn_133:out0':
    qtype: u8
    quantizer: asymmetric_affine
    rounding: rtne
    max_value: 0.125
    min_value: 0.0
    scale: 0.0004901961074210703
    zero_point: 0
  '@Mul_layer29_mlp_rms_square_135:out0':
    qtype: u8
    quantizer: asymmetric_affine
    rounding: rtne
    max_value: 203642144.0
    min_value: 0.0
    scale: 798596.625
    zero_point: 0
  '@Add_layer24_attn_residual_136:out0':
    qtype: u8
    quantizer: asymmetric_affine
    rounding: rtne
    max_value: 28246.56640625
    min_value: -1018.9910278320312
    scale: 114.76689147949219
    zero_point: 9
  '@Mul_sq_mul_layer25_out_proj_138:out0':
    qtype: u8
    quantizer: asymmetric_affine
    rounding: rtne
    max_value: 3.6213314533233643
    min_value: -4.348392009735107
    scale: 0.03125381842255592
    zero_point: 139
  '@Mul_layer25_swiglu_mul_140:out0':
    qtype: u8
    quantizer: asymmetric_affine
    rounding: rtne
    max_value: 17.08565902709961
    min_value: -17.08565902709961
    scale: 0.13400517404079437
    zero_point: 127
  '@Initializer_sq_scale_layer25_down_proj_141:out0':
    qtype: u8
    quantizer: asymmetric_affine
    rounding: rtne
    max_value: 1.0344568490982056
    min_value: 0.0
    scale: 0.004056693520396948
    zero_point: 0
  '@Transpose_layer26_ctx_transpose_142:out0':
    qtype: u8
    quantizer: asymmetric_affine
    rounding: rtne
    max_value: 4.1365437507629395
    min_value: -4.206143856048584
    scale: 0.03271642327308655
    zero_point: 129
  '@Mul_sq_mul_layer26_up_proj_145:out0':
    qtype: u8
    quantizer: asymmetric_affine
    rounding: rtne
    max_value: 1.8657969236373901
    min_value: -1.789549469947815
    scale: 0.014334691688418388
    zero_point: 125
  '@Softmax_layer27_softmax_147:out0':
    qtype: u8
    quantizer: asymmetric_affine
    rounding: rtne
    max_value: 1.0
    min_value: 0.0
    scale: 0.003921568859368563
    zero_point: 0
  '@Reshape_layer27_v_repeat_merge_148:out0':
    qtype: u8
    quantizer: asymmetric_affine
    rounding: rtne
    max_value: 7.415068626403809
    min_value: -7.9508280754089355
    scale: 0.0602584183216095
    zero_point: 132
  '@Tile_layer27_v_repeat_tile_149:out0':
    qtype: u8
    quantizer: asymmetric_affine
    rounding: rtne
    max_value: 7.415068626403809
    min_value: -7.9508280754089355
    scale: 0.0602584183216095
    zero_point: 132
  '@Mul_layer27_mlp_rms_scale_to_unit_150:out0':
    qtype: u8
    quantizer: asymmetric_affine
    rounding: rtne
    max_value: 23.858020782470703
    min_value: -7.525120735168457
    scale: 0.12307114154100418
    zero_point: 61
  '@Initializer_layer27_mlp_gamma_151:out0':
    qtype: u8
    quantizer: asymmetric_affine
    rounding: rtne
    max_value: 0.51171875
    min_value: 0.0
    scale: 0.0020067403092980385
    zero_point: 0
  '@Mul_layer28_attn_scale_152:out0':
    qtype: u8
    quantizer: asymmetric_affine
    rounding: rtne
    max_value: 12.580824851989746
    min_value: -14.47408390045166
    scale: 0.10609768331050873
    zero_point: 136
  '@Reshape_layer28_v_reshape_154:out0':
    qtype: u8
    quantizer: asymmetric_affine
    rounding: rtne
    max_value: 11.591573715209961
    min_value: -11.591573715209961
    scale: 0.0909143015742302
    zero_point: 128
  '@Sqrt_layer28_mlp_rms_sqrt_155:out0':
    qtype: u8
    quantizer: asymmetric_affine
    rounding: rtne
    max_value: 1252.61181640625
    min_value: 0.0
    scale: 4.912203311920166
    zero_point: 0
  '@Add_layer29_q_rope_rope_add_156:out0':
    qtype: u8
    quantizer: asymmetric_affine
    rounding: rtne
    max_value: 13.832415580749512
    min_value: -13.832415580749512
    scale: 0.10848953574895859
    zero_point: 128
  '@Transpose_layer29_k_transpose_157:out0':
    qtype: u8
    quantizer: asymmetric_affine
    rounding: rtne
    max_value: 13.261277198791504
    min_value: -11.905858039855957
    scale: 0.09869464486837387
    zero_point: 121
  '@Mul_sq_mul_layer29_v_proj_161:out0':
    qtype: u8
    quantizer: asymmetric_affine
    rounding: rtne
    max_value: 1.6645605564117432
    min_value: -1.6645605564117432
    scale: 0.013055376708507538
    zero_point: 128
  '@Add_layer23_mlp_residual_162:out0':
    qtype: u8
    quantizer: asymmetric_affine
    rounding: rtne
    max_value: 28281.544921875
    min_value: -1016.9566040039062
    scale: 114.89608764648438
    zero_point: 9
  '@Mul_sq_mul_layer24_down_proj_164:out0':
    qtype: u8
    quantizer: asymmetric_affine
    rounding: rtne
    max_value: 11.711536407470703
    min_value: -11.711536407470703
    scale: 0.09185519069433212
    zero_point: 127
  '@Reshape_layer25_ctx_merge_heads_166:out0':
    qtype: u8
    quantizer: asymmetric_affine
    rounding: rtne
    max_value: 5.356866836547852
    min_value: -5.356866836547852
    scale: 0.04201464354991913
    zero_point: 127
  '@Initializer_sq_scale_layer25_out_proj_167:out0':
    qtype: u8
    quantizer: asymmetric_affine
    rounding: rtne
    max_value: 1.8036078214645386
    min_value: 0.0
    scale: 0.007072971668094397
    zero_point: 0
  '@MatMul_layer26_attn_context_170:out0':
    qtype: u8
    quantizer: asymmetric_affine
    rounding: rtne
    max_value: 4.1365437507629395
    min_value: -4.206143856048584
    scale: 0.03271642327308655
    zero_point: 129
  '@Mul_sq_mul_layer26_gate_proj_171:out0':
    qtype: u8
    quantizer: asymmetric_affine
    rounding: rtne
    max_value: 1.9035041332244873
    min_value: -1.9983601570129395
    scale: 0.015301428735256195
    zero_point: 131
  '@Initializer_sq_scale_layer26_gate_proj_173:out0':
    qtype: u8
    quantizer: asymmetric_affine
    rounding: rtne
    max_value: 2.7715227603912354
    min_value: 0.0
    scale: 0.010868716984987259
    zero_point: 0
  '@Mul_layer26_mlp_rms_gamma_174:out0':
    qtype: u8
    quantizer: asymmetric_affine
    rounding: rtne
    max_value: 3.010364532470703
    min_value: -3.010364532470703
    scale: 0.02361070178449154
    zero_point: 128
  '@Initializer_sq_scale_layer26_up_proj_175:out0':
    qtype: u8
    quantizer: asymmetric_affine
    rounding: rtne
    max_value: 3.037120819091797
    min_value: 0.0
    scale: 0.011910277418792248
    zero_point: 0
  '@Add_layer27_causal_mask_176:out0':
    qtype: u8
    quantizer: asymmetric_affine
    rounding: rtne
    max_value: 12.768537521362305
    min_value: -10012.4306640625
    scale: 39.31450653076172
    zero_point: 255
  '@Reshape_layer27_v_repeat_expand_177:out0':
    qtype: u8
    quantizer: asymmetric_affine
    rounding: rtne
    max_value: 7.415068626403809
    min_value: -7.9508280754089355
    scale: 0.0602584183216095
    zero_point: 132
  '@Transpose_layer27_v_heads_178:out0':
    qtype: u8
    quantizer: asymmetric_affine
    rounding: rtne
    max_value: 7.415068626403809
    min_value: -7.9508280754089355
    scale: 0.0602584183216095
    zero_point: 132
  '@Reciprocal_layer27_mlp_rms_reciprocal_179:out0':
    qtype: u8
    quantizer: asymmetric_affine
    rounding: rtne
    max_value: 1.0
    min_value: 0.0
    scale: 0.003921568859368563
    zero_point: 0
  '@Divide_180:out0':
    qtype: u8
    quantizer: asymmetric_affine
    rounding: rtne
    max_value: 0.06210753321647644
    min_value: 0.0
    scale: 0.00024355895584449172
    zero_point: 0
  '@MatMul_layer28_attn_scores_181:out0':
    qtype: u8
    quantizer: asymmetric_affine
    rounding: rtne
    max_value: 100.64659881591797
    min_value: -115.79267120361328
    scale: 0.8487814664840698
    zero_point: 136
  '@Add_layer28_mlp_rms_eps_184:out0':
    qtype: u8
    quantizer: asymmetric_affine
    rounding: rtne
    max_value: 1569030.0
    min_value: 0.0
    scale: 6153.05859375
    zero_point: 0
  '@Mul_layer29_q_rope_mul_cos_185:out0':
    qtype: u8
    quantizer: asymmetric_affine
    rounding: rtne
    max_value: 13.841575622558594
    min_value: -13.841575622558594
    scale: 0.10856137424707413
    zero_point: 128
  '@Mul_layer29_q_rope_mul_sin_186:out0':
    qtype: u8
    quantizer: asymmetric_affine
    rounding: rtne
    max_value: 7.632157325744629
    min_value: -9.45234203338623
    scale: 0.06699803471565247
    zero_point: 141
  '@Reshape_layer29_k_repeat_merge_187:out0':
    qtype: u8
    quantizer: asymmetric_affine
    rounding: rtne
    max_value: 13.261277198791504
    min_value: -11.905858039855957
    scale: 0.09869464486837387
    zero_point: 121
  '@Mul_layer29_attn_rms_gamma_188:out0':
    qtype: u8
    quantizer: asymmetric_affine
    rounding: rtne
    max_value: 8.162943840026855
    min_value: -6.247738361358643
    scale: 0.05651248246431351
    zero_point: 111
  '@Initializer_sq_scale_layer29_v_proj_189:out0':
    qtype: u8
    quantizer: asymmetric_affine
    rounding: rtne
    max_value: 1.8840421438217163
    min_value: 0.0
    scale: 0.007388400379568338
    zero_point: 0
  '@Add_layer23_attn_residual_190:out0':
    qtype: u8
    quantizer: asymmetric_affine
    rounding: rtne
    max_value: 28279.318359375
    min_value: -1016.8260498046875
    scale: 114.8868408203125
    zero_point: 9
  '@Mul_sq_mul_layer24_out_proj_192:out0':
    qtype: u8
    quantizer: asymmetric_affine
    rounding: rtne
    max_value: 4.5312395095825195
    min_value: -4.5312395095825195
    scale: 0.03553913161158562
    zero_point: 128
  '@Mul_layer24_swiglu_mul_194:out0':
    qtype: u8
    quantizer: asymmetric_affine
    rounding: rtne
    max_value: 15.898582458496094
    min_value: -15.898582458496094
    scale: 0.12469476461410522
    zero_point: 128
  '@Initializer_sq_scale_layer24_down_proj_195:out0':
    qtype: u8
    quantizer: asymmetric_affine
    rounding: rtne
    max_value: 1.0714912414550781
    min_value: 0.0
    scale: 0.004201926290988922
    zero_point: 0
  '@Transpose_layer25_ctx_transpose_196:out0':
    qtype: u8
    quantizer: asymmetric_affine
    rounding: rtne
    max_value: 5.356866836547852
    min_value: -5.356866836547852
    scale: 0.04201464354991913
    zero_point: 127
  '@Mul_sq_mul_layer25_up_proj_199:out0':
    qtype: u8
    quantizer: asymmetric_affine
    rounding: rtne
    max_value: 1.4625663757324219
    min_value: -1.4625663757324219
    scale: 0.01147110853344202
    zero_point: 128
  '@Softmax_layer26_softmax_201:out0':
    qtype: u8
    quantizer: asymmetric_affine
    rounding: rtne
    max_value: 1.0
    min_value: 0.0
    scale: 0.003921568859368563
    zero_point: 0
  '@Reshape_layer26_v_repeat_merge_202:out0':
    qtype: u8
    quantizer: asymmetric_affine
    rounding: rtne
    max_value: 8.139464378356934
    min_value: -8.139464378356934
    scale: 0.06383893638849258
    zero_point: 128
  '@Tile_layer26_v_repeat_tile_203:out0':
    qtype: u8
    quantizer: asymmetric_affine
    rounding: rtne
    max_value: 8.139464378356934
    min_value: -8.139464378356934
    scale: 0.06383893638849258
    zero_point: 128
  '@Mul_layer26_mlp_rms_scale_to_unit_204:out0':
    qtype: u8
    quantizer: asymmetric_affine
    rounding: rtne
    max_value: 23.868026733398438
    min_value: -8.472427368164062
    scale: 0.12682530283927917
    zero_point: 67
  '@Initializer_layer26_mlp_gamma_205:out0':
    qtype: u8
    quantizer: asymmetric_affine
    rounding: rtne
    max_value: 0.41796875
    min_value: 0.0
    scale: 0.0016390931559726596
    zero_point: 0
  '@Mul_layer27_attn_scale_206:out0':
    qtype: u8
    quantizer: asymmetric_affine
    rounding: rtne
    max_value: 11.156204223632812
    min_value: -11.156204223632812
    scale: 0.08749964088201523
    zero_point: 128
  '@MatMul_layer27_attn_scores_207:out0':
    qtype: u8
    quantizer: asymmetric_affine
    rounding: rtne
    max_value: 89.2496337890625
    min_value: -89.2496337890625
    scale: 0.6999971270561218
    zero_point: 128
  '@Reshape_layer27_v_reshape_208:out0':
    qtype: u8
    quantizer: asymmetric_affine
    rounding: rtne
    max_value: 7.415068626403809
    min_value: -7.9508280754089355
    scale: 0.0602584183216095
    zero_point: 132
  '@Sqrt_layer27_mlp_rms_sqrt_209:out0':
    qtype: u8
    quantizer: asymmetric_affine
    rounding: rtne
    max_value: 1261.9755859375
    min_value: 0.0
    scale: 4.9489240646362305
    zero_point: 0
  '@Add_layer28_q_rope_rope_add_210:out0':
    qtype: u8
    quantizer: asymmetric_affine
    rounding: rtne
    max_value: 17.923927307128906
    min_value: -17.01911163330078
    scale: 0.13703152537345886
    zero_point: 124
  '@Transpose_layer28_k_transpose_211:out0':
    qtype: u8
    quantizer: asymmetric_affine
    rounding: rtne
    max_value: 13.687434196472168
    min_value: -13.687434196472168
    scale: 0.10735242813825607
    zero_point: 128
  '@ReduceMean_layer28_mlp_rms_mean_214:out0':
    qtype: u8
    quantizer: asymmetric_affine
    rounding: rtne
    max_value: 1569030.0
    min_value: 0.0
    scale: 6153.05859375
    zero_point: 0
  '@Mul_layer28_mlp_rms_square_215:out0':
    qtype: u8
    quantizer: asymmetric_affine
    rounding: rtne
    max_value: 891833792.0
    min_value: 0.0
    scale: 3497387.5
    zero_point: 0
  '@Transpose_layer29_q_heads_216:out0':
    qtype: u8
    quantizer: asymmetric_affine
    rounding: rtne
    max_value: 13.841787338256836
    min_value: -13.841787338256836
    scale: 0.10856303572654724
    zero_point: 128
  '@Initializer_rope_cos_217:out0':
    qtype: u8
    quantizer: asymmetric_affine
    rounding: rtne
    max_value: 1.0
    min_value: -0.9999967217445374
    scale: 0.007843123748898506
    zero_point: 127
  '@Concat_layer29_q_rope_rotate_half_218:out0':
    qtype: u8
    quantizer: asymmetric_affine
    rounding: rtne
    max_value: 13.841787338256836
    min_value: -13.841787338256836
    scale: 0.10856303572654724
    zero_point: 128
  '@Initializer_rope_sin_219:out0':
    qtype: u8
    quantizer: asymmetric_affine
    rounding: rtne
    max_value: 0.9999929070472717
    min_value: -0.9999902248382568
    scale: 0.007843070663511753
    zero_point: 127
  '@Tile_layer29_k_repeat_tile_220:out0':
    qtype: u8
    quantizer: asymmetric_affine
    rounding: rtne
    max_value: 13.261277198791504
    min_value: -11.905858039855957
    scale: 0.09869464486837387
    zero_point: 121
  '@Mul_layer29_attn_rms_scale_to_unit_221:out0':
    qtype: u8
    quantizer: asymmetric_affine
    rounding: rtne
    max_value: 23.538131713867188
    min_value: -23.013198852539062
    scale: 0.182554230093956
    zero_point: 126
  '@Initializer_layer29_attn_gamma_222:out0':
    qtype: u8
    quantizer: asymmetric_affine
    rounding: rtne
    max_value: 0.91015625
    min_value: 0.0
    scale: 0.003569240216165781
    zero_point: 0
  '@Add_layer22_mlp_residual_223:out0':
    qtype: u8
    quantizer: asymmetric_affine
    rounding: rtne
    max_value: 28281.765625
    min_value: -1017.5030517578125
    scale: 114.89909362792969
    zero_point: 9
  '@Mul_sq_mul_layer23_down_proj_225:out0':
    qtype: u8
    quantizer: asymmetric_affine
    rounding: rtne
    max_value: 7.454996109008789
    min_value: -7.454996109008789
    scale: 0.05847055837512016
    zero_point: 128
  '@Reshape_layer24_ctx_merge_heads_227:out0':
    qtype: u8
    quantizer: asymmetric_affine
    rounding: rtne
    max_value: 5.5540852546691895
    min_value: -5.5540852546691895
    scale: 0.04356145113706589
    zero_point: 128
  '@Initializer_sq_scale_layer24_out_proj_228:out0':
    qtype: u8
    quantizer: asymmetric_affine
    rounding: rtne
    max_value: 2.0058035850524902
    min_value: 0.0
    scale: 0.007865896448493004
    zero_point: 0
  '@MatMul_layer25_attn_context_231:out0':
    qtype: u8
    quantizer: asymmetric_affine
    rounding: rtne
    max_value: 5.356866836547852
    min_value: -5.356866836547852
    scale: 0.04201464354991913
    zero_point: 127
  '@Mul_sq_mul_layer25_gate_proj_232:out0':
    qtype: u8
    quantizer: asymmetric_affine
    rounding: rtne
    max_value: 1.6922723054885864
    min_value: -1.6922723054885864
    scale: 0.013272724114358425
    zero_point: 128
  '@Initializer_sq_scale_layer25_gate_proj_234:out0':
    qtype: u8
    quantizer: asymmetric_affine
    rounding: rtne
    max_value: 4.94877815246582
    min_value: 0.0
    scale: 0.01940697245299816
    zero_point: 0
  '@Mul_layer25_mlp_rms_gamma_235:out0':
    qtype: u8
    quantizer: asymmetric_affine
    rounding: rtne
    max_value: 2.673388957977295
    min_value: -2.7073965072631836
    scale: 0.021101118996739388
    zero_point: 128
  '@Initializer_sq_scale_layer25_up_proj_236:out0':
    qtype: u8
    quantizer: asymmetric_affine
    rounding: rtne
    max_value: 4.659543991088867
    min_value: 0.0
    scale: 0.018272722139954567
    zero_point: 0
  '@Add_layer26_causal_mask_237:out0':
    qtype: u8
    quantizer: asymmetric_affine
    rounding: rtne
    max_value: 15.253482818603516
    min_value: -10011.4609375
    scale: 39.32044982910156
    zero_point: 255
  '@Reshape_layer26_v_repeat_expand_238:out0':
    qtype: u8
    quantizer: asymmetric_affine
    rounding: rtne
    max_value: 8.139464378356934
    min_value: -8.139464378356934
    scale: 0.06383893638849258
    zero_point: 128
  '@Transpose_layer26_v_heads_239:out0':
    qtype: u8
    quantizer: asymmetric_affine
    rounding: rtne
    max_value: 8.139464378356934
    min_value: -8.139464378356934
    scale: 0.06383893638849258
    zero_point: 128
  '@Reciprocal_layer26_mlp_rms_reciprocal_240:out0':
    qtype: u8
    quantizer: asymmetric_affine
    rounding: rtne
    max_value: 1.0
    min_value: 0.0
    scale: 0.003921568859368563
    zero_point: 0
  '@Divide_241:out0':
    qtype: u8
    quantizer: asymmetric_affine
    rounding: rtne
    max_value: 0.07229886949062347
    min_value: 0.0
    scale: 0.0002835249761119485
    zero_point: 0
  '@Add_layer27_q_rope_rope_add_242:out0':
    qtype: u8
    quantizer: asymmetric_affine
    rounding: rtne
    max_value: 17.77313232421875
    min_value: -17.8178768157959
    scale: 0.13957259058952332
    zero_point: 128
  '@Transpose_layer27_k_transpose_243:out0':
    qtype: u8
    quantizer: asymmetric_affine
    rounding: rtne
    max_value: 14.908653259277344
    min_value: -16.539642333984375
    scale: 0.12332665175199509
    zero_point: 134
  '@Add_layer27_mlp_rms_eps_245:out0':
    qtype: u8
    quantizer: asymmetric_affine
    rounding: rtne
    max_value: 1592577.625
    min_value: 0.0
    scale: 6245.40234375
    zero_point: 0
  '@Mul_layer28_q_rope_mul_cos_246:out0':
    qtype: u8
    quantizer: asymmetric_affine
    rounding: rtne
    max_value: 17.92941665649414
    min_value: -17.024396896362305
    scale: 0.13707377016544342
    zero_point: 124
  '@Mul_layer28_q_rope_mul_sin_247:out0':
    qtype: u8
    quantizer: asymmetric_affine
    rounding: rtne
    max_value: 4.814333915710449
    min_value: -4.814333915710449
    scale: 0.037759482860565186
    zero_point: 127
  '@Reshape_layer28_k_repeat_merge_248:out0':
    qtype: u8
    quantizer: asymmetric_affine
    rounding: rtne
    max_value: 13.687434196472168
    min_value: -13.687434196472168
    scale: 0.10735242813825607
    zero_point: 128
  '@Mul_sq_mul_layer28_v_proj_249:out0':
    qtype: u8
    quantizer: asymmetric_affine
    rounding: rtne
    max_value: 1.7543126344680786
    min_value: -1.7543126344680786
    scale: 0.013759315013885498
    zero_point: 128
  '@Initializer_sq_scale_layer28_v_proj_251:out0':
    qtype: u8
    quantizer: asymmetric_affine
    rounding: rtne
    max_value: 1.633170485496521
    min_value: 0.0
    scale: 0.006404590327292681
    zero_point: 0
  '@Mul_layer28_attn_rms_gamma_252:out0':
    qtype: u8
    quantizer: asymmetric_affine
    rounding: rtne
    max_value: 6.73799467086792
    min_value: -3.3650050163269043
    scale: 0.039619605988264084
    zero_point: 85
  '@Reshape_layer29_q_reshape_253:out0':
    qtype: u8
    quantizer: asymmetric_affine
    rounding: rtne
    max_value: 13.841787338256836
    min_value: -13.841787338256836
    scale: 0.10856303572654724
    zero_point: 128
  '@Neg_layer29_q_rope_neg_second_254:out0':
    qtype: u8
    quantizer: asymmetric_affine
    rounding: rtne
    max_value: 13.841787338256836
    min_value: -13.841787338256836
    scale: 0.10856303572654724
    zero_point: 128
  '@Slice_layer29_q_rope_slice_first_255:out0':
    qtype: u8
    quantizer: asymmetric_affine
    rounding: rtne
    max_value: 13.841787338256836
    min_value: -13.841787338256836
    scale: 0.10856303572654724
    zero_point: 128
  '@Reshape_layer29_k_repeat_expand_256:out0':
    qtype: u8
    quantizer: asymmetric_affine
    rounding: rtne
    max_value: 13.261277198791504
    min_value: -11.905858039855957
    scale: 0.09869464486837387
    zero_point: 121
  '@Add_layer29_k_rope_rope_add_257:out0':
    qtype: u8
    quantizer: asymmetric_affine
    rounding: rtne
    max_value: 13.261277198791504
    min_value: -11.905858039855957
    scale: 0.09869464486837387
    zero_point: 121
  '@Reciprocal_layer29_attn_rms_reciprocal_258:out0':
    qtype: u8
    quantizer: asymmetric_affine
    rounding: rtne
    max_value: 1.0
    min_value: 0.0
    scale: 0.003921568859368563
    zero_point: 0
  '@Divide_259:out0':
    qtype: u8
    quantizer: asymmetric_affine
    rounding: rtne
    max_value: 0.05278865993022919
    min_value: 0.0
    scale: 0.0002070143527816981
    zero_point: 0
  '@Add_layer22_attn_residual_260:out0':
    qtype: u8
    quantizer: asymmetric_affine
    rounding: rtne
    max_value: 28280.349609375
    min_value: -1017.3521728515625
    scale: 114.8929443359375
    zero_point: 9
  '@Mul_sq_mul_layer23_out_proj_262:out0':
    qtype: u8
    quantizer: asymmetric_affine
    rounding: rtne
    max_value: 3.3078806400299072
    min_value: -3.3078806400299072
    scale: 0.025944162160158157
    zero_point: 128
  '@Mul_layer23_swiglu_mul_264:out0':
    qtype: u8
    quantizer: asymmetric_affine
    rounding: rtne
    max_value: 16.561628341674805
    min_value: -16.561628341674805
    scale: 0.12989512085914612
    zero_point: 128
  '@Initializer_sq_scale_layer23_down_proj_265:out0':
    qtype: u8
    quantizer: asymmetric_affine
    rounding: rtne
    max_value: 1.22286057472229
    min_value: 0.0
    scale: 0.004795531742274761
    zero_point: 0
  '@Transpose_layer24_ctx_transpose_266:out0':
    qtype: u8
    quantizer: asymmetric_affine
    rounding: rtne
    max_value: 5.5540852546691895
    min_value: -5.5540852546691895
    scale: 0.04356145113706589
    zero_point: 128
  '@Mul_sq_mul_layer24_up_proj_269:out0':
    qtype: u8
    quantizer: asymmetric_affine
    rounding: rtne
    max_value: 1.9030426740646362
    min_value: -2.0305004119873047
    scale: 0.015425659716129303
    zero_point: 132
  '@Softmax_layer25_softmax_271:out0':
    qtype: u8
    quantizer: asymmetric_affine
    rounding: rtne
    max_value: 1.0
    min_value: 0.0
    scale: 0.003921568859368563
    zero_point: 0
  '@Reshape_layer25_v_repeat_merge_272:out0':
    qtype: u8
    quantizer: asymmetric_affine
    rounding: rtne
    max_value: 7.980130195617676
    min_value: -8.005191802978516
    scale: 0.06268753856420517
    zero_point: 128
  '@Tile_layer25_v_repeat_tile_273:out0':
    qtype: u8
    quantizer: asymmetric_affine
    rounding: rtne
    max_value: 7.980130195617676
    min_value: -8.005191802978516
    scale: 0.06268753856420517
    zero_point: 128
  '@Mul_layer25_mlp_rms_scale_to_unit_274:out0':
    qtype: u8
    quantizer: asymmetric_affine
    rounding: rtne
    max_value: 23.869937896728516
    min_value: -8.798980712890625
    scale: 0.12811340391635895
    zero_point: 69
  '@Initializer_layer25_mlp_gamma_275:out0':
    qtype: u8
    quantizer: asymmetric_affine
    rounding: rtne
    max_value: 0.40625
    min_value: -0.00023555755615234375
    scale: 0.0015940610319375992
    zero_point: 0
  '@Mul_layer26_attn_scale_276:out0':
    qtype: u8
    quantizer: asymmetric_affine
    rounding: rtne
    max_value: 12.361632347106934
    min_value: -12.361632347106934
    scale: 0.09695398062467575
    zero_point: 128
  '@MatMul_layer26_attn_scores_277:out0':
    qtype: u8
    quantizer: asymmetric_affine
    rounding: rtne
    max_value: 98.89305877685547
    min_value: -98.89305877685547
    scale: 0.775631844997406
    zero_point: 128
  '@Reshape_layer26_v_reshape_278:out0':
    qtype: u8
    quantizer: asymmetric_affine
    rounding: rtne
    max_value: 8.139464378356934
    min_value: -8.139464378356934
    scale: 0.06383893638849258
    zero_point: 128
  '@Sqrt_layer26_mlp_rms_sqrt_279:out0':
    qtype: u8
    quantizer: asymmetric_affine
    rounding: rtne
    max_value: 1262.7432861328125
    min_value: 0.0
    scale: 4.951934337615967
    zero_point: 0
  '@Mul_layer27_q_rope_mul_cos_280:out0':
    qtype: u8
    quantizer: asymmetric_affine
    rounding: rtne
    max_value: 17.78756332397461
    min_value: -17.822608947753906
    scale: 0.1396477371454239
    zero_point: 128
  '@Mul_layer27_q_rope_mul_sin_281:out0':
    qtype: u8
    quantizer: asymmetric_affine
    rounding: rtne
    max_value: 6.496910572052002
    min_value: -6.496910572052002
    scale: 0.050956159830093384
    zero_point: 128
  '@Reshape_layer27_k_repeat_merge_282:out0':
    qtype: u8
    quantizer: asymmetric_affine
    rounding: rtne
    max_value: 14.908653259277344
    min_value: -16.539642333984375
    scale: 0.12332665175199509
    zero_point: 134
  '@ReduceMean_layer27_mlp_rms_mean_285:out0':
    qtype: u8
    quantizer: asymmetric_affine
    rounding: rtne
    max_value: 1592577.625
    min_value: 0.0
    scale: 6245.40234375
    zero_point: 0
  '@Mul_layer27_mlp_rms_square_286:out0':
    qtype: u8
    quantizer: asymmetric_affine
    rounding: rtne
    max_value: 905784512.0
    min_value: 0.0
    scale: 3552096.25
    zero_point: 0
  '@Transpose_layer28_q_heads_287:out0':
    qtype: u8
    quantizer: asymmetric_affine
    rounding: rtne
    max_value: 17.929676055908203
    min_value: -17.0246639251709
    scale: 0.13707584142684937
    zero_point: 124
  '@Concat_layer28_q_rope_rotate_half_289:out0':
    qtype: u8
    quantizer: asymmetric_affine
    rounding: rtne
    max_value: 17.929676055908203
    min_value: -17.0246639251709
    scale: 0.13707584142684937
    zero_point: 124
  '@Tile_layer28_k_repeat_tile_291:out0':
    qtype: u8
    quantizer: asymmetric_affine
    rounding: rtne
    max_value: 13.687434196472168
    min_value: -13.687434196472168
    scale: 0.10735242813825607
    zero_point: 128
  '@Mul_layer28_attn_rms_scale_to_unit_292:out0':
    qtype: u8
    quantizer: asymmetric_affine
    rounding: rtne
    max_value: 23.842269897460938
    min_value: -7.180553913116455
    scale: 0.12165813148021698
    zero_point: 59
  '@Initializer_layer28_attn_gamma_293:out0':
    qtype: u8
    quantizer: asymmetric_affine
    rounding: rtne
    max_value: 0.8828125
    min_value: 0.0
    scale: 0.0034620098304003477
    zero_point: 0
  '@Slice_layer29_q_rope_slice_second_295:out0':
    qtype: u8
    quantizer: asymmetric_affine
    rounding: rtne
    max_value: 13.841787338256836
    min_value: -13.841787338256836
    scale: 0.10856303572654724
    zero_point: 128
  '@Mul_layer29_k_rope_mul_cos_297:out0':
    qtype: u8
    quantizer: asymmetric_affine
    rounding: rtne
    max_value: 13.250633239746094
    min_value: -11.911377906799316
    scale: 0.09867455065250397
    zero_point: 121
  '@Mul_layer29_k_rope_mul_sin_298:out0':
    qtype: u8
    quantizer: asymmetric_affine
    rounding: rtne
    max_value: 4.605400562286377
    min_value: -4.441889762878418
    scale: 0.03547957167029381
    zero_point: 125
  '@Sqrt_layer29_attn_rms_sqrt_299:out0':
    qtype: u8
    quantizer: asymmetric_affine
    rounding: rtne
    max_value: 606.4276123046875
    min_value: 0.0
    scale: 2.378147602081299
    zero_point: 0
  '@Add_layer21_mlp_residual_300:out0':
    qtype: u8
    quantizer: asymmetric_affine
    rounding: rtne
    max_value: 28286.205078125
    min_value: -1016.6533203125
    scale: 114.91317749023438
    zero_point: 9
  '@Mul_sq_mul_layer22_down_proj_302:out0':
    qtype: u8
    quantizer: asymmetric_affine
    rounding: rtne
    max_value: 6.783415794372559
    min_value: -6.783415794372559
    scale: 0.05320326238870621
    zero_point: 128
  '@Reshape_layer23_ctx_merge_heads_304:out0':
    qtype: u8
    quantizer: asymmetric_affine
    rounding: rtne
    max_value: 4.410693168640137
    min_value: -4.410693168640137
    scale: 0.034593671560287476
    zero_point: 128
  '@Initializer_sq_scale_layer23_out_proj_305:out0':
    qtype: u8
    quantizer: asymmetric_affine
    rounding: rtne
    max_value: 2.0906882286071777
    min_value: 0.0
    scale: 0.008198777213692665
    zero_point: 0
  '@MatMul_layer24_attn_context_308:out0':
    qtype: u8
    quantizer: asymmetric_affine
    rounding: rtne
    max_value: 5.5540852546691895
    min_value: -5.5540852546691895
    scale: 0.04356145113706589
    zero_point: 128
  '@Mul_sq_mul_layer24_gate_proj_309:out0':
    qtype: u8
    quantizer: asymmetric_affine
    rounding: rtne
    max_value: 1.836665391921997
    min_value: -1.836665391921997
    scale: 0.01440521888434887
    zero_point: 128
  '@Initializer_sq_scale_layer24_gate_proj_311:out0':
    qtype: u8
    quantizer: asymmetric_affine
    rounding: rtne
    max_value: 16.917299270629883
    min_value: 0.0
    scale: 0.06634234637022018
    zero_point: 0
  '@Mul_layer24_mlp_rms_gamma_312:out0':
    qtype: u8
    quantizer: asymmetric_affine
    rounding: rtne
    max_value: 2.4803450107574463
    min_value: -3.1206557750701904
    scale: 0.02196470834314823
    zero_point: 142
  '@Initializer_sq_scale_layer24_up_proj_313:out0':
    qtype: u8
    quantizer: asymmetric_affine
    rounding: rtne
    max_value: 18.858945846557617
    min_value: 0.0
    scale: 0.07395665347576141
    zero_point: 0
  '@Add_layer25_causal_mask_314:out0':
    qtype: u8
    quantizer: asymmetric_affine
    rounding: rtne
    max_value: 9.290435791015625
    min_value: -10012.083984375
    scale: 39.29950714111328
    zero_point: 255
  '@Reshape_layer25_v_repeat_expand_315:out0':
    qtype: u8
    quantizer: asymmetric_affine
    rounding: rtne
    max_value: 7.980130195617676
    min_value: -8.005191802978516
    scale: 0.06268753856420517
    zero_point: 128
  '@Transpose_layer25_v_heads_316:out0':
    qtype: u8
    quantizer: asymmetric_affine
    rounding: rtne
    max_value: 7.980130195617676
    min_value: -8.005191802978516
    scale: 0.06268753856420517
    zero_point: 128
  '@Reciprocal_layer25_mlp_rms_reciprocal_317:out0':
    qtype: u8
    quantizer: asymmetric_affine
    rounding: rtne
    max_value: 1.0
    min_value: 0.0
    scale: 0.003921568859368563
    zero_point: 0
  '@Divide_318:out0':
    qtype: u8
    quantizer: asymmetric_affine
    rounding: rtne
    max_value: 0.07792805135250092
    min_value: 0.0
    scale: 0.00030560020240955055
    zero_point: 0
  '@Add_layer26_q_rope_rope_add_319:out0':
    qtype: u8
    quantizer: asymmetric_affine
    rounding: rtne
    max_value: 15.374082565307617
    min_value: -15.428825378417969
    scale: 0.12079571932554245
    zero_point: 128
  '@Transpose_layer26_k_transpose_320:out0':
    qtype: u8
    quantizer: asymmetric_affine
    rounding: rtne
    max_value: 13.0819730758667
    min_value: -14.739136695861816
    scale: 0.10910239070653915
    zero_point: 135
  '@Add_layer26_mlp_rms_eps_322:out0':
    qtype: u8
    quantizer: asymmetric_affine
    rounding: rtne
    max_value: 1594508.875
    min_value: 0.0
    scale: 6252.97607421875
    zero_point: 0
  '@Transpose_layer27_q_heads_323:out0':
    qtype: u8
    quantizer: asymmetric_affine
    rounding: rtne
    max_value: 17.787559509277344
    min_value: -17.823089599609375
    scale: 0.13964959979057312
    zero_point: 128
  '@Reshape_layer27_q_reshape_324:out0':
    qtype: u8
    quantizer: asymmetric_affine
    rounding: rtne
    max_value: 17.787559509277344
    min_value: -17.823089599609375
    scale: 0.13964959979057312
    zero_point: 128
  '@Concat_layer27_q_rope_rotate_half_325:out0':
    qtype: u8
    quantizer: asymmetric_affine
    rounding: rtne
    max_value: 19.095687866210938
    min_value: -17.510862350463867
    scale: 0.14355510473251343
    zero_point: 122
  '@Slice_layer27_q_rope_slice_first_326:out0':
    qtype: u8
    quantizer: asymmetric_affine
    rounding: rtne
    max_value: 17.787559509277344
    min_value: -17.823089599609375
    scale: 0.13964959979057312
    zero_point: 128
  '@Tile_layer27_k_repeat_tile_327:out0':
    qtype: u8
    quantizer: asymmetric_affine
    rounding: rtne
    max_value: 14.908653259277344
    min_value: -16.539642333984375
    scale: 0.12332665175199509
    zero_point: 134
  '@Mul_sq_mul_layer27_v_proj_328:out0':
    qtype: u8
    quantizer: asymmetric_affine
    rounding: rtne
    max_value: 1.5909485816955566
    min_value: -1.5909485816955566
    scale: 0.012478028424084187
    zero_point: 128
  '@Initializer_sq_scale_layer27_v_proj_330:out0':
    qtype: u8
    quantizer: asymmetric_affine
    rounding: rtne
    max_value: 1.6151994466781616
    min_value: 0.0
    scale: 0.006334115285426378
    zero_point: 0
  '@Mul_layer27_attn_rms_gamma_331:out0':
    qtype: u8
    quantizer: asymmetric_affine
    rounding: rtne
    max_value: 7.410749435424805
    min_value: -5.3602190017700195
    scale: 0.05008222907781601
    zero_point: 107
  '@Reshape_layer28_q_reshape_332:out0':
    qtype: u8
    quantizer: asymmetric_affine
    rounding: rtne
    max_value: 17.929676055908203
    min_value: -17.0246639251709
    scale: 0.13707584142684937
    zero_point: 124
  '@Neg_layer28_q_rope_neg_second_333:out0':
    qtype: u8
    quantizer: asymmetric_affine
    rounding: rtne
    max_value: 17.929676055908203
    min_value: -17.0246639251709
    scale: 0.13707584142684937
    zero_point: 124
  '@Slice_layer28_q_rope_slice_first_334:out0':
    qtype: u8
    quantizer: asymmetric_affine
    rounding: rtne
    max_value: 17.929676055908203
    min_value: -17.0246639251709
    scale: 0.13707584142684937
    zero_point: 124
  '@Reshape_layer28_k_repeat_expand_335:out0':
    qtype: u8
    quantizer: asymmetric_affine
    rounding: rtne
    max_value: 13.687434196472168
    min_value: -13.687434196472168
    scale: 0.10735242813825607
    zero_point: 128
  '@Add_layer28_k_rope_rope_add_336:out0':
    qtype: u8
    quantizer: asymmetric_affine
    rounding: rtne
    max_value: 13.687434196472168
    min_value: -13.687434196472168
    scale: 0.10735242813825607
    zero_point: 128
  '@Reciprocal_layer28_attn_rms_reciprocal_337:out0':
    qtype: u8
    quantizer: asymmetric_affine
    rounding: rtne
    max_value: 1.0
    min_value: 0.0
    scale: 0.003921568859368563
    zero_point: 0
  '@Divide_338:out0':
    qtype: u8
    quantizer: asymmetric_affine
    rounding: rtne
    max_value: 0.05904262140393257
    min_value: 0.0
    scale: 0.0002315396850463003
    zero_point: 0
  '@Transpose_layer29_k_heads_340:out0':
    qtype: u8
    quantizer: asymmetric_affine
    rounding: rtne
    max_value: 13.250651359558105
    min_value: -11.911635398864746
    scale: 0.09867563098669052
    zero_point: 121
  '@Reshape_layer29_k_reshape_341:out0':
    qtype: u8
    quantizer: asymmetric_affine
    rounding: rtne
    max_value: 13.250651359558105
    min_value: -11.911635398864746
    scale: 0.09867563098669052
    zero_point: 121
  '@Concat_layer29_k_rope_rotate_half_342:out0':
    qtype: u8
    quantizer: asymmetric_affine
    rounding: rtne
    max_value: 11.50264835357666
    min_value: -13.250685691833496
    scale: 0.09707190096378326
    zero_point: 137
  '@Slice_layer29_k_rope_slice_first_343:out0':
    qtype: u8
    quantizer: asymmetric_affine
    rounding: rtne
    max_value: 13.250651359558105
    min_value: -11.911635398864746
    scale: 0.09867563098669052
    zero_point: 121
  '@Add_layer29_attn_rms_eps_344:out0':
    qtype: u8
    quantizer: asymmetric_affine
    rounding: rtne
    max_value: 367754.0625
    min_value: 0.0
    scale: 1442.1728515625
    zero_point: 0
  '@Add_layer21_attn_residual_345:out0':
    qtype: u8
    quantizer: asymmetric_affine
    rounding: rtne
    max_value: 28284.818359375
    min_value: -1016.650146484375
    scale: 114.90772247314453
    zero_point: 9
  '@Mul_sq_mul_layer22_out_proj_347:out0':
    qtype: u8
    quantizer: asymmetric_affine
    rounding: rtne
    max_value: 2.019352912902832
    min_value: -2.019352912902832
    scale: 0.01583806239068508
    zero_point: 128
  '@Mul_layer22_swiglu_mul_349:out0':
    qtype: u8
    quantizer: asymmetric_affine
    rounding: rtne
    max_value: 10.345056533813477
    min_value: -10.345056533813477
    scale: 0.08113770186901093
    zero_point: 127
  '@Initializer_sq_scale_layer22_down_proj_350:out0':
    qtype: u8
    quantizer: asymmetric_affine
    rounding: rtne
    max_value: 1.656151533126831
    min_value: 0.0
    scale: 0.006494712084531784
    zero_point: 0
  '@Transpose_layer23_ctx_transpose_351:out0':
    qtype: u8
    quantizer: asymmetric_affine
    rounding: rtne
    max_value: 4.410693168640137
    min_value: -4.410693168640137
    scale: 0.034593671560287476
    zero_point: 128
  '@Mul_sq_mul_layer23_up_proj_354:out0':
    qtype: u8
    quantizer: asymmetric_affine
    rounding: rtne
    max_value: 1.5795207023620605
    min_value: -2.085275173187256
    scale: 0.014371748082339764
    zero_point: 145
  '@Softmax_layer24_softmax_356:out0':
    qtype: u8
    quantizer: asymmetric_affine
    rounding: rtne
    max_value: 1.0
    min_value: 0.0
    scale: 0.003921568859368563
    zero_point: 0
  '@Reshape_layer24_v_repeat_merge_357:out0':
    qtype: u8
    quantizer: asymmetric_affine
    rounding: rtne
    max_value: 13.70980453491211
    min_value: -11.028709411621094
    scale: 0.09701377898454666
    zero_point: 114
  '@Tile_layer24_v_repeat_tile_358:out0':
    qtype: u8
    quantizer: asymmetric_affine
    rounding: rtne
    max_value: 13.70980453491211
    min_value: -11.028709411621094
    scale: 0.09701377898454666
    zero_point: 114
  '@Mul_layer24_mlp_rms_scale_to_unit_359:out0':
    qtype: u8
    quantizer: asymmetric_affine
    rounding: rtne
    max_value: 23.87445831298828
    min_value: -9.413515090942383
    scale: 0.13054107129573822
    zero_point: 72
  '@Initializer_layer24_mlp_gamma_360:out0':
    qtype: u8
    quantizer: asymmetric_affine
    rounding: rtne
    max_value: 0.435546875
    min_value: -1.4722347259521484e-05
    scale: 0.0017080847173929214
    zero_point: 0
  '@Mul_layer25_attn_scale_361:out0':
    qtype: u8
    quantizer: asymmetric_affine
    rounding: rtne
    max_value: 10.646858215332031
    min_value: -12.04148006439209
    scale: 0.08897387981414795
    zero_point: 135
  '@MatMul_layer25_attn_scores_362:out0':
    qtype: u8
    quantizer: asymmetric_affine
    rounding: rtne
    max_value: 85.17486572265625
    min_value: -96.33184051513672
    scale: 0.7117910385131836
    zero_point: 135
  '@Reshape_layer25_v_reshape_363:out0':
    qtype: u8
    quantizer: asymmetric_affine
    rounding: rtne
    max_value: 7.980130195617676
    min_value: -8.005191802978516
    scale: 0.06268753856420517
    zero_point: 128
  '@Sqrt_layer25_mlp_rms_sqrt_364:out0':
    qtype: u8
    quantizer: asymmetric_affine
    rounding: rtne
    max_value: 1262.967041015625
    min_value: 0.0
    scale: 4.9528117179870605
    zero_point: 0
  '@Mul_layer26_q_rope_mul_cos_365:out0':
    qtype: u8
    quantizer: asymmetric_affine
    rounding: rtne
    max_value: 15.382555961608887
    min_value: -16.459823608398438
    scale: 0.12487208098173141
    zero_point: 132
  '@Mul_layer26_q_rope_mul_sin_366:out0':
    qtype: u8
    quantizer: asymmetric_affine
    rounding: rtne
    max_value: 6.763329029083252
    min_value: -6.763329029083252
    scale: 0.053045716136693954
    zero_point: 128
  '@Reshape_layer26_k_repeat_merge_367:out0':
    qtype: u8
    quantizer: asymmetric_affine
    rounding: rtne
    max_value: 13.0819730758667
    min_value: -14.739136695861816
    scale: 0.10910239070653915
    zero_point: 135
  '@ReduceMean_layer26_mlp_rms_mean_370:out0':
    qtype: u8
    quantizer: asymmetric_affine
    rounding: rtne
    max_value: 1594508.875
    min_value: 0.0
    scale: 6252.97607421875
    zero_point: 0
  '@Mul_layer26_mlp_rms_square_371:out0':
    qtype: u8
    quantizer: asymmetric_affine
    rounding: rtne
    max_value: 907003968.0
    min_value: 0.0
    scale: 3556878.25
    zero_point: 0
  '@Neg_layer27_q_rope_neg_second_373:out0':
    qtype: u8
    quantizer: asymmetric_affine
    rounding: rtne
    max_value: 19.095687866210938
    min_value: -17.510862350463867
    scale: 0.14355510473251343
    zero_point: 122
  '@Slice_layer27_q_rope_slice_second_374:out0':
    qtype: u8
    quantizer: asymmetric_affine
    rounding: rtne
    max_value: 17.787559509277344
    min_value: -17.823089599609375
    scale: 0.13964959979057312
    zero_point: 128
  '@Reshape_layer27_k_repeat_expand_375:out0':
    qtype: u8
    quantizer: asymmetric_affine
    rounding: rtne
    max_value: 14.908653259277344
    min_value: -16.539642333984375
    scale: 0.12332665175199509
    zero_point: 134
  '@Mul_layer27_attn_rms_scale_to_unit_376:out0':
    qtype: u8
    quantizer: asymmetric_affine
    rounding: rtne
    max_value: 23.867727279663086
    min_value: -7.949723720550537
    scale: 0.12477432191371918
    zero_point: 64
  '@Initializer_layer27_attn_gamma_377:out0':
    qtype: u8
    quantizer: asymmetric_affine
    rounding: rtne
    max_value: 1.0078125
    min_value: 0.0
    scale: 0.003952206112444401
    zero_point: 0
  '@Slice_layer28_q_rope_slice_second_379:out0':
    qtype: u8
    quantizer: asymmetric_affine
    rounding: rtne
    max_value: 17.929676055908203
    min_value: -17.0246639251709
    scale: 0.13707584142684937
    zero_point: 124
  '@Mul_layer28_k_rope_mul_cos_381:out0':
    qtype: u8
    quantizer: asymmetric_affine
    rounding: rtne
    max_value: 13.689861297607422
    min_value: -13.689861297607422
    scale: 0.10737146437168121
    zero_point: 127
  '@Mul_layer28_k_rope_mul_sin_382:out0':
    qtype: u8
    quantizer: asymmetric_affine
    rounding: rtne
    max_value: 4.176987171173096
    min_value: -3.9989821910858154
    scale: 0.03206262364983559
    zero_point: 125
  '@Sqrt_layer28_attn_rms_sqrt_383:out0':
    qtype: u8
    quantizer: asymmetric_affine
    rounding: rtne
    max_value: 1254.8690185546875
    min_value: 0.0
    scale: 4.921054840087891
    zero_point: 0
  '@Mul_sq_mul_layer29_q_proj_384:out0':
    qtype: u8
    quantizer: asymmetric_affine
    rounding: rtne
    max_value: 3.5867092609405518
    min_value: -3.506762981414795
    scale: 0.027817539870738983
    zero_point: 126
  '@Neg_layer29_k_rope_neg_second_387:out0':
    qtype: u8
    quantizer: asymmetric_affine
    rounding: rtne
    max_value: 11.50264835357666
    min_value: -13.250685691833496
    scale: 0.09707190096378326
    zero_point: 137
  '@Slice_layer29_k_rope_slice_second_388:out0':
    qtype: u8
    quantizer: asymmetric_affine
    rounding: rtne
    max_value: 13.250651359558105
    min_value: -11.911635398864746
    scale: 0.09867563098669052
    zero_point: 121
  '@ReduceMean_layer29_attn_rms_mean_389:out0':
    qtype: u8
    quantizer: asymmetric_affine
    rounding: rtne
    max_value: 367754.0625
    min_value: 0.0
    scale: 1442.1728515625
    zero_point: 0
  '@Mul_layer29_attn_rms_square_390:out0':
    qtype: u8
    quantizer: asymmetric_affine
    rounding: rtne
    max_value: 203748576.0
    min_value: 0.0
    scale: 799014.0
    zero_point: 0
  '@Add_layer20_mlp_residual_391:out0':
    qtype: u8
    quantizer: asymmetric_affine
    rounding: rtne
    max_value: 28278.08984375
    min_value: -1019.4918212890625
    scale: 114.8924789428711
    zero_point: 9
  '@Mul_sq_mul_layer21_down_proj_393:out0':
    qtype: u8
    quantizer: asymmetric_affine
    rounding: rtne
    max_value: 6.07428503036499
    min_value: -6.07428503036499
    scale: 0.04764145240187645
    zero_point: 128
  '@Reshape_layer22_ctx_merge_heads_395:out0':
    qtype: u8
    quantizer: asymmetric_affine
    rounding: rtne
    max_value: 2.949862241744995
    min_value: -2.949862241744995
    scale: 0.02313617430627346
    zero_point: 128
  '@Initializer_sq_scale_layer22_out_proj_396:out0':
    qtype: u8
    quantizer: asymmetric_affine
    rounding: rtne
    max_value: 1.7096604108810425
    min_value: 0.0
    scale: 0.006704550702124834
    zero_point: 0
  '@MatMul_layer23_attn_context_399:out0':
    qtype: u8
    quantizer: asymmetric_affine
    rounding: rtne
    max_value: 4.410693168640137
    min_value: -4.410693168640137
    scale: 0.034593671560287476
    zero_point: 128
  '@Mul_sq_mul_layer23_gate_proj_400:out0':
    qtype: u8
    quantizer: asymmetric_affine
    rounding: rtne
    max_value: 1.5721501111984253
    min_value: -1.9600178003311157
    scale: 0.01385163888335228
    zero_point: 142
  '@Initializer_sq_scale_layer23_gate_proj_402:out0':
    qtype: u8
    quantizer: asymmetric_affine
    rounding: rtne
    max_value: 3.0562996864318848
    min_value: 0.0
    scale: 0.011985489167273045
    zero_point: 0
  '@Mul_layer23_mlp_rms_gamma_403:out0':
    qtype: u8
    quantizer: asymmetric_affine
    rounding: rtne
    max_value: 2.2588953971862793
    min_value: -3.4111249446868896
    scale: 0.02223537303507328
    zero_point: 153
  '@Initializer_sq_scale_layer23_up_proj_404:out0':
    qtype: u8
    quantizer: asymmetric_affine
    rounding: rtne
    max_value: 3.1726481914520264
    min_value: 0.0
    scale: 0.012441758066415787
    zero_point: 0
  '@Add_layer24_causal_mask_405:out0':
    qtype: u8
    quantizer: asymmetric_affine
    rounding: rtne
    max_value: 9.380401611328125
    min_value: -10010.0703125
    scale: 39.29196548461914
    zero_point: 255
  '@Reshape_layer24_v_repeat_expand_406:out0':
    qtype: u8
    quantizer: asymmetric_affine
    rounding: rtne
    max_value: 13.70980453491211
    min_value: -11.028709411621094
    scale: 0.09701377898454666
    zero_point: 114
  '@Transpose_layer24_v_heads_407:out0':
    qtype: u8
    quantizer: asymmetric_affine
    rounding: rtne
    max_value: 13.70980453491211
    min_value: -11.028709411621094
    scale: 0.09701377898454666
    zero_point: 114
  '@Reciprocal_layer24_mlp_rms_reciprocal_408:out0':
    qtype: u8
    quantizer: asymmetric_affine
    rounding: rtne
    max_value: 1.0
    min_value: 0.0
    scale: 0.003921568859368563
    zero_point: 0
  '@Divide_409:out0':
    qtype: u8
    quantizer: asymmetric_affine
    rounding: rtne
    max_value: 0.08811143040657043
    min_value: 0.0
    scale: 0.0003455350233707577
    zero_point: 0
  '@Add_layer25_q_rope_rope_add_410:out0':
    qtype: u8
    quantizer: asymmetric_affine
    rounding: rtne
    max_value: 10.773141860961914
    min_value: -17.34955406188965
    scale: 0.11028508096933365
    zero_point: 157
  '@Transpose_layer25_k_transpose_411:out0':
    qtype: u8
    quantizer: asymmetric_affine
    rounding: rtne
    max_value: 16.789623260498047
    min_value: -17.01243782043457
    scale: 0.13255710899829865
    zero_point: 128
  '@Add_layer25_mlp_rms_eps_413:out0':
    qtype: u8
    quantizer: asymmetric_affine
    rounding: rtne
    max_value: 1595071.75
    min_value: 0.0
    scale: 6255.18310546875
    zero_point: 0
  '@Transpose_layer26_q_heads_414:out0':
    qtype: u8
    quantizer: asymmetric_affine
    rounding: rtne
    max_value: 15.382650375366211
    min_value: -16.459726333618164
    scale: 0.12487206608057022
    zero_point: 132
  '@Reshape_layer26_q_reshape_415:out0':
    qtype: u8
    quantizer: asymmetric_affine
    rounding: rtne
    max_value: 15.382650375366211
    min_value: -16.459726333618164
    scale: 0.12487206608057022
    zero_point: 132
  '@Concat_layer26_q_rope_rotate_half_416:out0':
    qtype: u8
    quantizer: asymmetric_affine
    rounding: rtne
    max_value: 16.459901809692383
    min_value: -15.233256340026855
    scale: 0.12428689002990723
    zero_point: 123
  '@Slice_layer26_q_rope_slice_first_417:out0':
    qtype: u8
    quantizer: asymmetric_affine
    rounding: rtne
    max_value: 15.382650375366211
    min_value: -16.459726333618164
    scale: 0.12487206608057022
    zero_point: 132
  '@Tile_layer26_k_repeat_tile_418:out0':
    qtype: u8
    quantizer: asymmetric_affine
    rounding: rtne
    max_value: 13.0819730758667
    min_value: -14.739136695861816
    scale: 0.10910239070653915
    zero_point: 135
  '@Mul_sq_mul_layer26_v_proj_419:out0':
    qtype: u8
    quantizer: asymmetric_affine
    rounding: rtne
    max_value: 1.5628128051757812
    min_value: -1.5628128051757812
    scale: 0.012257355265319347
    zero_point: 128
  '@Initializer_sq_scale_layer26_v_proj_421:out0':
    qtype: u8
    quantizer: asymmetric_affine
    rounding: rtne
    max_value: 1.6234768629074097
    min_value: 0.0
    scale: 0.0063665760681033134
    zero_point: 0
  '@Mul_layer26_attn_rms_gamma_422:out0':
    qtype: u8
    quantizer: asymmetric_affine
    rounding: rtne
    max_value: 6.709660053253174
    min_value: -4.899481296539307
    scale: 0.04552604630589485
    zero_point: 108
  '@Add_layer27_k_rope_rope_add_426:out0':
    qtype: u8
    quantizer: asymmetric_affine
    rounding: rtne
    max_value: 14.908653259277344
    min_value: -16.539642333984375
    scale: 0.12332665175199509
    zero_point: 134
  '@Mul_layer27_k_rope_mul_sin_427:out0':
    qtype: u8
    quantizer: asymmetric_affine
    rounding: rtne
    max_value: 5.062184810638428
    min_value: -5.062184810638428
    scale: 0.03970341011881828
    zero_point: 128
  '@Reciprocal_layer27_attn_rms_reciprocal_428:out0':
    qtype: u8
    quantizer: asymmetric_affine
    rounding: rtne
    max_value: 1.0
    min_value: 0.0
    scale: 0.003921568859368563
    zero_point: 0
  '@Divide_429:out0':
    qtype: u8
    quantizer: asymmetric_affine
    rounding: rtne
    max_value: 0.06897645443677902
    min_value: 0.0
    scale: 0.00027049588970839977
    zero_point: 0
  '@Transpose_layer28_k_heads_431:out0':
    qtype: u8
    quantizer: asymmetric_affine
    rounding: rtne
    max_value: 13.690160751342773
    min_value: -13.690160751342773
    scale: 0.10737381130456924
    zero_point: 128
  '@Reshape_layer28_k_reshape_432:out0':
    qtype: u8
    quantizer: asymmetric_affine
    rounding: rtne
    max_value: 13.690160751342773
    min_value: -13.690160751342773
    scale: 0.10737381130456924
    zero_point: 128
  '@Concat_layer28_k_rope_rotate_half_433:out0':
    qtype: u8
    quantizer: asymmetric_affine
    rounding: rtne
    max_value: 14.599026679992676
    min_value: -13.572410583496094
    scale: 0.11047621816396713
    zero_point: 123
  '@Slice_layer28_k_rope_slice_first_434:out0':
    qtype: u8
    quantizer: asymmetric_affine
    rounding: rtne
    max_value: 13.690160751342773
    min_value: -13.690160751342773
    scale: 0.10737381130456924
    zero_point: 128
  '@Add_layer28_attn_rms_eps_435:out0':
    qtype: u8
    quantizer: asymmetric_affine
    rounding: rtne
    max_value: 1574689.125
    min_value: 0.0
    scale: 6175.25146484375
    zero_point: 0
  '@ReduceMean_layer28_attn_rms_mean_436:out0':
    qtype: u8
    quantizer: asymmetric_affine
    rounding: rtne
    max_value: 1574689.125
    min_value: 0.0
    scale: 6175.25146484375
    zero_point: 0
  '@Initializer_sq_scale_layer29_q_proj_437:out0':
    qtype: u8
    quantizer: asymmetric_affine
    rounding: rtne
    max_value: 1.4521434307098389
    min_value: 0.0
    scale: 0.005694679915904999
    zero_point: 0
  '@Mul_sq_mul_layer29_k_proj_441:out0':
    qtype: u8
    quantizer: asymmetric_affine
    rounding: rtne
    max_value: 2.9837636947631836
    min_value: -2.0069048404693604
    scale: 0.019571248441934586
    zero_point: 103
  '@Initializer_sq_scale_layer29_k_proj_442:out0':
    qtype: u8
    quantizer: asymmetric_affine
    rounding: rtne
    max_value: 1.2105724811553955
    min_value: 0.0
    scale: 0.004747343249619007
    zero_point: 0
  '@Add_layer20_attn_residual_443:out0':
    qtype: u8
    quantizer: asymmetric_affine
    rounding: rtne
    max_value: 28277.57421875
    min_value: -1019.3341674804688
    scale: 114.88983917236328
    zero_point: 9
  '@Mul_sq_mul_layer21_out_proj_445:out0':
    qtype: u8
    quantizer: asymmetric_affine
    rounding: rtne
    max_value: 2.4457128047943115
    min_value: -2.5836234092712402
    scale: 0.019722886383533478
    zero_point: 131
  '@Mul_layer21_swiglu_mul_447:out0':
    qtype: u8
    quantizer: asymmetric_affine
    rounding: rtne
    max_value: 8.620925903320312
    min_value: -8.620925903320312
    scale: 0.06761510670185089
    zero_point: 128
  '@Initializer_sq_scale_layer21_down_proj_448:out0':
    qtype: u8
    quantizer: asymmetric_affine
    rounding: rtne
    max_value: 1.5300973653793335
    min_value: 0.0
    scale: 0.0060003818944096565
    zero_point: 0
  '@Transpose_layer22_ctx_transpose_449:out0':
    qtype: u8
    quantizer: asymmetric_affine
    rounding: rtne
    max_value: 2.949862241744995
    min_value: -2.949862241744995
    scale: 0.02313617430627346
    zero_point: 128
  '@Mul_sq_mul_layer22_up_proj_452:out0':
    qtype: u8
    quantizer: asymmetric_affine
    rounding: rtne
    max_value: 1.7712044715881348
    min_value: -1.7712044715881348
    scale: 0.013891799375414848
    zero_point: 128
  '@Softmax_layer23_softmax_454:out0':
    qtype: u8
    quantizer: asymmetric_affine
    rounding: rtne
    max_value: 1.0
    min_value: 0.0
    scale: 0.003921568859368563
    zero_point: 0
  '@Reshape_layer23_v_repeat_merge_455:out0':
    qtype: u8
    quantizer: asymmetric_affine
    rounding: rtne
    max_value: 9.00169849395752
    min_value: -9.00169849395752
    scale: 0.07060156017541885
    zero_point: 127
  '@Tile_layer23_v_repeat_tile_456:out0':
    qtype: u8
    quantizer: asymmetric_affine
    rounding: rtne
    max_value: 9.00169849395752
    min_value: -9.00169849395752
    scale: 0.07060156017541885
    zero_point: 127
  '@Mul_layer23_mlp_rms_scale_to_unit_457:out0':
    qtype: u8
    quantizer: asymmetric_affine
    rounding: rtne
    max_value: 23.903228759765625
    min_value: -12.906789779663086
    scale: 0.1443530172109604
    zero_point: 89
  '@Initializer_layer23_mlp_gamma_458:out0':
    qtype: u8
    quantizer: asymmetric_affine
    rounding: rtne
    max_value: 0.400390625
    min_value: -0.000507354736328125
    scale: 0.001572148990817368
    zero_point: 0
  '@Mul_layer24_attn_scale_459:out0':
    qtype: u8
    quantizer: asymmetric_affine
    rounding: rtne
    max_value: 9.351902961730957
    min_value: -10.471527099609375
    scale: 0.0777389407157898
    zero_point: 135
  '@MatMul_layer24_attn_scores_460:out0':
    qtype: u8
    quantizer: asymmetric_affine
    rounding: rtne
    max_value: 74.81522369384766
    min_value: -83.772216796875
    scale: 0.6219115257263184
    zero_point: 135
  '@Reshape_layer24_v_reshape_461:out0':
    qtype: u8
    quantizer: asymmetric_affine
    rounding: rtne
    max_value: 13.70980453491211
    min_value: -11.028709411621094
    scale: 0.09701377898454666
    zero_point: 114
  '@Sqrt_layer24_mlp_rms_sqrt_462:out0':
    qtype: u8
    quantizer: asymmetric_affine
    rounding: rtne
    max_value: 1262.8887939453125
    min_value: 0.0
    scale: 4.952505111694336
    zero_point: 0
  '@Mul_layer25_q_rope_mul_cos_463:out0':
    qtype: u8
    quantizer: asymmetric_affine
    rounding: rtne
    max_value: 10.754717826843262
    min_value: -17.358753204345703
    scale: 0.11024890840053558
    zero_point: 157
  '@Mul_layer25_q_rope_mul_sin_464:out0':
    qtype: u8
    quantizer: asymmetric_affine
    rounding: rtne
    max_value: 6.760083198547363
    min_value: -7.257069110870361
    scale: 0.05496922507882118
    zero_point: 132
  '@Reshape_layer25_k_repeat_merge_465:out0':
    qtype: u8
    quantizer: asymmetric_affine
    rounding: rtne
    max_value: 16.789623260498047
    min_value: -17.01243782043457
    scale: 0.13255710899829865
    zero_point: 128
  '@ReduceMean_layer25_mlp_rms_mean_468:out0':
    qtype: u8
    quantizer: asymmetric_affine
    rounding: rtne
    max_value: 1595071.75
    min_value: 0.0
    scale: 6255.18310546875
    zero_point: 0
  '@Mul_layer25_mlp_rms_square_469:out0':
    qtype: u8
    quantizer: asymmetric_affine
    rounding: rtne
    max_value: 907364800.0
    min_value: 0.0
    scale: 3558293.25
    zero_point: 0
  '@Neg_layer26_q_rope_neg_second_471:out0':
    qtype: u8
    quantizer: asymmetric_affine
    rounding: rtne
    max_value: 16.459901809692383
    min_value: -15.233256340026855
    scale: 0.12428689002990723
    zero_point: 123
  '@Slice_layer26_q_rope_slice_second_472:out0':
    qtype: u8
    quantizer: asymmetric_affine
    rounding: rtne
    max_value: 15.382650375366211
    min_value: -16.459726333618164
    scale: 0.12487206608057022
    zero_point: 132
  '@Reshape_layer26_k_repeat_expand_473:out0':
    qtype: u8
    quantizer: asymmetric_affine
    rounding: rtne
    max_value: 13.0819730758667
    min_value: -14.739136695861816
    scale: 0.10910239070653915
    zero_point: 135
  '@Mul_layer26_attn_rms_scale_to_unit_474:out0':
    qtype: u8
    quantizer: asymmetric_affine
    rounding: rtne
    max_value: 23.869882583618164
    min_value: -8.541699409484863
    scale: 0.127104252576828
    zero_point: 67
  '@Initializer_layer26_attn_gamma_475:out0':
    qtype: u8
    quantizer: asymmetric_affine
    rounding: rtne
    max_value: 0.8671875
    min_value: 0.0
    scale: 0.0034007353242486715
    zero_point: 0
  '@Mul_sq_mul_layer27_q_proj_476:out0':
    qtype: u8
    quantizer: asymmetric_affine
    rounding: rtne
    max_value: 2.7115907669067383
    min_value: -2.84635066986084
    scale: 0.02179584838449955
    zero_point: 131
  '@Mul_layer27_k_rope_mul_cos_477:out0':
    qtype: u8
    quantizer: asymmetric_affine
    rounding: rtne
    max_value: 14.903125762939453
    min_value: -16.53778076171875
    scale: 0.12329766899347305
    zero_point: 134
  '@Concat_layer27_k_rope_rotate_half_478:out0':
    qtype: u8
    quantizer: asymmetric_affine
    rounding: rtne
    max_value: 15.277384757995605
    min_value: -16.53795051574707
    scale: 0.12476601451635361
    zero_point: 133
  '@Slice_layer27_k_rope_slice_first_479:out0':
    qtype: u8
    quantizer: asymmetric_affine
    rounding: rtne
    max_value: 14.903297424316406
    min_value: -16.537813186645508
    scale: 0.12329847365617752
    zero_point: 134
  '@Sqrt_layer27_attn_rms_sqrt_480:out0':
    qtype: u8
    quantizer: asymmetric_affine
    rounding: rtne
    max_value: 1262.678466796875
    min_value: 0.0
    scale: 4.9516801834106445
    zero_point: 0
  '@Mul_sq_mul_layer28_q_proj_481:out0':
    qtype: u8
    quantizer: asymmetric_affine
    rounding: rtne
    max_value: 3.0718910694122314
    min_value: -2.485710859298706
    scale: 0.02179451659321785
    zero_point: 114
  '@Neg_layer28_k_rope_neg_second_484:out0':
    qtype: u8
    quantizer: asymmetric_affine
    rounding: rtne
    max_value: 14.599026679992676
    min_value: -13.572410583496094
    scale: 0.11047621816396713
    zero_point: 123
  '@Slice_layer28_k_rope_slice_second_485:out0':
    qtype: u8
    quantizer: asymmetric_affine
    rounding: rtne
    max_value: 13.690160751342773
    min_value: -13.690160751342773
    scale: 0.10737381130456924
    zero_point: 128
  '@Mul_layer28_attn_rms_square_486:out0':
    qtype: u8
    quantizer: asymmetric_affine
    rounding: rtne
    max_value: 895134592.0
    min_value: 0.0
    scale: 3510331.75
    zero_point: 0
  '@Add_layer19_mlp_residual_488:out0':
    qtype: u8
    quantizer: asymmetric_affine
    rounding: rtne
    max_value: 28279.77734375
    min_value: -1019.3346557617188
    scale: 114.89847564697266
    zero_point: 9
  '@Mul_sq_mul_layer20_down_proj_490:out0':
    qtype: u8
    quantizer: asymmetric_affine
    rounding: rtne
    max_value: 5.399742603302002
    min_value: -5.399742603302002
    scale: 0.04235092177987099
    zero_point: 128
  '@Reshape_layer21_ctx_merge_heads_492:out0':
    qtype: u8
    quantizer: asymmetric_affine
    rounding: rtne
    max_value: 2.74373459815979
    min_value: -3.5813117027282715
    scale: 0.02480410411953926
    zero_point: 144
  '@Initializer_sq_scale_layer21_out_proj_493:out0':
    qtype: u8
    quantizer: asymmetric_affine
    rounding: rtne
    max_value: 1.8582862615585327
    min_value: 0.0
    scale: 0.007287397049367428
    zero_point: 0
  '@MatMul_layer22_attn_context_496:out0':
    qtype: u8
    quantizer: asymmetric_affine
    rounding: rtne
    max_value: 2.949862241744995
    min_value: -2.949862241744995
    scale: 0.02313617430627346
    zero_point: 128
  '@Mul_sq_mul_layer22_gate_proj_497:out0':
    qtype: u8
    quantizer: asymmetric_affine
    rounding: rtne
    max_value: 2.1019351482391357
    min_value: -2.1580140590667725
    scale: 0.01670568250119686
    zero_point: 129
  '@Initializer_sq_scale_layer22_gate_proj_499:out0':
    qtype: u8
    quantizer: asymmetric_affine
    rounding: rtne
    max_value: 13.463013648986816
    min_value: 0.0
    scale: 0.0527961328625679
    zero_point: 0
  '@Mul_layer22_mlp_rms_gamma_500:out0':
    qtype: u8
    quantizer: asymmetric_affine
    rounding: rtne
    max_value: 2.130112648010254
    min_value: -2.7557005882263184
    scale: 0.01916005276143551
    zero_point: 144
  '@Initializer_sq_scale_layer22_up_proj_501:out0':
    qtype: u8
    quantizer: asymmetric_affine
    rounding: rtne
    max_value: 12.795964241027832
    min_value: 0.0
    scale: 0.05018025264143944
    zero_point: 0
  '@Add_layer23_causal_mask_502:out0':
    qtype: u8
    quantizer: asymmetric_affine
    rounding: rtne
    max_value: 9.874720573425293
    min_value: -10015.576171875
    scale: 39.315494537353516
    zero_point: 255
  '@Reshape_layer23_v_repeat_expand_503:out0':
    qtype: u8
    quantizer: asymmetric_affine
    rounding: rtne
    max_value: 9.00169849395752
    min_value: -9.00169849395752
    scale: 0.07060156017541885
    zero_point: 127
  '@Transpose_layer23_v_heads_504:out0':
    qtype: u8
    quantizer: asymmetric_affine
    rounding: rtne
    max_value: 9.00169849395752
    min_value: -9.00169849395752
    scale: 0.07060156017541885
    zero_point: 127
  '@Reciprocal_layer23_mlp_rms_reciprocal_505:out0':
    qtype: u8
    quantizer: asymmetric_affine
    rounding: rtne
    max_value: 1.0
    min_value: 0.0
    scale: 0.003921568859368563
    zero_point: 0
  '@Divide_506:out0':
    qtype: u8
    quantizer: asymmetric_affine
    rounding: rtne
    max_value: 0.12114527076482773
    min_value: 0.0
    scale: 0.0004750794905703515
    zero_point: 0
  '@Add_layer24_q_rope_rope_add_507:out0':
    qtype: u8
    quantizer: asymmetric_affine
    rounding: rtne
    max_value: 12.288178443908691
    min_value: -11.663718223571777
    scale: 0.09392900764942169
    zero_point: 124
  '@Transpose_layer24_k_transpose_508:out0':
    qtype: u8
    quantizer: asymmetric_affine
    rounding: rtne
    max_value: 14.589730262756348
    min_value: -12.269325256347656
    scale: 0.10532962530851364
    zero_point: 116
  '@Add_layer24_mlp_rms_eps_510:out0':
    qtype: u8
    quantizer: asymmetric_affine
    rounding: rtne
    max_value: 1594876.75
    min_value: 0.0
    scale: 6254.41845703125
    zero_point: 0
  '@Transpose_layer25_q_heads_511:out0':
    qtype: u8
    quantizer: asymmetric_affine
    rounding: rtne
    max_value: 10.765349388122559
    min_value: -17.358964920043945
    scale: 0.11029142141342163
    zero_point: 157
  '@Reshape_layer25_q_reshape_512:out0':
    qtype: u8
    quantizer: asymmetric_affine
    rounding: rtne
    max_value: 10.765349388122559
    min_value: -17.358964920043945
    scale: 0.11029142141342163
    zero_point: 157
  '@Concat_layer25_q_rope_rotate_half_513:out0':
    qtype: u8
    quantizer: asymmetric_affine
    rounding: rtne
    max_value: 16.968839645385742
    min_value: -18.5986385345459
    scale: 0.13948030769824982
    zero_point: 133
  '@Slice_layer25_q_rope_slice_first_514:out0':
    qtype: u8
    quantizer: asymmetric_affine
    rounding: rtne
    max_value: 10.765349388122559
    min_value: -17.358964920043945
    scale: 0.11029142141342163
    zero_point: 157
  '@Tile_layer25_k_repeat_tile_515:out0':
    qtype: u8
    quantizer: asymmetric_affine
    rounding: rtne
    max_value: 16.789623260498047
    min_value: -17.01243782043457
    scale: 0.13255710899829865
    zero_point: 128
  '@Mul_sq_mul_layer25_v_proj_516:out0':
    qtype: u8
    quantizer: asymmetric_affine
    rounding: rtne
    max_value: 1.5074502229690552
    min_value: -1.5074502229690552
    scale: 0.011823139153420925
    zero_point: 128
  '@Initializer_sq_scale_layer25_v_proj_518:out0':
    qtype: u8
    quantizer: asymmetric_affine
    rounding: rtne
    max_value: 1.5322240591049194
    min_value: 0.0
    scale: 0.006008721888065338
    zero_point: 0
  '@Mul_layer25_attn_rms_gamma_519:out0':
    qtype: u8
    quantizer: asymmetric_affine
    rounding: rtne
    max_value: 6.958349227905273
    min_value: -4.875403881072998
    scale: 0.04640687629580498
    zero_point: 105
  '@Add_layer26_k_rope_rope_add_523:out0':
    qtype: u8
    quantizer: asymmetric_affine
    rounding: rtne
    max_value: 13.0819730758667
    min_value: -14.739136695861816
    scale: 0.10910239070653915
    zero_point: 135
  '@Mul_layer26_k_rope_mul_sin_524:out0':
    qtype: u8
    quantizer: asymmetric_affine
    rounding: rtne
    max_value: 4.150545120239258
    min_value: -3.906355857849121
    scale: 0.03159568831324577
    zero_point: 124
  '@Reciprocal_layer26_attn_rms_reciprocal_525:out0':
    qtype: u8
    quantizer: asymmetric_affine
    rounding: rtne
    max_value: 1.0
    min_value: 0.0
    scale: 0.003921568859368563
    zero_point: 0
  '@Divide_526:out0':
    qtype: u8
    quantizer: asymmetric_affine
    rounding: rtne
    max_value: 0.07306462526321411
    min_value: 0.0
    scale: 0.00028652793844230473
    zero_point: 0
  '@Sqrt_layer26_attn_rms_sqrt_527:out0':
    qtype: u8
    quantizer: asymmetric_affine
    rounding: rtne
    max_value: 1262.9571533203125
    min_value: 0.0
    scale: 4.952773094177246
    zero_point: 0
  '@Initializer_sq_scale_layer27_q_proj_528:out0':
    qtype: u8
    quantizer: asymmetric_affine
    rounding: rtne
    max_value: 1.9178954362869263
    min_value: 0.0
    scale: 0.007521158549934626
    zero_point: 0
  '@Transpose_layer27_k_heads_529:out0':
    qtype: u8
    quantizer: asymmetric_affine
    rounding: rtne
    max_value: 14.903297424316406
    min_value: -16.537813186645508
    scale: 0.12329847365617752
    zero_point: 134
  '@Reshape_layer27_k_reshape_530:out0':
    qtype: u8
    quantizer: asymmetric_affine
    rounding: rtne
    max_value: 14.903297424316406
    min_value: -16.537813186645508
    scale: 0.12329847365617752
    zero_point: 134
  '@Neg_layer27_k_rope_neg_second_531:out0':
    qtype: u8
    quantizer: asymmetric_affine
    rounding: rtne
    max_value: 15.277384757995605
    min_value: -16.53795051574707
    scale: 0.12476601451635361
    zero_point: 133
  '@Slice_layer27_k_rope_slice_second_532:out0':
    qtype: u8
    quantizer: asymmetric_affine
    rounding: rtne
    max_value: 14.903297424316406
    min_value: -16.537813186645508
    scale: 0.12329847365617752
    zero_point: 134
  '@Add_layer27_attn_rms_eps_533:out0':
    qtype: u8
    quantizer: asymmetric_affine
    rounding: rtne
    max_value: 1594350.75
    min_value: 0.0
    scale: 6252.35595703125
    zero_point: 0
  '@ReduceMean_layer27_attn_rms_mean_534:out0':
    qtype: u8
    quantizer: asymmetric_affine
    rounding: rtne
    max_value: 1594350.75
    min_value: 0.0
    scale: 6252.35595703125
    zero_point: 0
  '@Initializer_sq_scale_layer28_q_proj_535:out0':
    qtype: u8
    quantizer: asymmetric_affine
    rounding: rtne
    max_value: 1.4083876609802246
    min_value: 0.0
    scale: 0.005523088853806257
    zero_point: 0
  '@Add_layer19_attn_residual_537:out0':
    qtype: u8
    quantizer: asymmetric_affine
    rounding: rtne
    max_value: 28279.142578125
    min_value: -1019.254638671875
    scale: 114.89567565917969
    zero_point: 9
  '@Mul_sq_mul_layer20_out_proj_539:out0':
    qtype: u8
    quantizer: asymmetric_affine
    rounding: rtne
    max_value: 2.8140461444854736
    min_value: -2.8140461444854736
    scale: 0.022070949897170067
    zero_point: 128
  '@Mul_layer20_swiglu_mul_541:out0':
    qtype: u8
    quantizer: asymmetric_affine
    rounding: rtne
    max_value: 9.044979095458984
    min_value: -9.044979095458984
    scale: 0.0709410160779953
    zero_point: 127
  '@Initializer_sq_scale_layer20_down_proj_542:out0':
    qtype: u8
    quantizer: asymmetric_affine
    rounding: rtne
    max_value: 1.9847404956817627
    min_value: 0.0
    scale: 0.007783296052366495
    zero_point: 0
  '@Transpose_layer21_ctx_transpose_543:out0':
    qtype: u8
    quantizer: asymmetric_affine
    rounding: rtne
    max_value: 2.74373459815979
    min_value: -3.5813117027282715
    scale: 0.02480410411953926
    zero_point: 144
  '@Mul_sq_mul_layer21_up_proj_546:out0':
    qtype: u8
    quantizer: asymmetric_affine
    rounding: rtne
    max_value: 1.4631198644638062
    min_value: -2.0158493518829346
    scale: 0.01364301610738039
    zero_point: 148
  '@Softmax_layer22_softmax_548:out0':
    qtype: u8
    quantizer: asymmetric_affine
    rounding: rtne
    max_value: 1.0
    min_value: 0.0
    scale: 0.003921568859368563
    zero_point: 0
  '@Reshape_layer22_v_repeat_merge_549:out0':
    qtype: u8
    quantizer: asymmetric_affine
    rounding: rtne
    max_value: 5.834364414215088
    min_value: -5.834364414215088
    scale: 0.04575972259044647
    zero_point: 127
  '@Tile_layer22_v_repeat_tile_550:out0':
    qtype: u8
    quantizer: asymmetric_affine
    rounding: rtne
    max_value: 5.834364414215088
    min_value: -5.834364414215088
    scale: 0.04575972259044647
    zero_point: 127
  '@Mul_layer22_mlp_rms_scale_to_unit_551:out0':
    qtype: u8
    quantizer: asymmetric_affine
    rounding: rtne
    max_value: 23.904027938842773
    min_value: -13.529522895812988
    scale: 0.146798238158226
    zero_point: 92
  '@Initializer_layer22_mlp_gamma_552:out0':
    qtype: u8
    quantizer: asymmetric_affine
    rounding: rtne
    max_value: 0.357421875
    min_value: 0.0
    scale: 0.0014016544446349144
    zero_point: 0
  '@Mul_layer23_attn_scale_553:out0':
    qtype: u8
    quantizer: asymmetric_affine
    rounding: rtne
    max_value: 10.065787315368652
    min_value: -13.585671424865723
    scale: 0.09275081753730774
    zero_point: 146
  '@MatMul_layer23_attn_scores_554:out0':
    qtype: u8
    quantizer: asymmetric_affine
    rounding: rtne
    max_value: 80.52629852294922
    min_value: -108.68537139892578
    scale: 0.7420065402984619
    zero_point: 146
  '@Reshape_layer23_v_reshape_555:out0':
    qtype: u8
    quantizer: asymmetric_affine
    rounding: rtne
    max_value: 9.00169849395752
    min_value: -9.00169849395752
    scale: 0.07060156017541885
    zero_point: 127
  '@Sqrt_layer23_mlp_rms_sqrt_556:out0':
    qtype: u8
    quantizer: asymmetric_affine
    rounding: rtne
    max_value: 1264.0321044921875
    min_value: 0.0
    scale: 4.95698881149292
    zero_point: 0
  '@Mul_layer24_q_rope_mul_cos_557:out0':
    qtype: u8
    quantizer: asymmetric_affine
    rounding: rtne
    max_value: 12.286908149719238
    min_value: -11.663888931274414
    scale: 0.09392470121383667
    zero_point: 124
  '@Mul_layer24_q_rope_mul_sin_558:out0':
    qtype: u8
    quantizer: asymmetric_affine
    rounding: rtne
    max_value: 6.228431701660156
    min_value: -6.601184844970703
    scale: 0.05031222105026245
    zero_point: 131
  '@Reshape_layer24_k_repeat_merge_559:out0':
    qtype: u8
    quantizer: asymmetric_affine
    rounding: rtne
    max_value: 14.589730262756348
    min_value: -12.269325256347656
    scale: 0.10532962530851364
    zero_point: 116
  '@ReduceMean_layer24_mlp_rms_mean_562:out0':
    qtype: u8
    quantizer: asymmetric_affine
    rounding: rtne
    max_value: 1594876.75
    min_value: 0.0
    scale: 6254.41845703125
    zero_point: 0
  '@Mul_layer24_mlp_rms_square_563:out0':
    qtype: u8
    quantizer: asymmetric_affine
    rounding: rtne
    max_value: 907321472.0
    min_value: 0.0
    scale: 3558123.5
    zero_point: 0
  '@Neg_layer25_q_rope_neg_second_565:out0':
    qtype: u8
    quantizer: asymmetric_affine
    rounding: rtne
    max_value: 16.968839645385742
    min_value: -18.5986385345459
    scale: 0.13948030769824982
    zero_point: 133
  '@Slice_layer25_q_rope_slice_second_566:out0':
    qtype: u8
    quantizer: asymmetric_affine
    rounding: rtne
    max_value: 10.765349388122559
    min_value: -17.358964920043945
    scale: 0.11029142141342163
    zero_point: 157
  '@Reshape_layer25_k_repeat_expand_567:out0':
    qtype: u8
    quantizer: asymmetric_affine
    rounding: rtne
    max_value: 16.789623260498047
    min_value: -17.01243782043457
    scale: 0.13255710899829865
    zero_point: 128
  '@Mul_layer25_attn_rms_scale_to_unit_568:out0':
    qtype: u8
    quantizer: asymmetric_affine
    rounding: rtne
    max_value: 23.874134063720703
    min_value: -9.039780616760254
    scale: 0.12907417118549347
    zero_point: 70
  '@Initializer_layer25_attn_gamma_569:out0':
    qtype: u8
    quantizer: asymmetric_affine
    rounding: rtne
    max_value: 0.7890625
    min_value: 0.0
    scale: 0.0030943627934902906
    zero_point: 0
  '@Mul_sq_mul_layer26_q_proj_570:out0':
    qtype: u8
    quantizer: asymmetric_affine
    rounding: rtne
    max_value: 2.673257350921631
    min_value: -2.806192398071289
    scale: 0.021488038823008537
    zero_point: 131
  '@Mul_layer26_k_rope_mul_cos_571:out0':
    qtype: u8
    quantizer: asymmetric_affine
    rounding: rtne
    max_value: 13.078280448913574
    min_value: -14.729235649108887
    scale: 0.10904908180236816
    zero_point: 135
  '@Concat_layer26_k_rope_rotate_half_572:out0':
    qtype: u8
    quantizer: asymmetric_affine
    rounding: rtne
    max_value: 14.206071853637695
    min_value: -15.707115173339844
    scale: 0.11730661243200302
    zero_point: 134
  '@Slice_layer26_k_rope_slice_first_573:out0':
    qtype: u8
    quantizer: asymmetric_affine
    rounding: rtne
    max_value: 13.078787803649902
    min_value: -14.729268074035645
    scale: 0.10905119776725769
    zero_point: 135
  '@Add_layer26_attn_rms_eps_574:out0':
    qtype: u8
    quantizer: asymmetric_affine
    rounding: rtne
    max_value: 1595055.875
    min_value: 0.0
    scale: 6255.12109375
    zero_point: 0
  '@Mul_layer27_attn_rms_square_577:out0':
    qtype: u8
    quantizer: asymmetric_affine
    rounding: rtne
    max_value: 906904128.0
    min_value: 0.0
    scale: 3556486.75
    zero_point: 0
  '@Mul_sq_mul_layer28_k_proj_578:out0':
    qtype: u8
    quantizer: asymmetric_affine
    rounding: rtne
    max_value: 3.063323736190796
    min_value: -2.2323813438415527
    scale: 0.020767470821738243
    zero_point: 107
  '@Add_layer18_mlp_residual_580:out0':
    qtype: u8
    quantizer: asymmetric_affine
    rounding: rtne
    max_value: 28287.0703125
    min_value: -1020.1473388671875
    scale: 114.93025970458984
    zero_point: 9
  '@Mul_sq_mul_layer19_down_proj_582:out0':
    qtype: u8
    quantizer: asymmetric_affine
    rounding: rtne
    max_value: 4.319985389709473
    min_value: -4.319985389709473
    scale: 0.03388223797082901
    zero_point: 128
  '@Reshape_layer20_ctx_merge_heads_584:out0':
    qtype: u8
    quantizer: asymmetric_affine
    rounding: rtne
    max_value: 4.532358646392822
    min_value: -4.585011005401611
    scale: 0.03575439006090164
    zero_point: 128
  '@Initializer_sq_scale_layer20_out_proj_585:out0':
    qtype: u8
    quantizer: asymmetric_affine
    rounding: rtne
    max_value: 2.484126567840576
    min_value: 0.0
    scale: 0.009741673246026039
    zero_point: 0
  '@MatMul_layer21_attn_context_588:out0':
    qtype: u8
    quantizer: asymmetric_affine
    rounding: rtne
    max_value: 2.74373459815979
    min_value: -3.5813117027282715
    scale: 0.02480410411953926
    zero_point: 144
  '@Mul_sq_mul_layer21_gate_proj_589:out0':
    qtype: u8
    quantizer: asymmetric_affine
    rounding: rtne
    max_value: 1.7928119897842407
    min_value: -1.7928119897842407
    scale: 0.014061270281672478
    zero_point: 128
  '@Initializer_sq_scale_layer21_gate_proj_591:out0':
    qtype: u8
    quantizer: asymmetric_affine
    rounding: rtne
    max_value: 22.238937377929688
    min_value: 0.0
    scale: 0.08721151947975159
    zero_point: 0
  '@Mul_layer21_mlp_rms_gamma_592:out0':
    qtype: u8
    quantizer: asymmetric_affine
    rounding: rtne
    max_value: 1.8897802829742432
    min_value: -2.6393840312957764
    scale: 0.01776142790913582
    zero_point: 149
  '@Initializer_sq_scale_layer21_up_proj_593:out0':
    qtype: u8
    quantizer: asymmetric_affine
    rounding: rtne
    max_value: 20.172990798950195
    min_value: 0.0
    scale: 0.07910976558923721
    zero_point: 0
  '@Add_layer22_causal_mask_594:out0':
    qtype: u8
    quantizer: asymmetric_affine
    rounding: rtne
    max_value: 10.552001953125
    min_value: -10015.41015625
    scale: 39.31749725341797
    zero_point: 255
  '@Reshape_layer22_v_repeat_expand_595:out0':
    qtype: u8
    quantizer: asymmetric_affine
    rounding: rtne
    max_value: 5.834364414215088
    min_value: -5.834364414215088
    scale: 0.04575972259044647
    zero_point: 127
  '@Transpose_layer22_v_heads_596:out0':
    qtype: u8
    quantizer: asymmetric_affine
    rounding: rtne
    max_value: 5.834364414215088
    min_value: -5.834364414215088
    scale: 0.04575972259044647
    zero_point: 127
  '@Reciprocal_layer22_mlp_rms_reciprocal_597:out0':
    qtype: u8
    quantizer: asymmetric_affine
    rounding: rtne
    max_value: 1.0
    min_value: 0.0
    scale: 0.003921568859368563
    zero_point: 0
  '@Divide_598:out0':
    qtype: u8
    quantizer: asymmetric_affine
    rounding: rtne
    max_value: 0.13259896636009216
    min_value: 0.0
    scale: 0.0005199959268793464
    zero_point: 0
  '@Add_layer23_q_rope_rope_add_599:out0':
    qtype: u8
    quantizer: asymmetric_affine
    rounding: rtne
    max_value: 13.149123191833496
    min_value: -13.149123191833496
    scale: 0.10313037782907486
    zero_point: 128
  '@Transpose_layer23_k_transpose_600:out0':
    qtype: u8
    quantizer: asymmetric_affine
    rounding: rtne
    max_value: 14.829373359680176
    min_value: -14.829373359680176
    scale: 0.11630880832672119
    zero_point: 128
  '@Add_layer23_mlp_rms_eps_602:out0':
    qtype: u8
    quantizer: asymmetric_affine
    rounding: rtne
    max_value: 1597777.875
    min_value: 0.0
    scale: 6265.79541015625
    zero_point: 0
  '@Transpose_layer24_q_heads_603:out0':
    qtype: u8
    quantizer: asymmetric_affine
    rounding: rtne
    max_value: 12.28691291809082
    min_value: -11.663890838623047
    scale: 0.09392472356557846
    zero_point: 124
  '@Reshape_layer24_q_reshape_604:out0':
    qtype: u8
    quantizer: asymmetric_affine
    rounding: rtne
    max_value: 12.28691291809082
    min_value: -11.663890838623047
    scale: 0.09392472356557846
    zero_point: 124
  '@Concat_layer24_q_rope_rotate_half_605:out0':
    qtype: u8
    quantizer: asymmetric_affine
    rounding: rtne
    max_value: 12.286970138549805
    min_value: -12.713682174682617
    scale: 0.09804177284240723
    zero_point: 130
  '@Slice_layer24_q_rope_slice_first_606:out0':
    qtype: u8
    quantizer: asymmetric_affine
    rounding: rtne
    max_value: 12.28691291809082
    min_value: -11.663890838623047
