# !!!This file disallow TABs!!!
version: 2
quantize_parameters:
  '@attach_Mul_final_rms_gamma/out0_0:out0':
    qtype: u8
    quantizer: asymmetric_affine
    rounding: rtne
    max_value: 214.20339965820312
    min_value: -182.75045776367188
    scale: 1.556681752204895
    zero_point: 117
  '@Mul_final_rms_gamma_1:out0':
    qtype: u8
    quantizer: asymmetric_affine
    rounding: rtne
    max_value: 214.20339965820312
    min_value: -182.75045776367188
    scale: 1.556681752204895
    zero_point: 117
  '@Mul_final_rms_scale_to_unit_2:out0':
    qtype: u8
    quantizer: asymmetric_affine
    rounding: rtne
    max_value: 18.349164962768555
    min_value: -17.301795959472656
    scale: 0.13980770111083984
    zero_point: 124
  '@Initializer_final_rms_gamma_3:out0':
    qtype: u8
    quantizer: asymmetric_affine
    rounding: rtne
    max_value: 16.75
    min_value: -0.01141357421875
    scale: 0.06573103368282318
    zero_point: 0
  '@Add_layer23_mlp_residual_4:out0':
    qtype: u8
    quantizer: asymmetric_affine
    rounding: rtne
    max_value: 44.9981803894043
    min_value: -44.9981803894043
    scale: 0.35292690992355347
    zero_point: 128
  '@Reciprocal_final_rms_reciprocal_5:out0':
    qtype: u8
    quantizer: asymmetric_affine
    rounding: rtne
    max_value: 1.0
    min_value: 0.0
    scale: 0.003921568859368563
    zero_point: 0
  '@Divide_6:out0':
    qtype: u8
    quantizer: asymmetric_affine
    rounding: rtne
    max_value: 0.619526743888855
    min_value: 0.0
    scale: 0.002429516753181815
    zero_point: 0
  '@Add_layer23_attn_residual_7:out0':
    qtype: u8
    quantizer: asymmetric_affine
    rounding: rtne
    max_value: 18.375612258911133
    min_value: -15.173213005065918
    scale: 0.13156402111053467
    zero_point: 115
  '@Sqrt_final_rms_sqrt_9:out0':
    qtype: u8
    quantizer: asymmetric_affine
    rounding: rtne
    max_value: 3.1003005504608154
    min_value: 0.0
    scale: 0.012158041819930077
    zero_point: 0
  '@Add_layer22_mlp_residual_10:out0':
    qtype: u8
    quantizer: asymmetric_affine
    rounding: rtne
    max_value: 70.08799743652344
    min_value: -16.137521743774414
    scale: 0.33813929557800293
    zero_point: 48
  '@Mul_layer23_swiglu_mul_12:out0':
    qtype: u8
    quantizer: asymmetric_affine
    rounding: rtne
    max_value: 46.57791519165039
    min_value: -46.57791519165039
    scale: 0.3653169870376587
    zero_point: 128
  '@Add_final_rms_eps_14:out0':
    qtype: u8
    quantizer: asymmetric_affine
    rounding: rtne
    max_value: 9.611865043640137
    min_value: 0.0
    scale: 0.03769358992576599
    zero_point: 0
  '@Add_layer22_attn_residual_15:out0':
    qtype: u8
    quantizer: asymmetric_affine
    rounding: rtne
    max_value: 69.03313446044922
    min_value: -18.326858520507812
    scale: 0.3425882160663605
    zero_point: 53
  '@Mul_sq_mul_layer23_out_proj_17:out0':
    qtype: u8
    quantizer: asymmetric_affine
    rounding: rtne
    max_value: 2.5126919746398926
    min_value: -2.22398042678833
    scale: 0.018575185909867287
    zero_point: 120
  '@ReduceMean_final_rms_mean_21:out0':
    qtype: u8
    quantizer: asymmetric_affine
    rounding: rtne
    max_value: 9.61186408996582
    min_value: 0.0
    scale: 0.03769358620047569
    zero_point: 0
  '@Initializer_eps_22:out0':
    qtype: u8
    quantizer: asymmetric_affine
    rounding: rtne
    max_value: 9.999999974752427e-07
    min_value: 0.0
    scale: 3.921568403342234e-09
    zero_point: 0
  '@Add_layer21_mlp_residual_23:out0':
    qtype: u8
    quantizer: asymmetric_affine
    rounding: rtne
    max_value: 69.29944610595703
    min_value: -18.095666885375977
    scale: 0.342725932598114
    zero_point: 53
  '@Mul_sq_mul_layer22_down_proj_25:out0':
    qtype: u8
    quantizer: asymmetric_affine
    rounding: rtne
    max_value: 2.4261879920959473
    min_value: -2.4261879920959473
    scale: 0.019028926268219948
    zero_point: 127
  '@Reshape_layer23_ctx_merge_heads_27:out0':
    qtype: u8
    quantizer: asymmetric_affine
    rounding: rtne
    max_value: 6.42441463470459
    min_value: -6.679132461547852
    scale: 0.05138646066188812
    zero_point: 130
  '@Initializer_sq_scale_layer23_out_proj_28:out0':
    qtype: u8
    quantizer: asymmetric_affine
    rounding: rtne
    max_value: 0.596525251865387
    min_value: 0.0
    scale: 0.0023393146693706512
    zero_point: 0
  '@Mul_sq_mul_layer23_up_proj_31:out0':
    qtype: u8
    quantizer: asymmetric_affine
    rounding: rtne
    max_value: 3.289155960083008
    min_value: -2.6537632942199707
    scale: 0.023305565118789673
    zero_point: 114
  '@Mul_final_rms_square_33:out0':
    qtype: u8
    quantizer: asymmetric_affine
    rounding: rtne
    max_value: 2643.189697265625
    min_value: 0.0
    scale: 10.365449905395508
    zero_point: 0
  '@Add_layer21_attn_residual_34:out0':
    qtype: u8
    quantizer: asymmetric_affine
    rounding: rtne
    max_value: 1393.903564453125
    min_value: -87.79008483886719
    scale: 5.810563087463379
    zero_point: 15
  '@Mul_sq_mul_layer22_out_proj_36:out0':
    qtype: u8
    quantizer: asymmetric_affine
    rounding: rtne
    max_value: 0.49071916937828064
    min_value: -0.5504666566848755
    scale: 0.004083081614226103
    zero_point: 135
  '@Mul_layer22_swiglu_mul_38:out0':
    qtype: u8
    quantizer: asymmetric_affine
    rounding: rtne
    max_value: 18.980777740478516
    min_value: -18.980777740478516
    scale: 0.1488688439130783
    zero_point: 128
  '@Initializer_sq_scale_layer22_down_proj_39:out0':
    qtype: u8
    quantizer: asymmetric_affine
    rounding: rtne
    max_value: 0.320242315530777
    min_value: 0.0
    scale: 0.0012558521702885628
    zero_point: 0
  '@Transpose_layer23_ctx_transpose_40:out0':
    qtype: u8
    quantizer: asymmetric_affine
    rounding: rtne
    max_value: 6.42441463470459
    min_value: -6.679132461547852
    scale: 0.05138646066188812
    zero_point: 130
  '@Mul_sq_mul_layer23_gate_proj_41:out0':
    qtype: u8
    quantizer: asymmetric_affine
    rounding: rtne
    max_value: 2.5582799911499023
    min_value: -1.874252438545227
    scale: 0.017382480204105377
    zero_point: 108
  '@Initializer_sq_scale_layer23_gate_proj_43:out0':
    qtype: u8
    quantizer: asymmetric_affine
    rounding: rtne
    max_value: 0.44664058089256287
    min_value: 0.0
    scale: 0.0017515317304059863
    zero_point: 0
  '@Mul_layer23_mlp_rms_gamma_44:out0':
    qtype: u8
    quantizer: asymmetric_affine
    rounding: rtne
    max_value: 28.15717315673828
    min_value: -28.151309967041016
    scale: 0.22081758081912994
    zero_point: 127
  '@Initializer_sq_scale_layer23_up_proj_45:out0':
    qtype: u8
    quantizer: asymmetric_affine
    rounding: rtne
    max_value: 0.43723729252815247
    min_value: 0.0
    scale: 0.0017146560130640864
    zero_point: 0
  '@Initializer_layer23_mlp_gamma_46:out0':
    qtype: u8
    quantizer: asymmetric_affine
    rounding: rtne
    max_value: 6.3125
    min_value: 0.0
    scale: 0.024754902347922325
    zero_point: 0
  '@Mul_layer23_mlp_rms_scale_to_unit_47:out0':
    qtype: u8
    quantizer: asymmetric_affine
    rounding: rtne
    max_value: 26.482421875
    min_value: -5.543674945831299
    scale: 0.12559252977371216
    zero_point: 44
  '@Add_layer20_mlp_residual_48:out0':
    qtype: u8
    quantizer: asymmetric_affine
    rounding: rtne
    max_value: 1393.6868896484375
    min_value: -87.6781005859375
    scale: 5.809274673461914
    zero_point: 15
  '@Mul_sq_mul_layer21_down_proj_50:out0':
    qtype: u8
    quantizer: asymmetric_affine
    rounding: rtne
    max_value: 3.655316114425659
    min_value: -101.70149993896484
    scale: 0.4131639897823334
    zero_point: 246
  '@Reshape_layer22_ctx_merge_heads_52:out0':
    qtype: u8
    quantizer: asymmetric_affine
    rounding: rtne
    max_value: 4.0193352699279785
    min_value: -4.670190811157227
    scale: 0.034076571464538574
    zero_point: 137
  '@Initializer_sq_scale_layer22_out_proj_53:out0':
    qtype: u8
    quantizer: asymmetric_affine
    rounding: rtne
    max_value: 0.44712767004966736
    min_value: 0.0
    scale: 0.0017534418730065227
    zero_point: 0
  '@MatMul_layer23_attn_context_56:out0':
    qtype: u8
    quantizer: asymmetric_affine
    rounding: rtne
    max_value: 6.42441463470459
    min_value: -6.679132461547852
    scale: 0.05138646066188812
    zero_point: 130
  '@Reshape_layer23_v_repeat_merge_57:out0':
    qtype: u8
    quantizer: asymmetric_affine
    rounding: rtne
    max_value: 8.421967506408691
    min_value: -7.999145984649658
    scale: 0.06439652293920517
    zero_point: 124
  '@Tile_layer23_v_repeat_tile_58:out0':
    qtype: u8
    quantizer: asymmetric_affine
    rounding: rtne
    max_value: 8.421967506408691
    min_value: -7.999145984649658
    scale: 0.06439652293920517
    zero_point: 124
  '@Reciprocal_layer23_mlp_rms_reciprocal_59:out0':
    qtype: u8
    quantizer: asymmetric_affine
    rounding: rtne
    max_value: 1.0
    min_value: 0.0
    scale: 0.003921568859368563
    zero_point: 0
  '@Divide_60:out0':
    qtype: u8
    quantizer: asymmetric_affine
    rounding: rtne
    max_value: 0.4954111576080322
    min_value: 0.0
    scale: 0.001942788832820952
    zero_point: 0
  '@Add_layer20_attn_residual_61:out0':
    qtype: u8
    quantizer: asymmetric_affine
    rounding: rtne
    max_value: 1398.2386474609375
    min_value: -88.13885498046875
    scale: 5.8289313316345215
    zero_point: 15
  '@Mul_sq_mul_layer21_out_proj_63:out0':
    qtype: u8
    quantizer: asymmetric_affine
    rounding: rtne
    max_value: 1.163087248802185
    min_value: -1.1195402145385742
    scale: 0.008951480500400066
    zero_point: 125
  '@Mul_layer21_swiglu_mul_65:out0':
    qtype: u8
    quantizer: asymmetric_affine
    rounding: rtne
    max_value: 23.6417293548584
    min_value: -1262.3863525390625
    scale: 5.043247222900391
    zero_point: 250
  '@Initializer_sq_scale_layer21_down_proj_66:out0':
    qtype: u8
    quantizer: asymmetric_affine
    rounding: rtne
    max_value: 0.41292768716812134
    min_value: 0.0
    scale: 0.0016193243209272623
    zero_point: 0
  '@Transpose_layer22_ctx_transpose_67:out0':
    qtype: u8
    quantizer: asymmetric_affine
    rounding: rtne
    max_value: 4.0193352699279785
    min_value: -4.670190811157227
    scale: 0.034076571464538574
    zero_point: 137
  '@Mul_sq_mul_layer22_up_proj_70:out0':
    qtype: u8
    quantizer: asymmetric_affine
    rounding: rtne
    max_value: 3.277658224105835
    min_value: -2.174940586090088
    scale: 0.021382739767432213
    zero_point: 102
  '@Softmax_layer23_softmax_72:out0':
    qtype: u8
    quantizer: asymmetric_affine
    rounding: rtne
    max_value: 1.0
    min_value: 0.0
    scale: 0.003921568859368563
    zero_point: 0
  '@Reshape_layer23_v_repeat_expand_73:out0':
    qtype: u8
    quantizer: asymmetric_affine
    rounding: rtne
    max_value: 8.421967506408691
    min_value: -7.999145984649658
    scale: 0.06439652293920517
    zero_point: 124
  '@Sqrt_layer23_mlp_rms_sqrt_74:out0':
    qtype: u8
    quantizer: asymmetric_affine
    rounding: rtne
    max_value: 2.937985420227051
    min_value: 0.0
    scale: 0.01152151171118021
    zero_point: 0
  '@Add_layer19_mlp_residual_75:out0':
    qtype: u8
    quantizer: asymmetric_affine
    rounding: rtne
    max_value: 1397.546875
    min_value: -88.65711975097656
    scale: 5.828250885009766
    zero_point: 15
  '@Mul_sq_mul_layer20_down_proj_77:out0':
    qtype: u8
    quantizer: asymmetric_affine
    rounding: rtne
    max_value: 1.8604507446289062
    min_value: -2.3757243156433105
    scale: 0.016612451523542404
    zero_point: 143
  '@Reshape_layer21_ctx_merge_heads_79:out0':
    qtype: u8
    quantizer: asymmetric_affine
    rounding: rtne
    max_value: 4.2639570236206055
    min_value: -8.151270866394043
    scale: 0.0486871674656868
    zero_point: 167
  '@Initializer_sq_scale_layer21_out_proj_80:out0':
    qtype: u8
    quantizer: asymmetric_affine
    rounding: rtne
    max_value: 0.4486100673675537
    min_value: 0.0
    scale: 0.0017592551885172725
    zero_point: 0
  '@MatMul_layer22_attn_context_83:out0':
    qtype: u8
    quantizer: asymmetric_affine
    rounding: rtne
    max_value: 4.0193352699279785
    min_value: -4.670190811157227
    scale: 0.034076571464538574
    zero_point: 137
  '@Mul_sq_mul_layer22_gate_proj_84:out0':
    qtype: u8
    quantizer: asymmetric_affine
    rounding: rtne
    max_value: 2.4550092220306396
    min_value: -2.3982067108154297
    scale: 0.019032219424843788
    zero_point: 126
  '@Initializer_sq_scale_layer22_gate_proj_86:out0':
    qtype: u8
    quantizer: asymmetric_affine
    rounding: rtne
    max_value: 0.5215714573860168
    min_value: 0.0
    scale: 0.0020453783217817545
    zero_point: 0
  '@Mul_layer22_mlp_rms_gamma_87:out0':
    qtype: u8
    quantizer: asymmetric_affine
    rounding: rtne
    max_value: 30.036928176879883
    min_value: -31.944812774658203
    scale: 0.24306565523147583
    zero_point: 131
  '@Initializer_sq_scale_layer22_up_proj_88:out0':
    qtype: u8
    quantizer: asymmetric_affine
    rounding: rtne
    max_value: 0.36907508969306946
    min_value: 0.0
    scale: 0.0014473532792180777
    zero_point: 0
  '@Add_layer23_causal_mask_89:out0':
    qtype: u8
    quantizer: asymmetric_affine
    rounding: rtne
    max_value: 30.431331634521484
    min_value: -10014.8115234375
    scale: 39.39311218261719
    zero_point: 254
  '@Transpose_layer23_v_heads_90:out0':
    qtype: u8
    quantizer: asymmetric_affine
    rounding: rtne
    max_value: 8.421967506408691
    min_value: -7.999145984649658
    scale: 0.06439652293920517
    zero_point: 124
  '@Add_layer23_mlp_rms_eps_91:out0':
    qtype: u8
    quantizer: asymmetric_affine
    rounding: rtne
    max_value: 8.63171100616455
    min_value: 0.0
    scale: 0.033849846571683884
    zero_point: 0
  '@Add_layer19_attn_residual_92:out0':
    qtype: u8
    quantizer: asymmetric_affine
    rounding: rtne
    max_value: 1398.6905517578125
    min_value: -88.56587219238281
    scale: 5.832378387451172
    zero_point: 15
  '@Mul_sq_mul_layer20_out_proj_94:out0':
    qtype: u8
    quantizer: asymmetric_affine
    rounding: rtne
    max_value: 0.6521220803260803
    min_value: -0.4526643455028534
    scale: 0.004332495853304863
    zero_point: 104
  '@Mul_layer20_swiglu_mul_96:out0':
    qtype: u8
    quantizer: asymmetric_affine
    rounding: rtne
    max_value: 15.057190895080566
    min_value: -15.057190895080566
    scale: 0.11809561401605606
    zero_point: 128
  '@Initializer_sq_scale_layer20_down_proj_97:out0':
    qtype: u8
    quantizer: asymmetric_affine
    rounding: rtne
    max_value: 0.4341067373752594
    min_value: 0.0
    scale: 0.0017023793188855052
    zero_point: 0
  '@Transpose_layer21_ctx_transpose_98:out0':
    qtype: u8
    quantizer: asymmetric_affine
    rounding: rtne
    max_value: 4.2639570236206055
    min_value: -8.151270866394043
    scale: 0.0486871674656868
    zero_point: 167
  '@Mul_sq_mul_layer21_up_proj_101:out0':
    qtype: u8
    quantizer: asymmetric_affine
    rounding: rtne
    max_value: 10.290618896484375
    min_value: -2.9714813232421875
    scale: 0.052008237689733505
    zero_point: 57
  '@Softmax_layer22_softmax_103:out0':
    qtype: u8
    quantizer: asymmetric_affine
    rounding: rtne
    max_value: 1.0
    min_value: 0.0
    scale: 0.003921568859368563
    zero_point: 0
  '@Reshape_layer22_v_repeat_merge_104:out0':
    qtype: u8
    quantizer: asymmetric_affine
    rounding: rtne
    max_value: 10.439889907836914
    min_value: -10.97750473022461
    scale: 0.08398978412151337
    zero_point: 131
  '@Tile_layer22_v_repeat_tile_105:out0':
    qtype: u8
    quantizer: asymmetric_affine
    rounding: rtne
    max_value: 10.439889907836914
    min_value: -10.97750473022461
    scale: 0.08398978412151337
    zero_point: 131
  '@Mul_layer22_mlp_rms_scale_to_unit_106:out0':
    qtype: u8
    quantizer: asymmetric_affine
    rounding: rtne
    max_value: 26.886154174804688
    min_value: -8.617471694946289
    scale: 0.1392298936843872
    zero_point: 62
  '@Initializer_layer22_mlp_gamma_107:out0':
    qtype: u8
    quantizer: asymmetric_affine
    rounding: rtne
    max_value: 3.953125
    min_value: 0.0
    scale: 0.015502450987696648
    zero_point: 0
  '@Mul_layer23_attn_scale_108:out0':
    qtype: u8
    quantizer: asymmetric_affine
    rounding: rtne
    max_value: 30.39698600769043
    min_value: -14.757143020629883
    scale: 0.17707501351833344
    zero_point: 83
  '@Initializer_causal_mask_109:out0':
    qtype: u8
    quantizer: asymmetric_affine
    rounding: rtne
    max_value: 0.0
    min_value: -10000.0
    scale: 39.2156867980957
    zero_point: 255
  '@Reshape_layer23_v_reshape_110:out0':
    qtype: u8
    quantizer: asymmetric_affine
    rounding: rtne
    max_value: 8.421967506408691
    min_value: -7.999145984649658
    scale: 0.06439652293920517
    zero_point: 124
  '@ReduceMean_layer23_mlp_rms_mean_111:out0':
    qtype: u8
    quantizer: asymmetric_affine
    rounding: rtne
    max_value: 8.631709098815918
    min_value: 0.0
    scale: 0.03384983912110329
    zero_point: 0
  '@Add_layer18_mlp_residual_113:out0':
    qtype: u8
    quantizer: asymmetric_affine
    rounding: rtne
    max_value: 1398.630859375
    min_value: -88.45250701904297
    scale: 5.831699371337891
    zero_point: 15
  '@Mul_sq_mul_layer19_down_proj_115:out0':
    qtype: u8
    quantizer: asymmetric_affine
    rounding: rtne
    max_value: 1.1084502935409546
    min_value: -1.1084502935409546
    scale: 0.008693727664649487
    zero_point: 128
  '@Reshape_layer20_ctx_merge_heads_117:out0':
    qtype: u8
    quantizer: asymmetric_affine
    rounding: rtne
    max_value: 6.4258809089660645
    min_value: -4.565667629241943
    scale: 0.04310411214828491
    zero_point: 106
  '@Initializer_sq_scale_layer20_out_proj_118:out0':
    qtype: u8
    quantizer: asymmetric_affine
    rounding: rtne
    max_value: 0.5263599753379822
    min_value: 0.0
    scale: 0.00206415681168437
    zero_point: 0
  '@MatMul_layer21_attn_context_121:out0':
    qtype: u8
    quantizer: asymmetric_affine
    rounding: rtne
    max_value: 4.2639570236206055
    min_value: -8.151270866394043
    scale: 0.0486871674656868
    zero_point: 167
  '@Mul_sq_mul_layer21_gate_proj_122:out0':
    qtype: u8
    quantizer: asymmetric_affine
    rounding: rtne
    max_value: 12.188481330871582
    min_value: -4.850021839141846
    scale: 0.06681766360998154
    zero_point: 73
  '@Initializer_sq_scale_layer21_gate_proj_124:out0':
    qtype: u8
    quantizer: asymmetric_affine
    rounding: rtne
    max_value: 0.3922320604324341
    min_value: 0.0
    scale: 0.0015381649136543274
    zero_point: 0
  '@Mul_layer21_mlp_rms_gamma_125:out0':
    qtype: u8
    quantizer: asymmetric_affine
    rounding: rtne
    max_value: 256.6905517578125
    min_value: -30.447423934936523
    scale: 1.1260312795639038
    zero_point: 27
  '@Initializer_sq_scale_layer21_up_proj_126:out0':
    qtype: u8
    quantizer: asymmetric_affine
    rounding: rtne
    max_value: 0.7146247029304504
    min_value: 0.0
    scale: 0.002802449744194746
    zero_point: 0
  '@Add_layer22_causal_mask_127:out0':
    qtype: u8
    quantizer: asymmetric_affine
    rounding: rtne
    max_value: 15.437079429626465
    min_value: -10002.966796875
    scale: 39.28786087036133
    zero_point: 255
  '@Reshape_layer22_v_repeat_expand_128:out0':
    qtype: u8
    quantizer: asymmetric_affine
    rounding: rtne
    max_value: 10.439889907836914
    min_value: -10.97750473022461
    scale: 0.08398978412151337
    zero_point: 131
  '@Transpose_layer22_v_heads_129:out0':
    qtype: u8
    quantizer: asymmetric_affine
    rounding: rtne
    max_value: 10.439889907836914
    min_value: -10.97750473022461
    scale: 0.08398978412151337
    zero_point: 131
  '@Reciprocal_layer22_mlp_rms_reciprocal_130:out0':
    qtype: u8
    quantizer: asymmetric_affine
    rounding: rtne
    max_value: 1.0
    min_value: 0.0
    scale: 0.003921568859368563
    zero_point: 0
  '@Divide_131:out0':
    qtype: u8
    quantizer: asymmetric_affine
    rounding: rtne
    max_value: 0.5397895574569702
    min_value: 0.0
    scale: 0.0021168217062950134
    zero_point: 0
  '@MatMul_layer23_attn_scores_132:out0':
    qtype: u8
    quantizer: asymmetric_affine
    rounding: rtne
    max_value: 243.17588806152344
    min_value: -118.05714416503906
    scale: 1.4166001081466675
    zero_point: 83
  '@Initializer_scale_attn_133:out0':
    qtype: u8
    quantizer: asymmetric_affine
    rounding: rtne
    max_value: 0.125
    min_value: 0.0
    scale: 0.0004901961074210703
    zero_point: 0
  '@Mul_layer23_mlp_rms_square_135:out0':
    qtype: u8
    quantizer: asymmetric_affine
    rounding: rtne
    max_value: 5392.02978515625
    min_value: 0.0
    scale: 21.145214080810547
    zero_point: 0
  '@Add_layer18_attn_residual_136:out0':
    qtype: u8
    quantizer: asymmetric_affine
    rounding: rtne
    max_value: 1399.2335205078125
    min_value: -88.59103393554688
    scale: 5.834606170654297
    zero_point: 15
  '@Mul_sq_mul_layer19_out_proj_138:out0':
    qtype: u8
    quantizer: asymmetric_affine
    rounding: rtne
    max_value: 0.39711469411849976
    min_value: -0.3499007821083069
    scale: 0.002929472364485264
    zero_point: 119
  '@Mul_layer19_swiglu_mul_140:out0':
    qtype: u8
    quantizer: asymmetric_affine
    rounding: rtne
    max_value: 11.43779468536377
    min_value: -11.43779468536377
    scale: 0.08970819413661957
    zero_point: 128
  '@Initializer_sq_scale_layer19_down_proj_141:out0':
    qtype: u8
    quantizer: asymmetric_affine
    rounding: rtne
    max_value: 0.47203195095062256
    min_value: 0.0
    scale: 0.0018511057132855058
    zero_point: 0
  '@Transpose_layer20_ctx_transpose_142:out0':
    qtype: u8
    quantizer: asymmetric_affine
    rounding: rtne
    max_value: 6.4258809089660645
    min_value: -4.565667629241943
    scale: 0.04310411214828491
    zero_point: 106
  '@Mul_sq_mul_layer20_up_proj_145:out0':
    qtype: u8
    quantizer: asymmetric_affine
    rounding: rtne
    max_value: 7.921912670135498
    min_value: -2.1431612968444824
    scale: 0.03947087749838829
    zero_point: 54
  '@Softmax_layer21_softmax_147:out0':
    qtype: u8
    quantizer: asymmetric_affine
    rounding: rtne
    max_value: 1.0
    min_value: 0.0
    scale: 0.003921568859368563
    zero_point: 0
  '@Reshape_layer21_v_repeat_merge_148:out0':
    qtype: u8
    quantizer: asymmetric_affine
    rounding: rtne
    max_value: 9.111991882324219
    min_value: -11.571236610412598
    scale: 0.08111069351434708
    zero_point: 143
  '@Tile_layer21_v_repeat_tile_149:out0':
    qtype: u8
    quantizer: asymmetric_affine
    rounding: rtne
    max_value: 9.111991882324219
    min_value: -11.571236610412598
    scale: 0.08111069351434708
    zero_point: 143
  '@Mul_layer21_mlp_rms_scale_to_unit_150:out0':
    qtype: u8
    quantizer: asymmetric_affine
    rounding: rtne
    max_value: 29.547311782836914
    min_value: -9.743127822875977
    scale: 0.15408015251159668
    zero_point: 63
  '@Initializer_layer21_mlp_gamma_151:out0':
    qtype: u8
    quantizer: asymmetric_affine
    rounding: rtne
    max_value: 8.6875
    min_value: 0.0
    scale: 0.03406862914562225
    zero_point: 0
  '@Mul_layer22_attn_scale_152:out0':
    qtype: u8
    quantizer: asymmetric_affine
    rounding: rtne
    max_value: 15.427667617797852
    min_value: -2.9068057537078857
    scale: 0.0718998908996582
    zero_point: 40
  '@Reshape_layer22_v_reshape_154:out0':
    qtype: u8
    quantizer: asymmetric_affine
    rounding: rtne
    max_value: 10.439889907836914
    min_value: -10.97750473022461
    scale: 0.08398978412151337
    zero_point: 131
  '@Sqrt_layer22_mlp_rms_sqrt_155:out0':
    qtype: u8
    quantizer: asymmetric_affine
    rounding: rtne
    max_value: 3.1591720581054688
    min_value: 0.0
    scale: 0.012388910166919231
    zero_point: 0
  '@Add_layer23_q_rope_rope_add_156:out0':
    qtype: u8
    quantizer: asymmetric_affine
    rounding: rtne
    max_value: 18.407230377197266
    min_value: -17.60994529724121
    scale: 0.1412438154220581
    zero_point: 125
  '@Transpose_layer23_k_transpose_157:out0':
    qtype: u8
    quantizer: asymmetric_affine
    rounding: rtne
    max_value: 10.699779510498047
    min_value: -11.230440139770508
    scale: 0.08600085973739624
    zero_point: 131
  '@Mul_sq_mul_layer23_v_proj_161:out0':
    qtype: u8
    quantizer: asymmetric_affine
    rounding: rtne
    max_value: 2.606503963470459
    min_value: -2.370439052581787
    scale: 0.01951742358505726
    zero_point: 121
  '@Add_layer17_mlp_residual_162:out0':
    qtype: u8
    quantizer: asymmetric_affine
    rounding: rtne
    max_value: 1399.2257080078125
    min_value: -88.55782318115234
    scale: 5.834445476531982
    zero_point: 15
  '@Mul_sq_mul_layer18_down_proj_164:out0':
    qtype: u8
    quantizer: asymmetric_affine
    rounding: rtne
    max_value: 1.4042832851409912
    min_value: -1.4042832851409912
    scale: 0.01101398654282093
    zero_point: 128
  '@Reshape_layer19_ctx_merge_heads_166:out0':
    qtype: u8
    quantizer: asymmetric_affine
    rounding: rtne
    max_value: 2.050532817840576
    min_value: -1.7261680364608765
    scale: 0.01481059193611145
    zero_point: 117
  '@Initializer_sq_scale_layer19_out_proj_167:out0':
    qtype: u8
    quantizer: asymmetric_affine
    rounding: rtne
    max_value: 0.5502623915672302
    min_value: 0.0
    scale: 0.002157891634851694
    zero_point: 0
  '@MatMul_layer20_attn_context_170:out0':
    qtype: u8
    quantizer: asymmetric_affine
    rounding: rtne
    max_value: 6.4258809089660645
    min_value: -4.565667629241943
    scale: 0.04310411214828491
    zero_point: 106
  '@Mul_sq_mul_layer20_gate_proj_171:out0':
    qtype: u8
    quantizer: asymmetric_affine
    rounding: rtne
    max_value: 3.5955822467803955
    min_value: -2.750898838043213
    scale: 0.024888161569833755
    zero_point: 111
  '@Initializer_sq_scale_layer20_gate_proj_173:out0':
    qtype: u8
    quantizer: asymmetric_affine
    rounding: rtne
    max_value: 0.3831719160079956
    min_value: 0.0
    scale: 0.0015026349574327469
    zero_point: 0
  '@Mul_layer20_mlp_rms_gamma_174:out0':
    qtype: u8
    quantizer: asymmetric_affine
    rounding: rtne
    max_value: 57.93074035644531
    min_value: -32.75530242919922
    scale: 0.3556315302848816
    zero_point: 92
  '@Initializer_sq_scale_layer20_up_proj_175:out0':
    qtype: u8
    quantizer: asymmetric_affine
    rounding: rtne
    max_value: 0.3908880949020386
    min_value: 0.0
    scale: 0.0015328944427892566
    zero_point: 0
  '@Add_layer21_causal_mask_176:out0':
    qtype: u8
    quantizer: asymmetric_affine
    rounding: rtne
    max_value: 8.193781852722168
    min_value: -10013.609375
    scale: 39.301185607910156
    zero_point: 255
  '@Reshape_layer21_v_repeat_expand_177:out0':
    qtype: u8
    quantizer: asymmetric_affine
    rounding: rtne
    max_value: 9.111991882324219
    min_value: -11.571236610412598
    scale: 0.08111069351434708
    zero_point: 143
  '@Transpose_layer21_v_heads_178:out0':
    qtype: u8
    quantizer: asymmetric_affine
    rounding: rtne
    max_value: 9.111991882324219
    min_value: -11.571236610412598
    scale: 0.08111069351434708
    zero_point: 143
  '@Reciprocal_layer21_mlp_rms_reciprocal_179:out0':
    qtype: u8
    quantizer: asymmetric_affine
    rounding: rtne
    max_value: 1.0
    min_value: 0.0
    scale: 0.003921568859368563
    zero_point: 0
  '@Divide_180:out0':
    qtype: u8
    quantizer: asymmetric_affine
    rounding: rtne
    max_value: 0.6743088960647583
    min_value: 0.0
    scale: 0.002644348656758666
    zero_point: 0
  '@MatMul_layer22_attn_scores_181:out0':
    qtype: u8
    quantizer: asymmetric_affine
    rounding: rtne
    max_value: 123.42134094238281
    min_value: -23.254446029663086
    scale: 0.5751991271972656
    zero_point: 40
  '@Add_layer22_mlp_rms_eps_184:out0':
    qtype: u8
    quantizer: asymmetric_affine
    rounding: rtne
    max_value: 9.98036003112793
    min_value: 0.0
    scale: 0.03913866728544235
    zero_point: 0
  '@Mul_layer23_q_rope_mul_cos_185:out0':
    qtype: u8
    quantizer: asymmetric_affine
    rounding: rtne
    max_value: 18.98884391784668
    min_value: -18.504648208618164
    scale: 0.14703330397605896
    zero_point: 126
  '@Mul_layer23_q_rope_mul_sin_186:out0':
    qtype: u8
    quantizer: asymmetric_affine
    rounding: rtne
    max_value: 17.214757919311523
    min_value: -16.310632705688477
    scale: 0.1314721256494522
    zero_point: 124
  '@Reshape_layer23_k_repeat_merge_187:out0':
    qtype: u8
    quantizer: asymmetric_affine
    rounding: rtne
    max_value: 10.699779510498047
    min_value: -11.230440139770508
    scale: 0.08600085973739624
    zero_point: 131
  '@Mul_layer23_attn_rms_gamma_188:out0':
    qtype: u8
    quantizer: asymmetric_affine
    rounding: rtne
    max_value: 29.492677688598633
    min_value: -26.51396369934082
    scale: 0.21963389217853546
    zero_point: 121
  '@Initializer_sq_scale_layer23_v_proj_189:out0':
    qtype: u8
    quantizer: asymmetric_affine
    rounding: rtne
    max_value: 0.2087986320257187
    min_value: 0.0
    scale: 0.0008188181673176587
    zero_point: 0
  '@Add_layer17_attn_residual_190:out0':
    qtype: u8
    quantizer: asymmetric_affine
    rounding: rtne
    max_value: 1399.762451171875
    min_value: -88.5158920288086
    scale: 5.836385726928711
    zero_point: 15
  '@Mul_sq_mul_layer18_out_proj_192:out0':
    qtype: u8
    quantizer: asymmetric_affine
    rounding: rtne
    max_value: 0.6400330066680908
    min_value: -0.6067883968353271
    scale: 0.004889495670795441
    zero_point: 124
  '@Mul_layer18_swiglu_mul_194:out0':
    qtype: u8
    quantizer: asymmetric_affine
    rounding: rtne
    max_value: 7.852046489715576
    min_value: -7.852046489715576
    scale: 0.061584677547216415
    zero_point: 128
  '@Initializer_sq_scale_layer18_down_proj_195:out0':
    qtype: u8
    quantizer: asymmetric_affine
    rounding: rtne
    max_value: 0.39550212025642395
    min_value: 0.0
    scale: 0.0015509887598454952
    zero_point: 0
  '@Transpose_layer19_ctx_transpose_196:out0':
    qtype: u8
    quantizer: asymmetric_affine
    rounding: rtne
    max_value: 2.050532817840576
    min_value: -1.7261680364608765
    scale: 0.01481059193611145
    zero_point: 117
  '@Mul_sq_mul_layer19_up_proj_199:out0':
    qtype: u8
    quantizer: asymmetric_affine
    rounding: rtne
    max_value: 3.097018241882324
    min_value: -2.0673258304595947
    scale: 0.020252328366041183
    zero_point: 102
  '@Softmax_layer20_softmax_201:out0':
    qtype: u8
    quantizer: asymmetric_affine
    rounding: rtne
    max_value: 1.0
    min_value: 0.0
    scale: 0.003921568859368563
    zero_point: 0
  '@Reshape_layer20_v_repeat_merge_202:out0':
    qtype: u8
    quantizer: asymmetric_affine
    rounding: rtne
    max_value: 7.736041069030762
    min_value: -7.288583755493164
    scale: 0.05892009660601616
    zero_point: 124
  '@Tile_layer20_v_repeat_tile_203:out0':
    qtype: u8
    quantizer: asymmetric_affine
    rounding: rtne
    max_value: 7.736041069030762
    min_value: -7.288583755493164
    scale: 0.05892009660601616
    zero_point: 124
  '@Mul_layer20_mlp_rms_scale_to_unit_204:out0':
    qtype: u8
    quantizer: asymmetric_affine
    rounding: rtne
    max_value: 29.542278289794922
    min_value: -10.6412935256958
    scale: 0.157582625746727
    zero_point: 68
  '@Initializer_layer20_mlp_gamma_205:out0':
    qtype: u8
    quantizer: asymmetric_affine
    rounding: rtne
    max_value: 4.875
    min_value: 0.0
    scale: 0.019117647781968117
    zero_point: 0
  '@Mul_layer21_attn_scale_206:out0':
    qtype: u8
    quantizer: asymmetric_affine
    rounding: rtne
    max_value: 11.491727828979492
    min_value: -13.603852272033691
    scale: 0.09841404110193253
    zero_point: 138
  '@MatMul_layer21_attn_scores_207:out0':
    qtype: u8
    quantizer: asymmetric_affine
    rounding: rtne
    max_value: 91.93382263183594
    min_value: -108.83081817626953
    scale: 0.7873123288154602
    zero_point: 138
  '@Reshape_layer21_v_reshape_208:out0':
    qtype: u8
    quantizer: asymmetric_affine
    rounding: rtne
    max_value: 9.111991882324219
    min_value: -11.571236610412598
    scale: 0.08111069351434708
    zero_point: 143
  '@Sqrt_layer21_mlp_rms_sqrt_209:out0':
    qtype: u8
    quantizer: asymmetric_affine
    rounding: rtne
    max_value: 47.18018341064453
    min_value: 0.0
    scale: 0.1850203275680542
    zero_point: 0
  '@Add_layer22_q_rope_rope_add_210:out0':
    qtype: u8
    quantizer: asymmetric_affine
    rounding: rtne
    max_value: 7.354973793029785
    min_value: -7.186841011047363
    scale: 0.05702672526240349
    zero_point: 126
  '@Transpose_layer22_k_transpose_211:out0':
    qtype: u8
    quantizer: asymmetric_affine
    rounding: rtne
    max_value: 9.172805786132812
    min_value: -8.432334899902344
    scale: 0.06903976947069168
    zero_point: 122
  '@ReduceMean_layer22_mlp_rms_mean_214:out0':
    qtype: u8
    quantizer: asymmetric_affine
    rounding: rtne
    max_value: 9.980358123779297
    min_value: 0.0
    scale: 0.039138659834861755
    zero_point: 0
  '@Mul_layer22_mlp_rms_square_215:out0':
    qtype: u8
    quantizer: asymmetric_affine
    rounding: rtne
    max_value: 7214.44970703125
    min_value: 0.0
    scale: 28.291959762573242
    zero_point: 0
  '@Transpose_layer23_q_heads_216:out0':
    qtype: u8
    quantizer: asymmetric_affine
    rounding: rtne
    max_value: 17.969087600708008
    min_value: -20.22939109802246
    scale: 0.1497979611158371
    zero_point: 135
  '@Initializer_rope_cos_217:out0':
    qtype: u8
    quantizer: asymmetric_affine
    rounding: rtne
    max_value: 1.0
    min_value: -0.9999608397483826
    scale: 0.007842984050512314
    zero_point: 127
  '@Concat_layer23_q_rope_rotate_half_218:out0':
    qtype: u8
    quantizer: asymmetric_affine
    rounding: rtne
    max_value: 17.969087600708008
    min_value: -20.22939109802246
    scale: 0.1497979611158371
    zero_point: 135
  '@Initializer_rope_sin_219:out0':
    qtype: u8
    quantizer: asymmetric_affine
    rounding: rtne
    max_value: 0.9999920725822449
    min_value: -0.9999902248382568
    scale: 0.00784306786954403
    zero_point: 127
  '@Tile_layer23_k_repeat_tile_220:out0':
    qtype: u8
    quantizer: asymmetric_affine
    rounding: rtne
    max_value: 10.699779510498047
    min_value: -11.230440139770508
    scale: 0.08600085973739624
    zero_point: 131
  '@Mul_layer23_attn_rms_scale_to_unit_221:out0':
    qtype: u8
    quantizer: asymmetric_affine
    rounding: rtne
    max_value: 25.963857650756836
    min_value: -6.286346912384033
    scale: 0.1264714002609253
    zero_point: 50
  '@Initializer_layer23_attn_gamma_222:out0':
    qtype: u8
    quantizer: asymmetric_affine
    rounding: rtne
    max_value: 12.375
    min_value: 0.0
    scale: 0.04852941259741783
    zero_point: 0
  '@Add_layer16_mlp_residual_223:out0':
    qtype: u8
    quantizer: asymmetric_affine
    rounding: rtne
    max_value: 1398.8236083984375
    min_value: -89.26887512207031
    scale: 5.835657119750977
    zero_point: 15
  '@Mul_sq_mul_layer17_down_proj_225:out0':
    qtype: u8
    quantizer: asymmetric_affine
    rounding: rtne
    max_value: 0.8974956274032593
    min_value: -0.8974956274032593
    scale: 0.007039181422442198
    zero_point: 128
  '@Reshape_layer18_ctx_merge_heads_227:out0':
    qtype: u8
    quantizer: asymmetric_affine
    rounding: rtne
    max_value: 2.633774757385254
    min_value: -2.1683292388916016
    scale: 0.018831780180335045
    zero_point: 115
  '@Initializer_sq_scale_layer18_out_proj_228:out0':
    qtype: u8
    quantizer: asymmetric_affine
    rounding: rtne
    max_value: 0.39931556582450867
    min_value: 0.0
    scale: 0.0015659433556720614
    zero_point: 0
  '@MatMul_layer19_attn_context_231:out0':
    qtype: u8
    quantizer: asymmetric_affine
    rounding: rtne
    max_value: 2.050532817840576
    min_value: -1.7261680364608765
    scale: 0.01481059193611145
    zero_point: 117
  '@Mul_sq_mul_layer19_gate_proj_232:out0':
    qtype: u8
    quantizer: asymmetric_affine
    rounding: rtne
    max_value: 8.640016555786133
    min_value: -2.535177707672119
    scale: 0.04382428899407387
    zero_point: 58
  '@Initializer_sq_scale_layer19_gate_proj_234:out0':
    qtype: u8
    quantizer: asymmetric_affine
    rounding: rtne
    max_value: 0.44017666578292847
    min_value: 0.0
    scale: 0.0017261829925701022
    zero_point: 0
  '@Mul_layer19_mlp_rms_gamma_235:out0':
    qtype: u8
    quantizer: asymmetric_affine
    rounding: rtne
    max_value: 44.769954681396484
    min_value: -29.722248077392578
    scale: 0.29212629795074463
    zero_point: 102
  '@Initializer_sq_scale_layer19_up_proj_236:out0':
    qtype: u8
    quantizer: asymmetric_affine
    rounding: rtne
    max_value: 0.47838521003723145
    min_value: 0.0
    scale: 0.001876020454801619
    zero_point: 0
  '@Add_layer20_causal_mask_237:out0':
    qtype: u8
    quantizer: asymmetric_affine
    rounding: rtne
    max_value: 8.531073570251465
    min_value: -10009.9208984375
    scale: 39.288047790527344
    zero_point: 255
  '@Reshape_layer20_v_repeat_expand_238:out0':
    qtype: u8
    quantizer: asymmetric_affine
    rounding: rtne
    max_value: 7.736041069030762
    min_value: -7.288583755493164
    scale: 0.05892009660601616
    zero_point: 124
  '@Transpose_layer20_v_heads_239:out0':
    qtype: u8
    quantizer: asymmetric_affine
    rounding: rtne
    max_value: 7.736041069030762
    min_value: -7.288583755493164
    scale: 0.05892009660601616
    zero_point: 124
  '@Reciprocal_layer20_mlp_rms_reciprocal_240:out0':
    qtype: u8
    quantizer: asymmetric_affine
    rounding: rtne
    max_value: 1.0
    min_value: 0.0
    scale: 0.003921568859368563
    zero_point: 0
  '@Divide_241:out0':
    qtype: u8
    quantizer: asymmetric_affine
    rounding: rtne
    max_value: 0.830416738986969
    min_value: 0.0
    scale: 0.0032565363217145205
    zero_point: 0
  '@Add_layer21_q_rope_rope_add_242:out0':
    qtype: u8
    quantizer: asymmetric_affine
    rounding: rtne
    max_value: 13.674189567565918
    min_value: -12.641976356506348
    scale: 0.10320065170526505
    zero_point: 122
  '@Transpose_layer21_k_transpose_243:out0':
    qtype: u8
    quantizer: asymmetric_affine
    rounding: rtne
    max_value: 9.90855884552002
    min_value: -8.30450439453125
    scale: 0.07142377644777298
    zero_point: 116
  '@Add_layer21_mlp_rms_eps_245:out0':
    qtype: u8
    quantizer: asymmetric_affine
    rounding: rtne
    max_value: 2225.9697265625
    min_value: 0.0
    scale: 8.729292869567871
    zero_point: 0
  '@Mul_layer22_q_rope_mul_cos_246:out0':
    qtype: u8
    quantizer: asymmetric_affine
    rounding: rtne
    max_value: 7.355146884918213
    min_value: -7.186955451965332
    scale: 0.05702785402536392
    zero_point: 126
  '@Mul_layer22_q_rope_mul_sin_247:out0':
    qtype: u8
    quantizer: asymmetric_affine
    rounding: rtne
    max_value: 5.138883590698242
    min_value: -4.391443729400635
    scale: 0.03737382963299751
    zero_point: 118
  '@Reshape_layer22_k_repeat_merge_248:out0':
    qtype: u8
    quantizer: asymmetric_affine
    rounding: rtne
    max_value: 9.172805786132812
    min_value: -8.432334899902344
    scale: 0.06903976947069168
    zero_point: 122
  '@Mul_sq_mul_layer22_v_proj_249:out0':
    qtype: u8
    quantizer: asymmetric_affine
    rounding: rtne
    max_value: 1.7424324750900269
    min_value: -1.7819874286651611
    scale: 0.01382125448435545
    zero_point: 129
  '@Initializer_sq_scale_layer22_v_proj_251:out0':
    qtype: u8
    quantizer: asymmetric_affine
    rounding: rtne
    max_value: 0.2346065640449524
    min_value: 0.0
    scale: 0.0009200257482007146
    zero_point: 0
  '@Mul_layer22_attn_rms_gamma_252:out0':
    qtype: u8
    quantizer: asymmetric_affine
    rounding: rtne
    max_value: 26.764041900634766
    min_value: -25.65855598449707
    scale: 0.20557881891727448
    zero_point: 125
  '@Reshape_layer23_q_reshape_253:out0':
    qtype: u8
    quantizer: asymmetric_affine
    rounding: rtne
    max_value: 17.969087600708008
    min_value: -20.22939109802246
    scale: 0.1497979611158371
    zero_point: 135
  '@Neg_layer23_q_rope_neg_second_254:out0':
    qtype: u8
    quantizer: asymmetric_affine
    rounding: rtne
    max_value: 17.969087600708008
    min_value: -20.22939109802246
    scale: 0.1497979611158371
    zero_point: 135
  '@Slice_layer23_q_rope_slice_first_255:out0':
    qtype: u8
    quantizer: asymmetric_affine
    rounding: rtne
    max_value: 17.969087600708008
    min_value: -20.22939109802246
    scale: 0.1497979611158371
    zero_point: 135
  '@Reshape_layer23_k_repeat_expand_256:out0':
    qtype: u8
    quantizer: asymmetric_affine
    rounding: rtne
    max_value: 10.699779510498047
    min_value: -11.230440139770508
    scale: 0.08600085973739624
    zero_point: 131
  '@Add_layer23_k_rope_rope_add_257:out0':
    qtype: u8
    quantizer: asymmetric_affine
    rounding: rtne
    max_value: 10.699779510498047
    min_value: -11.230440139770508
    scale: 0.08600085973739624
    zero_point: 131
  '@Reciprocal_layer23_attn_rms_reciprocal_258:out0':
    qtype: u8
    quantizer: asymmetric_affine
    rounding: rtne
    max_value: 1.0
    min_value: 0.0
    scale: 0.003921568859368563
    zero_point: 0
  '@Divide_259:out0':
    qtype: u8
    quantizer: asymmetric_affine
    rounding: rtne
    max_value: 0.47526612877845764
    min_value: 0.0
    scale: 0.001863788696937263
    zero_point: 0
  '@Add_layer16_attn_residual_260:out0':
    qtype: u8
    quantizer: asymmetric_affine
    rounding: rtne
    max_value: 1398.7510986328125
    min_value: -89.27694702148438
    scale: 5.835404396057129
    zero_point: 15
  '@Mul_sq_mul_layer17_out_proj_262:out0':
    qtype: u8
    quantizer: asymmetric_affine
    rounding: rtne
    max_value: 0.4254804253578186
    min_value: -0.4508362114429474
    scale: 0.0034365360625088215
    zero_point: 131
  '@Mul_layer17_swiglu_mul_264:out0':
    qtype: u8
    quantizer: asymmetric_affine
    rounding: rtne
    max_value: 7.407275199890137
    min_value: -7.407275199890137
    scale: 0.058096274733543396
    zero_point: 128
  '@Initializer_sq_scale_layer17_down_proj_265:out0':
    qtype: u8
    quantizer: asymmetric_affine
    rounding: rtne
    max_value: 0.414684534072876
    min_value: 0.0
    scale: 0.0016262138960883021
    zero_point: 0
  '@Transpose_layer18_ctx_transpose_266:out0':
    qtype: u8
    quantizer: asymmetric_affine
    rounding: rtne
    max_value: 2.633774757385254
    min_value: -2.1683292388916016
    scale: 0.018831780180335045
    zero_point: 115
  '@Mul_sq_mul_layer18_up_proj_269:out0':
    qtype: u8
    quantizer: asymmetric_affine
    rounding: rtne
    max_value: 2.4073872566223145
    min_value: -1.5860847234725952
    scale: 0.01566067524254322
    zero_point: 101
  '@Softmax_layer19_softmax_271:out0':
    qtype: u8
    quantizer: asymmetric_affine
    rounding: rtne
    max_value: 1.0
    min_value: 0.0
    scale: 0.003921568859368563
    zero_point: 0
  '@Reshape_layer19_v_repeat_merge_272:out0':
    qtype: u8
    quantizer: asymmetric_affine
    rounding: rtne
    max_value: 4.932951927185059
    min_value: -3.546537399291992
    scale: 0.03325289860367775
    zero_point: 107
  '@Tile_layer19_v_repeat_tile_273:out0':
    qtype: u8
    quantizer: asymmetric_affine
    rounding: rtne
    max_value: 4.932951927185059
    min_value: -3.546537399291992
    scale: 0.03325289860367775
    zero_point: 107
  '@Mul_layer19_mlp_rms_scale_to_unit_274:out0':
    qtype: u8
    quantizer: asymmetric_affine
    rounding: rtne
    max_value: 29.538911819458008
    min_value: -10.808099746704102
    scale: 0.15822356939315796
    zero_point: 68
  '@Initializer_layer19_mlp_gamma_275:out0':
    qtype: u8
    quantizer: asymmetric_affine
    rounding: rtne
    max_value: 3.765625
    min_value: 0.0
    scale: 0.014767156913876534
    zero_point: 0
  '@Mul_layer20_attn_scale_276:out0':
    qtype: u8
    quantizer: asymmetric_affine
    rounding: rtne
    max_value: 8.486120223999023
    min_value: -9.921069145202637
    scale: 0.07218505442142487
    zero_point: 137
  '@MatMul_layer20_attn_scores_277:out0':
    qtype: u8
    quantizer: asymmetric_affine
    rounding: rtne
    max_value: 67.88896179199219
    min_value: -79.3685531616211
    scale: 0.5774804353713989
    zero_point: 137
  '@Reshape_layer20_v_reshape_278:out0':
    qtype: u8
    quantizer: asymmetric_affine
    rounding: rtne
    max_value: 7.736041069030762
    min_value: -7.288583755493164
    scale: 0.05892009660601616
    zero_point: 124
  '@Sqrt_layer20_mlp_rms_sqrt_279:out0':
    qtype: u8
    quantizer: asymmetric_affine
    rounding: rtne
    max_value: 47.33427810668945
    min_value: 0.0
    scale: 0.1856246143579483
    zero_point: 0
  '@Mul_layer21_q_rope_mul_cos_280:out0':
    qtype: u8
    quantizer: asymmetric_affine
    rounding: rtne
    max_value: 13.674052238464355
    min_value: -12.413641929626465
    scale: 0.10230468213558197
    zero_point: 121
  '@Mul_layer21_q_rope_mul_sin_281:out0':
    qtype: u8
    quantizer: asymmetric_affine
    rounding: rtne
    max_value: 12.489609718322754
    min_value: -12.297527313232422
    scale: 0.09720445424318314
    zero_point: 127
  '@Reshape_layer21_k_repeat_merge_282:out0':
    qtype: u8
    quantizer: asymmetric_affine
    rounding: rtne
    max_value: 9.90855884552002
    min_value: -8.30450439453125
    scale: 0.07142377644777298
    zero_point: 116
  '@ReduceMean_layer21_mlp_rms_mean_285:out0':
    qtype: u8
    quantizer: asymmetric_affine
    rounding: rtne
    max_value: 2225.9697265625
    min_value: 0.0
    scale: 8.729292869567871
    zero_point: 0
  '@Mul_layer21_mlp_rms_square_286:out0':
    qtype: u8
    quantizer: asymmetric_affine
    rounding: rtne
    max_value: 1942967.125
    min_value: 0.0
    scale: 7619.47900390625
    zero_point: 0
  '@Transpose_layer22_q_heads_287:out0':
    qtype: u8
    quantizer: asymmetric_affine
    rounding: rtne
    max_value: 7.355146884918213
    min_value: -7.186955451965332
    scale: 0.05702785402536392
    zero_point: 126
  '@Concat_layer22_q_rope_rotate_half_289:out0':
    qtype: u8
    quantizer: asymmetric_affine
    rounding: rtne
    max_value: 7.355142593383789
    min_value: -7.111404895782471
    scale: 0.05673155561089516
    zero_point: 125
  '@Tile_layer22_k_repeat_tile_291:out0':
    qtype: u8
    quantizer: asymmetric_affine
    rounding: rtne
    max_value: 9.172805786132812
    min_value: -8.432334899902344
    scale: 0.06903976947069168
    zero_point: 122
  '@Mul_layer22_attn_rms_scale_to_unit_292:out0':
    qtype: u8
    quantizer: asymmetric_affine
    rounding: rtne
    max_value: 26.82500648498535
    min_value: -8.523735046386719
    scale: 0.13862250745296478
    zero_point: 61
  '@Initializer_layer22_attn_gamma_293:out0':
    qtype: u8
    quantizer: asymmetric_affine
    rounding: rtne
    max_value: 7.15625
    min_value: 0.0
    scale: 0.02806372568011284
    zero_point: 0
  '@Slice_layer23_q_rope_slice_second_295:out0':
    qtype: u8
    quantizer: asymmetric_affine
    rounding: rtne
    max_value: 17.969087600708008
    min_value: -20.22939109802246
    scale: 0.1497979611158371
    zero_point: 135
  '@Mul_layer23_k_rope_mul_cos_297:out0':
    qtype: u8
    quantizer: asymmetric_affine
    rounding: rtne
    max_value: 10.699478149414062
    min_value: -11.2299222946167
    scale: 0.08599765598773956
    zero_point: 131
  '@Mul_layer23_k_rope_mul_sin_298:out0':
    qtype: u8
    quantizer: asymmetric_affine
    rounding: rtne
    max_value: 3.334568738937378
    min_value: -2.7457847595214844
    scale: 0.02384452521800995
    zero_point: 115
  '@Sqrt_layer23_attn_rms_sqrt_299:out0':
    qtype: u8
    quantizer: asymmetric_affine
    rounding: rtne
    max_value: 2.883587598800659
    min_value: 0.0
    scale: 0.011308186687529087
    zero_point: 0
  '@Add_layer15_mlp_residual_300:out0':
    qtype: u8
    quantizer: asymmetric_affine
    rounding: rtne
    max_value: 1398.6859130859375
    min_value: -89.24252319335938
    scale: 5.835013389587402
    zero_point: 15
  '@Mul_sq_mul_layer16_down_proj_302:out0':
    qtype: u8
    quantizer: asymmetric_affine
    rounding: rtne
    max_value: 0.9617672562599182
    min_value: -0.9617672562599182
    scale: 0.00754327280446887
    zero_point: 128
  '@Reshape_layer17_ctx_merge_heads_304:out0':
    qtype: u8
    quantizer: asymmetric_affine
    rounding: rtne
    max_value: 4.838674068450928
    min_value: -3.8501789569854736
    scale: 0.03407393395900726
    zero_point: 113
  '@Initializer_sq_scale_layer17_out_proj_305:out0':
    qtype: u8
    quantizer: asymmetric_affine
    rounding: rtne
    max_value: 0.664512574672699
    min_value: 0.0
    scale: 0.0026059316005557775
    zero_point: 0
  '@MatMul_layer18_attn_context_308:out0':
    qtype: u8
    quantizer: asymmetric_affine
    rounding: rtne
    max_value: 2.633774757385254
    min_value: -2.1683292388916016
    scale: 0.018831780180335045
    zero_point: 115
  '@Mul_sq_mul_layer18_gate_proj_309:out0':
    qtype: u8
    quantizer: asymmetric_affine
    rounding: rtne
    max_value: 3.644918918609619
    min_value: -2.3824689388275146
    scale: 0.023636814206838608
    zero_point: 101
  '@Initializer_sq_scale_layer18_gate_proj_311:out0':
    qtype: u8
    quantizer: asymmetric_affine
    rounding: rtne
    max_value: 0.3627941906452179
    min_value: 0.0
    scale: 0.0014227223582565784
    zero_point: 0
  '@Mul_layer18_mlp_rms_gamma_312:out0':
    qtype: u8
    quantizer: asymmetric_affine
    rounding: rtne
    max_value: 34.378787994384766
    min_value: -24.740243911743164
    scale: 0.2318393439054489
    zero_point: 107
  '@Initializer_sq_scale_layer18_up_proj_313:out0':
    qtype: u8
    quantizer: asymmetric_affine
    rounding: rtne
    max_value: 0.39225319027900696
    min_value: 0.0
    scale: 0.0015382478013634682
    zero_point: 0
  '@Add_layer19_causal_mask_314:out0':
    qtype: u8
    quantizer: asymmetric_affine
    rounding: rtne
    max_value: 6.845597267150879
    min_value: -10016.126953125
    scale: 39.3057746887207
    zero_point: 255
  '@Reshape_layer19_v_repeat_expand_315:out0':
    qtype: u8
    quantizer: asymmetric_affine
    rounding: rtne
    max_value: 4.932951927185059
    min_value: -3.546537399291992
    scale: 0.03325289860367775
    zero_point: 107
  '@Transpose_layer19_v_heads_316:out0':
    qtype: u8
    quantizer: asymmetric_affine
    rounding: rtne
    max_value: 4.932951927185059
    min_value: -3.546537399291992
    scale: 0.03325289860367775
    zero_point: 107
  '@Reciprocal_layer19_mlp_rms_reciprocal_317:out0':
    qtype: u8
    quantizer: asymmetric_affine
    rounding: rtne
    max_value: 1.0
    min_value: 0.0
    scale: 0.003921568859368563
    zero_point: 0
  '@Divide_318:out0':
    qtype: u8
    quantizer: asymmetric_affine
    rounding: rtne
    max_value: 1.0264242887496948
    min_value: 0.0
    scale: 0.0040251933969557285
    zero_point: 0
  '@Add_layer20_q_rope_rope_add_319:out0':
    qtype: u8
    quantizer: asymmetric_affine
    rounding: rtne
    max_value: 12.77985668182373
    min_value: -13.548056602478027
    scale: 0.10324671864509583
    zero_point: 131
  '@Transpose_layer20_k_transpose_320:out0':
    qtype: u8
    quantizer: asymmetric_affine
    rounding: rtne
    max_value: 13.688787460327148
    min_value: -10.523649215698242
    scale: 0.09495073556900024
    zero_point: 111
  '@Add_layer20_mlp_rms_eps_322:out0':
    qtype: u8
    quantizer: asymmetric_affine
    rounding: rtne
    max_value: 2240.533447265625
    min_value: 0.0
    scale: 8.786405563354492
    zero_point: 0
  '@Transpose_layer21_q_heads_323:out0':
    qtype: u8
    quantizer: asymmetric_affine
    rounding: rtne
    max_value: 13.674104690551758
    min_value: -12.644792556762695
    scale: 0.10321135818958282
    zero_point: 123
  '@Reshape_layer21_q_reshape_324:out0':
    qtype: u8
    quantizer: asymmetric_affine
    rounding: rtne
    max_value: 13.674104690551758
    min_value: -12.644792556762695
    scale: 0.10321135818958282
    zero_point: 123
  '@Concat_layer21_q_rope_rotate_half_325:out0':
    qtype: u8
    quantizer: asymmetric_affine
    rounding: rtne
    max_value: 13.674039840698242
    min_value: -12.641007423400879
    scale: 0.10319627076387405
    zero_point: 122
  '@Slice_layer21_q_rope_slice_first_326:out0':
    qtype: u8
    quantizer: asymmetric_affine
    rounding: rtne
    max_value: 13.674104690551758
    min_value: -12.644792556762695
    scale: 0.10321135818958282
    zero_point: 123
  '@Tile_layer21_k_repeat_tile_327:out0':
    qtype: u8
    quantizer: asymmetric_affine
    rounding: rtne
    max_value: 9.90855884552002
    min_value: -8.30450439453125
    scale: 0.07142377644777298
    zero_point: 116
  '@Mul_sq_mul_layer21_v_proj_328:out0':
    qtype: u8
    quantizer: asymmetric_affine
    rounding: rtne
    max_value: 2.265768527984619
    min_value: -1.9289183616638184
    scale: 0.01644975319504738
    zero_point: 117
  '@Initializer_sq_scale_layer21_v_proj_330:out0':
    qtype: u8
    quantizer: asymmetric_affine
    rounding: rtne
    max_value: 0.23990491032600403
    min_value: 0.0
    scale: 0.0009408035548403859
    zero_point: 0
  '@Mul_layer21_attn_rms_gamma_331:out0':
    qtype: u8
    quantizer: asymmetric_affine
    rounding: rtne
    max_value: 39.93366241455078
    min_value: -26.03200340270996
    scale: 0.25868889689445496
    zero_point: 101
  '@Reshape_layer22_q_reshape_332:out0':
    qtype: u8
    quantizer: asymmetric_affine
    rounding: rtne
    max_value: 7.355146884918213
    min_value: -7.186955451965332
    scale: 0.05702785402536392
    zero_point: 126
  '@Neg_layer22_q_rope_neg_second_333:out0':
    qtype: u8
    quantizer: asymmetric_affine
    rounding: rtne
    max_value: 7.355142593383789
    min_value: -7.111404895782471
    scale: 0.05673155561089516
    zero_point: 125
  '@Slice_layer22_q_rope_slice_first_334:out0':
    qtype: u8
    quantizer: asymmetric_affine
    rounding: rtne
    max_value: 7.355146884918213
    min_value: -7.186955451965332
    scale: 0.05702785402536392
    zero_point: 126
  '@Reshape_layer22_k_repeat_expand_335:out0':
    qtype: u8
    quantizer: asymmetric_affine
    rounding: rtne
    max_value: 9.172805786132812
    min_value: -8.432334899902344
    scale: 0.06903976947069168
    zero_point: 122
  '@Add_layer22_k_rope_rope_add_336:out0':
    qtype: u8
    quantizer: asymmetric_affine
    rounding: rtne
    max_value: 9.172805786132812
    min_value: -8.432334899902344
    scale: 0.06903976947069168
    zero_point: 122
  '@Reciprocal_layer22_attn_rms_reciprocal_337:out0':
    qtype: u8
    quantizer: asymmetric_affine
    rounding: rtne
    max_value: 1.0
    min_value: 0.0
    scale: 0.003921568859368563
    zero_point: 0
  '@Divide_338:out0':
    qtype: u8
    quantizer: asymmetric_affine
    rounding: rtne
    max_value: 0.5270761251449585
    min_value: 0.0
    scale: 0.002066965214908123
    zero_point: 0
  '@Transpose_layer23_k_heads_340:out0':
    qtype: u8
    quantizer: asymmetric_affine
    rounding: rtne
    max_value: 10.699478149414062
    min_value: -11.2299222946167
    scale: 0.08599765598773956
    zero_point: 131
  '@Reshape_layer23_k_reshape_341:out0':
    qtype: u8
    quantizer: asymmetric_affine
    rounding: rtne
    max_value: 10.699478149414062
    min_value: -11.2299222946167
    scale: 0.08599765598773956
    zero_point: 131
  '@Concat_layer23_k_rope_rotate_half_342:out0':
    qtype: u8
    quantizer: asymmetric_affine
    rounding: rtne
    max_value: 11.229923248291016
    min_value: -9.28432559967041
    scale: 0.08044803142547607
    zero_point: 115
  '@Slice_layer23_k_rope_slice_first_343:out0':
    qtype: u8
    quantizer: asymmetric_affine
    rounding: rtne
    max_value: 10.699478149414062
    min_value: -11.2299222946167
    scale: 0.08599765598773956
    zero_point: 131
  '@Add_layer23_attn_rms_eps_344:out0':
    qtype: u8
    quantizer: asymmetric_affine
    rounding: rtne
    max_value: 8.315022468566895
    min_value: 0.0
    scale: 0.03260793164372444
    zero_point: 0
  '@Add_layer15_attn_residual_345:out0':
    qtype: u8
    quantizer: asymmetric_affine
    rounding: rtne
    max_value: 1397.0140380859375
    min_value: -89.27806091308594
    scale: 5.828596591949463
    zero_point: 15
  '@Mul_sq_mul_layer16_out_proj_347:out0':
    qtype: u8
    quantizer: asymmetric_affine
    rounding: rtne
    max_value: 0.5031031966209412
    min_value: -0.5031031966209412
    scale: 0.003945907577872276
    zero_point: 127
  '@Mul_layer16_swiglu_mul_349:out0':
    qtype: u8
    quantizer: asymmetric_affine
    rounding: rtne
    max_value: 9.524295806884766
    min_value: -9.524295806884766
    scale: 0.07470036298036575
    zero_point: 127
  '@Initializer_sq_scale_layer16_down_proj_350:out0':
    qtype: u8
    quantizer: asymmetric_affine
    rounding: rtne
    max_value: 0.5102056264877319
    min_value: 0.0
    scale: 0.002000806387513876
    zero_point: 0
  '@Transpose_layer17_ctx_transpose_351:out0':
    qtype: u8
    quantizer: asymmetric_affine
    rounding: rtne
    max_value: 4.838674068450928
    min_value: -3.8501789569854736
    scale: 0.03407393395900726
    zero_point: 113
  '@Mul_sq_mul_layer17_up_proj_354:out0':
    qtype: u8
    quantizer: asymmetric_affine
    rounding: rtne
    max_value: 2.3197972774505615
    min_value: -2.096440553665161
    scale: 0.01731858029961586
    zero_point: 121
  '@Softmax_layer18_softmax_356:out0':
    qtype: u8
    quantizer: asymmetric_affine
    rounding: rtne
    max_value: 1.0
    min_value: 0.0
    scale: 0.003921568859368563
    zero_point: 0
  '@Reshape_layer18_v_repeat_merge_357:out0':
    qtype: u8
    quantizer: asymmetric_affine
    rounding: rtne
    max_value: 5.1148505210876465
    min_value: -5.064064025878906
    scale: 0.03991731256246567
    zero_point: 127
  '@Tile_layer18_v_repeat_tile_358:out0':
    qtype: u8
    quantizer: asymmetric_affine
    rounding: rtne
    max_value: 5.1148505210876465
    min_value: -5.064064025878906
    scale: 0.03991731256246567
    zero_point: 127
  '@Mul_layer18_mlp_rms_scale_to_unit_359:out0':
    qtype: u8
    quantizer: asymmetric_affine
    rounding: rtne
    max_value: 29.53345489501953
    min_value: -11.997607231140137
    scale: 0.16286692023277283
    zero_point: 74
  '@Initializer_layer18_mlp_gamma_360:out0':
    qtype: u8
    quantizer: asymmetric_affine
    rounding: rtne
    max_value: 3.59375
    min_value: 0.0
    scale: 0.014093137346208096
    zero_point: 0
  '@Mul_layer19_attn_scale_361:out0':
    qtype: u8
    quantizer: asymmetric_affine
    rounding: rtne
    max_value: 6.772327423095703
    min_value: -16.062328338623047
    scale: 0.08954767137765884
    zero_point: 179
  '@MatMul_layer19_attn_scores_362:out0':
    qtype: u8
    quantizer: asymmetric_affine
    rounding: rtne
    max_value: 54.178619384765625
    min_value: -128.49862670898438
    scale: 0.7163813710212708
    zero_point: 179
  '@Reshape_layer19_v_reshape_363:out0':
    qtype: u8
    quantizer: asymmetric_affine
    rounding: rtne
    max_value: 4.932951927185059
    min_value: -3.546537399291992
    scale: 0.03325289860367775
    zero_point: 107
  '@Sqrt_layer19_mlp_rms_sqrt_364:out0':
    qtype: u8
    quantizer: asymmetric_affine
    rounding: rtne
    max_value: 47.35126876831055
    min_value: 0.0
    scale: 0.1856912523508072
    zero_point: 0
  '@Mul_layer20_q_rope_mul_cos_365:out0':
    qtype: u8
    quantizer: asymmetric_affine
    rounding: rtne
    max_value: 12.779777526855469
    min_value: -13.54790210723877
    scale: 0.1032458022236824
    zero_point: 131
  '@Mul_layer20_q_rope_mul_sin_366:out0':
    qtype: u8
    quantizer: asymmetric_affine
    rounding: rtne
    max_value: 5.9490461349487305
    min_value: -5.759113788604736
    scale: 0.04591435566544533
    zero_point: 125
  '@Reshape_layer20_k_repeat_merge_367:out0':
    qtype: u8
    quantizer: asymmetric_affine
    rounding: rtne
    max_value: 13.688787460327148
    min_value: -10.523649215698242
    scale: 0.09495073556900024
    zero_point: 111
  '@ReduceMean_layer20_mlp_rms_mean_370:out0':
    qtype: u8
    quantizer: asymmetric_affine
    rounding: rtne
    max_value: 2240.533447265625
    min_value: 0.0
    scale: 8.786405563354492
    zero_point: 0
  '@Mul_layer20_mlp_rms_square_371:out0':
    qtype: u8
    quantizer: asymmetric_affine
    rounding: rtne
    max_value: 1955071.375
    min_value: 0.0
    scale: 7666.94677734375
    zero_point: 0
  '@Neg_layer21_q_rope_neg_second_373:out0':
    qtype: u8
    quantizer: asymmetric_affine
    rounding: rtne
    max_value: 13.674039840698242
    min_value: -12.641007423400879
    scale: 0.10319627076387405
    zero_point: 122
  '@Slice_layer21_q_rope_slice_second_374:out0':
    qtype: u8
    quantizer: asymmetric_affine
    rounding: rtne
    max_value: 13.674104690551758
    min_value: -12.644792556762695
    scale: 0.10321135818958282
    zero_point: 123
  '@Reshape_layer21_k_repeat_expand_375:out0':
    qtype: u8
    quantizer: asymmetric_affine
    rounding: rtne
    max_value: 9.90855884552002
    min_value: -8.30450439453125
    scale: 0.07142377644777298
    zero_point: 116
  '@Mul_layer21_attn_rms_scale_to_unit_376:out0':
    qtype: u8
    quantizer: asymmetric_affine
    rounding: rtne
    max_value: 29.546232223510742
    min_value: -10.172503471374512
    scale: 0.15575973689556122
    zero_point: 65
  '@Initializer_layer21_attn_gamma_377:out0':
    qtype: u8
    quantizer: asymmetric_affine
    rounding: rtne
    max_value: 6.78125
    min_value: 0.0
    scale: 0.02659313753247261
    zero_point: 0
  '@Slice_layer22_q_rope_slice_second_379:out0':
    qtype: u8
    quantizer: asymmetric_affine
    rounding: rtne
    max_value: 7.355146884918213
    min_value: -7.186955451965332
    scale: 0.05702785402536392
    zero_point: 126
  '@Mul_layer22_k_rope_mul_cos_381:out0':
    qtype: u8
    quantizer: asymmetric_affine
    rounding: rtne
    max_value: 9.173078536987305
    min_value: -8.432700157165527
    scale: 0.06904226541519165
    zero_point: 122
  '@Mul_layer22_k_rope_mul_sin_382:out0':
    qtype: u8
    quantizer: asymmetric_affine
    rounding: rtne
    max_value: 2.1362195014953613
    min_value: -2.5285110473632812
    scale: 0.01829306036233902
    zero_point: 138
  '@Sqrt_layer22_attn_rms_sqrt_383:out0':
    qtype: u8
    quantizer: asymmetric_affine
    rounding: rtne
    max_value: 3.1786136627197266
    min_value: 0.0
    scale: 0.012465151958167553
    zero_point: 0
  '@Mul_sq_mul_layer23_q_proj_384:out0':
    qtype: u8
    quantizer: asymmetric_affine
    rounding: rtne
    max_value: 1.9557974338531494
    min_value: -1.9557974338531494
    scale: 0.015339587815105915
    zero_point: 128
  '@Neg_layer23_k_rope_neg_second_387:out0':
    qtype: u8
    quantizer: asymmetric_affine
    rounding: rtne
    max_value: 11.229923248291016
    min_value: -9.28432559967041
    scale: 0.08044803142547607
    zero_point: 115
  '@Slice_layer23_k_rope_slice_second_388:out0':
    qtype: u8
    quantizer: asymmetric_affine
    rounding: rtne
    max_value: 10.699478149414062
    min_value: -11.2299222946167
    scale: 0.08599765598773956
    zero_point: 131
  '@ReduceMean_layer23_attn_rms_mean_389:out0':
    qtype: u8
    quantizer: asymmetric_affine
    rounding: rtne
    max_value: 8.315021514892578
    min_value: 0.0
    scale: 0.03260792791843414
    zero_point: 0
  '@Mul_layer23_attn_rms_square_390:out0':
    qtype: u8
    quantizer: asymmetric_affine
    rounding: rtne
    max_value: 4912.3173828125
    min_value: 0.0
    scale: 19.26399040222168
    zero_point: 0
  '@Add_layer14_mlp_residual_391:out0':
    qtype: u8
    quantizer: asymmetric_affine
    rounding: rtne
    max_value: 1396.753173828125
    min_value: -89.19422912597656
    scale: 5.827244758605957
    zero_point: 15
  '@Mul_sq_mul_layer15_down_proj_393:out0':
    qtype: u8
    quantizer: asymmetric_affine
    rounding: rtne
    max_value: 0.6910017728805542
    min_value: -0.6910017728805542
    scale: 0.005419621709734201
    zero_point: 128
  '@Reshape_layer16_ctx_merge_heads_395:out0':
    qtype: u8
    quantizer: asymmetric_affine
    rounding: rtne
    max_value: 1.9015880823135376
    min_value: -1.9015880823135376
    scale: 0.014914416708052158
    zero_point: 128
  '@Initializer_sq_scale_layer16_out_proj_396:out0':
    qtype: u8
    quantizer: asymmetric_affine
    rounding: rtne
    max_value: 2.5223658084869385
    min_value: 0.0
    scale: 0.009891631081700325
    zero_point: 0
  '@MatMul_layer17_attn_context_399:out0':
    qtype: u8
    quantizer: asymmetric_affine
    rounding: rtne
    max_value: 4.838674068450928
    min_value: -3.8501789569854736
    scale: 0.03407393395900726
    zero_point: 113
  '@Mul_sq_mul_layer17_gate_proj_400:out0':
    qtype: u8
    quantizer: asymmetric_affine
    rounding: rtne
    max_value: 3.2968599796295166
    min_value: -2.346975803375244
    scale: 0.022132690995931625
    zero_point: 106
  '@Initializer_sq_scale_layer17_gate_proj_402:out0':
    qtype: u8
    quantizer: asymmetric_affine
    rounding: rtne
    max_value: 0.42843398451805115
    min_value: 0.0
    scale: 0.0016801332822069526
    zero_point: 0
  '@Mul_layer17_mlp_rms_gamma_403:out0':
    qtype: u8
    quantizer: asymmetric_affine
    rounding: rtne
    max_value: 33.91388702392578
    min_value: -31.965946197509766
    scale: 0.2583523094654083
    zero_point: 124
  '@Initializer_sq_scale_layer17_up_proj_404:out0':
    qtype: u8
    quantizer: asymmetric_affine
    rounding: rtne
    max_value: 0.3246261477470398
    min_value: 0.0
    scale: 0.0012730436865240335
    zero_point: 0
  '@Add_layer18_causal_mask_405:out0':
    qtype: u8
    quantizer: asymmetric_affine
    rounding: rtne
    max_value: 9.08070182800293
    min_value: -10013.775390625
    scale: 39.305320739746094
    zero_point: 255
  '@Reshape_layer18_v_repeat_expand_406:out0':
    qtype: u8
    quantizer: asymmetric_affine
    rounding: rtne
    max_value: 5.1148505210876465
    min_value: -5.064064025878906
    scale: 0.03991731256246567
    zero_point: 127
  '@Transpose_layer18_v_heads_407:out0':
    qtype: u8
    quantizer: asymmetric_affine
    rounding: rtne
    max_value: 5.1148505210876465
    min_value: -5.064064025878906
    scale: 0.03991731256246567
    zero_point: 127
  '@Reciprocal_layer18_mlp_rms_reciprocal_408:out0':
    qtype: u8
    quantizer: asymmetric_affine
    rounding: rtne
    max_value: 1.0
    min_value: 0.0
    scale: 0.003921568859368563
    zero_point: 0
  '@Divide_409:out0':
    qtype: u8
    quantizer: asymmetric_affine
    rounding: rtne
    max_value: 1.2842520475387573
    min_value: 0.0
    scale: 0.005036282353103161
    zero_point: 0
  '@Add_layer19_q_rope_rope_add_410:out0':
    qtype: u8
    quantizer: asymmetric_affine
    rounding: rtne
    max_value: 19.643653869628906
    min_value: -21.05112648010254
    scale: 0.15958736836910248
    zero_point: 132
  '@Transpose_layer19_k_transpose_411:out0':
    qtype: u8
    quantizer: asymmetric_affine
    rounding: rtne
    max_value: 10.50881576538086
    min_value: -6.566959381103516
    scale: 0.06696382164955139
    zero_point: 98
  '@Add_layer19_mlp_rms_eps_413:out0':
    qtype: u8
    quantizer: asymmetric_affine
    rounding: rtne
    max_value: 2242.142822265625
    min_value: 0.0
    scale: 8.792716979980469
    zero_point: 0
  '@Transpose_layer20_q_heads_414:out0':
    qtype: u8
    quantizer: asymmetric_affine
    rounding: rtne
    max_value: 12.779777526855469
    min_value: -13.547903060913086
    scale: 0.103245809674263
    zero_point: 131
  '@Reshape_layer20_q_reshape_415:out0':
    qtype: u8
    quantizer: asymmetric_affine
    rounding: rtne
    max_value: 12.779777526855469
    min_value: -13.547903060913086
    scale: 0.103245809674263
    zero_point: 131
  '@Concat_layer20_q_rope_rotate_half_416:out0':
    qtype: u8
    quantizer: asymmetric_affine
    rounding: rtne
    max_value: 12.779777526855469
    min_value: -13.547903060913086
    scale: 0.103245809674263
    zero_point: 131
  '@Slice_layer20_q_rope_slice_first_417:out0':
    qtype: u8
    quantizer: asymmetric_affine
    rounding: rtne
    max_value: 12.779777526855469
    min_value: -13.547903060913086
    scale: 0.103245809674263
    zero_point: 131
  '@Tile_layer20_k_repeat_tile_418:out0':
    qtype: u8
    quantizer: asymmetric_affine
    rounding: rtne
    max_value: 13.688787460327148
    min_value: -10.523649215698242
    scale: 0.09495073556900024
    zero_point: 111
  '@Mul_sq_mul_layer20_v_proj_419:out0':
    qtype: u8
    quantizer: asymmetric_affine
    rounding: rtne
    max_value: 1.8374749422073364
    min_value: -1.4815845489501953
    scale: 0.013015919364988804
    zero_point: 114
  '@Initializer_sq_scale_layer20_v_proj_421:out0':
    qtype: u8
    quantizer: asymmetric_affine
    rounding: rtne
    max_value: 0.1936127245426178
    min_value: 0.0
    scale: 0.0007592655601911247
    zero_point: 0
  '@Mul_layer20_attn_rms_gamma_422:out0':
    qtype: u8
    quantizer: asymmetric_affine
    rounding: rtne
    max_value: 39.2342529296875
    min_value: -29.446125030517578
    scale: 0.2693347930908203
    zero_point: 109
  '@Add_layer21_k_rope_rope_add_426:out0':
    qtype: u8
    quantizer: asymmetric_affine
    rounding: rtne
    max_value: 9.90855884552002
    min_value: -8.30450439453125
    scale: 0.07142377644777298
    zero_point: 116
  '@Mul_layer21_k_rope_mul_sin_427:out0':
    qtype: u8
    quantizer: asymmetric_affine
    rounding: rtne
    max_value: 3.016383647918701
    min_value: -2.439274311065674
    scale: 0.02139473706483841
    zero_point: 114
  '@Reciprocal_layer21_attn_rms_reciprocal_428:out0':
    qtype: u8
    quantizer: asymmetric_affine
    rounding: rtne
    max_value: 1.0
    min_value: 0.0
    scale: 0.003921568859368563
    zero_point: 0
  '@Divide_429:out0':
    qtype: u8
    quantizer: asymmetric_affine
    rounding: rtne
    max_value: 0.7074047923088074
    min_value: 0.0
    scale: 0.002774136373773217
    zero_point: 0
  '@Transpose_layer22_k_heads_431:out0':
    qtype: u8
    quantizer: asymmetric_affine
    rounding: rtne
    max_value: 9.173078536987305
    min_value: -8.432700157165527
    scale: 0.06904226541519165
    zero_point: 122
  '@Reshape_layer22_k_reshape_432:out0':
    qtype: u8
    quantizer: asymmetric_affine
    rounding: rtne
    max_value: 9.173078536987305
    min_value: -8.432700157165527
    scale: 0.06904226541519165
    zero_point: 122
  '@Concat_layer22_k_rope_rotate_half_433:out0':
    qtype: u8
    quantizer: asymmetric_affine
    rounding: rtne
    max_value: 7.7958197593688965
    min_value: -9.173093795776367
    scale: 0.06654476374387741
    zero_point: 138
  '@Slice_layer22_k_rope_slice_first_434:out0':
    qtype: u8
    quantizer: asymmetric_affine
    rounding: rtne
    max_value: 9.173078536987305
    min_value: -8.432700157165527
    scale: 0.06904226541519165
    zero_point: 122
  '@Add_layer22_attn_rms_eps_435:out0':
    qtype: u8
    quantizer: asymmetric_affine
    rounding: rtne
    max_value: 10.10354995727539
    min_value: 0.0
    scale: 0.03962176293134689
    zero_point: 0
  '@ReduceMean_layer22_attn_rms_mean_436:out0':
    qtype: u8
    quantizer: asymmetric_affine
    rounding: rtne
    max_value: 10.103549003601074
    min_value: 0.0
    scale: 0.039621759206056595
    zero_point: 0
  '@Initializer_sq_scale_layer23_q_proj_437:out0':
    qtype: u8
    quantizer: asymmetric_affine
    rounding: rtne
    max_value: 0.33065274357795715
    min_value: 0.0
    scale: 0.0012966773938387632
    zero_point: 0
  '@Mul_sq_mul_layer23_k_proj_441:out0':
    qtype: u8
    quantizer: asymmetric_affine
    rounding: rtne
    max_value: 2.014366626739502
    min_value: -2.014366626739502
    scale: 0.01579895429313183
    zero_point: 128
  '@Initializer_sq_scale_layer23_k_proj_442:out0':
    qtype: u8
    quantizer: asymmetric_affine
    rounding: rtne
    max_value: 0.20627067983150482
    min_value: 0.0
    scale: 0.0008089046459645033
    zero_point: 0
  '@Add_layer14_attn_residual_443:out0':
    qtype: u8
    quantizer: asymmetric_affine
    rounding: rtne
    max_value: 1395.5921630859375
    min_value: -89.26102447509766
    scale: 5.822953701019287
    zero_point: 15
  '@Mul_sq_mul_layer15_out_proj_445:out0':
    qtype: u8
    quantizer: asymmetric_affine
    rounding: rtne
    max_value: 0.41677626967430115
    min_value: -0.41677626967430115
    scale: 0.0032688335049897432
    zero_point: 128
  '@Mul_layer15_swiglu_mul_447:out0':
    qtype: u8
    quantizer: asymmetric_affine
    rounding: rtne
    max_value: 5.273025989532471
    min_value: -5.273025989532471
    scale: 0.04135706648230553
    zero_point: 128
  '@Initializer_sq_scale_layer15_down_proj_448:out0':
    qtype: u8
    quantizer: asymmetric_affine
    rounding: rtne
    max_value: 0.6368251442909241
    min_value: 0.0
    scale: 0.0024973535910248756
    zero_point: 0
  '@Transpose_layer16_ctx_transpose_449:out0':
    qtype: u8
    quantizer: asymmetric_affine
    rounding: rtne
    max_value: 1.9015880823135376
    min_value: -1.9015880823135376
    scale: 0.014914416708052158
    zero_point: 128
  '@Mul_sq_mul_layer16_up_proj_452:out0':
    qtype: u8
    quantizer: asymmetric_affine
    rounding: rtne
    max_value: 1.9593703746795654
    min_value: -1.770752191543579
    scale: 0.014627931639552116
    zero_point: 121
  '@Softmax_layer17_softmax_454:out0':
    qtype: u8
    quantizer: asymmetric_affine
    rounding: rtne
    max_value: 1.0
    min_value: 0.0
    scale: 0.003921568859368563
    zero_point: 0
  '@Reshape_layer17_v_repeat_merge_455:out0':
    qtype: u8
    quantizer: asymmetric_affine
    rounding: rtne
    max_value: 4.969397068023682
    min_value: -5.176124572753906
    scale: 0.039786357432603836
    zero_point: 130
  '@Tile_layer17_v_repeat_tile_456:out0':
    qtype: u8
    quantizer: asymmetric_affine
    rounding: rtne
    max_value: 4.969397068023682
    min_value: -5.176124572753906
    scale: 0.039786357432603836
    zero_point: 130
  '@Mul_layer17_mlp_rms_scale_to_unit_457:out0':
    qtype: u8
    quantizer: asymmetric_affine
    rounding: rtne
    max_value: 29.530458450317383
    min_value: -12.600793838500977
    scale: 0.16522060334682465
    zero_point: 76
  '@Initializer_layer17_mlp_gamma_458:out0':
    qtype: u8
    quantizer: asymmetric_affine
    rounding: rtne
    max_value: 4.375
    min_value: 0.0
    scale: 0.01715686358511448
    zero_point: 0
  '@Mul_layer18_attn_scale_459:out0':
    qtype: u8
    quantizer: asymmetric_affine
    rounding: rtne
    max_value: 9.062644958496094
    min_value: -11.99544906616211
    scale: 0.08258076012134552
    zero_point: 145
  '@MatMul_layer18_attn_scores_460:out0':
    qtype: u8
    quantizer: asymmetric_affine
    rounding: rtne
    max_value: 72.50115966796875
    min_value: -95.96359252929688
    scale: 0.6606460809707642
    zero_point: 145
  '@Reshape_layer18_v_reshape_461:out0':
    qtype: u8
    quantizer: asymmetric_affine
    rounding: rtne
    max_value: 5.1148505210876465
    min_value: -5.064064025878906
    scale: 0.03991731256246567
    zero_point: 127
  '@Sqrt_layer18_mlp_rms_sqrt_462:out0':
    qtype: u8
    quantizer: asymmetric_affine
    rounding: rtne
    max_value: 47.3779182434082
    min_value: 0.0
    scale: 0.18579575419425964
    zero_point: 0
  '@Mul_layer19_q_rope_mul_cos_463:out0':
    qtype: u8
    quantizer: asymmetric_affine
    rounding: rtne
    max_value: 19.64393424987793
    min_value: -21.05155372619629
    scale: 0.15959015488624573
    zero_point: 132
  '@Mul_layer19_q_rope_mul_sin_464:out0':
    qtype: u8
    quantizer: asymmetric_affine
    rounding: rtne
    max_value: 7.998260021209717
    min_value: -8.650097846984863
    scale: 0.06528767943382263
    zero_point: 132
  '@Reshape_layer19_k_repeat_merge_465:out0':
    qtype: u8
    quantizer: asymmetric_affine
    rounding: rtne
    max_value: 10.50881576538086
    min_value: -6.566959381103516
    scale: 0.06696382164955139
    zero_point: 98
  '@ReduceMean_layer19_mlp_rms_mean_468:out0':
    qtype: u8
    quantizer: asymmetric_affine
    rounding: rtne
    max_value: 2242.142822265625
    min_value: 0.0
    scale: 8.792716979980469
    zero_point: 0
  '@Mul_layer19_mlp_rms_square_469:out0':
    qtype: u8
    quantizer: asymmetric_affine
    rounding: rtne
    max_value: 1956335.25
    min_value: 0.0
    scale: 7671.90283203125
    zero_point: 0
  '@Neg_layer20_q_rope_neg_second_471:out0':
    qtype: u8
    quantizer: asymmetric_affine
    rounding: rtne
    max_value: 12.779777526855469
    min_value: -13.547903060913086
    scale: 0.103245809674263
    zero_point: 131
  '@Slice_layer20_q_rope_slice_second_472:out0':
    qtype: u8
    quantizer: asymmetric_affine
    rounding: rtne
    max_value: 12.779777526855469
    min_value: -13.547903060913086
    scale: 0.103245809674263
    zero_point: 131
  '@Reshape_layer20_k_repeat_expand_473:out0':
    qtype: u8
    quantizer: asymmetric_affine
    rounding: rtne
    max_value: 13.688787460327148
    min_value: -10.523649215698242
    scale: 0.09495073556900024
    zero_point: 111
  '@Mul_layer20_attn_rms_scale_to_unit_474:out0':
    qtype: u8
    quantizer: asymmetric_affine
    rounding: rtne
    max_value: 29.541034698486328
    min_value: -10.305572509765625
    scale: 0.15626120567321777
    zero_point: 66
  '@Initializer_layer20_attn_gamma_475:out0':
    qtype: u8
    quantizer: asymmetric_affine
    rounding: rtne
    max_value: 4.5
    min_value: -0.09521484375
    scale: 0.018020451068878174
    zero_point: 5
  '@Mul_sq_mul_layer21_q_proj_476:out0':
    qtype: u8
    quantizer: asymmetric_affine
    rounding: rtne
    max_value: 3.972590923309326
    min_value: -2.2921981811523438
    scale: 0.024567799642682076
    zero_point: 93
  '@Mul_layer21_k_rope_mul_cos_477:out0':
    qtype: u8
    quantizer: asymmetric_affine
    rounding: rtne
    max_value: 9.908020973205566
    min_value: -8.304058074951172
    scale: 0.07141991704702377
    zero_point: 116
  '@Concat_layer21_k_rope_rotate_half_478:out0':
    qtype: u8
    quantizer: asymmetric_affine
    rounding: rtne
    max_value: 8.304084777832031
    min_value: -9.907951354980469
    scale: 0.07141975313425064
    zero_point: 139
  '@Slice_layer21_k_rope_slice_first_479:out0':
    qtype: u8
    quantizer: asymmetric_affine
    rounding: rtne
    max_value: 9.908020973205566
    min_value: -8.304058074951172
    scale: 0.07141991704702377
    zero_point: 116
  '@Sqrt_layer21_attn_rms_sqrt_480:out0':
    qtype: u8
    quantizer: asymmetric_affine
    rounding: rtne
    max_value: 47.17460632324219
    min_value: 0.0
    scale: 0.18499845266342163
    zero_point: 0
  '@Mul_sq_mul_layer22_q_proj_481:out0':
    qtype: u8
    quantizer: asymmetric_affine
    rounding: rtne
    max_value: 2.0649116039276123
    min_value: -1.7390127182006836
    scale: 0.014917350374162197
    zero_point: 117
  '@Neg_layer22_k_rope_neg_second_484:out0':
    qtype: u8
    quantizer: asymmetric_affine
    rounding: rtne
    max_value: 7.7958197593688965
    min_value: -9.173093795776367
    scale: 0.06654476374387741
    zero_point: 138
  '@Slice_layer22_k_rope_slice_second_485:out0':
    qtype: u8
    quantizer: asymmetric_affine
    rounding: rtne
    max_value: 9.173078536987305
    min_value: -8.432700157165527
    scale: 0.06904226541519165
    zero_point: 122
  '@Mul_layer22_attn_rms_square_486:out0':
    qtype: u8
    quantizer: asymmetric_affine
    rounding: rtne
    max_value: 7270.2060546875
    min_value: 0.0
    scale: 28.51061248779297
    zero_point: 0
  '@Add_layer13_mlp_residual_488:out0':
    qtype: u8
    quantizer: asymmetric_affine
    rounding: rtne
    max_value: 1395.5760498046875
    min_value: -89.07219696044922
    scale: 5.822149753570557
    zero_point: 15
  '@Mul_sq_mul_layer14_down_proj_490:out0':
    qtype: u8
    quantizer: asymmetric_affine
    rounding: rtne
    max_value: 0.6179363131523132
    min_value: -0.6179363131523132
    scale: 0.004846559371799231
    zero_point: 128
  '@Reshape_layer15_ctx_merge_heads_492:out0':
    qtype: u8
    quantizer: asymmetric_affine
    rounding: rtne
    max_value: 2.6806700229644775
    min_value: -2.090696334838867
    scale: 0.018711239099502563
    zero_point: 112
  '@Initializer_sq_scale_layer15_out_proj_493:out0':
    qtype: u8
    quantizer: asymmetric_affine
    rounding: rtne
    max_value: 0.6332122087478638
    min_value: 0.0
    scale: 0.0024831851478666067
    zero_point: 0
  '@MatMul_layer16_attn_context_496:out0':
    qtype: u8
    quantizer: asymmetric_affine
    rounding: rtne
    max_value: 1.9015880823135376
    min_value: -1.9015880823135376
    scale: 0.014914416708052158
    zero_point: 128
  '@Mul_sq_mul_layer16_gate_proj_497:out0':
    qtype: u8
    quantizer: asymmetric_affine
    rounding: rtne
    max_value: 2.6255147457122803
    min_value: -2.1206274032592773
    scale: 0.018612323328852654
    zero_point: 114
  '@Initializer_sq_scale_layer16_gate_proj_499:out0':
    qtype: u8
    quantizer: asymmetric_affine
    rounding: rtne
    max_value: 0.5300806760787964
    min_value: 0.0
    scale: 0.0020787478424608707
    zero_point: 0
  '@Mul_layer16_mlp_rms_gamma_500:out0':
    qtype: u8
    quantizer: asymmetric_affine
    rounding: rtne
    max_value: 25.257780075073242
    min_value: -26.97381591796875
    scale: 0.20482979714870453
    zero_point: 132
  '@Initializer_sq_scale_layer16_up_proj_501:out0':
    qtype: u8
    quantizer: asymmetric_affine
    rounding: rtne
    max_value: 0.41542893648147583
    min_value: 0.0
    scale: 0.0016291331266984344
    zero_point: 0
  '@Add_layer17_causal_mask_502:out0':
    qtype: u8
    quantizer: asymmetric_affine
    rounding: rtne
    max_value: 10.76961612701416
    min_value: -10012.1396484375
    scale: 39.30552673339844
    zero_point: 255
  '@Reshape_layer17_v_repeat_expand_503:out0':
    qtype: u8
    quantizer: asymmetric_affine
    rounding: rtne
    max_value: 4.969397068023682
    min_value: -5.176124572753906
    scale: 0.039786357432603836
    zero_point: 130
  '@Transpose_layer17_v_heads_504:out0':
    qtype: u8
    quantizer: asymmetric_affine
    rounding: rtne
    max_value: 4.969397068023682
    min_value: -5.176124572753906
    scale: 0.039786357432603836
    zero_point: 130
  '@Reciprocal_layer17_mlp_rms_reciprocal_505:out0':
    qtype: u8
    quantizer: asymmetric_affine
    rounding: rtne
    max_value: 1.0
    min_value: 0.0
    scale: 0.003921568859368563
    zero_point: 0
  '@Divide_506:out0':
    qtype: u8
    quantizer: asymmetric_affine
    rounding: rtne
    max_value: 1.4438655376434326
    min_value: 0.0
    scale: 0.005662217736244202
    zero_point: 0
  '@Add_layer18_q_rope_rope_add_507:out0':
    qtype: u8
    quantizer: asymmetric_affine
    rounding: rtne
    max_value: 16.620615005493164
    min_value: -23.55021858215332
    scale: 0.1575326770544052
    zero_point: 149
  '@Transpose_layer18_k_transpose_508:out0':
    qtype: u8
    quantizer: asymmetric_affine
    rounding: rtne
    max_value: 7.305566310882568
    min_value: -9.760412216186523
    scale: 0.06692540645599365
    zero_point: 146
  '@Add_layer18_mlp_rms_eps_510:out0':
    qtype: u8
    quantizer: asymmetric_affine
    rounding: rtne
    max_value: 2244.667236328125
    min_value: 0.0
    scale: 8.802617073059082
    zero_point: 0
  '@Transpose_layer19_q_heads_511:out0':
    qtype: u8
    quantizer: asymmetric_affine
    rounding: rtne
    max_value: 19.643938064575195
    min_value: -21.051555633544922
    scale: 0.15959018468856812
    zero_point: 132
  '@Reshape_layer19_q_reshape_512:out0':
    qtype: u8
    quantizer: asymmetric_affine
    rounding: rtne
    max_value: 19.643938064575195
    min_value: -21.051555633544922
    scale: 0.15959018468856812
    zero_point: 132
  '@Concat_layer19_q_rope_rotate_half_513:out0':
    qtype: u8
    quantizer: asymmetric_affine
    rounding: rtne
    max_value: 8.056126594543457
    min_value: -21.051536560058594
    scale: 0.11414769291877747
    zero_point: 184
  '@Slice_layer19_q_rope_slice_first_514:out0':
    qtype: u8
    quantizer: asymmetric_affine
    rounding: rtne
    max_value: 19.643938064575195
    min_value: -21.051555633544922
    scale: 0.15959018468856812
    zero_point: 132
  '@Tile_layer19_k_repeat_tile_515:out0':
    qtype: u8
    quantizer: asymmetric_affine
    rounding: rtne
    max_value: 10.50881576538086
    min_value: -6.566959381103516
    scale: 0.06696382164955139
    zero_point: 98
  '@Mul_sq_mul_layer19_v_proj_516:out0':
    qtype: u8
    quantizer: asymmetric_affine
    rounding: rtne
    max_value: 1.5671731233596802
    min_value: -1.1015963554382324
    scale: 0.010465762577950954
    zero_point: 105
  '@Initializer_sq_scale_layer19_v_proj_518:out0':
    qtype: u8
    quantizer: asymmetric_affine
    rounding: rtne
    max_value: 0.18502037227153778
    min_value: 0.0
    scale: 0.000725570076610893
    zero_point: 0
  '@Mul_layer19_attn_rms_gamma_519:out0':
    qtype: u8
    quantizer: asymmetric_affine
    rounding: rtne
    max_value: 31.382457733154297
    min_value: -27.081636428833008
    scale: 0.22927096486091614
    zero_point: 118
  '@Add_layer20_k_rope_rope_add_523:out0':
    qtype: u8
    quantizer: asymmetric_affine
    rounding: rtne
    max_value: 13.688787460327148
    min_value: -10.523649215698242
    scale: 0.09495073556900024
    zero_point: 111
  '@Mul_layer20_k_rope_mul_sin_524:out0':
    qtype: u8
    quantizer: asymmetric_affine
    rounding: rtne
    max_value: 2.371978282928467
    min_value: -3.34198260307312
    scale: 0.022407688200473785
    zero_point: 149
  '@Reciprocal_layer20_attn_rms_reciprocal_525:out0':
    qtype: u8
    quantizer: asymmetric_affine
    rounding: rtne
    max_value: 1.0
    min_value: 0.0
    scale: 0.003921568859368563
    zero_point: 0
  '@Divide_526:out0':
    qtype: u8
    quantizer: asymmetric_affine
    rounding: rtne
    max_value: 0.8950579762458801
    min_value: 0.0
    scale: 0.003510031383484602
    zero_point: 0
  '@Sqrt_layer20_attn_rms_sqrt_527:out0':
    qtype: u8
    quantizer: asymmetric_affine
    rounding: rtne
    max_value: 47.312870025634766
    min_value: 0.0
    scale: 0.18554066121578217
    zero_point: 0
  '@Initializer_sq_scale_layer21_q_proj_528:out0':
    qtype: u8
    quantizer: asymmetric_affine
    rounding: rtne
    max_value: 0.2890204191207886
    min_value: 0.0
    scale: 0.0011334134032949805
    zero_point: 0
  '@Transpose_layer21_k_heads_529:out0':
    qtype: u8
    quantizer: asymmetric_affine
    rounding: rtne
    max_value: 9.908020973205566
    min_value: -8.304058074951172
    scale: 0.07141991704702377
    zero_point: 116
  '@Reshape_layer21_k_reshape_530:out0':
    qtype: u8
    quantizer: asymmetric_affine
    rounding: rtne
    max_value: 9.908020973205566
    min_value: -8.304058074951172
    scale: 0.07141991704702377
    zero_point: 116
  '@Neg_layer21_k_rope_neg_second_531:out0':
    qtype: u8
    quantizer: asymmetric_affine
    rounding: rtne
    max_value: 8.304084777832031
    min_value: -9.907951354980469
    scale: 0.07141975313425064
    zero_point: 139
  '@Slice_layer21_k_rope_slice_second_532:out0':
    qtype: u8
    quantizer: asymmetric_affine
    rounding: rtne
    max_value: 9.907951354980469
    min_value: -8.304084777832031
    scale: 0.07141975313425064
    zero_point: 116
  '@Add_layer21_attn_rms_eps_533:out0':
    qtype: u8
    quantizer: asymmetric_affine
    rounding: rtne
    max_value: 2225.443359375
    min_value: 0.0
    scale: 8.727229118347168
    zero_point: 0
  '@ReduceMean_layer21_attn_rms_mean_534:out0':
    qtype: u8
    quantizer: asymmetric_affine
    rounding: rtne
    max_value: 2225.443359375
    min_value: 0.0
    scale: 8.727229118347168
    zero_point: 0
  '@Initializer_sq_scale_layer22_q_proj_535:out0':
    qtype: u8
    quantizer: asymmetric_affine
    rounding: rtne
    max_value: 0.2777591049671173
    min_value: 0.0
    scale: 0.0010892513673752546
    zero_point: 0
  '@Add_layer13_attn_residual_537:out0':
    qtype: u8
    quantizer: asymmetric_affine
    rounding: rtne
    max_value: 1394.9521484375
    min_value: -89.06798553466797
    scale: 5.8196868896484375
    zero_point: 15
  '@Mul_sq_mul_layer14_out_proj_539:out0':
    qtype: u8
    quantizer: asymmetric_affine
    rounding: rtne
    max_value: 0.5636152625083923
    min_value: -0.5636152625083923
    scale: 0.004420511890202761
    zero_point: 128
  '@Mul_layer14_swiglu_mul_541:out0':
    qtype: u8
    quantizer: asymmetric_affine
    rounding: rtne
    max_value: 5.741137981414795
    min_value: -5.741137981414795
    scale: 0.04502853378653526
    zero_point: 128
  '@Initializer_sq_scale_layer14_down_proj_542:out0':
    qtype: u8
    quantizer: asymmetric_affine
    rounding: rtne
    max_value: 0.6900204420089722
    min_value: 0.0
    scale: 0.0027059626299887896
    zero_point: 0
  '@Transpose_layer15_ctx_transpose_543:out0':
    qtype: u8
    quantizer: asymmetric_affine
    rounding: rtne
    max_value: 2.6806700229644775
    min_value: -2.090696334838867
    scale: 0.018711239099502563
    zero_point: 112
  '@Mul_sq_mul_layer15_up_proj_546:out0':
    qtype: u8
    quantizer: asymmetric_affine
    rounding: rtne
    max_value: 2.426119565963745
    min_value: -2.1603357791900635
    scale: 0.017986100167036057
    zero_point: 120
  '@Softmax_layer16_softmax_548:out0':
    qtype: u8
    quantizer: asymmetric_affine
    rounding: rtne
    max_value: 1.0
    min_value: 0.0
    scale: 0.003921568859368563
    zero_point: 0
  '@Reshape_layer16_v_repeat_merge_549:out0':
    qtype: u8
    quantizer: asymmetric_affine
    rounding: rtne
    max_value: 4.772091865539551
    min_value: -4.171940803527832
    scale: 0.035074636340141296
    zero_point: 119
  '@Tile_layer16_v_repeat_tile_550:out0':
    qtype: u8
    quantizer: asymmetric_affine
    rounding: rtne
    max_value: 4.772091865539551
    min_value: -4.171940803527832
    scale: 0.035074636340141296
    zero_point: 119
  '@Mul_layer16_mlp_rms_scale_to_unit_551:out0':
    qtype: u8
    quantizer: asymmetric_affine
    rounding: rtne
    max_value: 29.525075912475586
    min_value: -14.337392807006836
    scale: 0.17200967669487
    zero_point: 83
  '@Initializer_layer16_mlp_gamma_552:out0':
    qtype: u8
    quantizer: asymmetric_affine
    rounding: rtne
    max_value: 3.3125
    min_value: 0.0
    scale: 0.012990196235477924
    zero_point: 0
  '@Mul_layer17_attn_scale_553:out0':
    qtype: u8
    quantizer: asymmetric_affine
    rounding: rtne
    max_value: 10.725186347961426
    min_value: -12.136329650878906
    scale: 0.08965300023555756
    zero_point: 135
  '@MatMul_layer17_attn_scores_554:out0':
    qtype: u8
    quantizer: asymmetric_affine
    rounding: rtne
    max_value: 85.8014907836914
    min_value: -97.09063720703125
    scale: 0.7172240018844604
    zero_point: 135
  '@Reshape_layer17_v_reshape_555:out0':
    qtype: u8
    quantizer: asymmetric_affine
    rounding: rtne
    max_value: 4.969397068023682
    min_value: -5.176124572753906
    scale: 0.039786357432603836
    zero_point: 130
  '@Sqrt_layer17_mlp_rms_sqrt_556:out0':
    qtype: u8
    quantizer: asymmetric_affine
    rounding: rtne
    max_value: 47.400638580322266
    min_value: 0.0
    scale: 0.18588486313819885
    zero_point: 0
  '@Mul_layer18_q_rope_mul_cos_557:out0':
    qtype: u8
    quantizer: asymmetric_affine
    rounding: rtne
    max_value: 16.620357513427734
    min_value: -23.55088996887207
    scale: 0.15753431618213654
    zero_point: 149
  '@Mul_layer18_q_rope_mul_sin_558:out0':
    qtype: u8
    quantizer: asymmetric_affine
    rounding: rtne
    max_value: 6.797140121459961
    min_value: -7.1898322105407715
    scale: 0.05485087260603905
    zero_point: 131
  '@Reshape_layer18_k_repeat_merge_559:out0':
    qtype: u8
    quantizer: asymmetric_affine
    rounding: rtne
    max_value: 7.305566310882568
    min_value: -9.760412216186523
    scale: 0.06692540645599365
    zero_point: 146
  '@ReduceMean_layer18_mlp_rms_mean_562:out0':
    qtype: u8
    quantizer: asymmetric_affine
    rounding: rtne
    max_value: 2244.667236328125
    min_value: 0.0
    scale: 8.802617073059082
    zero_point: 0
  '@Mul_layer18_mlp_rms_square_563:out0':
    qtype: u8
    quantizer: asymmetric_affine
    rounding: rtne
    max_value: 1957854.5
    min_value: 0.0
    scale: 7677.86083984375
    zero_point: 0
  '@Neg_layer19_q_rope_neg_second_565:out0':
    qtype: u8
    quantizer: asymmetric_affine
    rounding: rtne
    max_value: 8.056126594543457
    min_value: -21.051536560058594
    scale: 0.11414769291877747
    zero_point: 184
  '@Slice_layer19_q_rope_slice_second_566:out0':
    qtype: u8
    quantizer: asymmetric_affine
    rounding: rtne
    max_value: 19.643938064575195
    min_value: -21.051555633544922
    scale: 0.15959018468856812
    zero_point: 132
  '@Reshape_layer19_k_repeat_expand_567:out0':
    qtype: u8
    quantizer: asymmetric_affine
    rounding: rtne
    max_value: 10.50881576538086
    min_value: -6.566959381103516
    scale: 0.06696382164955139
    zero_point: 98
  '@Mul_layer19_attn_rms_scale_to_unit_568:out0':
    qtype: u8
    quantizer: asymmetric_affine
    rounding: rtne
    max_value: 29.53643035888672
    min_value: -10.53726863861084
    scale: 0.15715175867080688
    zero_point: 67
  '@Initializer_layer19_attn_gamma_569:out0':
    qtype: u8
    quantizer: asymmetric_affine
    rounding: rtne
    max_value: 4.15625
    min_value: -0.06591796875
    scale: 0.016557522118091583
    zero_point: 4
  '@Mul_sq_mul_layer20_q_proj_570:out0':
    qtype: u8
    quantizer: asymmetric_affine
    rounding: rtne
    max_value: 2.7371578216552734
    min_value: -1.7894129753112793
    scale: 0.017751257866621017
    zero_point: 101
  '@Mul_layer20_k_rope_mul_cos_571:out0':
    qtype: u8
    quantizer: asymmetric_affine
    rounding: rtne
    max_value: 13.68802261352539
    min_value: -10.523502349853516
    scale: 0.09494715929031372
    zero_point: 111
  '@Concat_layer20_k_rope_rotate_half_572:out0':
    qtype: u8
    quantizer: asymmetric_affine
    rounding: rtne
    max_value: 10.523502349853516
    min_value: -13.688024520874023
    scale: 0.09494716674089432
    zero_point: 144
  '@Slice_layer20_k_rope_slice_first_573:out0':
    qtype: u8
    quantizer: asymmetric_affine
    rounding: rtne
    max_value: 13.688024520874023
    min_value: -10.523502349853516
    scale: 0.09494716674089432
    zero_point: 111
  '@Add_layer20_attn_rms_eps_574:out0':
    qtype: u8
    quantizer: asymmetric_affine
    rounding: rtne
    max_value: 2238.5078125
    min_value: 0.0
    scale: 8.778462409973145
    zero_point: 0
  '@Mul_layer21_attn_rms_square_577:out0':
    qtype: u8
    quantizer: asymmetric_affine
    rounding: rtne
    max_value: 1942363.125
    min_value: 0.0
    scale: 7617.1103515625
    zero_point: 0
  '@Mul_sq_mul_layer22_k_proj_578:out0':
    qtype: u8
    quantizer: asymmetric_affine
    rounding: rtne
    max_value: 2.092355728149414
    min_value: -2.0510096549987793
    scale: 0.016248492524027824
    zero_point: 126
  '@Add_layer12_mlp_residual_580:out0':
    qtype: u8
    quantizer: asymmetric_affine
    rounding: rtne
    max_value: 1395.0294189453125
    min_value: -88.85020446777344
    scale: 5.819135665893555
    zero_point: 15
  '@Mul_sq_mul_layer13_down_proj_582:out0':
    qtype: u8
    quantizer: asymmetric_affine
    rounding: rtne
    max_value: 0.6687747836112976
    min_value: -0.8665987849235535
    scale: 0.006021072622388601
    zero_point: 144
  '@Reshape_layer14_ctx_merge_heads_584:out0':
    qtype: u8
    quantizer: asymmetric_affine
    rounding: rtne
    max_value: 2.2723822593688965
    min_value: -2.2723822593688965
    scale: 0.01782260648906231
    zero_point: 128
  '@Initializer_sq_scale_layer14_out_proj_585:out0':
    qtype: u8
    quantizer: asymmetric_affine
    rounding: rtne
    max_value: 0.4529005289077759
    min_value: 0.0
    scale: 0.0017760804621502757
    zero_point: 0
  '@MatMul_layer15_attn_context_588:out0':
    qtype: u8
    quantizer: asymmetric_affine
    rounding: rtne
    max_value: 2.6806700229644775
    min_value: -2.090696334838867
    scale: 0.018711239099502563
    zero_point: 112
  '@Mul_sq_mul_layer15_gate_proj_589:out0':
    qtype: u8
    quantizer: asymmetric_affine
    rounding: rtne
    max_value: 2.5339269638061523
    min_value: -2.813046932220459
    scale: 0.020968524739146233
    zero_point: 134
  '@Initializer_sq_scale_layer15_gate_proj_591:out0':
    qtype: u8
    quantizer: asymmetric_affine
    rounding: rtne
    max_value: 0.4835144281387329
    min_value: 0.0
    scale: 0.0018961350433528423
    zero_point: 0
  '@Mul_layer15_mlp_rms_gamma_592:out0':
    qtype: u8
    quantizer: asymmetric_affine
    rounding: rtne
    max_value: 25.94724464416504
    min_value: -21.700481414794922
    scale: 0.18685384094715118
    zero_point: 116
  '@Initializer_sq_scale_layer15_up_proj_593:out0':
    qtype: u8
    quantizer: asymmetric_affine
    rounding: rtne
    max_value: 0.4907565116882324
    min_value: 0.0
    scale: 0.0019245353760197759
    zero_point: 0
  '@Add_layer16_causal_mask_594:out0':
    qtype: u8
    quantizer: asymmetric_affine
    rounding: rtne
    max_value: 14.567070960998535
    min_value: -10018.4541015625
    scale: 39.34518051147461
    zero_point: 255
  '@Reshape_layer16_v_repeat_expand_595:out0':
    qtype: u8
    quantizer: asymmetric_affine
    rounding: rtne
    max_value: 4.772091865539551
    min_value: -4.171940803527832
    scale: 0.035074636340141296
    zero_point: 119
  '@Transpose_layer16_v_heads_596:out0':
    qtype: u8
    quantizer: asymmetric_affine
    rounding: rtne
    max_value: 4.772091865539551
    min_value: -4.171940803527832
    scale: 0.035074636340141296
    zero_point: 119
  '@Reciprocal_layer16_mlp_rms_reciprocal_597:out0':
    qtype: u8
    quantizer: asymmetric_affine
    rounding: rtne
    max_value: 1.0
    min_value: 0.0
    scale: 0.003921568859368563
    zero_point: 0
  '@Divide_598:out0':
    qtype: u8
    quantizer: asymmetric_affine
    rounding: rtne
    max_value: 1.6729192733764648
    min_value: 0.0
    scale: 0.006560467649251223
    zero_point: 0
  '@Add_layer17_q_rope_rope_add_599:out0':
    qtype: u8
    quantizer: asymmetric_affine
    rounding: rtne
    max_value: 16.21304702758789
    min_value: -19.495330810546875
    scale: 0.14003285765647888
    zero_point: 139
  '@Transpose_layer17_k_transpose_600:out0':
    qtype: u8
    quantizer: asymmetric_affine
    rounding: rtne
    max_value: 6.56063985824585
    min_value: -10.55245304107666
    scale: 0.06711016595363617
    zero_point: 157
  '@Add_layer17_mlp_rms_eps_602:out0':
    qtype: u8
    quantizer: asymmetric_affine
    rounding: rtne
    max_value: 2246.8203125
    min_value: 0.0
    scale: 8.811059951782227
    zero_point: 0
  '@Transpose_layer18_q_heads_603:out0':
    qtype: u8
    quantizer: asymmetric_affine
    rounding: rtne
    max_value: 16.620357513427734
    min_value: -23.55088996887207
    scale: 0.15753431618213654
    zero_point: 149
  '@Reshape_layer18_q_reshape_604:out0':
    qtype: u8
    quantizer: asymmetric_affine
    rounding: rtne
    max_value: 16.620357513427734
    min_value: -23.55088996887207
    scale: 0.15753431618213654
    zero_point: 149
  '@Concat_layer18_q_rope_rotate_half_605:out0':
    qtype: u8
    quantizer: asymmetric_affine
    rounding: rtne
