# !!!This file disallow TABs!!!
version: 2
quantize_parameters:
  '@attach_MatMul_logits/out0_0:out0':
    qtype: u8
    quantizer: asymmetric_affine
    rounding: rtne
    max_value: 29.613723754882812
    min_value: -18.74513816833496
    scale: 0.18964260816574097
    zero_point: 99
  '@Mul_final_rms_gamma_2:out0':
    qtype: u8
    quantizer: asymmetric_affine
    rounding: rtne
    max_value: 44.35115051269531
    min_value: -26.683298110961914
    scale: 0.2785664498806
    zero_point: 96
  '@Mul_final_rms_scale_to_unit_4:out0':
    qtype: u8
    quantizer: asymmetric_affine
    rounding: rtne
    max_value: 21.234355926513672
    min_value: -21.794185638427734
    scale: 0.16873937845230103
    zero_point: 129
  '@Initializer_final_rms_gamma_5:out0':
    qtype: u8
    quantizer: asymmetric_affine
    rounding: rtne
    max_value: 3.34375
    min_value: -2.125
    scale: 0.02144607901573181
    zero_point: 99
  '@Add_layer29_mlp_residual_6:out0':
    qtype: u8
    quantizer: asymmetric_affine
    rounding: rtne
    max_value: 5999.705078125
    min_value: -5587.55419921875
    scale: 45.44023513793945
    zero_point: 123
  '@Reciprocal_final_rms_reciprocal_7:out0':
    qtype: u8
    quantizer: asymmetric_affine
    rounding: rtne
    max_value: 1.0
    min_value: 0.0
    scale: 0.003921568859368563
    zero_point: 0
  '@Divide_8:out0':
    qtype: u8
    quantizer: asymmetric_affine
    rounding: rtne
    max_value: 0.06586230546236038
    min_value: 0.0
    scale: 0.0002582835440989584
    zero_point: 0
  '@Add_layer29_attn_residual_9:out0':
    qtype: u8
    quantizer: asymmetric_affine
    rounding: rtne
    max_value: 10365.5546875
    min_value: -5653.28759765625
    scale: 62.81898880004883
    zero_point: 90
  '@Sqrt_final_rms_sqrt_11:out0':
    qtype: u8
    quantizer: asymmetric_affine
    rounding: rtne
    max_value: 322.82440185546875
    min_value: 0.0
    scale: 1.2659780979156494
    zero_point: 0
  '@Add_layer28_mlp_residual_12:out0':
    qtype: u8
    quantizer: asymmetric_affine
    rounding: rtne
    max_value: 10368.6201171875
    min_value: -5658.29736328125
    scale: 62.85065841674805
    zero_point: 90
  '@Mul_layer29_swiglu_mul_14:out0':
    qtype: u8
    quantizer: asymmetric_affine
    rounding: rtne
    max_value: 534.244384765625
    min_value: -421.0064697265625
    scale: 3.746081829071045
    zero_point: 112
  '@Add_final_rms_eps_16:out0':
    qtype: u8
    quantizer: asymmetric_affine
    rounding: rtne
    max_value: 104214.5703125
    min_value: 0.0
    scale: 408.6846008300781
    zero_point: 0
  '@Add_layer28_attn_residual_17:out0':
    qtype: u8
    quantizer: asymmetric_affine
    rounding: rtne
    max_value: 28337.205078125
    min_value: -994.7777709960938
    scale: 115.02738189697266
    zero_point: 9
  '@Reshape_layer29_ctx_merge_heads_19:out0':
    qtype: u8
    quantizer: asymmetric_affine
    rounding: rtne
    max_value: 2.7123758792877197
    min_value: -2.5197174549102783
    scale: 0.02051801234483719
    zero_point: 123
  '@ReduceMean_final_rms_mean_23:out0':
    qtype: u8
    quantizer: asymmetric_affine
    rounding: rtne
    max_value: 104214.5703125
    min_value: 0.0
    scale: 408.6846008300781
    zero_point: 0
  '@Initializer_eps_24:out0':
    qtype: u8
    quantizer: asymmetric_affine
    rounding: rtne
    max_value: 9.999999747378751e-06
    min_value: 0.0
    scale: 3.921568492160076e-08
    zero_point: 0
  '@Add_layer27_mlp_residual_25:out0':
    qtype: u8
    quantizer: asymmetric_affine
    rounding: rtne
    max_value: 28392.5078125
    min_value: -994.04150390625
    scale: 115.24137115478516
    zero_point: 9
  '@Mul_layer28_swiglu_mul_27:out0':
    qtype: u8
    quantizer: asymmetric_affine
    rounding: rtne
    max_value: 2601.459228515625
    min_value: -98.80707550048828
    scale: 10.589280128479004
    zero_point: 9
  '@Transpose_layer29_ctx_transpose_29:out0':
    qtype: u8
    quantizer: asymmetric_affine
    rounding: rtne
    max_value: 2.7123758792877197
    min_value: -2.5197174549102783
    scale: 0.02051801234483719
    zero_point: 123
  '@Mul_layer29_mlp_rms_gamma_32:out0':
    qtype: u8
    quantizer: asymmetric_affine
    rounding: rtne
    max_value: 32.256629943847656
    min_value: -31.572397232055664
    scale: 0.25030991435050964
    zero_point: 126
  '@Mul_final_rms_square_34:out0':
    qtype: u8
    quantizer: asymmetric_affine
    rounding: rtne
    max_value: 46989572.0
    min_value: 0.0
    scale: 184272.828125
    zero_point: 0
  '@Add_layer27_attn_residual_35:out0':
    qtype: u8
    quantizer: asymmetric_affine
    rounding: rtne
    max_value: 28570.509765625
    min_value: -971.518310546875
    scale: 115.85108947753906
    zero_point: 8
  '@Reshape_layer28_ctx_merge_heads_37:out0':
    qtype: u8
    quantizer: asymmetric_affine
    rounding: rtne
    max_value: 2.213998794555664
    min_value: -2.5600738525390625
    scale: 0.01872185431420803
    zero_point: 137
  '@MatMul_layer29_attn_context_41:out0':
    qtype: u8
    quantizer: asymmetric_affine
    rounding: rtne
    max_value: 2.7123758792877197
    min_value: -2.5197174549102783
    scale: 0.02051801234483719
    zero_point: 123
  '@Reshape_layer29_v_repeat_merge_42:out0':
    qtype: u8
    quantizer: asymmetric_affine
    rounding: rtne
    max_value: 6.026783466339111
    min_value: -7.0406975746154785
    scale: 0.05124502256512642
    zero_point: 137
  '@Tile_layer29_v_repeat_tile_44:out0':
    qtype: u8
    quantizer: asymmetric_affine
    rounding: rtne
    max_value: 6.026783466339111
    min_value: -7.0406975746154785
    scale: 0.05124502256512642
    zero_point: 137
  '@Mul_layer29_mlp_rms_scale_to_unit_45:out0':
    qtype: u8
    quantizer: asymmetric_affine
    rounding: rtne
    max_value: 23.459320068359375
    min_value: -22.961824417114258
    scale: 0.18204370141029358
    zero_point: 126
  '@Initializer_layer29_mlp_gamma_46:out0':
    qtype: u8
    quantizer: asymmetric_affine
    rounding: rtne
    max_value: 1.375
    min_value: 0.0
    scale: 0.005392157007008791
    zero_point: 0
  '@Reciprocal_layer29_mlp_rms_reciprocal_47:out0':
    qtype: u8
    quantizer: asymmetric_affine
    rounding: rtne
    max_value: 1.0
    min_value: 0.0
    scale: 0.003921568859368563
    zero_point: 0
  '@Divide_48:out0':
    qtype: u8
    quantizer: asymmetric_affine
    rounding: rtne
    max_value: 0.05001956596970558
    min_value: 0.0
    scale: 0.00019615516066551208
    zero_point: 0
  '@Sqrt_layer29_mlp_rms_sqrt_49:out0':
    qtype: u8
    quantizer: asymmetric_affine
    rounding: rtne
    max_value: 543.6593017578125
    min_value: 0.0
    scale: 2.1319973468780518
    zero_point: 0
  '@Add_layer26_mlp_residual_50:out0':
    qtype: u8
    quantizer: asymmetric_affine
    rounding: rtne
    max_value: 28589.078125
    min_value: -967.9580078125
    scale: 115.90994262695312
    zero_point: 8
  '@Mul_layer27_swiglu_mul_52:out0':
    qtype: u8
    quantizer: asymmetric_affine
    rounding: rtne
    max_value: 16.186094284057617
    min_value: -64.9784927368164
    scale: 0.318292498588562
    zero_point: 204
  '@Transpose_layer28_ctx_transpose_54:out0':
    qtype: u8
    quantizer: asymmetric_affine
    rounding: rtne
    max_value: 2.213998794555664
    min_value: -2.5600738525390625
    scale: 0.01872185431420803
    zero_point: 137
  '@Mul_layer28_mlp_rms_gamma_57:out0':
    qtype: u8
    quantizer: asymmetric_affine
    rounding: rtne
    max_value: 14.061360359191895
    min_value: -2.789520502090454
    scale: 0.06608188897371292
    zero_point: 42
  '@Softmax_layer29_softmax_59:out0':
    qtype: u8
    quantizer: asymmetric_affine
    rounding: rtne
    max_value: 1.0
    min_value: 0.0
    scale: 0.003921568859368563
    zero_point: 0
  '@Reshape_layer29_v_repeat_expand_60:out0':
    qtype: u8
    quantizer: asymmetric_affine
    rounding: rtne
    max_value: 6.026783466339111
    min_value: -7.0406975746154785
    scale: 0.05124502256512642
    zero_point: 137
  '@Transpose_layer29_v_heads_61:out0':
    qtype: u8
    quantizer: asymmetric_affine
    rounding: rtne
    max_value: 6.026783466339111
    min_value: -7.0406975746154785
    scale: 0.05124502256512642
    zero_point: 137
  '@Add_layer29_mlp_rms_eps_62:out0':
    qtype: u8
    quantizer: asymmetric_affine
    rounding: rtne
    max_value: 295563.375
    min_value: 0.0
    scale: 1159.072021484375
    zero_point: 0
  '@Add_layer26_attn_residual_63:out0':
    qtype: u8
    quantizer: asymmetric_affine
    rounding: rtne
    max_value: 28590.732421875
    min_value: -967.7216186523438
    scale: 115.9155044555664
    zero_point: 8
  '@Reshape_layer27_ctx_merge_heads_65:out0':
    qtype: u8
    quantizer: asymmetric_affine
    rounding: rtne
    max_value: 2.8322086334228516
    min_value: -3.430544853210449
    scale: 0.02455981820821762
    zero_point: 140
  '@MatMul_layer28_attn_context_69:out0':
    qtype: u8
    quantizer: asymmetric_affine
    rounding: rtne
    max_value: 2.213998794555664
    min_value: -2.5600738525390625
    scale: 0.01872185431420803
    zero_point: 137
  '@Reshape_layer28_v_repeat_merge_70:out0':
    qtype: u8
    quantizer: asymmetric_affine
    rounding: rtne
    max_value: 7.786663055419922
    min_value: -8.087861061096191
    scale: 0.062253035604953766
    zero_point: 130
  '@Tile_layer28_v_repeat_tile_72:out0':
    qtype: u8
    quantizer: asymmetric_affine
    rounding: rtne
    max_value: 7.786663055419922
    min_value: -8.087861061096191
    scale: 0.062253035604953766
    zero_point: 130
  '@Mul_layer28_mlp_rms_scale_to_unit_73:out0':
    qtype: u8
    quantizer: asymmetric_affine
    rounding: rtne
    max_value: 23.839052200317383
    min_value: -6.051916122436523
    scale: 0.1172194853425026
    zero_point: 52
  '@Initializer_layer28_mlp_gamma_74:out0':
    qtype: u8
    quantizer: asymmetric_affine
    rounding: rtne
    max_value: 0.58984375
    min_value: 0.0
    scale: 0.0023131128400564194
    zero_point: 0
  '@Add_layer29_causal_mask_75:out0':
    qtype: u8
    quantizer: asymmetric_affine
    rounding: rtne
    max_value: 15.169290542602539
    min_value: -10013.5576171875
    scale: 39.328338623046875
    zero_point: 255
  '@Reshape_layer29_v_reshape_76:out0':
    qtype: u8
    quantizer: asymmetric_affine
    rounding: rtne
    max_value: 6.026783466339111
    min_value: -7.0406975746154785
    scale: 0.05124502256512642
    zero_point: 137
  '@ReduceMean_layer29_mlp_rms_mean_77:out0':
    qtype: u8
    quantizer: asymmetric_affine
    rounding: rtne
    max_value: 295563.375
    min_value: 0.0
    scale: 1159.072021484375
    zero_point: 0
  '@Add_layer25_mlp_residual_79:out0':
    qtype: u8
    quantizer: asymmetric_affine
    rounding: rtne
    max_value: 28596.62109375
    min_value: -967.1437377929688
    scale: 115.93633270263672
    zero_point: 8
  '@Mul_layer26_swiglu_mul_81:out0':
    qtype: u8
    quantizer: asymmetric_affine
    rounding: rtne
    max_value: 19.571226119995117
    min_value: -16.23700714111328
    scale: 0.140424445271492
    zero_point: 116
  '@Transpose_layer27_ctx_transpose_83:out0':
    qtype: u8
    quantizer: asymmetric_affine
    rounding: rtne
    max_value: 2.8322086334228516
    min_value: -3.430544853210449
    scale: 0.02455981820821762
    zero_point: 140
  '@Mul_layer27_mlp_rms_gamma_86:out0':
    qtype: u8
    quantizer: asymmetric_affine
    rounding: rtne
    max_value: 3.214675188064575
    min_value: -2.8763222694396973
    scale: 0.023886265233159065
    zero_point: 120
  '@Softmax_layer28_softmax_88:out0':
    qtype: u8
    quantizer: asymmetric_affine
    rounding: rtne
    max_value: 1.0
    min_value: 0.0
    scale: 0.003921568859368563
    zero_point: 0
  '@Reshape_layer28_v_repeat_expand_89:out0':
    qtype: u8
    quantizer: asymmetric_affine
    rounding: rtne
    max_value: 7.786663055419922
    min_value: -8.087861061096191
    scale: 0.062253035604953766
    zero_point: 130
  '@Transpose_layer28_v_heads_90:out0':
    qtype: u8
    quantizer: asymmetric_affine
    rounding: rtne
    max_value: 7.786663055419922
    min_value: -8.087861061096191
    scale: 0.062253035604953766
    zero_point: 130
  '@Reciprocal_layer28_mlp_rms_reciprocal_91:out0':
    qtype: u8
    quantizer: asymmetric_affine
    rounding: rtne
    max_value: 1.0
    min_value: 0.0
    scale: 0.003921568859368563
    zero_point: 0
  '@Divide_92:out0':
    qtype: u8
    quantizer: asymmetric_affine
    rounding: rtne
    max_value: 0.05429685115814209
    min_value: 0.0
    scale: 0.00021292883320711553
    zero_point: 0
  '@Mul_layer29_attn_scale_93:out0':
    qtype: u8
    quantizer: asymmetric_affine
    rounding: rtne
    max_value: 15.146358489990234
    min_value: -13.553084373474121
    scale: 0.11254683881998062
    zero_point: 120
  '@Initializer_causal_mask_94:out0':
    qtype: u8
    quantizer: asymmetric_affine
    rounding: rtne
    max_value: 0.0
    min_value: -10000.0
    scale: 39.2156867980957
    zero_point: 255
  '@Mul_layer29_mlp_rms_square_96:out0':
    qtype: u8
    quantizer: asymmetric_affine
    rounding: rtne
    max_value: 162659056.0
    min_value: 0.0
    scale: 637878.625
    zero_point: 0
  '@Add_layer25_attn_residual_97:out0':
    qtype: u8
    quantizer: asymmetric_affine
    rounding: rtne
    max_value: 28596.75
    min_value: -967.1476440429688
    scale: 115.93685913085938
    zero_point: 8
  '@Reshape_layer26_ctx_merge_heads_99:out0':
    qtype: u8
    quantizer: asymmetric_affine
    rounding: rtne
    max_value: 1.5439563989639282
    min_value: -2.3908543586730957
    scale: 0.015430630184710026
    zero_point: 155
  '@MatMul_layer27_attn_context_103:out0':
    qtype: u8
    quantizer: asymmetric_affine
    rounding: rtne
    max_value: 2.8322086334228516
    min_value: -3.430544853210449
    scale: 0.02455981820821762
    zero_point: 140
  '@Reshape_layer27_v_repeat_merge_104:out0':
    qtype: u8
    quantizer: asymmetric_affine
    rounding: rtne
    max_value: 4.759906768798828
    min_value: -6.820591926574707
    scale: 0.04541372135281563
    zero_point: 150
  '@Tile_layer27_v_repeat_tile_106:out0':
    qtype: u8
    quantizer: asymmetric_affine
    rounding: rtne
    max_value: 4.759906768798828
    min_value: -6.820591926574707
    scale: 0.04541372135281563
    zero_point: 150
  '@Mul_layer27_mlp_rms_scale_to_unit_107:out0':
    qtype: u8
    quantizer: asymmetric_affine
    rounding: rtne
    max_value: 23.853796005249023
    min_value: -6.51627779006958
    scale: 0.11909832805395126
    zero_point: 55
  '@Initializer_layer27_mlp_gamma_108:out0':
    qtype: u8
    quantizer: asymmetric_affine
    rounding: rtne
    max_value: 0.51171875
    min_value: 0.0
    scale: 0.0020067403092980385
    zero_point: 0
  '@Add_layer28_causal_mask_109:out0':
    qtype: u8
    quantizer: asymmetric_affine
    rounding: rtne
    max_value: 8.428352355957031
    min_value: -10004.5693359375
    scale: 39.266658782958984
    zero_point: 255
  '@Reshape_layer28_v_reshape_110:out0':
    qtype: u8
    quantizer: asymmetric_affine
    rounding: rtne
    max_value: 7.786663055419922
    min_value: -8.087861061096191
    scale: 0.062253035604953766
    zero_point: 130
  '@Sqrt_layer28_mlp_rms_sqrt_111:out0':
    qtype: u8
    quantizer: asymmetric_affine
    rounding: rtne
    max_value: 1188.6944580078125
    min_value: 0.0
    scale: 4.66154670715332
    zero_point: 0
  '@MatMul_layer29_attn_scores_112:out0':
    qtype: u8
    quantizer: asymmetric_affine
    rounding: rtne
    max_value: 121.17086791992188
    min_value: -108.42467498779297
    scale: 0.900374710559845
    zero_point: 120
  '@Initializer_scale_attn_113:out0':
    qtype: u8
    quantizer: asymmetric_affine
    rounding: rtne
    max_value: 0.125
    min_value: 0.0
    scale: 0.0004901961074210703
    zero_point: 0
  '@Mul_layer29_attn_rms_gamma_117:out0':
    qtype: u8
    quantizer: asymmetric_affine
    rounding: rtne
    max_value: 8.079939842224121
    min_value: -6.235093116760254
    scale: 0.05613738298416138
    zero_point: 111
  '@Add_layer24_mlp_residual_118:out0':
    qtype: u8
    quantizer: asymmetric_affine
    rounding: rtne
    max_value: 28594.8984375
    min_value: -964.2432250976562
    scale: 115.91820526123047
    zero_point: 8
  '@Mul_layer25_swiglu_mul_120:out0':
    qtype: u8
    quantizer: asymmetric_affine
    rounding: rtne
    max_value: 6.951308250427246
    min_value: -14.389647483825684
    scale: 0.08369002491235733
    zero_point: 172
  '@Transpose_layer26_ctx_transpose_122:out0':
    qtype: u8
    quantizer: asymmetric_affine
    rounding: rtne
    max_value: 1.5439563989639282
    min_value: -2.3908543586730957
    scale: 0.015430630184710026
    zero_point: 155
  '@Mul_layer26_mlp_rms_gamma_125:out0':
    qtype: u8
    quantizer: asymmetric_affine
    rounding: rtne
    max_value: 2.4326038360595703
    min_value: -2.4848155975341797
    scale: 0.019283996894955635
    zero_point: 129
  '@Softmax_layer27_softmax_127:out0':
    qtype: u8
    quantizer: asymmetric_affine
    rounding: rtne
    max_value: 1.0
    min_value: 0.0
    scale: 0.003921568859368563
    zero_point: 0
  '@Reshape_layer27_v_repeat_expand_128:out0':
    qtype: u8
    quantizer: asymmetric_affine
    rounding: rtne
    max_value: 4.759906768798828
    min_value: -6.820591926574707
    scale: 0.04541372135281563
    zero_point: 150
  '@Transpose_layer27_v_heads_129:out0':
    qtype: u8
    quantizer: asymmetric_affine
    rounding: rtne
    max_value: 4.759906768798828
    min_value: -6.820591926574707
    scale: 0.04541372135281563
    zero_point: 150
  '@Reciprocal_layer27_mlp_rms_reciprocal_130:out0':
    qtype: u8
    quantizer: asymmetric_affine
    rounding: rtne
    max_value: 1.0
    min_value: 0.0
    scale: 0.003921568859368563
    zero_point: 0
  '@Divide_131:out0':
    qtype: u8
    quantizer: asymmetric_affine
    rounding: rtne
    max_value: 0.06035632640123367
    min_value: 0.0
    scale: 0.00023669147049076855
    zero_point: 0
  '@Mul_layer28_attn_scale_132:out0':
    qtype: u8
    quantizer: asymmetric_affine
    rounding: rtne
    max_value: 8.352951049804688
    min_value: -5.099156856536865
    scale: 0.05275336652994156
    zero_point: 97
  '@Add_layer28_mlp_rms_eps_135:out0':
    qtype: u8
    quantizer: asymmetric_affine
    rounding: rtne
    max_value: 1412989.125
    min_value: 0.0
    scale: 5541.1337890625
    zero_point: 0
  '@Add_layer29_q_rope_rope_add_136:out0':
    qtype: u8
    quantizer: asymmetric_affine
    rounding: rtne
    max_value: 13.608230590820312
    min_value: -13.0596923828125
    scale: 0.10458008944988251
    zero_point: 125
  '@Transpose_layer29_k_transpose_137:out0':
    qtype: u8
    quantizer: asymmetric_affine
    rounding: rtne
    max_value: 11.901986122131348
    min_value: -10.796585083007812
    scale: 0.08901400119066238
    zero_point: 121
  '@Mul_layer29_attn_rms_scale_to_unit_138:out0':
    qtype: u8
    quantizer: asymmetric_affine
    rounding: rtne
    max_value: 23.46577262878418
    min_value: -22.966650009155273
    scale: 0.18208792805671692
    zero_point: 126
  '@Initializer_layer29_attn_gamma_139:out0':
    qtype: u8
    quantizer: asymmetric_affine
    rounding: rtne
    max_value: 0.91015625
    min_value: 0.0
    scale: 0.003569240216165781
    zero_point: 0
  '@Add_layer24_attn_residual_140:out0':
    qtype: u8
    quantizer: asymmetric_affine
    rounding: rtne
    max_value: 28595.986328125
    min_value: -964.1495971679688
    scale: 115.92210388183594
    zero_point: 8
  '@Reshape_layer25_ctx_merge_heads_142:out0':
    qtype: u8
    quantizer: asymmetric_affine
    rounding: rtne
    max_value: 2.4127814769744873
    min_value: -2.4598233699798584
    scale: 0.019108254462480545
    zero_point: 129
  '@MatMul_layer26_attn_context_146:out0':
    qtype: u8
    quantizer: asymmetric_affine
    rounding: rtne
    max_value: 1.5439563989639282
    min_value: -2.3908543586730957
    scale: 0.015430630184710026
    zero_point: 155
  '@Reshape_layer26_v_repeat_merge_147:out0':
    qtype: u8
    quantizer: asymmetric_affine
    rounding: rtne
    max_value: 7.249380588531494
    min_value: -7.124989986419678
    scale: 0.0563700795173645
    zero_point: 126
  '@Tile_layer26_v_repeat_tile_149:out0':
    qtype: u8
    quantizer: asymmetric_affine
    rounding: rtne
    max_value: 7.249380588531494
    min_value: -7.124989986419678
    scale: 0.0563700795173645
    zero_point: 126
  '@Mul_layer26_mlp_rms_scale_to_unit_150:out0':
    qtype: u8
    quantizer: asymmetric_affine
    rounding: rtne
    max_value: 23.858903884887695
    min_value: -7.4927496910095215
    scale: 0.12294766306877136
    zero_point: 61
  '@Initializer_layer26_mlp_gamma_151:out0':
    qtype: u8
    quantizer: asymmetric_affine
    rounding: rtne
    max_value: 0.41796875
    min_value: 0.0
    scale: 0.0016390931559726596
    zero_point: 0
  '@Add_layer27_causal_mask_152:out0':
    qtype: u8
    quantizer: asymmetric_affine
    rounding: rtne
    max_value: 8.469857215881348
    min_value: -10007.0849609375
    scale: 39.27668380737305
    zero_point: 255
  '@Reshape_layer27_v_reshape_153:out0':
    qtype: u8
    quantizer: asymmetric_affine
    rounding: rtne
    max_value: 4.759906768798828
    min_value: -6.820591926574707
    scale: 0.04541372135281563
    zero_point: 150
  '@Sqrt_layer27_mlp_rms_sqrt_154:out0':
    qtype: u8
    quantizer: asymmetric_affine
    rounding: rtne
    max_value: 1198.074951171875
    min_value: 0.0
    scale: 4.698333263397217
    zero_point: 0
  '@MatMul_layer28_attn_scores_155:out0':
    qtype: u8
    quantizer: asymmetric_affine
    rounding: rtne
    max_value: 66.8236083984375
    min_value: -40.79325485229492
    scale: 0.42202693223953247
    zero_point: 97
  '@ReduceMean_layer28_mlp_rms_mean_159:out0':
    qtype: u8
    quantizer: asymmetric_affine
    rounding: rtne
    max_value: 1412989.125
    min_value: 0.0
    scale: 5541.1337890625
    zero_point: 0
  '@Mul_layer28_mlp_rms_square_160:out0':
    qtype: u8
    quantizer: asymmetric_affine
    rounding: rtne
    max_value: 802994048.0
    min_value: 0.0
    scale: 3148996.25
    zero_point: 0
  '@Mul_layer29_q_rope_mul_cos_161:out0':
    qtype: u8
    quantizer: asymmetric_affine
    rounding: rtne
    max_value: 12.762398719787598
    min_value: -12.762398719787598
    scale: 0.10009724646806717
    zero_point: 128
  '@Mul_layer29_q_rope_mul_sin_162:out0':
    qtype: u8
    quantizer: asymmetric_affine
    rounding: rtne
    max_value: 6.858739852905273
    min_value: -9.452341079711914
    scale: 0.06396502256393433
    zero_point: 148
  '@Reshape_layer29_k_repeat_merge_163:out0':
    qtype: u8
    quantizer: asymmetric_affine
    rounding: rtne
    max_value: 11.901986122131348
    min_value: -10.796585083007812
    scale: 0.08901400119066238
    zero_point: 121
  '@Tile_layer29_k_repeat_tile_164:out0':
    qtype: u8
    quantizer: asymmetric_affine
    rounding: rtne
    max_value: 11.901986122131348
    min_value: -10.796585083007812
    scale: 0.08901400119066238
    zero_point: 121
  '@Reciprocal_layer29_attn_rms_reciprocal_165:out0':
    qtype: u8
    quantizer: asymmetric_affine
    rounding: rtne
    max_value: 1.0
    min_value: 0.0
    scale: 0.003921568859368563
    zero_point: 0
  '@Divide_166:out0':
    qtype: u8
    quantizer: asymmetric_affine
    rounding: rtne
    max_value: 0.0517444983124733
    min_value: 0.0
    scale: 0.0002029196039075032
    zero_point: 0
  '@Add_layer23_mlp_residual_167:out0':
    qtype: u8
    quantizer: asymmetric_affine
    rounding: rtne
    max_value: 28633.48046875
    min_value: -962.24462890625
    scale: 116.0616683959961
    zero_point: 8
  '@Mul_layer24_swiglu_mul_169:out0':
    qtype: u8
    quantizer: asymmetric_affine
    rounding: rtne
    max_value: 11.394035339355469
    min_value: -11.756359100341797
    scale: 0.09078586101531982
    zero_point: 129
  '@Transpose_layer25_ctx_transpose_171:out0':
    qtype: u8
    quantizer: asymmetric_affine
    rounding: rtne
    max_value: 2.4127814769744873
    min_value: -2.4598233699798584
    scale: 0.019108254462480545
    zero_point: 129
  '@Mul_layer25_mlp_rms_gamma_174:out0':
    qtype: u8
    quantizer: asymmetric_affine
    rounding: rtne
    max_value: 1.8592920303344727
    min_value: -2.330894708633423
    scale: 0.016432104632258415
    zero_point: 142
  '@Softmax_layer26_softmax_176:out0':
    qtype: u8
    quantizer: asymmetric_affine
    rounding: rtne
    max_value: 1.0
    min_value: 0.0
    scale: 0.003921568859368563
    zero_point: 0
  '@Reshape_layer26_v_repeat_expand_177:out0':
    qtype: u8
    quantizer: asymmetric_affine
    rounding: rtne
    max_value: 7.249380588531494
    min_value: -7.124989986419678
    scale: 0.0563700795173645
    zero_point: 126
  '@Transpose_layer26_v_heads_178:out0':
    qtype: u8
    quantizer: asymmetric_affine
    rounding: rtne
    max_value: 7.249380588531494
    min_value: -7.124989986419678
    scale: 0.0563700795173645
    zero_point: 126
  '@Reciprocal_layer26_mlp_rms_reciprocal_179:out0':
    qtype: u8
    quantizer: asymmetric_affine
    rounding: rtne
    max_value: 1.0
    min_value: 0.0
    scale: 0.003921568859368563
    zero_point: 0
  '@Divide_180:out0':
    qtype: u8
    quantizer: asymmetric_affine
    rounding: rtne
    max_value: 0.06952178478240967
    min_value: 0.0
    scale: 0.00027263443917036057
    zero_point: 0
  '@Mul_layer27_attn_scale_181:out0':
    qtype: u8
    quantizer: asymmetric_affine
    rounding: rtne
    max_value: 8.46933364868164
    min_value: -7.075680255889893
    scale: 0.060960836708545685
    zero_point: 116
  '@MatMul_layer27_attn_scores_182:out0':
    qtype: u8
    quantizer: asymmetric_affine
    rounding: rtne
    max_value: 67.75466918945312
    min_value: -56.60544204711914
    scale: 0.4876866936683655
    zero_point: 116
  '@Add_layer27_mlp_rms_eps_184:out0':
    qtype: u8
    quantizer: asymmetric_affine
    rounding: rtne
    max_value: 1435377.125
    min_value: 0.0
    scale: 5628.9296875
    zero_point: 0
  '@Add_layer28_q_rope_rope_add_185:out0':
    qtype: u8
    quantizer: asymmetric_affine
    rounding: rtne
    max_value: 16.65352439880371
    min_value: -14.044025421142578
    scale: 0.12038254737854004
    zero_point: 117
  '@Transpose_layer28_k_transpose_186:out0':
    qtype: u8
    quantizer: asymmetric_affine
    rounding: rtne
    max_value: 12.69177532196045
    min_value: -14.392462730407715
    scale: 0.10621269792318344
    zero_point: 136
  '@Mul_layer28_attn_rms_gamma_187:out0':
    qtype: u8
    quantizer: asymmetric_affine
    rounding: rtne
    max_value: 6.656296730041504
    min_value: -2.5919907093048096
    scale: 0.03626779466867447
    zero_point: 71
  '@Initializer_layer28_attn_gamma_189:out0':
    qtype: u8
    quantizer: asymmetric_affine
    rounding: rtne
    max_value: 0.8828125
    min_value: 0.0
    scale: 0.0034620098304003477
    zero_point: 0
  '@Mul_layer28_attn_rms_scale_to_unit_190:out0':
    qtype: u8
    quantizer: asymmetric_affine
    rounding: rtne
    max_value: 23.840312957763672
    min_value: -6.115689754486084
    scale: 0.1174745187163353
    zero_point: 52
  '@Transpose_layer29_q_heads_191:out0':
    qtype: u8
    quantizer: asymmetric_affine
    rounding: rtne
    max_value: 12.762569427490234
    min_value: -12.762569427490234
    scale: 0.10009858012199402
    zero_point: 128
  '@Initializer_rope_cos_192:out0':
    qtype: u8
    quantizer: asymmetric_affine
    rounding: rtne
    max_value: 1.0
    min_value: -0.9999967217445374
    scale: 0.007843123748898506
    zero_point: 127
  '@Concat_layer29_q_rope_rotate_half_193:out0':
    qtype: u8
    quantizer: asymmetric_affine
    rounding: rtne
    max_value: 13.60986328125
    min_value: -13.065672874450684
    scale: 0.10460995137691498
    zero_point: 125
  '@Initializer_rope_sin_194:out0':
    qtype: u8
    quantizer: asymmetric_affine
    rounding: rtne
    max_value: 0.9999929070472717
    min_value: -0.9999902248382568
    scale: 0.007843070663511753
    zero_point: 127
  '@Reshape_layer29_k_repeat_expand_195:out0':
    qtype: u8
    quantizer: asymmetric_affine
    rounding: rtne
    max_value: 11.901986122131348
    min_value: -10.796585083007812
    scale: 0.08901400119066238
    zero_point: 121
  '@Sqrt_layer29_attn_rms_sqrt_196:out0':
    qtype: u8
    quantizer: asymmetric_affine
    rounding: rtne
    max_value: 543.6670532226562
    min_value: 0.0
    scale: 2.1320276260375977
    zero_point: 0
  '@Add_layer23_attn_residual_197:out0':
    qtype: u8
    quantizer: asymmetric_affine
    rounding: rtne
    max_value: 28630.8515625
    min_value: -962.1195678710938
    scale: 116.05086517333984
    zero_point: 8
  '@Reshape_layer24_ctx_merge_heads_199:out0':
    qtype: u8
    quantizer: asymmetric_affine
    rounding: rtne
    max_value: 4.49472713470459
    min_value: -3.7032501697540283
    scale: 0.03214893117547035
    zero_point: 115
  '@MatMul_layer25_attn_context_203:out0':
    qtype: u8
    quantizer: asymmetric_affine
    rounding: rtne
    max_value: 2.4127814769744873
    min_value: -2.4598233699798584
    scale: 0.019108254462480545
    zero_point: 129
  '@Reshape_layer25_v_repeat_merge_204:out0':
    qtype: u8
    quantizer: asymmetric_affine
    rounding: rtne
    max_value: 6.170304298400879
    min_value: -6.358689785003662
    scale: 0.0491333082318306
    zero_point: 129
  '@Tile_layer25_v_repeat_tile_206:out0':
    qtype: u8
    quantizer: asymmetric_affine
    rounding: rtne
    max_value: 6.170304298400879
    min_value: -6.358689785003662
    scale: 0.0491333082318306
    zero_point: 129
  '@Mul_layer25_mlp_rms_scale_to_unit_207:out0':
    qtype: u8
    quantizer: asymmetric_affine
    rounding: rtne
    max_value: 23.86141014099121
    min_value: -7.575317859649658
    scale: 0.12328128516674042
    zero_point: 61
  '@Initializer_layer25_mlp_gamma_208:out0':
    qtype: u8
    quantizer: asymmetric_affine
    rounding: rtne
    max_value: 0.40625
    min_value: -0.00023555755615234375
    scale: 0.0015940610319375992
    zero_point: 0
  '@Add_layer26_causal_mask_209:out0':
    qtype: u8
    quantizer: asymmetric_affine
    rounding: rtne
    max_value: 8.456408500671387
    min_value: -10005.2548828125
    scale: 39.26945495605469
    zero_point: 255
  '@Reshape_layer26_v_reshape_210:out0':
    qtype: u8
    quantizer: asymmetric_affine
    rounding: rtne
    max_value: 7.249380588531494
    min_value: -7.124989986419678
    scale: 0.0563700795173645
    zero_point: 126
  '@Sqrt_layer26_mlp_rms_sqrt_211:out0':
    qtype: u8
    quantizer: asymmetric_affine
    rounding: rtne
    max_value: 1198.8387451171875
    min_value: 0.0
    scale: 4.701328277587891
    zero_point: 0
  '@Add_layer27_q_rope_rope_add_212:out0':
    qtype: u8
    quantizer: asymmetric_affine
    rounding: rtne
    max_value: 14.66059398651123
    min_value: -14.66059398651123
    scale: 0.11498504877090454
    zero_point: 128
  '@Transpose_layer27_k_transpose_213:out0':
    qtype: u8
    quantizer: asymmetric_affine
    rounding: rtne
    max_value: 13.516228675842285
    min_value: -16.595458984375
    scale: 0.11808504909276962
    zero_point: 141
  '@ReduceMean_layer27_mlp_rms_mean_216:out0':
    qtype: u8
    quantizer: asymmetric_affine
    rounding: rtne
    max_value: 1435377.125
    min_value: 0.0
    scale: 5628.9296875
    zero_point: 0
  '@Mul_layer27_mlp_rms_square_217:out0':
    qtype: u8
    quantizer: asymmetric_affine
    rounding: rtne
    max_value: 816276736.0
    min_value: 0.0
    scale: 3201085.25
    zero_point: 0
  '@Mul_layer28_q_rope_mul_cos_218:out0':
    qtype: u8
    quantizer: asymmetric_affine
    rounding: rtne
    max_value: 16.656652450561523
    min_value: -14.053276062011719
    scale: 0.1204310953617096
    zero_point: 117
  '@Mul_layer28_q_rope_mul_sin_219:out0':
    qtype: u8
    quantizer: asymmetric_affine
    rounding: rtne
    max_value: 4.729732513427734
    min_value: -4.649296283721924
    scale: 0.036780502647161484
    zero_point: 126
  '@Reshape_layer28_k_repeat_merge_220:out0':
    qtype: u8
    quantizer: asymmetric_affine
    rounding: rtne
    max_value: 12.69177532196045
    min_value: -14.392462730407715
    scale: 0.10621269792318344
    zero_point: 136
  '@Tile_layer28_k_repeat_tile_221:out0':
    qtype: u8
    quantizer: asymmetric_affine
    rounding: rtne
    max_value: 12.69177532196045
    min_value: -14.392462730407715
    scale: 0.10621269792318344
    zero_point: 136
  '@Reciprocal_layer28_attn_rms_reciprocal_222:out0':
    qtype: u8
    quantizer: asymmetric_affine
    rounding: rtne
    max_value: 1.0
    min_value: 0.0
    scale: 0.003921568859368563
    zero_point: 0
  '@Divide_223:out0':
    qtype: u8
    quantizer: asymmetric_affine
    rounding: rtne
    max_value: 0.05758029967546463
    min_value: 0.0
    scale: 0.00022580509539693594
    zero_point: 0
  '@Reshape_layer29_q_reshape_224:out0':
    qtype: u8
    quantizer: asymmetric_affine
    rounding: rtne
    max_value: 12.762569427490234
    min_value: -12.762569427490234
    scale: 0.10009858012199402
    zero_point: 128
  '@Neg_layer29_q_rope_neg_second_225:out0':
    qtype: u8
    quantizer: asymmetric_affine
    rounding: rtne
    max_value: 13.60986328125
    min_value: -13.065672874450684
    scale: 0.10460995137691498
    zero_point: 125
  '@Slice_layer29_q_rope_slice_first_226:out0':
    qtype: u8
    quantizer: asymmetric_affine
    rounding: rtne
    max_value: 12.762569427490234
    min_value: -12.762569427490234
    scale: 0.10009858012199402
    zero_point: 128
  '@Add_layer29_k_rope_rope_add_227:out0':
    qtype: u8
    quantizer: asymmetric_affine
    rounding: rtne
    max_value: 11.901986122131348
    min_value: -10.796585083007812
    scale: 0.08901400119066238
    zero_point: 121
  '@Add_layer29_attn_rms_eps_228:out0':
    qtype: u8
    quantizer: asymmetric_affine
    rounding: rtne
    max_value: 295573.78125
    min_value: 0.0
    scale: 1159.1129150390625
    zero_point: 0
  '@Add_layer22_mlp_residual_229:out0':
    qtype: u8
    quantizer: asymmetric_affine
    rounding: rtne
    max_value: 28633.677734375
    min_value: -962.7896728515625
    scale: 116.0645751953125
    zero_point: 8
  '@Mul_layer23_swiglu_mul_231:out0':
    qtype: u8
    quantizer: asymmetric_affine
    rounding: rtne
    max_value: 13.338258743286133
    min_value: -15.645611763000488
    scale: 0.1136622428894043
    zero_point: 138
  '@Transpose_layer24_ctx_transpose_233:out0':
    qtype: u8
    quantizer: asymmetric_affine
    rounding: rtne
    max_value: 4.49472713470459
    min_value: -3.7032501697540283
    scale: 0.03214893117547035
    zero_point: 115
  '@Mul_layer24_mlp_rms_gamma_236:out0':
    qtype: u8
    quantizer: asymmetric_affine
    rounding: rtne
    max_value: 1.8466192483901978
    min_value: -2.7682406902313232
    scale: 0.018097490072250366
    zero_point: 153
  '@Softmax_layer25_softmax_238:out0':
    qtype: u8
    quantizer: asymmetric_affine
    rounding: rtne
    max_value: 1.0
    min_value: 0.0
    scale: 0.003921568859368563
    zero_point: 0
  '@Reshape_layer25_v_repeat_expand_239:out0':
    qtype: u8
    quantizer: asymmetric_affine
    rounding: rtne
    max_value: 6.170304298400879
    min_value: -6.358689785003662
    scale: 0.0491333082318306
    zero_point: 129
  '@Transpose_layer25_v_heads_240:out0':
    qtype: u8
    quantizer: asymmetric_affine
    rounding: rtne
    max_value: 6.170304298400879
    min_value: -6.358689785003662
    scale: 0.0491333082318306
    zero_point: 129
  '@Reciprocal_layer25_mlp_rms_reciprocal_241:out0':
    qtype: u8
    quantizer: asymmetric_affine
    rounding: rtne
    max_value: 1.0
    min_value: 0.0
    scale: 0.003921568859368563
    zero_point: 0
  '@Divide_242:out0':
    qtype: u8
    quantizer: asymmetric_affine
    rounding: rtne
    max_value: 0.07692977041006088
    min_value: 0.0
    scale: 0.0003016853879671544
    zero_point: 0
  '@Mul_layer26_attn_scale_243:out0':
    qtype: u8
    quantizer: asymmetric_affine
    rounding: rtne
    max_value: 8.443817138671875
    min_value: -6.022324085235596
    scale: 0.056729964911937714
    zero_point: 106
  '@MatMul_layer26_attn_scores_244:out0':
    qtype: u8
    quantizer: asymmetric_affine
    rounding: rtne
    max_value: 67.550537109375
    min_value: -48.178592681884766
    scale: 0.4538397192955017
    zero_point: 106
  '@Add_layer26_mlp_rms_eps_246:out0':
    qtype: u8
    quantizer: asymmetric_affine
    rounding: rtne
    max_value: 1437201.25
    min_value: 0.0
    scale: 5636.08349609375
    zero_point: 0
  '@Mul_layer27_q_rope_mul_cos_247:out0':
    qtype: u8
    quantizer: asymmetric_affine
    rounding: rtne
    max_value: 15.113255500793457
    min_value: -15.708174705505371
    scale: 0.12086835503578186
    zero_point: 130
  '@Mul_layer27_q_rope_mul_sin_248:out0':
    qtype: u8
    quantizer: asymmetric_affine
    rounding: rtne
    max_value: 5.324094295501709
    min_value: -5.752528667449951
    scale: 0.043437737971544266
    zero_point: 132
  '@Reshape_layer27_k_repeat_merge_249:out0':
    qtype: u8
    quantizer: asymmetric_affine
    rounding: rtne
    max_value: 13.516228675842285
    min_value: -16.595458984375
    scale: 0.11808504909276962
    zero_point: 141
  '@Mul_layer27_attn_rms_gamma_250:out0':
    qtype: u8
    quantizer: asymmetric_affine
    rounding: rtne
    max_value: 7.413599491119385
    min_value: -3.4241232872009277
    scale: 0.042500872164964676
    zero_point: 81
  '@Initializer_layer27_attn_gamma_252:out0':
    qtype: u8
    quantizer: asymmetric_affine
    rounding: rtne
    max_value: 1.0078125
    min_value: 0.0
    scale: 0.003952206112444401
    zero_point: 0
  '@Mul_layer27_attn_rms_scale_to_unit_253:out0':
    qtype: u8
    quantizer: asymmetric_affine
    rounding: rtne
    max_value: 23.85842514038086
    min_value: -6.857362747192383
    scale: 0.12045407295227051
    zero_point: 57
  '@Transpose_layer28_q_heads_254:out0':
    qtype: u8
    quantizer: asymmetric_affine
    rounding: rtne
    max_value: 16.657068252563477
    min_value: -14.053491592407227
    scale: 0.12043356895446777
    zero_point: 117
  '@Concat_layer28_q_rope_rotate_half_256:out0':
    qtype: u8
    quantizer: asymmetric_affine
    rounding: rtne
    max_value: 16.657068252563477
    min_value: -14.053491592407227
    scale: 0.12043356895446777
    zero_point: 117
  '@Reshape_layer28_k_repeat_expand_258:out0':
    qtype: u8
    quantizer: asymmetric_affine
    rounding: rtne
    max_value: 12.69177532196045
    min_value: -14.392462730407715
    scale: 0.10621269792318344
    zero_point: 136
  '@Sqrt_layer28_attn_rms_sqrt_259:out0':
    qtype: u8
    quantizer: asymmetric_affine
    rounding: rtne
    max_value: 1190.9466552734375
    min_value: 0.0
    scale: 4.670379161834717
    zero_point: 0
  '@Slice_layer29_q_rope_slice_second_261:out0':
    qtype: u8
    quantizer: asymmetric_affine
    rounding: rtne
    max_value: 12.762569427490234
    min_value: -12.762569427490234
    scale: 0.10009858012199402
    zero_point: 128
  '@Mul_layer29_k_rope_mul_cos_263:out0':
    qtype: u8
    quantizer: asymmetric_affine
    rounding: rtne
    max_value: 11.89666748046875
    min_value: -10.796566009521484
    scale: 0.08899307250976562
    zero_point: 121
  '@Mul_layer29_k_rope_mul_sin_264:out0':
    qtype: u8
    quantizer: asymmetric_affine
    rounding: rtne
    max_value: 2.880298376083374
    min_value: -3.0216245651245117
    scale: 0.02314479649066925
    zero_point: 131
  '@ReduceMean_layer29_attn_rms_mean_265:out0':
    qtype: u8
    quantizer: asymmetric_affine
    rounding: rtne
    max_value: 295573.78125
    min_value: 0.0
    scale: 1159.1129150390625
    zero_point: 0
  '@Mul_layer29_attn_rms_square_266:out0':
    qtype: u8
    quantizer: asymmetric_affine
    rounding: rtne
    max_value: 162753984.0
    min_value: 0.0
    scale: 638250.9375
    zero_point: 0
  '@Add_layer22_attn_residual_267:out0':
    qtype: u8
    quantizer: asymmetric_affine
    rounding: rtne
    max_value: 28632.06640625
    min_value: -962.6424560546875
    scale: 116.05768585205078
    zero_point: 8
  '@Reshape_layer23_ctx_merge_heads_269:out0':
    qtype: u8
    quantizer: asymmetric_affine
    rounding: rtne
    max_value: 2.5921194553375244
    min_value: -2.5313174724578857
    scale: 0.020091909915208817
    zero_point: 126
  '@MatMul_layer24_attn_context_273:out0':
    qtype: u8
    quantizer: asymmetric_affine
    rounding: rtne
    max_value: 4.49472713470459
    min_value: -3.7032501697540283
    scale: 0.03214893117547035
    zero_point: 115
  '@Reshape_layer24_v_repeat_merge_274:out0':
    qtype: u8
    quantizer: asymmetric_affine
    rounding: rtne
    max_value: 14.709156036376953
    min_value: -11.002320289611816
    scale: 0.10082931816577911
    zero_point: 109
  '@Tile_layer24_v_repeat_tile_276:out0':
    qtype: u8
    quantizer: asymmetric_affine
    rounding: rtne
    max_value: 14.709156036376953
    min_value: -11.002320289611816
    scale: 0.10082931816577911
    zero_point: 109
  '@Mul_layer24_mlp_rms_scale_to_unit_277:out0':
    qtype: u8
    quantizer: asymmetric_affine
    rounding: rtne
    max_value: 23.86728858947754
    min_value: -8.350630760192871
    scale: 0.12634478509426117
    zero_point: 66
  '@Initializer_layer24_mlp_gamma_278:out0':
    qtype: u8
    quantizer: asymmetric_affine
    rounding: rtne
    max_value: 0.435546875
    min_value: -1.4722347259521484e-05
    scale: 0.0017080847173929214
    zero_point: 0
  '@Add_layer25_causal_mask_279:out0':
    qtype: u8
    quantizer: asymmetric_affine
    rounding: rtne
    max_value: 7.549126148223877
    min_value: -10007.6181640625
    scale: 39.27516555786133
    zero_point: 255
  '@Reshape_layer25_v_reshape_280:out0':
    qtype: u8
    quantizer: asymmetric_affine
    rounding: rtne
    max_value: 6.170304298400879
    min_value: -6.358689785003662
    scale: 0.0491333082318306
    zero_point: 129
  '@Sqrt_layer25_mlp_rms_sqrt_281:out0':
    qtype: u8
    quantizer: asymmetric_affine
    rounding: rtne
    max_value: 1199.0655517578125
    min_value: 0.0
    scale: 4.702218055725098
    zero_point: 0
  '@Add_layer26_q_rope_rope_add_282:out0':
    qtype: u8
    quantizer: asymmetric_affine
    rounding: rtne
    max_value: 14.28115177154541
    min_value: -13.896794319152832
    scale: 0.11050175130367279
    zero_point: 126
  '@Transpose_layer26_k_transpose_283:out0':
    qtype: u8
    quantizer: asymmetric_affine
    rounding: rtne
    max_value: 13.210657119750977
    min_value: -16.394826889038086
    scale: 0.11609993875026703
    zero_point: 141
  '@ReduceMean_layer26_mlp_rms_mean_286:out0':
    qtype: u8
    quantizer: asymmetric_affine
    rounding: rtne
    max_value: 1437201.25
    min_value: 0.0
    scale: 5636.08349609375
    zero_point: 0
  '@Mul_layer26_mlp_rms_square_287:out0':
    qtype: u8
    quantizer: asymmetric_affine
    rounding: rtne
    max_value: 817430144.0
    min_value: 0.0
    scale: 3205608.5
    zero_point: 0
  '@Transpose_layer27_q_heads_288:out0':
    qtype: u8
    quantizer: asymmetric_affine
    rounding: rtne
    max_value: 15.113484382629395
    min_value: -15.708399772644043
    scale: 0.12087013572454453
    zero_point: 130
  '@Reshape_layer27_q_reshape_289:out0':
    qtype: u8
    quantizer: asymmetric_affine
    rounding: rtne
    max_value: 15.113484382629395
    min_value: -15.708399772644043
    scale: 0.12087013572454453
    zero_point: 130
  '@Concat_layer27_q_rope_rotate_half_290:out0':
    qtype: u8
    quantizer: asymmetric_affine
    rounding: rtne
    max_value: 15.607479095458984
    min_value: -16.751264572143555
    scale: 0.12689702212810516
    zero_point: 132
  '@Slice_layer27_q_rope_slice_first_291:out0':
    qtype: u8
    quantizer: asymmetric_affine
    rounding: rtne
    max_value: 15.113484382629395
    min_value: -15.708399772644043
    scale: 0.12087013572454453
    zero_point: 130
  '@Tile_layer27_k_repeat_tile_292:out0':
    qtype: u8
    quantizer: asymmetric_affine
    rounding: rtne
    max_value: 13.516228675842285
    min_value: -16.595458984375
    scale: 0.11808504909276962
    zero_point: 141
  '@Reshape_layer27_k_repeat_expand_293:out0':
    qtype: u8
    quantizer: asymmetric_affine
    rounding: rtne
    max_value: 13.516228675842285
    min_value: -16.595458984375
    scale: 0.11808504909276962
    zero_point: 141
  '@Reciprocal_layer27_attn_rms_reciprocal_294:out0':
    qtype: u8
    quantizer: asymmetric_affine
    rounding: rtne
    max_value: 1.0
    min_value: 0.0
    scale: 0.003921568859368563
    zero_point: 0
  '@Divide_295:out0':
    qtype: u8
    quantizer: asymmetric_affine
    rounding: rtne
    max_value: 0.0665469542145729
    min_value: 0.0
    scale: 0.00026096845977008343
    zero_point: 0
  '@Reshape_layer28_q_reshape_296:out0':
    qtype: u8
    quantizer: asymmetric_affine
    rounding: rtne
    max_value: 16.657068252563477
    min_value: -14.053491592407227
    scale: 0.12043356895446777
    zero_point: 117
  '@Neg_layer28_q_rope_neg_second_297:out0':
    qtype: u8
    quantizer: asymmetric_affine
    rounding: rtne
    max_value: 16.657068252563477
    min_value: -14.053491592407227
    scale: 0.12043356895446777
    zero_point: 117
  '@Slice_layer28_q_rope_slice_first_298:out0':
    qtype: u8
    quantizer: asymmetric_affine
    rounding: rtne
    max_value: 16.657068252563477
    min_value: -14.053491592407227
    scale: 0.12043356895446777
    zero_point: 117
  '@Add_layer28_k_rope_rope_add_299:out0':
    qtype: u8
    quantizer: asymmetric_affine
    rounding: rtne
    max_value: 12.69177532196045
    min_value: -14.392462730407715
    scale: 0.10621269792318344
    zero_point: 136
  '@Add_layer28_attn_rms_eps_300:out0':
    qtype: u8
    quantizer: asymmetric_affine
    rounding: rtne
    max_value: 1418361.375
    min_value: 0.0
    scale: 5562.20166015625
    zero_point: 0
  '@Transpose_layer29_k_heads_302:out0':
    qtype: u8
    quantizer: asymmetric_affine
    rounding: rtne
    max_value: 11.896841049194336
    min_value: -10.796858787536621
    scale: 0.08899489790201187
    zero_point: 121
  '@Reshape_layer29_k_reshape_303:out0':
    qtype: u8
    quantizer: asymmetric_affine
    rounding: rtne
    max_value: 11.896841049194336
    min_value: -10.796858787536621
    scale: 0.08899489790201187
    zero_point: 121
  '@Concat_layer29_k_rope_rotate_half_304:out0':
    qtype: u8
    quantizer: asymmetric_affine
    rounding: rtne
    max_value: 9.984613418579102
    min_value: -11.896859169006348
    scale: 0.08580970019102097
    zero_point: 139
  '@Slice_layer29_k_rope_slice_first_305:out0':
    qtype: u8
    quantizer: asymmetric_affine
    rounding: rtne
    max_value: 11.896841049194336
    min_value: -10.796858787536621
    scale: 0.08899489790201187
    zero_point: 121
  '@Neg_layer29_k_rope_neg_second_306:out0':
    qtype: u8
    quantizer: asymmetric_affine
    rounding: rtne
    max_value: 9.984613418579102
    min_value: -11.896859169006348
    scale: 0.08580970019102097
    zero_point: 139
  '@Slice_layer29_k_rope_slice_second_307:out0':
    qtype: u8
    quantizer: asymmetric_affine
    rounding: rtne
    max_value: 11.896841049194336
    min_value: -10.796858787536621
    scale: 0.08899489790201187
    zero_point: 121
  '@Add_layer21_mlp_residual_308:out0':
    qtype: u8
    quantizer: asymmetric_affine
    rounding: rtne
    max_value: 28638.39453125
    min_value: -961.7294311523438
    scale: 116.07891082763672
    zero_point: 8
  '@Mul_layer22_swiglu_mul_310:out0':
    qtype: u8
    quantizer: asymmetric_affine
    rounding: rtne
    max_value: 19.711210250854492
    min_value: -21.33510971069336
    scale: 0.1609659492969513
    zero_point: 133
  '@Transpose_layer23_ctx_transpose_312:out0':
    qtype: u8
    quantizer: asymmetric_affine
    rounding: rtne
    max_value: 2.5921194553375244
    min_value: -2.5313174724578857
    scale: 0.020091909915208817
    zero_point: 126
  '@Mul_layer23_mlp_rms_gamma_315:out0':
    qtype: u8
    quantizer: asymmetric_affine
    rounding: rtne
    max_value: 1.786552906036377
    min_value: -2.1180524826049805
    scale: 0.015312178060412407
    zero_point: 138
  '@Softmax_layer24_softmax_317:out0':
    qtype: u8
    quantizer: asymmetric_affine
    rounding: rtne
    max_value: 1.0
    min_value: 0.0
    scale: 0.003921568859368563
    zero_point: 0
  '@Reshape_layer24_v_repeat_expand_318:out0':
    qtype: u8
    quantizer: asymmetric_affine
    rounding: rtne
    max_value: 14.709156036376953
    min_value: -11.002320289611816
    scale: 0.10082931816577911
    zero_point: 109
  '@Transpose_layer24_v_heads_319:out0':
    qtype: u8
    quantizer: asymmetric_affine
    rounding: rtne
    max_value: 14.709156036376953
    min_value: -11.002320289611816
    scale: 0.10082931816577911
    zero_point: 109
  '@Reciprocal_layer24_mlp_rms_reciprocal_320:out0':
    qtype: u8
    quantizer: asymmetric_affine
    rounding: rtne
    max_value: 1.0
    min_value: 0.0
    scale: 0.003921568859368563
    zero_point: 0
  '@Divide_321:out0':
    qtype: u8
    quantizer: asymmetric_affine
    rounding: rtne
    max_value: 0.08612764626741409
    min_value: 0.0
    scale: 0.0003377554821781814
    zero_point: 0
  '@Mul_layer25_attn_scale_322:out0':
    qtype: u8
    quantizer: asymmetric_affine
    rounding: rtne
    max_value: 7.53884220123291
    min_value: -7.563322067260742
    scale: 0.05922417342662811
    zero_point: 128
  '@MatMul_layer25_attn_scores_323:out0':
    qtype: u8
    quantizer: asymmetric_affine
    rounding: rtne
    max_value: 60.31073760986328
    min_value: -60.50657653808594
    scale: 0.4737933874130249
    zero_point: 128
  '@Add_layer25_mlp_rms_eps_325:out0':
    qtype: u8
    quantizer: asymmetric_affine
    rounding: rtne
    max_value: 1437742.375
    min_value: 0.0
    scale: 5638.20556640625
    zero_point: 0
  '@Mul_layer26_q_rope_mul_cos_326:out0':
    qtype: u8
    quantizer: asymmetric_affine
    rounding: rtne
    max_value: 14.286967277526855
    min_value: -13.900246620178223
    scale: 0.11053809523582458
    zero_point: 126
  '@Mul_layer26_q_rope_mul_sin_327:out0':
    qtype: u8
    quantizer: asymmetric_affine
    rounding: rtne
    max_value: 4.697129726409912
    min_value: -5.574867248535156
    scale: 0.040282342582941055
    zero_point: 138
  '@Reshape_layer26_k_repeat_merge_328:out0':
    qtype: u8
    quantizer: asymmetric_affine
    rounding: rtne
    max_value: 13.210657119750977
    min_value: -16.394826889038086
    scale: 0.11609993875026703
    zero_point: 141
  '@Mul_layer26_attn_rms_gamma_329:out0':
    qtype: u8
    quantizer: asymmetric_affine
    rounding: rtne
    max_value: 6.686616897583008
    min_value: -3.274040460586548
    scale: 0.039061401039361954
    zero_point: 84
  '@Initializer_layer26_attn_gamma_331:out0':
    qtype: u8
    quantizer: asymmetric_affine
    rounding: rtne
    max_value: 0.8671875
    min_value: 0.0
    scale: 0.0034007353242486715
    zero_point: 0
  '@Mul_layer26_attn_rms_scale_to_unit_332:out0':
    qtype: u8
    quantizer: asymmetric_affine
    rounding: rtne
    max_value: 23.861045837402344
    min_value: -7.554746150970459
    scale: 0.12319918721914291
    zero_point: 61
  '@Neg_layer27_q_rope_neg_second_334:out0':
    qtype: u8
    quantizer: asymmetric_affine
    rounding: rtne
    max_value: 15.607479095458984
    min_value: -16.751264572143555
    scale: 0.12689702212810516
    zero_point: 132
  '@Slice_layer27_q_rope_slice_second_335:out0':
    qtype: u8
    quantizer: asymmetric_affine
    rounding: rtne
    max_value: 15.113484382629395
    min_value: -15.708399772644043
    scale: 0.12087013572454453
    zero_point: 130
  '@Add_layer27_k_rope_rope_add_336:out0':
    qtype: u8
    quantizer: asymmetric_affine
    rounding: rtne
    max_value: 13.516228675842285
    min_value: -16.595458984375
    scale: 0.11808504909276962
    zero_point: 141
  '@Sqrt_layer27_attn_rms_sqrt_337:out0':
    qtype: u8
    quantizer: asymmetric_affine
    rounding: rtne
    max_value: 1198.7694091796875
    min_value: 0.0
    scale: 4.701056480407715
    zero_point: 0
  '@Slice_layer28_q_rope_slice_second_339:out0':
    qtype: u8
    quantizer: asymmetric_affine
    rounding: rtne
    max_value: 16.657068252563477
    min_value: -14.053491592407227
    scale: 0.12043356895446777
    zero_point: 117
  '@Mul_layer28_k_rope_mul_cos_341:out0':
    qtype: u8
    quantizer: asymmetric_affine
    rounding: rtne
    max_value: 12.68305492401123
    min_value: -14.391876220703125
    scale: 0.10617620497941971
    zero_point: 136
  '@Mul_layer28_k_rope_mul_sin_342:out0':
    qtype: u8
    quantizer: asymmetric_affine
    rounding: rtne
    max_value: 2.769977331161499
    min_value: -3.0186448097229004
    scale: 0.0227004773914814
    zero_point: 133
  '@ReduceMean_layer28_attn_rms_mean_343:out0':
    qtype: u8
    quantizer: asymmetric_affine
    rounding: rtne
    max_value: 1418361.375
    min_value: 0.0
    scale: 5562.20166015625
    zero_point: 0
  '@Mul_layer28_attn_rms_square_344:out0':
    qtype: u8
    quantizer: asymmetric_affine
    rounding: rtne
    max_value: 806130304.0
    min_value: 0.0
    scale: 3161295.25
    zero_point: 0
  '@Concat_layer28_k_rope_rotate_half_345:out0':
    qtype: u8
    quantizer: asymmetric_affine
    rounding: rtne
    max_value: 14.392239570617676
    min_value: -12.68313217163086
    scale: 0.1061779260635376
    zero_point: 119
  '@Add_layer21_attn_residual_349:out0':
    qtype: u8
    quantizer: asymmetric_affine
    rounding: rtne
    max_value: 28636.794921875
    min_value: -961.729248046875
    scale: 116.07263946533203
    zero_point: 8
  '@Reshape_layer22_ctx_merge_heads_351:out0':
    qtype: u8
    quantizer: asymmetric_affine
    rounding: rtne
    max_value: 1.7440847158432007
    min_value: -1.7440847158432007
    scale: 0.013679095543920994
    zero_point: 128
  '@MatMul_layer23_attn_context_355:out0':
    qtype: u8
    quantizer: asymmetric_affine
    rounding: rtne
    max_value: 2.5921194553375244
    min_value: -2.5313174724578857
    scale: 0.020091909915208817
    zero_point: 126
  '@Reshape_layer23_v_repeat_merge_356:out0':
    qtype: u8
    quantizer: asymmetric_affine
    rounding: rtne
    max_value: 7.271475315093994
    min_value: -7.487659454345703
    scale: 0.05787895619869232
    zero_point: 129
  '@Tile_layer23_v_repeat_tile_358:out0':
    qtype: u8
    quantizer: asymmetric_affine
    rounding: rtne
    max_value: 7.271475315093994
    min_value: -7.487659454345703
    scale: 0.05787895619869232
    zero_point: 129
  '@Mul_layer23_mlp_rms_scale_to_unit_359:out0':
    qtype: u8
    quantizer: asymmetric_affine
    rounding: rtne
    max_value: 23.903789520263672
    min_value: -12.208731651306152
    scale: 0.14161773025989532
    zero_point: 86
  '@Initializer_layer23_mlp_gamma_360:out0':
    qtype: u8
    quantizer: asymmetric_affine
    rounding: rtne
    max_value: 0.400390625
    min_value: -0.000507354736328125
    scale: 0.001572148990817368
    zero_point: 0
  '@Add_layer24_causal_mask_361:out0':
    qtype: u8
    quantizer: asymmetric_affine
    rounding: rtne
    max_value: 6.655790328979492
    min_value: -10006.8857421875
    scale: 39.26879119873047
    zero_point: 255
  '@Reshape_layer24_v_reshape_362:out0':
    qtype: u8
    quantizer: asymmetric_affine
    rounding: rtne
    max_value: 14.709156036376953
    min_value: -11.002320289611816
    scale: 0.10082931816577911
    zero_point: 109
  '@Sqrt_layer24_mlp_rms_sqrt_363:out0':
    qtype: u8
    quantizer: asymmetric_affine
    rounding: rtne
    max_value: 1198.9837646484375
    min_value: 0.0
    scale: 4.701897144317627
    zero_point: 0
  '@Add_layer25_q_rope_rope_add_364:out0':
    qtype: u8
    quantizer: asymmetric_affine
    rounding: rtne
    max_value: 10.071249008178711
    min_value: -16.753562927246094
    scale: 0.10519534349441528
    zero_point: 159
  '@Transpose_layer25_k_transpose_365:out0':
    qtype: u8
    quantizer: asymmetric_affine
    rounding: rtne
    max_value: 14.13549518585205
    min_value: -16.625593185424805
    scale: 0.12063172459602356
    zero_point: 138
  '@ReduceMean_layer25_mlp_rms_mean_368:out0':
    qtype: u8
    quantizer: asymmetric_affine
    rounding: rtne
    max_value: 1437742.375
    min_value: 0.0
    scale: 5638.20556640625
    zero_point: 0
  '@Mul_layer25_mlp_rms_square_369:out0':
    qtype: u8
    quantizer: asymmetric_affine
    rounding: rtne
    max_value: 817773952.0
    min_value: 0.0
    scale: 3206956.75
    zero_point: 0
  '@Transpose_layer26_q_heads_370:out0':
    qtype: u8
    quantizer: asymmetric_affine
    rounding: rtne
    max_value: 14.287092208862305
    min_value: -13.90045166015625
    scale: 0.11053938418626785
    zero_point: 126
  '@Reshape_layer26_q_reshape_371:out0':
    qtype: u8
    quantizer: asymmetric_affine
    rounding: rtne
    max_value: 14.287092208862305
    min_value: -13.90045166015625
    scale: 0.11053938418626785
    zero_point: 126
  '@Concat_layer26_q_rope_rotate_half_372:out0':
    qtype: u8
    quantizer: asymmetric_affine
    rounding: rtne
    max_value: 14.287092208862305
    min_value: -13.90045166015625
    scale: 0.11053938418626785
    zero_point: 126
  '@Slice_layer26_q_rope_slice_first_373:out0':
    qtype: u8
    quantizer: asymmetric_affine
    rounding: rtne
    max_value: 14.287092208862305
    min_value: -13.90045166015625
    scale: 0.11053938418626785
    zero_point: 126
  '@Tile_layer26_k_repeat_tile_374:out0':
    qtype: u8
    quantizer: asymmetric_affine
    rounding: rtne
    max_value: 13.210657119750977
    min_value: -16.394826889038086
    scale: 0.11609993875026703
    zero_point: 141
  '@Reshape_layer26_k_repeat_expand_375:out0':
    qtype: u8
    quantizer: asymmetric_affine
    rounding: rtne
    max_value: 13.210657119750977
    min_value: -16.394826889038086
    scale: 0.11609993875026703
    zero_point: 141
  '@Reciprocal_layer26_attn_rms_reciprocal_376:out0':
    qtype: u8
    quantizer: asymmetric_affine
    rounding: rtne
    max_value: 1.0
    min_value: 0.0
    scale: 0.003921568859368563
    zero_point: 0
  '@Divide_377:out0':
    qtype: u8
    quantizer: asymmetric_affine
    rounding: rtne
    max_value: 0.06983278691768646
    min_value: 0.0
    scale: 0.00027385406428948045
    zero_point: 0
  '@Mul_layer27_k_rope_mul_cos_381:out0':
    qtype: u8
    quantizer: asymmetric_affine
    rounding: rtne
    max_value: 13.511758804321289
    min_value: -16.58979034423828
    scale: 0.11804529279470444
    zero_point: 141
  '@Mul_layer27_k_rope_mul_sin_382:out0':
    qtype: u8
    quantizer: asymmetric_affine
    rounding: rtne
    max_value: 4.19598388671875
    min_value: -4.7299580574035645
    scale: 0.03500369191169739
    zero_point: 135
  '@Add_layer27_attn_rms_eps_383:out0':
    qtype: u8
    quantizer: asymmetric_affine
    rounding: rtne
    max_value: 1437052.625
    min_value: 0.0
    scale: 5635.50048828125
    zero_point: 0
  '@Transpose_layer28_k_heads_385:out0':
    qtype: u8
    quantizer: asymmetric_affine
    rounding: rtne
    max_value: 12.68319034576416
    min_value: -14.392145156860352
    scale: 0.10617779195308685
    zero_point: 136
  '@Reshape_layer28_k_reshape_386:out0':
    qtype: u8
    quantizer: asymmetric_affine
    rounding: rtne
    max_value: 12.68319034576416
    min_value: -14.392145156860352
    scale: 0.10617779195308685
    zero_point: 136
  '@Neg_layer28_k_rope_neg_second_387:out0':
    qtype: u8
    quantizer: asymmetric_affine
    rounding: rtne
    max_value: 14.392239570617676
    min_value: -12.68313217163086
    scale: 0.1061779260635376
    zero_point: 119
  '@Slice_layer28_k_rope_slice_first_388:out0':
    qtype: u8
    quantizer: asymmetric_affine
    rounding: rtne
    max_value: 12.68319034576416
    min_value: -14.392145156860352
    scale: 0.10617779195308685
    zero_point: 136
  '@Add_layer20_mlp_residual_390:out0':
    qtype: u8
    quantizer: asymmetric_affine
    rounding: rtne
    max_value: 28629.669921875
    min_value: -964.7825317382812
    scale: 116.05667877197266
    zero_point: 8
  '@Mul_layer21_swiglu_mul_392:out0':
    qtype: u8
    quantizer: asymmetric_affine
    rounding: rtne
    max_value: 8.208523750305176
    min_value: -8.863763809204102
    scale: 0.06695014983415604
    zero_point: 132
  '@Transpose_layer22_ctx_transpose_394:out0':
    qtype: u8
    quantizer: asymmetric_affine
    rounding: rtne
    max_value: 1.7440847158432007
    min_value: -1.7440847158432007
    scale: 0.013679095543920994
    zero_point: 128
  '@Mul_layer22_mlp_rms_gamma_397:out0':
    qtype: u8
    quantizer: asymmetric_affine
    rounding: rtne
    max_value: 1.8489174842834473
    min_value: -2.5183591842651367
    scale: 0.017126575112342834
    zero_point: 147
  '@Softmax_layer23_softmax_399:out0':
    qtype: u8
    quantizer: asymmetric_affine
    rounding: rtne
    max_value: 1.0
    min_value: 0.0
    scale: 0.003921568859368563
    zero_point: 0
  '@Reshape_layer23_v_repeat_expand_400:out0':
    qtype: u8
    quantizer: asymmetric_affine
    rounding: rtne
    max_value: 7.271475315093994
    min_value: -7.487659454345703
    scale: 0.05787895619869232
    zero_point: 129
  '@Transpose_layer23_v_heads_401:out0':
    qtype: u8
    quantizer: asymmetric_affine
    rounding: rtne
    max_value: 7.271475315093994
    min_value: -7.487659454345703
    scale: 0.05787895619869232
    zero_point: 129
  '@Reciprocal_layer23_mlp_rms_reciprocal_402:out0':
    qtype: u8
    quantizer: asymmetric_affine
    rounding: rtne
    max_value: 1.0
    min_value: 0.0
    scale: 0.003921568859368563
    zero_point: 0
  '@Divide_403:out0':
    qtype: u8
    quantizer: asymmetric_affine
    rounding: rtne
    max_value: 0.1100655347108841
    min_value: 0.0
    scale: 0.0004316295380704105
    zero_point: 0
  '@Mul_layer24_attn_scale_404:out0':
    qtype: u8
    quantizer: asymmetric_affine
    rounding: rtne
    max_value: 7.225916385650635
    min_value: -8.496679306030273
    scale: 0.06165723502635956
    zero_point: 138
  '@MatMul_layer24_attn_scores_405:out0':
    qtype: u8
    quantizer: asymmetric_affine
    rounding: rtne
    max_value: 57.80733108520508
    min_value: -67.97343444824219
    scale: 0.49325788021087646
    zero_point: 138
  '@Add_layer24_mlp_rms_eps_407:out0':
    qtype: u8
    quantizer: asymmetric_affine
    rounding: rtne
    max_value: 1437553.125
    min_value: 0.0
    scale: 5637.46337890625
    zero_point: 0
  '@Mul_layer25_q_rope_mul_cos_408:out0':
    qtype: u8
    quantizer: asymmetric_affine
    rounding: rtne
    max_value: 10.070026397705078
    min_value: -16.755544662475586
    scale: 0.10519831627607346
    zero_point: 159
  '@Mul_layer25_q_rope_mul_sin_409:out0':
    qtype: u8
    quantizer: asymmetric_affine
    rounding: rtne
    max_value: 5.713647842407227
    min_value: -5.98287296295166
    scale: 0.045868709683418274
    zero_point: 130
  '@Reshape_layer25_k_repeat_merge_410:out0':
    qtype: u8
    quantizer: asymmetric_affine
    rounding: rtne
    max_value: 14.13549518585205
    min_value: -16.625593185424805
    scale: 0.12063172459602356
    zero_point: 138
  '@Mul_layer25_attn_rms_gamma_411:out0':
    qtype: u8
    quantizer: asymmetric_affine
    rounding: rtne
    max_value: 6.942722797393799
    min_value: -3.432898759841919
    scale: 0.040688712149858475
    zero_point: 84
  '@Initializer_layer25_attn_gamma_413:out0':
    qtype: u8
    quantizer: asymmetric_affine
    rounding: rtne
    max_value: 0.7890625
    min_value: 0.0
    scale: 0.0030943627934902906
    zero_point: 0
  '@Mul_layer25_attn_rms_scale_to_unit_414:out0':
    qtype: u8
    quantizer: asymmetric_affine
    rounding: rtne
    max_value: 23.86707305908203
    min_value: -7.927765846252441
    scale: 0.12468563765287399
    zero_point: 64
  '@Neg_layer26_q_rope_neg_second_416:out0':
    qtype: u8
    quantizer: asymmetric_affine
    rounding: rtne
    max_value: 14.287092208862305
    min_value: -13.90045166015625
    scale: 0.11053938418626785
    zero_point: 126
  '@Slice_layer26_q_rope_slice_second_417:out0':
    qtype: u8
    quantizer: asymmetric_affine
    rounding: rtne
    max_value: 14.287092208862305
    min_value: -13.90045166015625
    scale: 0.11053938418626785
    zero_point: 126
  '@Add_layer26_k_rope_rope_add_418:out0':
    qtype: u8
    quantizer: asymmetric_affine
    rounding: rtne
    max_value: 13.210657119750977
    min_value: -16.394826889038086
    scale: 0.11609993875026703
    zero_point: 141
  '@Sqrt_layer26_attn_rms_sqrt_419:out0':
    qtype: u8
    quantizer: asymmetric_affine
    rounding: rtne
    max_value: 1199.0562744140625
    min_value: 0.0
    scale: 4.702181339263916
    zero_point: 0
  '@Add_layer26_attn_rms_eps_420:out0':
    qtype: u8
    quantizer: asymmetric_affine
    rounding: rtne
    max_value: 1437728.875
    min_value: 0.0
    scale: 5638.15234375
    zero_point: 0
  '@Transpose_layer27_k_heads_421:out0':
    qtype: u8
    quantizer: asymmetric_affine
    rounding: rtne
    max_value: 13.51191234588623
    min_value: -16.5902099609375
    scale: 0.11804754287004471
    zero_point: 141
  '@Reshape_layer27_k_reshape_422:out0':
    qtype: u8
    quantizer: asymmetric_affine
    rounding: rtne
    max_value: 13.51191234588623
    min_value: -16.5902099609375
    scale: 0.11804754287004471
    zero_point: 141
  '@Concat_layer27_k_rope_rotate_half_423:out0':
    qtype: u8
    quantizer: asymmetric_affine
    rounding: rtne
    max_value: 14.626360893249512
    min_value: -16.590240478515625
    scale: 0.12241804599761963
    zero_point: 136
  '@Slice_layer27_k_rope_slice_first_424:out0':
    qtype: u8
    quantizer: asymmetric_affine
    rounding: rtne
    max_value: 13.51191234588623
    min_value: -16.5902099609375
    scale: 0.11804754287004471
    zero_point: 141
  '@ReduceMean_layer27_attn_rms_mean_425:out0':
    qtype: u8
    quantizer: asymmetric_affine
    rounding: rtne
    max_value: 1437052.625
    min_value: 0.0
    scale: 5635.50048828125
    zero_point: 0
  '@Mul_layer27_attn_rms_square_426:out0':
    qtype: u8
    quantizer: asymmetric_affine
    rounding: rtne
    max_value: 817332096.0
    min_value: 0.0
    scale: 3205224.0
    zero_point: 0
  '@Neg_layer27_k_rope_neg_second_427:out0':
    qtype: u8
    quantizer: asymmetric_affine
    rounding: rtne
    max_value: 14.626360893249512
    min_value: -16.590240478515625
    scale: 0.12241804599761963
    zero_point: 136
  '@Slice_layer28_k_rope_slice_second_430:out0':
    qtype: u8
    quantizer: asymmetric_affine
    rounding: rtne
    max_value: 12.68313217163086
    min_value: -14.392239570617676
    scale: 0.1061779260635376
    zero_point: 136
  '@Add_layer20_attn_residual_434:out0':
    qtype: u8
    quantizer: asymmetric_affine
    rounding: rtne
    max_value: 28629.15234375
    min_value: -964.6261596679688
    scale: 116.05403900146484
    zero_point: 8
  '@Reshape_layer21_ctx_merge_heads_436:out0':
    qtype: u8
    quantizer: asymmetric_affine
    rounding: rtne
    max_value: 1.8454374074935913
    min_value: -3.1622095108032227
    scale: 0.019637832418084145
    zero_point: 161
  '@MatMul_layer22_attn_context_440:out0':
    qtype: u8
    quantizer: asymmetric_affine
    rounding: rtne
    max_value: 1.7440847158432007
    min_value: -1.7440847158432007
    scale: 0.013679095543920994
    zero_point: 128
  '@Reshape_layer22_v_repeat_merge_441:out0':
    qtype: u8
    quantizer: asymmetric_affine
    rounding: rtne
    max_value: 4.704605579376221
    min_value: -5.254741668701172
    scale: 0.039056260138750076
    zero_point: 135
  '@Tile_layer22_v_repeat_tile_443:out0':
    qtype: u8
    quantizer: asymmetric_affine
    rounding: rtne
    max_value: 4.704605579376221
    min_value: -5.254741668701172
    scale: 0.039056260138750076
    zero_point: 135
  '@Mul_layer22_mlp_rms_scale_to_unit_444:out0':
    qtype: u8
    quantizer: asymmetric_affine
    rounding: rtne
    max_value: 23.904733657836914
    min_value: -13.301673889160156
    scale: 0.1459074765443802
    zero_point: 91
  '@Initializer_layer22_mlp_gamma_445:out0':
    qtype: u8
    quantizer: asymmetric_affine
    rounding: rtne
    max_value: 0.357421875
    min_value: 0.0
    scale: 0.0014016544446349144
    zero_point: 0
  '@Add_layer23_causal_mask_446:out0':
    qtype: u8
    quantizer: asymmetric_affine
    rounding: rtne
    max_value: 6.185720920562744
    min_value: -10006.4951171875
    scale: 39.26541519165039
    zero_point: 255
  '@Reshape_layer23_v_reshape_447:out0':
    qtype: u8
    quantizer: asymmetric_affine
    rounding: rtne
    max_value: 7.271475315093994
    min_value: -7.487659454345703
    scale: 0.05787895619869232
    zero_point: 129
  '@Sqrt_layer23_mlp_rms_sqrt_448:out0':
    qtype: u8
    quantizer: asymmetric_affine
    rounding: rtne
    max_value: 1200.1251220703125
    min_value: 0.0
    scale: 4.70637321472168
    zero_point: 0
  '@Add_layer24_q_rope_rope_add_449:out0':
    qtype: u8
    quantizer: asymmetric_affine
    rounding: rtne
    max_value: 12.185952186584473
    min_value: -10.95443058013916
    scale: 0.09074659645557404
    zero_point: 121
  '@Transpose_layer24_k_transpose_450:out0':
    qtype: u8
    quantizer: asymmetric_affine
    rounding: rtne
    max_value: 14.547199249267578
    min_value: -11.527212142944336
    scale: 0.10225259512662888
    zero_point: 113
  '@ReduceMean_layer24_mlp_rms_mean_453:out0':
    qtype: u8
    quantizer: asymmetric_affine
    rounding: rtne
    max_value: 1437553.125
    min_value: 0.0
    scale: 5637.46337890625
    zero_point: 0
  '@Mul_layer24_mlp_rms_square_454:out0':
    qtype: u8
    quantizer: asymmetric_affine
    rounding: rtne
    max_value: 817730880.0
    min_value: 0.0
    scale: 3206787.75
    zero_point: 0
  '@Transpose_layer25_q_heads_455:out0':
    qtype: u8
    quantizer: asymmetric_affine
    rounding: rtne
    max_value: 10.069957733154297
    min_value: -16.755836486816406
    scale: 0.10519919544458389
    zero_point: 159
  '@Reshape_layer25_q_reshape_456:out0':
    qtype: u8
    quantizer: asymmetric_affine
    rounding: rtne
    max_value: 10.069957733154297
    min_value: -16.755836486816406
    scale: 0.10519919544458389
    zero_point: 159
  '@Concat_layer25_q_rope_rotate_half_457:out0':
    qtype: u8
    quantizer: asymmetric_affine
    rounding: rtne
    max_value: 14.115714073181152
    min_value: -16.755788803100586
    scale: 0.12106471508741379
    zero_point: 138
  '@Slice_layer25_q_rope_slice_first_458:out0':
    qtype: u8
    quantizer: asymmetric_affine
    rounding: rtne
    max_value: 10.069957733154297
    min_value: -16.755836486816406
    scale: 0.10519919544458389
    zero_point: 159
  '@Tile_layer25_k_repeat_tile_459:out0':
    qtype: u8
    quantizer: asymmetric_affine
    rounding: rtne
    max_value: 14.13549518585205
    min_value: -16.625593185424805
    scale: 0.12063172459602356
    zero_point: 138
  '@Reshape_layer25_k_repeat_expand_460:out0':
    qtype: u8
    quantizer: asymmetric_affine
    rounding: rtne
    max_value: 14.13549518585205
    min_value: -16.625593185424805
    scale: 0.12063172459602356
    zero_point: 138
  '@Reciprocal_layer25_attn_rms_reciprocal_461:out0':
    qtype: u8
    quantizer: asymmetric_affine
    rounding: rtne
    max_value: 1.0
    min_value: 0.0
    scale: 0.003921568859368563
    zero_point: 0
  '@Divide_462:out0':
    qtype: u8
    quantizer: asymmetric_affine
    rounding: rtne
    max_value: 0.08184689283370972
    min_value: 0.0
    scale: 0.00032096821814775467
    zero_point: 0
  '@Mul_layer26_k_rope_mul_cos_466:out0':
    qtype: u8
    quantizer: asymmetric_affine
    rounding: rtne
    max_value: 13.207008361816406
    min_value: -16.38565444946289
    scale: 0.11604965478181839
    zero_point: 141
  '@Mul_layer26_k_rope_mul_sin_467:out0':
    qtype: u8
    quantizer: asymmetric_affine
    rounding: rtne
    max_value: 2.630927085876465
    min_value: -3.2565555572509766
    scale: 0.02308816649019718
    zero_point: 141
  '@ReduceMean_layer26_attn_rms_mean_468:out0':
    qtype: u8
    quantizer: asymmetric_affine
    rounding: rtne
    max_value: 1437728.875
    min_value: 0.0
    scale: 5638.15234375
    zero_point: 0
  '@Mul_layer26_attn_rms_square_469:out0':
    qtype: u8
    quantizer: asymmetric_affine
    rounding: rtne
    max_value: 817759936.0
    min_value: 0.0
    scale: 3206901.75
    zero_point: 0
  '@Slice_layer27_k_rope_slice_second_471:out0':
    qtype: u8
    quantizer: asymmetric_affine
    rounding: rtne
    max_value: 13.51191234588623
    min_value: -16.5902099609375
    scale: 0.11804754287004471
    zero_point: 141
  '@Add_layer19_mlp_residual_474:out0':
    qtype: u8
    quantizer: asymmetric_affine
    rounding: rtne
    max_value: 28631.572265625
    min_value: -964.621826171875
    scale: 116.06350708007812
    zero_point: 8
  '@Mul_layer20_swiglu_mul_476:out0':
    qtype: u8
    quantizer: asymmetric_affine
    rounding: rtne
    max_value: 7.289577960968018
    min_value: -7.830699920654297
    scale: 0.059295207262039185
    zero_point: 132
  '@Transpose_layer21_ctx_transpose_478:out0':
    qtype: u8
    quantizer: asymmetric_affine
    rounding: rtne
    max_value: 1.8454374074935913
    min_value: -3.1622095108032227
    scale: 0.019637832418084145
    zero_point: 161
  '@Mul_layer21_mlp_rms_gamma_481:out0':
    qtype: u8
    quantizer: asymmetric_affine
    rounding: rtne
    max_value: 1.7416592836380005
    min_value: -2.3345978260040283
    scale: 0.01598532311618328
    zero_point: 146
  '@Softmax_layer22_softmax_483:out0':
    qtype: u8
    quantizer: asymmetric_affine
    rounding: rtne
    max_value: 1.0
    min_value: 0.0
    scale: 0.003921568859368563
    zero_point: 0
  '@Reshape_layer22_v_repeat_expand_484:out0':
    qtype: u8
    quantizer: asymmetric_affine
    rounding: rtne
    max_value: 4.704605579376221
    min_value: -5.254741668701172
    scale: 0.039056260138750076
    zero_point: 135
  '@Transpose_layer22_v_heads_485:out0':
    qtype: u8
    quantizer: asymmetric_affine
    rounding: rtne
    max_value: 4.704605579376221
    min_value: -5.254741668701172
    scale: 0.039056260138750076
    zero_point: 135
  '@Reciprocal_layer22_mlp_rms_reciprocal_486:out0':
    qtype: u8
    quantizer: asymmetric_affine
    rounding: rtne
    max_value: 1.0
    min_value: 0.0
    scale: 0.003921568859368563
    zero_point: 0
  '@Divide_487:out0':
    qtype: u8
    quantizer: asymmetric_affine
    rounding: rtne
    max_value: 0.11876280605792999
    min_value: 0.0
    scale: 0.00046573649160563946
    zero_point: 0
  '@Mul_layer23_attn_scale_488:out0':
    qtype: u8
    quantizer: asymmetric_affine
    rounding: rtne
    max_value: 6.856263160705566
    min_value: -9.079992294311523
    scale: 0.062495119869709015
    zero_point: 145
  '@MatMul_layer23_attn_scores_489:out0':
    qtype: u8
    quantizer: asymmetric_affine
    rounding: rtne
    max_value: 54.85010528564453
    min_value: -72.63993835449219
    scale: 0.4999609589576721
    zero_point: 145
  '@Add_layer23_mlp_rms_eps_491:out0':
    qtype: u8
    quantizer: asymmetric_affine
    rounding: rtne
    max_value: 1440305.875
    min_value: 0.0
    scale: 5648.25830078125
    zero_point: 0
  '@Mul_layer24_q_rope_mul_cos_492:out0':
    qtype: u8
    quantizer: asymmetric_affine
    rounding: rtne
    max_value: 12.183740615844727
    min_value: -10.954811096191406
    scale: 0.0907394215464592
    zero_point: 121
  '@Mul_layer24_q_rope_mul_sin_493:out0':
    qtype: u8
    quantizer: asymmetric_affine
    rounding: rtne
    max_value: 4.84365177154541
    min_value: -6.30372953414917
    scale: 0.0437152199447155
    zero_point: 144
  '@Reshape_layer24_k_repeat_merge_494:out0':
    qtype: u8
    quantizer: asymmetric_affine
    rounding: rtne
    max_value: 14.547199249267578
    min_value: -11.527212142944336
    scale: 0.10225259512662888
    zero_point: 113
  '@Mul_layer24_attn_rms_gamma_495:out0':
    qtype: u8
    quantizer: asymmetric_affine
    rounding: rtne
    max_value: 4.085113525390625
    min_value: -6.84219217300415
    scale: 0.04285217821598053
    zero_point: 160
  '@Initializer_layer24_attn_gamma_497:out0':
    qtype: u8
    quantizer: asymmetric_affine
    rounding: rtne
    max_value: 0.85546875
    min_value: 0.0
    scale: 0.0033547794446349144
    zero_point: 0
  '@Mul_layer24_attn_rms_scale_to_unit_498:out0':
    qtype: u8
    quantizer: asymmetric_affine
    rounding: rtne
    max_value: 23.903522491455078
    min_value: -11.15672492980957
    scale: 0.1374911665916443
    zero_point: 81
  '@Neg_layer25_q_rope_neg_second_500:out0':
    qtype: u8
    quantizer: asymmetric_affine
    rounding: rtne
    max_value: 14.115714073181152
    min_value: -16.755788803100586
    scale: 0.12106471508741379
    zero_point: 138
  '@Slice_layer25_q_rope_slice_second_501:out0':
    qtype: u8
    quantizer: asymmetric_affine
    rounding: rtne
    max_value: 10.069957733154297
    min_value: -16.755836486816406
    scale: 0.10519919544458389
    zero_point: 159
  '@Add_layer25_k_rope_rope_add_502:out0':
    qtype: u8
    quantizer: asymmetric_affine
    rounding: rtne
    max_value: 14.13549518585205
    min_value: -16.625593185424805
    scale: 0.12063172459602356
    zero_point: 138
  '@Sqrt_layer25_attn_rms_sqrt_503:out0':
    qtype: u8
    quantizer: asymmetric_affine
    rounding: rtne
    max_value: 1198.93798828125
    min_value: 0.0
    scale: 4.701717376708984
    zero_point: 0
  '@Add_layer25_attn_rms_eps_504:out0':
    qtype: u8
    quantizer: asymmetric_affine
    rounding: rtne
    max_value: 1437452.125
    min_value: 0.0
    scale: 5637.0673828125
    zero_point: 0
  '@Transpose_layer26_k_heads_505:out0':
    qtype: u8
    quantizer: asymmetric_affine
    rounding: rtne
    max_value: 13.207086563110352
    min_value: -16.38588523864746
    scale: 0.11605086922645569
    zero_point: 141
  '@Reshape_layer26_k_reshape_506:out0':
    qtype: u8
    quantizer: asymmetric_affine
    rounding: rtne
    max_value: 13.207086563110352
    min_value: -16.38588523864746
    scale: 0.11605086922645569
    zero_point: 141
  '@Concat_layer26_k_rope_rotate_half_507:out0':
    qtype: u8
    quantizer: asymmetric_affine
    rounding: rtne
    max_value: 13.475730895996094
    min_value: -16.385866165161133
    scale: 0.11710429936647415
    zero_point: 140
  '@Slice_layer26_k_rope_slice_first_508:out0':
    qtype: u8
    quantizer: asymmetric_affine
    rounding: rtne
    max_value: 13.207086563110352
    min_value: -16.38588523864746
    scale: 0.11605086922645569
    zero_point: 141
  '@Neg_layer26_k_rope_neg_second_509:out0':
    qtype: u8
    quantizer: asymmetric_affine
    rounding: rtne
    max_value: 13.475730895996094
    min_value: -16.385866165161133
    scale: 0.11710429936647415
    zero_point: 140
  '@Slice_layer26_k_rope_slice_second_510:out0':
    qtype: u8
    quantizer: asymmetric_affine
    rounding: rtne
    max_value: 13.207086563110352
    min_value: -16.38588523864746
    scale: 0.11605086922645569
    zero_point: 141
  '@Add_layer19_attn_residual_512:out0':
    qtype: u8
    quantizer: asymmetric_affine
    rounding: rtne
    max_value: 28630.73828125
    min_value: -964.5435180664062
    scale: 116.05992889404297
    zero_point: 8
  '@Reshape_layer20_ctx_merge_heads_514:out0':
    qtype: u8
    quantizer: asymmetric_affine
    rounding: rtne
    max_value: 3.3492701053619385
    min_value: -3.5102639198303223
    scale: 0.02690013498067856
    zero_point: 130
  '@MatMul_layer21_attn_context_518:out0':
    qtype: u8
    quantizer: asymmetric_affine
    rounding: rtne
    max_value: 1.8454374074935913
    min_value: -3.1622095108032227
    scale: 0.019637832418084145
    zero_point: 161
  '@Reshape_layer21_v_repeat_merge_519:out0':
    qtype: u8
    quantizer: asymmetric_affine
    rounding: rtne
    max_value: 4.669113636016846
    min_value: -5.484480857849121
    scale: 0.039818018674850464
    zero_point: 138
  '@Tile_layer21_v_repeat_tile_521:out0':
    qtype: u8
    quantizer: asymmetric_affine
    rounding: rtne
    max_value: 4.669113636016846
    min_value: -5.484480857849121
    scale: 0.039818018674850464
    zero_point: 138
  '@Mul_layer21_mlp_rms_scale_to_unit_522:out0':
    qtype: u8
    quantizer: asymmetric_affine
    rounding: rtne
    max_value: 23.905189514160156
    min_value: -14.015290260314941
    scale: 0.14870776236057281
    zero_point: 94
  '@Initializer_layer21_mlp_gamma_523:out0':
    qtype: u8
    quantizer: asymmetric_affine
    rounding: rtne
    max_value: 0.3828125
    min_value: -1.049041748046875e-05
    scale: 0.001501266611739993
    zero_point: 0
  '@Add_layer22_causal_mask_524:out0':
    qtype: u8
    quantizer: asymmetric_affine
    rounding: rtne
    max_value: 7.745565891265869
    min_value: -10010.3203125
    scale: 39.286529541015625
    zero_point: 255
  '@Reshape_layer22_v_reshape_525:out0':
    qtype: u8
    quantizer: asymmetric_affine
    rounding: rtne
    max_value: 4.704605579376221
    min_value: -5.254741668701172
    scale: 0.039056260138750076
    zero_point: 135
  '@Sqrt_layer22_mlp_rms_sqrt_526:out0':
    qtype: u8
    quantizer: asymmetric_affine
    rounding: rtne
    max_value: 1200.161376953125
    min_value: 0.0
    scale: 4.706515312194824
    zero_point: 0
  '@Add_layer23_q_rope_rope_add_527:out0':
    qtype: u8
    quantizer: asymmetric_affine
    rounding: rtne
    max_value: 12.231585502624512
    min_value: -11.046503067016602
    scale: 0.09128661453723907
    zero_point: 121
  '@Transpose_layer23_k_transpose_528:out0':
    qtype: u8
    quantizer: asymmetric_affine
    rounding: rtne
    max_value: 14.798665046691895
    min_value: -12.910418510437012
    scale: 0.10866307467222214
    zero_point: 119
  '@ReduceMean_layer23_mlp_rms_mean_531:out0':
    qtype: u8
    quantizer: asymmetric_affine
    rounding: rtne
    max_value: 1440305.875
    min_value: 0.0
    scale: 5648.25830078125
    zero_point: 0
  '@Mul_layer23_mlp_rms_square_532:out0':
    qtype: u8
    quantizer: asymmetric_affine
    rounding: rtne
    max_value: 819729536.0
    min_value: 0.0
    scale: 3214625.75
    zero_point: 0
  '@Transpose_layer24_q_heads_533:out0':
    qtype: u8
    quantizer: asymmetric_affine
    rounding: rtne
    max_value: 12.183744430541992
    min_value: -10.954813957214355
    scale: 0.09073944389820099
    zero_point: 121
  '@Reshape_layer24_q_reshape_534:out0':
    qtype: u8
    quantizer: asymmetric_affine
    rounding: rtne
    max_value: 12.183744430541992
    min_value: -10.954813957214355
    scale: 0.09073944389820099
    zero_point: 121
  '@Concat_layer24_q_rope_rotate_half_535:out0':
    qtype: u8
    quantizer: asymmetric_affine
    rounding: rtne
    max_value: 12.183744430541992
    min_value: -11.706685066223145
    scale: 0.09368795901536942
    zero_point: 125
  '@Slice_layer24_q_rope_slice_first_536:out0':
    qtype: u8
    quantizer: asymmetric_affine
    rounding: rtne
    max_value: 12.183744430541992
    min_value: -10.954813957214355
    scale: 0.09073944389820099
    zero_point: 121
  '@Tile_layer24_k_repeat_tile_537:out0':
    qtype: u8
    quantizer: asymmetric_affine
    rounding: rtne
    max_value: 14.547199249267578
    min_value: -11.527212142944336
    scale: 0.10225259512662888
    zero_point: 113
  '@Reshape_layer24_k_repeat_expand_538:out0':
    qtype: u8
    quantizer: asymmetric_affine
    rounding: rtne
    max_value: 14.547199249267578
    min_value: -11.527212142944336
    scale: 0.10225259512662888
    zero_point: 113
  '@Reciprocal_layer24_attn_rms_reciprocal_539:out0':
    qtype: u8
    quantizer: asymmetric_affine
    rounding: rtne
    max_value: 1.0
    min_value: 0.0
    scale: 0.003921568859368563
    zero_point: 0
  '@Divide_540:out0':
    qtype: u8
    quantizer: asymmetric_affine
    rounding: rtne
    max_value: 0.1017913892865181
    min_value: 0.0
    scale: 0.00039918191032484174
    zero_point: 0
  '@Mul_layer25_k_rope_mul_cos_544:out0':
    qtype: u8
    quantizer: asymmetric_affine
    rounding: rtne
    max_value: 14.126399040222168
    min_value: -16.616796493530273
    scale: 0.12056154757738113
    zero_point: 138
  '@Mul_layer25_k_rope_mul_sin_545:out0':
    qtype: u8
    quantizer: asymmetric_affine
    rounding: rtne
    max_value: 4.173864841461182
    min_value: -3.056612730026245
    scale: 0.028354812413454056
    zero_point: 108
  '@ReduceMean_layer25_attn_rms_mean_546:out0':
    qtype: u8
    quantizer: asymmetric_affine
    rounding: rtne
    max_value: 1437452.125
    min_value: 0.0
    scale: 5637.0673828125
    zero_point: 0
  '@Mul_layer25_attn_rms_square_547:out0':
    qtype: u8
    quantizer: asymmetric_affine
    rounding: rtne
    max_value: 817666240.0
    min_value: 0.0
    scale: 3206534.25
    zero_point: 0
  '@Add_layer18_mlp_residual_552:out0':
    qtype: u8
    quantizer: asymmetric_affine
    rounding: rtne
    max_value: 28639.072265625
    min_value: -965.2145385742188
    scale: 116.09524536132812
    zero_point: 8
  '@Mul_layer19_swiglu_mul_554:out0':
    qtype: u8
    quantizer: asymmetric_affine
    rounding: rtne
    max_value: 7.055637359619141
    min_value: -7.055637359619141
    scale: 0.05533833056688309
    zero_point: 128
  '@Transpose_layer20_ctx_transpose_556:out0':
    qtype: u8
    quantizer: asymmetric_affine
    rounding: rtne
    max_value: 3.3492701053619385
    min_value: -3.5102639198303223
    scale: 0.02690013498067856
    zero_point: 130
  '@Mul_layer20_mlp_rms_gamma_559:out0':
    qtype: u8
    quantizer: asymmetric_affine
    rounding: rtne
    max_value: 1.985295295715332
    min_value: -2.5668742656707764
    scale: 0.01785164698958397
    zero_point: 144
  '@Softmax_layer21_softmax_561:out0':
    qtype: u8
    quantizer: asymmetric_affine
    rounding: rtne
    max_value: 1.0
    min_value: 0.0
    scale: 0.003921568859368563
    zero_point: 0
  '@Reshape_layer21_v_repeat_expand_562:out0':
    qtype: u8
    quantizer: asymmetric_affine
    rounding: rtne
    max_value: 4.669113636016846
    min_value: -5.484480857849121
    scale: 0.039818018674850464
    zero_point: 138
  '@Transpose_layer21_v_heads_563:out0':
    qtype: u8
    quantizer: asymmetric_affine
    rounding: rtne
    max_value: 4.669113636016846
    min_value: -5.484480857849121
    scale: 0.039818018674850464
    zero_point: 138
  '@Reciprocal_layer21_mlp_rms_reciprocal_564:out0':
    qtype: u8
    quantizer: asymmetric_affine
    rounding: rtne
    max_value: 1.0
    min_value: 0.0
    scale: 0.003921568859368563
    zero_point: 0
  '@Divide_565:out0':
    qtype: u8
    quantizer: asymmetric_affine
    rounding: rtne
    max_value: 0.1281757950782776
    min_value: 0.0
    scale: 0.0005026501603424549
    zero_point: 0
  '@Mul_layer22_attn_scale_566:out0':
    qtype: u8
    quantizer: asymmetric_affine
    rounding: rtne
    max_value: 7.715614318847656
    min_value: -11.190401077270508
    scale: 0.0741412341594696
    zero_point: 151
  '@MatMul_layer22_attn_scores_567:out0':
    qtype: u8
    quantizer: asymmetric_affine
    rounding: rtne
    max_value: 61.72491455078125
    min_value: -89.52320861816406
    scale: 0.5931298732757568
    zero_point: 151
  '@Add_layer22_mlp_rms_eps_569:out0':
    qtype: u8
    quantizer: asymmetric_affine
    rounding: rtne
    max_value: 1440384.25
    min_value: 0.0
    scale: 5648.56591796875
    zero_point: 0
  '@Mul_layer23_q_rope_mul_cos_570:out0':
    qtype: u8
    quantizer: asymmetric_affine
    rounding: rtne
    max_value: 12.229645729064941
    min_value: -11.04831600189209
    scale: 0.09128612279891968
    zero_point: 121
  '@Mul_layer23_q_rope_mul_sin_571:out0':
    qtype: u8
    quantizer: asymmetric_affine
    rounding: rtne
    max_value: 4.8620076179504395
    min_value: -4.870772838592529
    scale: 0.038167767226696014
    zero_point: 128
  '@Reshape_layer23_k_repeat_merge_572:out0':
    qtype: u8
    quantizer: asymmetric_affine
    rounding: rtne
    max_value: 14.798665046691895
    min_value: -12.910418510437012
    scale: 0.10866307467222214
    zero_point: 119
  '@Mul_layer23_attn_rms_gamma_573:out0':
    qtype: u8
    quantizer: asymmetric_affine
    rounding: rtne
    max_value: 2.451167345046997
    min_value: -6.669125080108643
    scale: 0.03576585277915001
    zero_point: 186
  '@Initializer_layer23_attn_gamma_575:out0':
    qtype: u8
    quantizer: asymmetric_affine
    rounding: rtne
    max_value: 0.71484375
    min_value: 0.0
    scale: 0.002803308889269829
    zero_point: 0
  '@Mul_layer23_attn_rms_scale_to_unit_576:out0':
    qtype: u8
    quantizer: asymmetric_affine
    rounding: rtne
    max_value: 23.90455436706543
    min_value: -12.553816795349121
    scale: 0.14297400414943695
    zero_point: 88
  '@Neg_layer24_q_rope_neg_second_578:out0':
    qtype: u8
    quantizer: asymmetric_affine
    rounding: rtne
    max_value: 12.183744430541992
    min_value: -11.706685066223145
    scale: 0.09368795901536942
    zero_point: 125
  '@Slice_layer24_q_rope_slice_second_579:out0':
    qtype: u8
    quantizer: asymmetric_affine
    rounding: rtne
    max_value: 12.183744430541992
    min_value: -10.954813957214355
    scale: 0.09073944389820099
    zero_point: 121
  '@Add_layer24_k_rope_rope_add_580:out0':
    qtype: u8
    quantizer: asymmetric_affine
    rounding: rtne
    max_value: 14.547199249267578
    min_value: -11.527212142944336
    scale: 0.10225259512662888
    zero_point: 113
  '@Sqrt_layer24_attn_rms_sqrt_581:out0':
    qtype: u8
    quantizer: asymmetric_affine
    rounding: rtne
    max_value: 1200.2418212890625
    min_value: 0.0
    scale: 4.7068305015563965
    zero_point: 0
  '@Add_layer24_attn_rms_eps_582:out0':
    qtype: u8
    quantizer: asymmetric_affine
    rounding: rtne
    max_value: 1440570.5
    min_value: 0.0
    scale: 5649.2958984375
    zero_point: 0
  '@Transpose_layer25_k_heads_583:out0':
    qtype: u8
    quantizer: asymmetric_affine
    rounding: rtne
    max_value: 14.126725196838379
    min_value: -16.617033004760742
    scale: 0.12056376039981842
    zero_point: 138
  '@Reshape_layer25_k_reshape_584:out0':
    qtype: u8
    quantizer: asymmetric_affine
    rounding: rtne
    max_value: 14.126725196838379
    min_value: -16.617033004760742
    scale: 0.12056376039981842
    zero_point: 138
  '@Concat_layer25_k_rope_rotate_half_585:out0':
    qtype: u8
    quantizer: asymmetric_affine
    rounding: rtne
    max_value: 6.093954563140869
    min_value: -16.61701202392578
    scale: 0.08906260877847672
    zero_point: 187
  '@Slice_layer25_k_rope_slice_first_586:out0':
    qtype: u8
    quantizer: asymmetric_affine
    rounding: rtne
    max_value: 14.126725196838379
    min_value: -16.617033004760742
    scale: 0.12056376039981842
    zero_point: 138
  '@Neg_layer25_k_rope_neg_second_587:out0':
    qtype: u8
    quantizer: asymmetric_affine
    rounding: rtne
    max_value: 6.093954563140869
    min_value: -16.61701202392578
    scale: 0.08906260877847672
    zero_point: 187
  '@Slice_layer25_k_rope_slice_second_588:out0':
    qtype: u8
    quantizer: asymmetric_affine
    rounding: rtne
    max_value: 14.126725196838379
    min_value: -16.617033004760742
    scale: 0.12056376039981842
    zero_point: 138
  '@Add_layer18_attn_residual_591:out0':
    qtype: u8
    quantizer: asymmetric_affine
    rounding: rtne
    max_value: 28639.521484375
    min_value: -965.1011962890625
    scale: 116.0965576171875
    zero_point: 8
  '@Reshape_layer19_ctx_merge_heads_593:out0':
    qtype: u8
    quantizer: asymmetric_affine
    rounding: rtne
    max_value: 1.8684203624725342
    min_value: -2.6899914741516113
    scale: 0.017876124009490013
    zero_point: 150
  '@MatMul_layer20_attn_context_597:out0':
    qtype: u8
    quantizer: asymmetric_affine
    rounding: rtne
    max_value: 3.3492701053619385
    min_value: -3.5102639198303223
    scale: 0.02690013498067856
    zero_point: 130
  '@Reshape_layer20_v_repeat_merge_598:out0':
    qtype: u8
    quantizer: asymmetric_affine
    rounding: rtne
    max_value: 5.72918701171875
    min_value: -5.669213771820068
    scale: 0.04469961300492287
    zero_point: 127
  '@Tile_layer20_v_repeat_tile_600:out0':
    qtype: u8
    quantizer: asymmetric_affine
    rounding: rtne
    max_value: 5.72918701171875
    min_value: -5.669213771820068
    scale: 0.04469961300492287
    zero_point: 127
  '@Mul_layer20_mlp_rms_scale_to_unit_601:out0':
    qtype: u8
    quantizer: asymmetric_affine
    rounding: rtne
    max_value: 23.902204513549805
    min_value: -14.602609634399414
    scale: 0.1509992778301239
    zero_point: 97
  '@Initializer_layer20_mlp_gamma_602:out0':
    qtype: u8
    quantizer: asymmetric_affine
    rounding: rtne
    max_value: 0.353515625
    min_value: -0.000629425048828125
    scale: 0.0013888041721656919
    zero_point: 0
  '@Add_layer21_causal_mask_603:out0':
    qtype: u8
    quantizer: asymmetric_affine
    rounding: rtne
    max_value: 8.75505542755127
    min_value: -10007.0478515625
    scale: 39.27765655517578
    zero_point: 255
  '@Reshape_layer21_v_reshape_604:out0':
    qtype: u8
    quantizer: asymmetric_affine
    rounding: rtne
    max_value: 4.669113636016846
    min_value: -5.484480857849121
    scale: 0.039818018674850464
    zero_point: 138
  '@Sqrt_layer21_mlp_rms_sqrt_605:out0':
    qtype: u8
    quantizer: asymmetric_affine
    rounding: rtne
    max_value: 1200.3485107421875
    min_value: 0.0
    scale: 4.707249164581299
    zero_point: 0
  '@Add_layer22_q_rope_rope_add_606:out0':
    qtype: u8
    quantizer: asymmetric_affine
    rounding: rtne
    max_value: 11.560630798339844
    min_value: -12.810446739196777
    scale: 0.09557285904884338
    zero_point: 134
  '@Transpose_layer22_k_transpose_607:out0':
    qtype: u8
    quantizer: asymmetric_affine
    rounding: rtne
    max_value: 15.211301803588867
    min_value: -16.770273208618164
    scale: 0.12541794776916504
    zero_point: 134
  '@ReduceMean_layer22_mlp_rms_mean_610:out0':
    qtype: u8
    quantizer: asymmetric_affine
    rounding: rtne
    max_value: 1440384.25
    min_value: 0.0
    scale: 5648.56591796875
    zero_point: 0
  '@Mul_layer22_mlp_rms_square_611:out0':
    qtype: u8
    quantizer: asymmetric_affine
    rounding: rtne
    max_value: 819785920.0
    min_value: 0.0
    scale: 3214846.75
    zero_point: 0
  '@Transpose_layer23_q_heads_612:out0':
    qtype: u8
    quantizer: asymmetric_affine
    rounding: rtne
    max_value: 12.230011940002441
    min_value: -11.04845905303955
    scale: 0.09128811955451965
    zero_point: 121
  '@Reshape_layer23_q_reshape_613:out0':
    qtype: u8
    quantizer: asymmetric_affine
    rounding: rtne
    max_value: 12.230011940002441
    min_value: -11.04845905303955
    scale: 0.09128811955451965
    zero_point: 121
  '@Concat_layer23_q_rope_rotate_half_614:out0':
    qtype: u8
    quantizer: asymmetric_affine
    rounding: rtne
    max_value: 12.230011940002441
    min_value: -11.04845905303955
    scale: 0.09128811955451965
    zero_point: 121
  '@Slice_layer23_q_rope_slice_first_615:out0':
    qtype: u8
    quantizer: asymmetric_affine
    rounding: rtne
    max_value: 12.230011940002441
    min_value: -11.04845905303955
    scale: 0.09128811955451965
    zero_point: 121
  '@Tile_layer23_k_repeat_tile_616:out0':
    qtype: u8
    quantizer: asymmetric_affine
    rounding: rtne
    max_value: 14.798665046691895
    min_value: -12.910418510437012
    scale: 0.10866307467222214
    zero_point: 119
  '@Reshape_layer23_k_repeat_expand_617:out0':
    qtype: u8
    quantizer: asymmetric_affine
    rounding: rtne
    max_value: 14.798665046691895
    min_value: -12.910418510437012
    scale: 0.10866307467222214
    zero_point: 119
  '@Reciprocal_layer23_attn_rms_reciprocal_618:out0':
    qtype: u8
    quantizer: asymmetric_affine
    rounding: rtne
    max_value: 1.0
    min_value: 0.0
    scale: 0.003921568859368563
    zero_point: 0
  '@Divide_619:out0':
    qtype: u8
    quantizer: asymmetric_affine
    rounding: rtne
    max_value: 0.10943272709846497
    min_value: 0.0
    scale: 0.0004291479417588562
    zero_point: 0
  '@Mul_layer24_k_rope_mul_cos_623:out0':
    qtype: u8
    quantizer: asymmetric_affine
    rounding: rtne
    max_value: 14.540782928466797
    min_value: -11.521759033203125
    scale: 0.1022060438990593
    zero_point: 113
  '@Mul_layer24_k_rope_mul_sin_624:out0':
    qtype: u8
    quantizer: asymmetric_affine
    rounding: rtne
    max_value: 2.256798505783081
    min_value: -2.40683650970459
    scale: 0.018288765102624893
    zero_point: 132
  '@ReduceMean_layer24_attn_rms_mean_625:out0':
    qtype: u8
    quantizer: asymmetric_affine
    rounding: rtne
    max_value: 1440570.5
    min_value: 0.0
    scale: 5649.2958984375
    zero_point: 0
  '@Mul_layer24_attn_rms_square_626:out0':
    qtype: u8
    quantizer: asymmetric_affine
    rounding: rtne
    max_value: 819876352.0
    min_value: 0.0
    scale: 3215201.5
    zero_point: 0
  '@Add_layer17_mlp_residual_629:out0':
    qtype: u8
    quantizer: asymmetric_affine
    rounding: rtne
    max_value: 28647.65234375
    min_value: -964.7474365234375
    scale: 116.12705993652344
    zero_point: 8
  '@Mul_layer18_swiglu_mul_631:out0':
    qtype: u8
    quantizer: asymmetric_affine
    rounding: rtne
    max_value: 4.499977111816406
    min_value: -4.499977111816406
    scale: 0.03529393672943115
    zero_point: 128
  '@Transpose_layer19_ctx_transpose_633:out0':
    qtype: u8
    quantizer: asymmetric_affine
    rounding: rtne
    max_value: 1.8684203624725342
    min_value: -2.6899914741516113
    scale: 0.017876124009490013
    zero_point: 150
  '@Mul_layer19_mlp_rms_gamma_636:out0':
    qtype: u8
    quantizer: asymmetric_affine
    rounding: rtne
    max_value: 1.9786665439605713
    min_value: -2.415130138397217
    scale: 0.017230575904250145
    zero_point: 140
  '@Softmax_layer20_softmax_638:out0':
    qtype: u8
    quantizer: asymmetric_affine
    rounding: rtne
    max_value: 1.0
    min_value: 0.0
    scale: 0.003921568859368563
    zero_point: 0
  '@Reshape_layer20_v_repeat_expand_639:out0':
    qtype: u8
    quantizer: asymmetric_affine
    rounding: rtne
    max_value: 5.72918701171875
    min_value: -5.669213771820068
    scale: 0.04469961300492287
    zero_point: 127
  '@Transpose_layer20_v_heads_640:out0':
    qtype: u8
    quantizer: asymmetric_affine
    rounding: rtne
    max_value: 5.72918701171875
    min_value: -5.669213771820068
    scale: 0.04469961300492287
    zero_point: 127
  '@Reciprocal_layer20_mlp_rms_reciprocal_641:out0':
    qtype: u8
    quantizer: asymmetric_affine
    rounding: rtne
    max_value: 1.0
    min_value: 0.0
    scale: 0.003921568859368563
    zero_point: 0
  '@Divide_642:out0':
    qtype: u8
    quantizer: asymmetric_affine
    rounding: rtne
    max_value: 0.15452823042869568
    min_value: 0.0
    scale: 0.0006059930892661214
    zero_point: 0
  '@Mul_layer21_attn_scale_643:out0':
    qtype: u8
    quantizer: asymmetric_affine
    rounding: rtne
    max_value: 8.745465278625488
    min_value: -12.075532913208008
    scale: 0.0816509798169136
    zero_point: 148
  '@MatMul_layer21_attn_scores_644:out0':
    qtype: u8
    quantizer: asymmetric_affine
    rounding: rtne
    max_value: 69.9637222290039
    min_value: -96.60426330566406
    scale: 0.6532078385353088
    zero_point: 148
  '@Add_layer21_mlp_rms_eps_646:out0':
    qtype: u8
    quantizer: asymmetric_affine
    rounding: rtne
    max_value: 1440830.5
    min_value: 0.0
    scale: 5650.31591796875
    zero_point: 0
  '@Mul_layer22_q_rope_mul_cos_647:out0':
    qtype: u8
    quantizer: asymmetric_affine
    rounding: rtne
    max_value: 11.558435440063477
    min_value: -12.81473445892334
    scale: 0.0955810546875
    zero_point: 134
  '@Mul_layer22_q_rope_mul_sin_648:out0':
