# !!!This file disallow TABs!!!
version: 2
quantize_parameters:
  '@attach_MatMul_logits/out0_0:out0':
    qtype: u8
    quantizer: asymmetric_affine
    rounding: rtne
    max_value: 29.9711856842041
    min_value: -18.77526092529297
    scale: 0.19116252660751343
    zero_point: 98
  '@Mul_final_rms_gamma_2:out0':
    qtype: u8
    quantizer: asymmetric_affine
    rounding: rtne
    max_value: 52.51711654663086
    min_value: -24.20893669128418
    scale: 0.30088648200035095
    zero_point: 80
  '@Mul_final_rms_scale_to_unit_4:out0':
    qtype: u8
    quantizer: asymmetric_affine
    rounding: rtne
    max_value: 19.246856689453125
    min_value: -7.70536994934082
    scale: 0.10569500923156738
    zero_point: 73
  '@Initializer_final_rms_gamma_5:out0':
    qtype: u8
    quantizer: asymmetric_affine
    rounding: rtne
    max_value: 3.34375
    min_value: -2.125
    scale: 0.02144607901573181
    zero_point: 99
  '@Add_layer29_mlp_residual_6:out0':
    qtype: u8
    quantizer: asymmetric_affine
    rounding: rtne
    max_value: 2703.3369140625
    min_value: -1158.14208984375
    scale: 15.143054962158203
    zero_point: 76
  '@Divide_8:out0':
    qtype: u8
    quantizer: asymmetric_affine
    rounding: rtne
    max_value: 0.05717727914452553
    min_value: 0.0
    scale: 0.00022422462643589824
    zero_point: 0
  '@Add_layer29_attn_residual_9:out0':
    qtype: u8
    quantizer: asymmetric_affine
    rounding: rtne
    max_value: 5072.53369140625
    min_value: -236.05377197265625
    scale: 20.817989349365234
    zero_point: 11
  '@Add_layer28_mlp_residual_12:out0':
    qtype: u8
    quantizer: asymmetric_affine
    rounding: rtne
    max_value: 5075.4970703125
    min_value: -233.51199340820312
    scale: 20.819644927978516
    zero_point: 11
  '@Mul_layer29_swiglu_mul_14:out0':
    qtype: u8
    quantizer: asymmetric_affine
    rounding: rtne
    max_value: 387.0895080566406
    min_value: -365.6106872558594
    scale: 2.951765537261963
    zero_point: 124
  '@Add_final_rms_eps_16:out0':
    qtype: u8
    quantizer: asymmetric_affine
    rounding: rtne
    max_value: 33979.734375
    min_value: 0.0
    scale: 133.2538604736328
    zero_point: 0
  '@Add_layer28_attn_residual_17:out0':
    qtype: u8
    quantizer: asymmetric_affine
    rounding: rtne
    max_value: 20164.576171875
    min_value: -713.3163452148438
    scale: 81.87409210205078
    zero_point: 9
  '@Reshape_layer29_ctx_merge_heads_19:out0':
    qtype: u8
    quantizer: asymmetric_affine
    rounding: rtne
    max_value: 2.806511163711548
    min_value: -2.292083263397217
    scale: 0.01999448798596859
    zero_point: 115
  '@Add_layer27_mlp_residual_25:out0':
    qtype: u8
    quantizer: asymmetric_affine
    rounding: rtne
    max_value: 20219.44140625
    min_value: -712.8685913085938
    scale: 82.08749389648438
    zero_point: 9
  '@Mul_layer28_swiglu_mul_27:out0':
    qtype: u8
    quantizer: asymmetric_affine
    rounding: rtne
    max_value: 2515.82861328125
    min_value: -91.47283935546875
    scale: 10.224711418151855
    zero_point: 9
  '@Transpose_layer29_ctx_transpose_29:out0':
    qtype: u8
    quantizer: asymmetric_affine
    rounding: rtne
    max_value: 2.806511163711548
    min_value: -2.292083263397217
    scale: 0.01999448798596859
    zero_point: 115
  '@Mul_layer29_mlp_rms_gamma_32:out0':
    qtype: u8
    quantizer: asymmetric_affine
    rounding: rtne
    max_value: 30.072616577148438
    min_value: -2.562243700027466
    scale: 0.1279798448085785
    zero_point: 20
  '@Mul_final_rms_square_34:out0':
    qtype: u8
    quantizer: asymmetric_affine
    rounding: rtne
    max_value: 7308030.5
    min_value: 0.0
    scale: 28658.943359375
    zero_point: 0
  '@Add_layer27_attn_residual_35:out0':
    qtype: u8
    quantizer: asymmetric_affine
    rounding: rtne
    max_value: 20405.05859375
    min_value: -688.9086303710938
    scale: 82.721435546875
    zero_point: 8
  '@Reshape_layer28_ctx_merge_heads_37:out0':
    qtype: u8
    quantizer: asymmetric_affine
    rounding: rtne
    max_value: 2.350045919418335
    min_value: -2.2237043380737305
    scale: 0.017936276271939278
    zero_point: 124
  '@MatMul_layer29_attn_context_41:out0':
    qtype: u8
    quantizer: asymmetric_affine
    rounding: rtne
    max_value: 2.806511163711548
    min_value: -2.292083263397217
    scale: 0.01999448798596859
    zero_point: 115
  '@Reshape_layer29_v_repeat_merge_42:out0':
    qtype: u8
    quantizer: asymmetric_affine
    rounding: rtne
    max_value: 7.280962944030762
    min_value: -5.042634963989258
    scale: 0.04832783341407776
    zero_point: 104
  '@Tile_layer29_v_repeat_tile_44:out0':
    qtype: u8
    quantizer: asymmetric_affine
    rounding: rtne
    max_value: 7.280962944030762
    min_value: -5.042634963989258
    scale: 0.04832783341407776
    zero_point: 104
  '@Mul_layer29_mlp_rms_scale_to_unit_45:out0':
    qtype: u8
    quantizer: asymmetric_affine
    rounding: rtne
    max_value: 22.11188507080078
    min_value: -2.596024751663208
    scale: 0.09689376503229141
    zero_point: 27
  '@Initializer_layer29_mlp_gamma_46:out0':
    qtype: u8
    quantizer: asymmetric_affine
    rounding: rtne
    max_value: 1.375
    min_value: 0.0
    scale: 0.005392157007008791
    zero_point: 0
  '@Divide_48:out0':
    qtype: u8
    quantizer: asymmetric_affine
    rounding: rtne
    max_value: 0.047593194991350174
    min_value: 0.0
    scale: 0.00018663998343981802
    zero_point: 0
  '@Add_layer26_mlp_residual_50:out0':
    qtype: u8
    quantizer: asymmetric_affine
    rounding: rtne
    max_value: 20423.333984375
    min_value: -685.2945556640625
    scale: 82.77893829345703
    zero_point: 8
  '@Mul_layer27_swiglu_mul_52:out0':
    qtype: u8
    quantizer: asymmetric_affine
    rounding: rtne
    max_value: 19.375608444213867
    min_value: -68.34175872802734
    scale: 0.34398967027664185
    zero_point: 199
  '@Transpose_layer28_ctx_transpose_54:out0':
    qtype: u8
    quantizer: asymmetric_affine
    rounding: rtne
    max_value: 2.350045919418335
    min_value: -2.2237043380737305
    scale: 0.017936276271939278
    zero_point: 124
  '@Mul_layer28_mlp_rms_gamma_57:out0':
    qtype: u8
    quantizer: asymmetric_affine
    rounding: rtne
    max_value: 14.059332847595215
    min_value: -1.478084683418274
    scale: 0.06093104928731918
    zero_point: 24
  '@Softmax_layer29_softmax_59:out0':
    qtype: u8
    quantizer: asymmetric_affine
    rounding: rtne
    max_value: 1.0
    min_value: 0.0
    scale: 0.003921568859368563
    zero_point: 0
  '@Reshape_layer29_v_repeat_expand_60:out0':
    qtype: u8
    quantizer: asymmetric_affine
    rounding: rtne
    max_value: 7.280962944030762
    min_value: -5.042634963989258
    scale: 0.04832783341407776
    zero_point: 104
  '@Transpose_layer29_v_heads_61:out0':
    qtype: u8
    quantizer: asymmetric_affine
    rounding: rtne
    max_value: 7.280962944030762
    min_value: -5.042634963989258
    scale: 0.04832783341407776
    zero_point: 104
  '@Add_layer29_mlp_rms_eps_62:out0':
    qtype: u8
    quantizer: asymmetric_affine
    rounding: rtne
    max_value: 53791.3828125
    min_value: 0.0
    scale: 210.94659423828125
    zero_point: 0
  '@Add_layer26_attn_residual_63:out0':
    qtype: u8
    quantizer: asymmetric_affine
    rounding: rtne
    max_value: 20424.85546875
    min_value: -685.0767211914062
    scale: 82.78404235839844
    zero_point: 8
  '@Reshape_layer27_ctx_merge_heads_65:out0':
    qtype: u8
    quantizer: asymmetric_affine
    rounding: rtne
    max_value: 1.697418451309204
    min_value: -2.214979887008667
    scale: 0.01534273847937584
    zero_point: 144
  '@MatMul_layer28_attn_context_69:out0':
    qtype: u8
    quantizer: asymmetric_affine
    rounding: rtne
    max_value: 2.350045919418335
    min_value: -2.2237043380737305
    scale: 0.017936276271939278
    zero_point: 124
  '@Reshape_layer28_v_repeat_merge_70:out0':
    qtype: u8
    quantizer: asymmetric_affine
    rounding: rtne
    max_value: 6.920578956604004
    min_value: -7.377636909484863
    scale: 0.056071434170007706
    zero_point: 132
  '@Tile_layer28_v_repeat_tile_72:out0':
    qtype: u8
    quantizer: asymmetric_affine
    rounding: rtne
    max_value: 6.920578956604004
    min_value: -7.377636909484863
    scale: 0.056071434170007706
    zero_point: 132
  '@Mul_layer28_mlp_rms_scale_to_unit_73:out0':
    qtype: u8
    quantizer: asymmetric_affine
    rounding: rtne
    max_value: 23.835689544677734
    min_value: -3.0030927658081055
    scale: 0.10525012761354446
    zero_point: 29
  '@Initializer_layer28_mlp_gamma_74:out0':
    qtype: u8
    quantizer: asymmetric_affine
    rounding: rtne
    max_value: 0.58984375
    min_value: 0.0
    scale: 0.0023131128400564194
    zero_point: 0
  '@Add_layer29_causal_mask_75:out0':
    qtype: u8
    quantizer: asymmetric_affine
    rounding: rtne
    max_value: 12.664024353027344
    min_value: -10010.8359375
    scale: 39.30784225463867
    zero_point: 255
  '@Reshape_layer29_v_reshape_76:out0':
    qtype: u8
    quantizer: asymmetric_affine
    rounding: rtne
    max_value: 7.280962944030762
    min_value: -5.042634963989258
    scale: 0.04832783341407776
    zero_point: 104
  '@Add_layer25_mlp_residual_79:out0':
    qtype: u8
    quantizer: asymmetric_affine
    rounding: rtne
    max_value: 20430.4921875
    min_value: -684.4732666015625
    scale: 82.80378723144531
    zero_point: 8
  '@Mul_layer26_swiglu_mul_81:out0':
    qtype: u8
    quantizer: asymmetric_affine
    rounding: rtne
    max_value: 10.78553581237793
    min_value: -7.856616973876953
    scale: 0.07310648262500763
    zero_point: 107
  '@Transpose_layer27_ctx_transpose_83:out0':
    qtype: u8
    quantizer: asymmetric_affine
    rounding: rtne
    max_value: 1.697418451309204
    min_value: -2.214979887008667
    scale: 0.01534273847937584
    zero_point: 144
  '@Mul_layer27_mlp_rms_gamma_86:out0':
    qtype: u8
    quantizer: asymmetric_affine
    rounding: rtne
    max_value: 3.2144887447357178
    min_value: -1.1683546304702759
    scale: 0.01718762144446373
    zero_point: 68
  '@Softmax_layer28_softmax_88:out0':
    qtype: u8
    quantizer: asymmetric_affine
    rounding: rtne
    max_value: 1.0
    min_value: 0.0
    scale: 0.003921568859368563
    zero_point: 0
  '@Reshape_layer28_v_repeat_expand_89:out0':
    qtype: u8
    quantizer: asymmetric_affine
    rounding: rtne
    max_value: 6.920578956604004
    min_value: -7.377636909484863
    scale: 0.056071434170007706
    zero_point: 132
  '@Transpose_layer28_v_heads_90:out0':
    qtype: u8
    quantizer: asymmetric_affine
    rounding: rtne
    max_value: 6.920578956604004
    min_value: -7.377636909484863
    scale: 0.056071434170007706
    zero_point: 132
  '@Divide_92:out0':
    qtype: u8
    quantizer: asymmetric_affine
    rounding: rtne
    max_value: 0.05170334130525589
    min_value: 0.0
    scale: 0.00020275819406379014
    zero_point: 0
  '@Mul_layer29_attn_scale_93:out0':
    qtype: u8
    quantizer: asymmetric_affine
    rounding: rtne
    max_value: 12.682586669921875
    min_value: -10.836254119873047
    scale: 0.09223074465990067
    zero_point: 117
  '@Mul_layer29_mlp_rms_square_96:out0':
    qtype: u8
    quantizer: asymmetric_affine
    rounding: rtne
    max_value: 25730598.0
    min_value: 0.0
    scale: 100904.3046875
    zero_point: 0
  '@Add_layer25_attn_residual_97:out0':
    qtype: u8
    quantizer: asymmetric_affine
    rounding: rtne
    max_value: 20430.791015625
    min_value: -684.4805908203125
    scale: 82.80498504638672
    zero_point: 8
  '@Reshape_layer26_ctx_merge_heads_99:out0':
    qtype: u8
    quantizer: asymmetric_affine
    rounding: rtne
    max_value: 0.813228964805603
    min_value: -1.0369242429733276
    scale: 0.007255502976477146
    zero_point: 143
  '@MatMul_layer27_attn_context_103:out0':
    qtype: u8
    quantizer: asymmetric_affine
    rounding: rtne
    max_value: 1.697418451309204
    min_value: -2.214979887008667
    scale: 0.01534273847937584
    zero_point: 144
  '@Reshape_layer27_v_repeat_merge_104:out0':
    qtype: u8
    quantizer: asymmetric_affine
    rounding: rtne
    max_value: 5.311859130859375
    min_value: -4.374721050262451
    scale: 0.03798659145832062
    zero_point: 115
  '@Tile_layer27_v_repeat_tile_106:out0':
    qtype: u8
    quantizer: asymmetric_affine
    rounding: rtne
    max_value: 5.311859130859375
    min_value: -4.374721050262451
    scale: 0.03798659145832062
    zero_point: 115
  '@Mul_layer27_mlp_rms_scale_to_unit_107:out0':
    qtype: u8
    quantizer: asymmetric_affine
    rounding: rtne
    max_value: 23.85243797302246
    min_value: -3.286799907684326
    scale: 0.10642838478088379
    zero_point: 31
  '@Initializer_layer27_mlp_gamma_108:out0':
    qtype: u8
    quantizer: asymmetric_affine
    rounding: rtne
    max_value: 0.51171875
    min_value: 0.0
    scale: 0.0020067403092980385
    zero_point: 0
  '@Add_layer28_causal_mask_109:out0':
    qtype: u8
    quantizer: asymmetric_affine
    rounding: rtne
    max_value: 9.024520874023438
    min_value: -10004.234375
    scale: 39.26768112182617
    zero_point: 255
  '@Reshape_layer28_v_reshape_110:out0':
    qtype: u8
    quantizer: asymmetric_affine
    rounding: rtne
    max_value: 6.920578956604004
    min_value: -7.377636909484863
    scale: 0.056071434170007706
    zero_point: 132
  '@MatMul_layer29_attn_scores_112:out0':
    qtype: u8
    quantizer: asymmetric_affine
    rounding: rtne
    max_value: 101.460693359375
    min_value: -86.69003295898438
    scale: 0.7378459572792053
    zero_point: 117
  '@Initializer_scale_attn_113:out0':
    qtype: u8
    quantizer: asymmetric_affine
    rounding: rtne
    max_value: 0.125
    min_value: 0.0
    scale: 0.0004901961074210703
    zero_point: 0
  '@Mul_layer29_attn_rms_gamma_117:out0':
    qtype: u8
    quantizer: asymmetric_affine
    rounding: rtne
    max_value: 7.837088108062744
    min_value: -2.267698287963867
    scale: 0.03962661325931549
    zero_point: 57
  '@Add_layer24_mlp_residual_118:out0':
    qtype: u8
    quantizer: asymmetric_affine
    rounding: rtne
    max_value: 20428.76171875
    min_value: -681.68896484375
    scale: 82.78607940673828
    zero_point: 8
  '@Mul_layer25_swiglu_mul_120:out0':
    qtype: u8
    quantizer: asymmetric_affine
    rounding: rtne
    max_value: 5.195115089416504
    min_value: -11.720101356506348
    scale: 0.06633418053388596
    zero_point: 177
  '@Transpose_layer26_ctx_transpose_122:out0':
    qtype: u8
    quantizer: asymmetric_affine
    rounding: rtne
    max_value: 0.813228964805603
    min_value: -1.0369242429733276
    scale: 0.007255502976477146
    zero_point: 143
  '@Mul_layer26_mlp_rms_gamma_125:out0':
    qtype: u8
    quantizer: asymmetric_affine
    rounding: rtne
    max_value: 2.3192152976989746
    min_value: -1.1664236783981323
    scale: 0.01366917323321104
    zero_point: 85
  '@Softmax_layer27_softmax_127:out0':
    qtype: u8
    quantizer: asymmetric_affine
    rounding: rtne
    max_value: 1.0
    min_value: 0.0
    scale: 0.003921568859368563
    zero_point: 0
  '@Reshape_layer27_v_repeat_expand_128:out0':
    qtype: u8
    quantizer: asymmetric_affine
    rounding: rtne
    max_value: 5.311859130859375
    min_value: -4.374721050262451
    scale: 0.03798659145832062
    zero_point: 115
  '@Transpose_layer27_v_heads_129:out0':
    qtype: u8
    quantizer: asymmetric_affine
    rounding: rtne
    max_value: 5.311859130859375
    min_value: -4.374721050262451
    scale: 0.03798659145832062
    zero_point: 115
  '@Divide_131:out0':
    qtype: u8
    quantizer: asymmetric_affine
    rounding: rtne
    max_value: 0.05725664272904396
    min_value: 0.0
    scale: 0.00022453584824688733
    zero_point: 0
  '@Mul_layer28_attn_scale_132:out0':
    qtype: u8
    quantizer: asymmetric_affine
    rounding: rtne
    max_value: 9.024520874023438
    min_value: -4.234301567077637
    scale: 0.05199538171291351
    zero_point: 81
  '@Add_layer28_mlp_rms_eps_135:out0':
    qtype: u8
    quantizer: asymmetric_affine
    rounding: rtne
    max_value: 715686.625
    min_value: 0.0
    scale: 2806.6142578125
    zero_point: 0
  '@Add_layer29_q_rope_rope_add_136:out0':
    qtype: u8
    quantizer: asymmetric_affine
    rounding: rtne
    max_value: 12.397642135620117
    min_value: -13.782166481018066
    scale: 0.10266592353582382
    zero_point: 134
  '@Transpose_layer29_k_transpose_137:out0':
    qtype: u8
    quantizer: asymmetric_affine
    rounding: rtne
    max_value: 12.573075294494629
    min_value: -10.822185516357422
    scale: 0.09174611419439316
    zero_point: 118
  '@Mul_layer29_attn_rms_scale_to_unit_138:out0':
    qtype: u8
    quantizer: asymmetric_affine
    rounding: rtne
    max_value: 22.04719352722168
    min_value: -2.645338535308838
    scale: 0.09683346003293991
    zero_point: 27
  '@Initializer_layer29_attn_gamma_139:out0':
    qtype: u8
    quantizer: asymmetric_affine
    rounding: rtne
    max_value: 0.91015625
    min_value: 0.0
    scale: 0.003569240216165781
    zero_point: 0
  '@Add_layer24_attn_residual_140:out0':
    qtype: u8
    quantizer: asymmetric_affine
    rounding: rtne
    max_value: 20429.8828125
    min_value: -681.6014404296875
    scale: 82.7901382446289
    zero_point: 8
  '@Reshape_layer25_ctx_merge_heads_142:out0':
    qtype: u8
    quantizer: asymmetric_affine
    rounding: rtne
    max_value: 3.0587050914764404
    min_value: -3.439422130584717
    scale: 0.025482850149273872
    zero_point: 135
  '@MatMul_layer26_attn_context_146:out0':
    qtype: u8
    quantizer: asymmetric_affine
    rounding: rtne
    max_value: 0.813228964805603
    min_value: -1.0369242429733276
    scale: 0.007255502976477146
    zero_point: 143
  '@Reshape_layer26_v_repeat_merge_147:out0':
    qtype: u8
    quantizer: asymmetric_affine
    rounding: rtne
    max_value: 7.029932498931885
    min_value: -7.956332683563232
    scale: 0.05876966565847397
    zero_point: 135
  '@Tile_layer26_v_repeat_tile_149:out0':
    qtype: u8
    quantizer: asymmetric_affine
    rounding: rtne
    max_value: 7.029932498931885
    min_value: -7.956332683563232
    scale: 0.05876966565847397
    zero_point: 135
  '@Mul_layer26_mlp_rms_scale_to_unit_150:out0':
    qtype: u8
    quantizer: asymmetric_affine
    rounding: rtne
    max_value: 23.85501480102539
    min_value: -3.709372043609619
    scale: 0.10809563100337982
    zero_point: 34
  '@Initializer_layer26_mlp_gamma_151:out0':
    qtype: u8
    quantizer: asymmetric_affine
    rounding: rtne
    max_value: 0.41796875
    min_value: 0.0
    scale: 0.0016390931559726596
    zero_point: 0
  '@Add_layer27_causal_mask_152:out0':
    qtype: u8
    quantizer: asymmetric_affine
    rounding: rtne
    max_value: 8.963003158569336
    min_value: -10005.5205078125
    scale: 39.272483825683594
    zero_point: 255
  '@Reshape_layer27_v_reshape_153:out0':
    qtype: u8
    quantizer: asymmetric_affine
    rounding: rtne
    max_value: 5.311859130859375
    min_value: -4.374721050262451
    scale: 0.03798659145832062
    zero_point: 115
  '@MatMul_layer28_attn_scores_155:out0':
    qtype: u8
    quantizer: asymmetric_affine
    rounding: rtne
    max_value: 72.1961669921875
    min_value: -33.874412536621094
    scale: 0.4159630537033081
    zero_point: 81
  '@Mul_layer28_mlp_rms_square_160:out0':
    qtype: u8
    quantizer: asymmetric_affine
    rounding: rtne
    max_value: 406610144.0
    min_value: 0.0
    scale: 1594549.625
    zero_point: 0
  '@Mul_layer29_q_rope_mul_cos_161:out0':
    qtype: u8
    quantizer: asymmetric_affine
    rounding: rtne
    max_value: 12.400212287902832
    min_value: -13.79036808013916
    scale: 0.10270816087722778
    zero_point: 134
  '@Mul_layer29_q_rope_mul_sin_162:out0':
    qtype: u8
    quantizer: asymmetric_affine
    rounding: rtne
    max_value: 6.466892242431641
    min_value: -9.298836708068848
    scale: 0.06182638928294182
    zero_point: 150
  '@Reshape_layer29_k_repeat_merge_163:out0':
    qtype: u8
    quantizer: asymmetric_affine
    rounding: rtne
    max_value: 12.573075294494629
    min_value: -10.822185516357422
    scale: 0.09174611419439316
    zero_point: 118
  '@Tile_layer29_k_repeat_tile_164:out0':
    qtype: u8
    quantizer: asymmetric_affine
    rounding: rtne
    max_value: 12.573075294494629
    min_value: -10.822185516357422
    scale: 0.09174611419439316
    zero_point: 118
  '@Divide_166:out0':
    qtype: u8
    quantizer: asymmetric_affine
    rounding: rtne
    max_value: 0.04936277121305466
    min_value: 0.0
    scale: 0.0001935795007739216
    zero_point: 0
  '@Add_layer23_mlp_residual_167:out0':
    qtype: u8
    quantizer: asymmetric_affine
    rounding: rtne
    max_value: 20467.341796875
    min_value: -679.634765625
    scale: 82.9293212890625
    zero_point: 8
  '@Mul_layer24_swiglu_mul_169:out0':
    qtype: u8
    quantizer: asymmetric_affine
    rounding: rtne
    max_value: 8.40088939666748
    min_value: -10.042789459228516
    scale: 0.07232815772294998
    zero_point: 139
  '@Transpose_layer25_ctx_transpose_171:out0':
    qtype: u8
    quantizer: asymmetric_affine
    rounding: rtne
    max_value: 3.0587050914764404
    min_value: -3.439422130584717
    scale: 0.025482850149273872
    zero_point: 135
  '@Mul_layer25_mlp_rms_gamma_174:out0':
    qtype: u8
    quantizer: asymmetric_affine
    rounding: rtne
    max_value: 1.7713420391082764
    min_value: -1.0785703659057617
    scale: 0.011176127009093761
    zero_point: 97
  '@Softmax_layer26_softmax_176:out0':
    qtype: u8
    quantizer: asymmetric_affine
    rounding: rtne
    max_value: 1.0
    min_value: 0.0
    scale: 0.003921568859368563
    zero_point: 0
  '@Reshape_layer26_v_repeat_expand_177:out0':
    qtype: u8
    quantizer: asymmetric_affine
    rounding: rtne
    max_value: 7.029932498931885
    min_value: -7.956332683563232
    scale: 0.05876966565847397
    zero_point: 135
  '@Transpose_layer26_v_heads_178:out0':
    qtype: u8
    quantizer: asymmetric_affine
    rounding: rtne
    max_value: 7.029932498931885
    min_value: -7.956332683563232
    scale: 0.05876966565847397
    zero_point: 135
  '@Divide_180:out0':
    qtype: u8
    quantizer: asymmetric_affine
    rounding: rtne
    max_value: 0.06376941502094269
    min_value: 0.0
    scale: 0.00025007614749483764
    zero_point: 0
  '@Mul_layer27_attn_scale_181:out0':
    qtype: u8
    quantizer: asymmetric_affine
    rounding: rtne
    max_value: 8.963003158569336
    min_value: -5.520776271820068
    scale: 0.056799136102199554
    zero_point: 97
  '@MatMul_layer27_attn_scores_182:out0':
    qtype: u8
    quantizer: asymmetric_affine
    rounding: rtne
    max_value: 71.70402526855469
    min_value: -44.16621017456055
    scale: 0.45439308881759644
    zero_point: 97
  '@Add_layer27_mlp_rms_eps_184:out0':
    qtype: u8
    quantizer: asymmetric_affine
    rounding: rtne
    max_value: 731830.0
    min_value: 0.0
    scale: 2869.921630859375
    zero_point: 0
  '@Add_layer28_q_rope_rope_add_185:out0':
    qtype: u8
    quantizer: asymmetric_affine
    rounding: rtne
    max_value: 14.10010814666748
    min_value: -12.192243576049805
    scale: 0.1031072586774826
    zero_point: 118
  '@Transpose_layer28_k_transpose_186:out0':
    qtype: u8
    quantizer: asymmetric_affine
    rounding: rtne
    max_value: 15.008164405822754
    min_value: -13.985754013061523
    scale: 0.11370164155960083
    zero_point: 123
  '@Mul_layer28_attn_rms_gamma_187:out0':
    qtype: u8
    quantizer: asymmetric_affine
    rounding: rtne
    max_value: 6.472009181976318
    min_value: -2.508180618286133
    scale: 0.03521643206477165
    zero_point: 71
  '@Initializer_layer28_attn_gamma_189:out0':
    qtype: u8
    quantizer: asymmetric_affine
    rounding: rtne
    max_value: 0.8828125
    min_value: 0.0
    scale: 0.0034620098304003477
    zero_point: 0
  '@Mul_layer28_attn_rms_scale_to_unit_190:out0':
    qtype: u8
    quantizer: asymmetric_affine
    rounding: rtne
    max_value: 23.837697982788086
    min_value: -2.9054038524627686
    scale: 0.10487490892410278
    zero_point: 28
  '@Transpose_layer29_q_heads_191:out0':
    qtype: u8
    quantizer: asymmetric_affine
    rounding: rtne
    max_value: 12.400550842285156
    min_value: -13.79057788848877
    scale: 0.1027103066444397
    zero_point: 134
  '@Initializer_rope_cos_192:out0':
    qtype: u8
    quantizer: asymmetric_affine
    rounding: rtne
    max_value: 1.0
    min_value: -0.9999967217445374
    scale: 0.007843123748898506
    zero_point: 127
  '@Concat_layer29_q_rope_rotate_half_193:out0':
    qtype: u8
    quantizer: asymmetric_affine
    rounding: rtne
    max_value: 12.400550842285156
    min_value: -13.79057788848877
    scale: 0.1027103066444397
    zero_point: 134
  '@Initializer_rope_sin_194:out0':
    qtype: u8
    quantizer: asymmetric_affine
    rounding: rtne
    max_value: 0.9999929070472717
    min_value: -0.9999902248382568
    scale: 0.007843070663511753
    zero_point: 127
  '@Reshape_layer29_k_repeat_expand_195:out0':
    qtype: u8
    quantizer: asymmetric_affine
    rounding: rtne
    max_value: 12.573075294494629
    min_value: -10.822185516357422
    scale: 0.09174611419439316
    zero_point: 118
  '@Add_layer23_attn_residual_197:out0':
    qtype: u8
    quantizer: asymmetric_affine
    rounding: rtne
    max_value: 20465.044921875
    min_value: -679.5167236328125
    scale: 82.91985321044922
    zero_point: 8
  '@Reshape_layer24_ctx_merge_heads_199:out0':
    qtype: u8
    quantizer: asymmetric_affine
    rounding: rtne
    max_value: 1.6335253715515137
    min_value: -1.4622257947921753
    scale: 0.012140201404690742
    zero_point: 120
  '@MatMul_layer25_attn_context_203:out0':
    qtype: u8
    quantizer: asymmetric_affine
    rounding: rtne
    max_value: 3.0587050914764404
    min_value: -3.439422130584717
    scale: 0.025482850149273872
    zero_point: 135
  '@Reshape_layer25_v_repeat_merge_204:out0':
    qtype: u8
    quantizer: asymmetric_affine
    rounding: rtne
    max_value: 5.259049415588379
    min_value: -6.160203456878662
    scale: 0.044781383126974106
    zero_point: 138
  '@Tile_layer25_v_repeat_tile_206:out0':
    qtype: u8
    quantizer: asymmetric_affine
    rounding: rtne
    max_value: 5.259049415588379
    min_value: -6.160203456878662
    scale: 0.044781383126974106
    zero_point: 138
  '@Mul_layer25_mlp_rms_scale_to_unit_207:out0':
    qtype: u8
    quantizer: asymmetric_affine
    rounding: rtne
    max_value: 23.855728149414062
    min_value: -4.07281494140625
    scale: 0.1095236986875534
    zero_point: 37
  '@Initializer_layer25_mlp_gamma_208:out0':
    qtype: u8
    quantizer: asymmetric_affine
    rounding: rtne
    max_value: 0.40625
    min_value: -0.00023555755615234375
    scale: 0.0015940610319375992
    zero_point: 0
  '@Add_layer26_causal_mask_209:out0':
    qtype: u8
    quantizer: asymmetric_affine
    rounding: rtne
    max_value: 7.3975372314453125
    min_value: -10003.986328125
    scale: 39.26033020019531
    zero_point: 255
  '@Reshape_layer26_v_reshape_210:out0':
    qtype: u8
    quantizer: asymmetric_affine
    rounding: rtne
    max_value: 7.029932498931885
    min_value: -7.956332683563232
    scale: 0.05876966565847397
    zero_point: 135
  '@Add_layer27_q_rope_rope_add_212:out0':
    qtype: u8
    quantizer: asymmetric_affine
    rounding: rtne
    max_value: 15.304778099060059
    min_value: -17.22746467590332
    scale: 0.12757742404937744
    zero_point: 135
  '@Transpose_layer27_k_transpose_213:out0':
    qtype: u8
    quantizer: asymmetric_affine
    rounding: rtne
    max_value: 14.783102035522461
    min_value: -17.224416732788086
    scale: 0.12551967799663544
    zero_point: 137
  '@Mul_layer27_mlp_rms_square_217:out0':
    qtype: u8
    quantizer: asymmetric_affine
    rounding: rtne
    max_value: 416366432.0
    min_value: 0.0
    scale: 1632809.5
    zero_point: 0
  '@Mul_layer28_q_rope_mul_cos_218:out0':
    qtype: u8
    quantizer: asymmetric_affine
    rounding: rtne
    max_value: 16.110748291015625
    min_value: -12.202378273010254
    scale: 0.11103186756372452
    zero_point: 110
  '@Mul_layer28_q_rope_mul_sin_219:out0':
    qtype: u8
    quantizer: asymmetric_affine
    rounding: rtne
    max_value: 3.223172187805176
    min_value: -4.737239360809326
    scale: 0.0312172994017601
    zero_point: 152
  '@Reshape_layer28_k_repeat_merge_220:out0':
    qtype: u8
    quantizer: asymmetric_affine
    rounding: rtne
    max_value: 15.008164405822754
    min_value: -13.985754013061523
    scale: 0.11370164155960083
    zero_point: 123
  '@Tile_layer28_k_repeat_tile_221:out0':
    qtype: u8
    quantizer: asymmetric_affine
    rounding: rtne
    max_value: 15.008164405822754
    min_value: -13.985754013061523
    scale: 0.11370164155960083
    zero_point: 123
  '@Divide_223:out0':
    qtype: u8
    quantizer: asymmetric_affine
    rounding: rtne
    max_value: 0.054262299090623856
    min_value: 0.0
    scale: 0.00021279332577250898
    zero_point: 0
  '@Reshape_layer29_q_reshape_224:out0':
    qtype: u8
    quantizer: asymmetric_affine
    rounding: rtne
    max_value: 12.400550842285156
    min_value: -13.79057788848877
    scale: 0.1027103066444397
    zero_point: 134
  '@Neg_layer29_q_rope_neg_second_225:out0':
    qtype: u8
    quantizer: asymmetric_affine
    rounding: rtne
    max_value: 12.400550842285156
    min_value: -13.79057788848877
    scale: 0.1027103066444397
    zero_point: 134
  '@Slice_layer29_q_rope_slice_first_226:out0':
    qtype: u8
    quantizer: asymmetric_affine
    rounding: rtne
    max_value: 12.400550842285156
    min_value: -13.79057788848877
    scale: 0.1027103066444397
    zero_point: 134
  '@Add_layer29_k_rope_rope_add_227:out0':
    qtype: u8
    quantizer: asymmetric_affine
    rounding: rtne
    max_value: 12.573075294494629
    min_value: -10.822185516357422
    scale: 0.09174611419439316
    zero_point: 118
  '@Add_layer29_attn_rms_eps_228:out0':
    qtype: u8
    quantizer: asymmetric_affine
    rounding: rtne
    max_value: 53699.92578125
    min_value: 0.0
    scale: 210.58795166015625
    zero_point: 0
  '@Add_layer22_mlp_residual_229:out0':
    qtype: u8
    quantizer: asymmetric_affine
    rounding: rtne
    max_value: 20467.408203125
    min_value: -680.2054443359375
    scale: 82.93181610107422
    zero_point: 8
  '@Mul_layer23_swiglu_mul_231:out0':
    qtype: u8
    quantizer: asymmetric_affine
    rounding: rtne
    max_value: 11.016461372375488
    min_value: -5.365389347076416
    scale: 0.06424255669116974
    zero_point: 84
  '@Transpose_layer24_ctx_transpose_233:out0':
    qtype: u8
    quantizer: asymmetric_affine
    rounding: rtne
    max_value: 1.6335253715515137
    min_value: -1.4622257947921753
    scale: 0.012140201404690742
    zero_point: 120
  '@Mul_layer24_mlp_rms_gamma_236:out0':
    qtype: u8
    quantizer: asymmetric_affine
    rounding: rtne
    max_value: 1.7140706777572632
    min_value: -1.2812137603759766
    scale: 0.011746213771402836
    zero_point: 109
  '@Softmax_layer25_softmax_238:out0':
    qtype: u8
    quantizer: asymmetric_affine
    rounding: rtne
    max_value: 1.0
    min_value: 0.0
    scale: 0.003921568859368563
    zero_point: 0
  '@Reshape_layer25_v_repeat_expand_239:out0':
    qtype: u8
    quantizer: asymmetric_affine
    rounding: rtne
    max_value: 5.259049415588379
    min_value: -6.160203456878662
    scale: 0.044781383126974106
    zero_point: 138
  '@Transpose_layer25_v_heads_240:out0':
    qtype: u8
    quantizer: asymmetric_affine
    rounding: rtne
    max_value: 5.259049415588379
    min_value: -6.160203456878662
    scale: 0.044781383126974106
    zero_point: 138
  '@Divide_242:out0':
    qtype: u8
    quantizer: asymmetric_affine
    rounding: rtne
    max_value: 0.0704280436038971
    min_value: 0.0
    scale: 0.0002761883952189237
    zero_point: 0
  '@Mul_layer26_attn_scale_243:out0':
    qtype: u8
    quantizer: asymmetric_affine
    rounding: rtne
    max_value: 7.3975372314453125
    min_value: -4.752948760986328
    scale: 0.04764896631240845
    zero_point: 100
  '@MatMul_layer26_attn_scores_244:out0':
    qtype: u8
    quantizer: asymmetric_affine
    rounding: rtne
    max_value: 59.1802978515625
    min_value: -38.023590087890625
    scale: 0.3811917304992676
    zero_point: 100
  '@Add_layer26_mlp_rms_eps_246:out0':
    qtype: u8
    quantizer: asymmetric_affine
    rounding: rtne
    max_value: 733092.25
    min_value: 0.0
    scale: 2874.87158203125
    zero_point: 0
  '@Mul_layer27_q_rope_mul_cos_247:out0':
    qtype: u8
    quantizer: asymmetric_affine
    rounding: rtne
    max_value: 15.324460983276367
    min_value: -17.238313674926758
    scale: 0.12769715487957
    zero_point: 135
  '@Mul_layer27_q_rope_mul_sin_248:out0':
    qtype: u8
    quantizer: asymmetric_affine
    rounding: rtne
    max_value: 6.05403470993042
    min_value: -5.644040584564209
    scale: 0.04587480425834656
    zero_point: 123
  '@Reshape_layer27_k_repeat_merge_249:out0':
    qtype: u8
    quantizer: asymmetric_affine
    rounding: rtne
    max_value: 14.783102035522461
    min_value: -17.224416732788086
    scale: 0.12551967799663544
    zero_point: 137
  '@Mul_layer27_attn_rms_gamma_250:out0':
    qtype: u8
    quantizer: asymmetric_affine
    rounding: rtne
    max_value: 7.054632186889648
    min_value: -3.5274016857147217
    scale: 0.04149817302823067
    zero_point: 85
  '@Initializer_layer27_attn_gamma_252:out0':
    qtype: u8
    quantizer: asymmetric_affine
    rounding: rtne
    max_value: 1.0078125
    min_value: 0.0
    scale: 0.003952206112444401
    zero_point: 0
  '@Mul_layer27_attn_rms_scale_to_unit_253:out0':
    qtype: u8
    quantizer: asymmetric_affine
    rounding: rtne
    max_value: 23.854787826538086
    min_value: -3.5000574588775635
    scale: 0.1072738990187645
    zero_point: 33
  '@Transpose_layer28_q_heads_254:out0':
    qtype: u8
    quantizer: asymmetric_affine
    rounding: rtne
    max_value: 16.111101150512695
    min_value: -12.202563285827637
    scale: 0.11103397607803345
    zero_point: 110
  '@Concat_layer28_q_rope_rotate_half_256:out0':
    qtype: u8
    quantizer: asymmetric_affine
    rounding: rtne
    max_value: 16.111101150512695
    min_value: -12.202563285827637
    scale: 0.11103397607803345
    zero_point: 110
  '@Reshape_layer28_k_repeat_expand_258:out0':
    qtype: u8
    quantizer: asymmetric_affine
    rounding: rtne
    max_value: 15.008164405822754
    min_value: -13.985754013061523
    scale: 0.11370164155960083
    zero_point: 123
  '@Slice_layer29_q_rope_slice_second_261:out0':
    qtype: u8
    quantizer: asymmetric_affine
    rounding: rtne
    max_value: 12.400550842285156
    min_value: -13.79057788848877
    scale: 0.1027103066444397
    zero_point: 134
  '@Mul_layer29_k_rope_mul_cos_263:out0':
    qtype: u8
    quantizer: asymmetric_affine
    rounding: rtne
    max_value: 12.56025505065918
    min_value: -10.823343276977539
    scale: 0.09170038253068924
    zero_point: 118
  '@Mul_layer29_k_rope_mul_sin_264:out0':
    qtype: u8
    quantizer: asymmetric_affine
    rounding: rtne
    max_value: 2.5010507106781006
    min_value: -2.3572537899017334
    scale: 0.0190521739423275
    zero_point: 124
  '@Mul_layer29_attn_rms_square_266:out0':
    qtype: u8
    quantizer: asymmetric_affine
    rounding: rtne
    max_value: 25760670.0
    min_value: 0.0
    scale: 101022.234375
    zero_point: 0
  '@Add_layer22_attn_residual_267:out0':
    qtype: u8
    quantizer: asymmetric_affine
    rounding: rtne
    max_value: 20465.85546875
    min_value: -680.0744018554688
    scale: 82.92521667480469
    zero_point: 8
  '@Reshape_layer23_ctx_merge_heads_269:out0':
    qtype: u8
    quantizer: asymmetric_affine
    rounding: rtne
    max_value: 6.395681858062744
    min_value: -2.604078531265259
    scale: 0.035293180495500565
    zero_point: 74
  '@MatMul_layer24_attn_context_273:out0':
    qtype: u8
    quantizer: asymmetric_affine
    rounding: rtne
    max_value: 1.6335253715515137
    min_value: -1.4622257947921753
    scale: 0.012140201404690742
    zero_point: 120
  '@Reshape_layer24_v_repeat_merge_274:out0':
    qtype: u8
    quantizer: asymmetric_affine
    rounding: rtne
    max_value: 9.293498039245605
    min_value: -7.791349411010742
    scale: 0.0669993981719017
    zero_point: 116
  '@Tile_layer24_v_repeat_tile_276:out0':
    qtype: u8
    quantizer: asymmetric_affine
    rounding: rtne
    max_value: 9.293498039245605
    min_value: -7.791349411010742
    scale: 0.0669993981719017
    zero_point: 116
  '@Mul_layer24_mlp_rms_scale_to_unit_277:out0':
    qtype: u8
    quantizer: asymmetric_affine
    rounding: rtne
    max_value: 23.85708236694336
    min_value: -4.390651226043701
    scale: 0.110775426030159
    zero_point: 40
  '@Initializer_layer24_mlp_gamma_278:out0':
    qtype: u8
    quantizer: asymmetric_affine
    rounding: rtne
    max_value: 0.435546875
    min_value: -1.4722347259521484e-05
    scale: 0.0017080847173929214
    zero_point: 0
  '@Add_layer25_causal_mask_279:out0':
    qtype: u8
    quantizer: asymmetric_affine
    rounding: rtne
    max_value: 8.657729148864746
    min_value: -10005.2041015625
    scale: 39.270050048828125
    zero_point: 255
  '@Reshape_layer25_v_reshape_280:out0':
    qtype: u8
    quantizer: asymmetric_affine
    rounding: rtne
    max_value: 5.259049415588379
    min_value: -6.160203456878662
    scale: 0.044781383126974106
    zero_point: 138
  '@Add_layer26_q_rope_rope_add_282:out0':
    qtype: u8
    quantizer: asymmetric_affine
    rounding: rtne
    max_value: 13.300993919372559
    min_value: -13.230612754821777
    scale: 0.10404551774263382
    zero_point: 127
  '@Transpose_layer26_k_transpose_283:out0':
    qtype: u8
    quantizer: asymmetric_affine
    rounding: rtne
    max_value: 11.814684867858887
    min_value: -16.218488693237305
    scale: 0.1099340096116066
    zero_point: 148
  '@Mul_layer26_mlp_rms_square_287:out0':
    qtype: u8
    quantizer: asymmetric_affine
    rounding: rtne
    max_value: 417174720.0
    min_value: 0.0
    scale: 1635979.25
    zero_point: 0
  '@Transpose_layer27_q_heads_288:out0':
    qtype: u8
    quantizer: asymmetric_affine
    rounding: rtne
    max_value: 15.32469367980957
    min_value: -17.23885154724121
    scale: 0.12770017981529236
    zero_point: 135
  '@Reshape_layer27_q_reshape_289:out0':
    qtype: u8
    quantizer: asymmetric_affine
    rounding: rtne
    max_value: 15.32469367980957
    min_value: -17.23885154724121
    scale: 0.12770017981529236
    zero_point: 135
  '@Concat_layer27_q_rope_rotate_half_290:out0':
    qtype: u8
    quantizer: asymmetric_affine
    rounding: rtne
    max_value: 17.23885154724121
    min_value: -17.23885154724121
    scale: 0.1352066844701767
    zero_point: 127
  '@Slice_layer27_q_rope_slice_first_291:out0':
    qtype: u8
    quantizer: asymmetric_affine
    rounding: rtne
    max_value: 15.32469367980957
    min_value: -17.23885154724121
    scale: 0.12770017981529236
    zero_point: 135
  '@Tile_layer27_k_repeat_tile_292:out0':
    qtype: u8
    quantizer: asymmetric_affine
    rounding: rtne
    max_value: 14.783102035522461
    min_value: -17.224416732788086
    scale: 0.12551967799663544
    zero_point: 137
  '@Reshape_layer27_k_repeat_expand_293:out0':
    qtype: u8
    quantizer: asymmetric_affine
    rounding: rtne
    max_value: 14.783102035522461
    min_value: -17.224416732788086
    scale: 0.12551967799663544
    zero_point: 137
  '@Divide_295:out0':
    qtype: u8
    quantizer: asymmetric_affine
    rounding: rtne
    max_value: 0.06185414269566536
    min_value: 0.0
    scale: 0.00024256526376120746
    zero_point: 0
  '@Reshape_layer28_q_reshape_296:out0':
    qtype: u8
    quantizer: asymmetric_affine
    rounding: rtne
    max_value: 16.111101150512695
    min_value: -12.202563285827637
    scale: 0.11103397607803345
    zero_point: 110
  '@Neg_layer28_q_rope_neg_second_297:out0':
    qtype: u8
    quantizer: asymmetric_affine
    rounding: rtne
    max_value: 16.111101150512695
    min_value: -12.202563285827637
    scale: 0.11103397607803345
    zero_point: 110
  '@Slice_layer28_q_rope_slice_first_298:out0':
    qtype: u8
    quantizer: asymmetric_affine
    rounding: rtne
    max_value: 16.111101150512695
    min_value: -12.202563285827637
    scale: 0.11103397607803345
    zero_point: 110
  '@Add_layer28_k_rope_rope_add_299:out0':
    qtype: u8
    quantizer: asymmetric_affine
    rounding: rtne
    max_value: 15.008164405822754
    min_value: -13.985754013061523
    scale: 0.11370164155960083
    zero_point: 123
  '@Add_layer28_attn_rms_eps_300:out0':
    qtype: u8
    quantizer: asymmetric_affine
    rounding: rtne
    max_value: 719465.0625
    min_value: 0.0
    scale: 2821.431640625
    zero_point: 0
  '@Transpose_layer29_k_heads_302:out0':
    qtype: u8
    quantizer: asymmetric_affine
    rounding: rtne
    max_value: 12.560400009155273
    min_value: -10.823599815368652
    scale: 0.09170195460319519
    zero_point: 118
  '@Reshape_layer29_k_reshape_303:out0':
    qtype: u8
    quantizer: asymmetric_affine
    rounding: rtne
    max_value: 12.560400009155273
    min_value: -10.823599815368652
    scale: 0.09170195460319519
    zero_point: 118
  '@Concat_layer29_k_rope_rotate_half_304:out0':
    qtype: u8
    quantizer: asymmetric_affine
    rounding: rtne
    max_value: 12.560400009155273
    min_value: -12.560400009155273
    scale: 0.09851294010877609
    zero_point: 128
  '@Slice_layer29_k_rope_slice_first_305:out0':
    qtype: u8
    quantizer: asymmetric_affine
    rounding: rtne
    max_value: 12.560400009155273
    min_value: -10.823599815368652
    scale: 0.09170195460319519
    zero_point: 118
  '@Neg_layer29_k_rope_neg_second_306:out0':
    qtype: u8
    quantizer: asymmetric_affine
    rounding: rtne
    max_value: 12.560400009155273
    min_value: -12.560400009155273
    scale: 0.09851294010877609
    zero_point: 128
  '@Slice_layer29_k_rope_slice_second_307:out0':
    qtype: u8
    quantizer: asymmetric_affine
    rounding: rtne
    max_value: 12.560400009155273
    min_value: -10.823599815368652
    scale: 0.09170195460319519
    zero_point: 118
  '@Add_layer21_mlp_residual_308:out0':
    qtype: u8
    quantizer: asymmetric_affine
    rounding: rtne
    max_value: 20471.89453125
    min_value: -679.3722534179688
    scale: 82.9461441040039
    zero_point: 8
  '@Mul_layer22_swiglu_mul_310:out0':
    qtype: u8
    quantizer: asymmetric_affine
    rounding: rtne
    max_value: 7.295241355895996
    min_value: -7.875452518463135
    scale: 0.059492919594049454
    zero_point: 132
  '@Transpose_layer23_ctx_transpose_312:out0':
    qtype: u8
    quantizer: asymmetric_affine
    rounding: rtne
    max_value: 6.395681858062744
    min_value: -2.604078531265259
    scale: 0.035293180495500565
    zero_point: 74
  '@Mul_layer23_mlp_rms_gamma_315:out0':
    qtype: u8
    quantizer: asymmetric_affine
    rounding: rtne
    max_value: 1.2349456548690796
    min_value: -1.6730576753616333
    scale: 0.01140393503010273
    zero_point: 147
  '@Softmax_layer24_softmax_317:out0':
    qtype: u8
    quantizer: asymmetric_affine
    rounding: rtne
    max_value: 1.0
    min_value: 0.0
    scale: 0.003921568859368563
    zero_point: 0
  '@Reshape_layer24_v_repeat_expand_318:out0':
    qtype: u8
    quantizer: asymmetric_affine
    rounding: rtne
    max_value: 9.293498039245605
    min_value: -7.791349411010742
    scale: 0.0669993981719017
    zero_point: 116
  '@Transpose_layer24_v_heads_319:out0':
    qtype: u8
    quantizer: asymmetric_affine
    rounding: rtne
    max_value: 9.293498039245605
    min_value: -7.791349411010742
    scale: 0.0669993981719017
    zero_point: 116
  '@Divide_321:out0':
    qtype: u8
    quantizer: asymmetric_affine
    rounding: rtne
    max_value: 0.07827311009168625
    min_value: 0.0
    scale: 0.0003069533850066364
    zero_point: 0
  '@Mul_layer25_attn_scale_322:out0':
    qtype: u8
    quantizer: asymmetric_affine
    rounding: rtne
    max_value: 8.657729148864746
    min_value: -5.204054832458496
    scale: 0.05435993894934654
    zero_point: 96
  '@MatMul_layer25_attn_scores_323:out0':
    qtype: u8
    quantizer: asymmetric_affine
    rounding: rtne
    max_value: 69.26183319091797
    min_value: -41.63243865966797
    scale: 0.43487951159477234
    zero_point: 96
  '@Add_layer25_mlp_rms_eps_325:out0':
    qtype: u8
    quantizer: asymmetric_affine
    rounding: rtne
    max_value: 733474.5625
    min_value: 0.0
    scale: 2876.370849609375
    zero_point: 0
  '@Mul_layer26_q_rope_mul_cos_326:out0':
    qtype: u8
    quantizer: asymmetric_affine
    rounding: rtne
    max_value: 13.305058479309082
    min_value: -13.241929054260254
    scale: 0.10410583019256592
    zero_point: 127
  '@Mul_layer26_q_rope_mul_sin_327:out0':
    qtype: u8
    quantizer: asymmetric_affine
    rounding: rtne
    max_value: 4.433967113494873
    min_value: -4.1168975830078125
    scale: 0.03353280574083328
    zero_point: 123
  '@Reshape_layer26_k_repeat_merge_328:out0':
    qtype: u8
    quantizer: asymmetric_affine
    rounding: rtne
    max_value: 11.814684867858887
    min_value: -16.218488693237305
    scale: 0.1099340096116066
    zero_point: 148
  '@Mul_layer26_attn_rms_gamma_329:out0':
    qtype: u8
    quantizer: asymmetric_affine
    rounding: rtne
    max_value: 6.37621545791626
    min_value: -3.2449958324432373
    scale: 0.03773023933172226
    zero_point: 86
  '@Initializer_layer26_attn_gamma_331:out0':
    qtype: u8
    quantizer: asymmetric_affine
    rounding: rtne
    max_value: 0.8671875
    min_value: 0.0
    scale: 0.0034007353242486715
    zero_point: 0
  '@Mul_layer26_attn_rms_scale_to_unit_332:out0':
    qtype: u8
    quantizer: asymmetric_affine
    rounding: rtne
    max_value: 23.85561752319336
    min_value: -3.7419772148132324
    scale: 0.10822586715221405
    zero_point: 35
  '@Neg_layer27_q_rope_neg_second_334:out0':
    qtype: u8
    quantizer: asymmetric_affine
    rounding: rtne
    max_value: 17.23885154724121
    min_value: -17.23885154724121
    scale: 0.1352066844701767
    zero_point: 127
  '@Slice_layer27_q_rope_slice_second_335:out0':
    qtype: u8
    quantizer: asymmetric_affine
    rounding: rtne
    max_value: 15.32469367980957
    min_value: -17.23885154724121
    scale: 0.12770017981529236
    zero_point: 135
  '@Add_layer27_k_rope_rope_add_336:out0':
    qtype: u8
    quantizer: asymmetric_affine
    rounding: rtne
    max_value: 14.783102035522461
    min_value: -17.224416732788086
    scale: 0.12551967799663544
    zero_point: 137
  '@Slice_layer28_q_rope_slice_second_339:out0':
    qtype: u8
    quantizer: asymmetric_affine
    rounding: rtne
    max_value: 16.111101150512695
    min_value: -12.202563285827637
    scale: 0.11103397607803345
    zero_point: 110
  '@Mul_layer28_k_rope_mul_cos_341:out0':
    qtype: u8
    quantizer: asymmetric_affine
    rounding: rtne
    max_value: 14.999695777893066
    min_value: -13.98735237121582
    scale: 0.11367470026016235
    zero_point: 123
  '@Mul_layer28_k_rope_mul_sin_342:out0':
    qtype: u8
    quantizer: asymmetric_affine
    rounding: rtne
    max_value: 2.548407793045044
    min_value: -1.879744529724121
    scale: 0.01736530289053917
    zero_point: 108
  '@Mul_layer28_attn_rms_square_344:out0':
    qtype: u8
    quantizer: asymmetric_affine
    rounding: rtne
    max_value: 408825824.0
    min_value: 0.0
    scale: 1603238.5
    zero_point: 0
  '@Concat_layer28_k_rope_rotate_half_345:out0':
    qtype: u8
    quantizer: asymmetric_affine
    rounding: rtne
    max_value: 14.999868392944336
    min_value: -14.999868392944336
    scale: 0.11764602363109589
    zero_point: 128
  '@Add_layer21_attn_residual_349:out0':
    qtype: u8
    quantizer: asymmetric_affine
    rounding: rtne
    max_value: 20470.59765625
    min_value: -679.3795776367188
    scale: 82.94108581542969
    zero_point: 8
  '@Reshape_layer22_ctx_merge_heads_351:out0':
    qtype: u8
    quantizer: asymmetric_affine
    rounding: rtne
    max_value: 1.3651437759399414
    min_value: -0.9711257219314575
    scale: 0.009161841124296188
    zero_point: 106
  '@MatMul_layer23_attn_context_355:out0':
    qtype: u8
    quantizer: asymmetric_affine
    rounding: rtne
    max_value: 6.395681858062744
    min_value: -2.604078531265259
    scale: 0.035293180495500565
    zero_point: 74
  '@Reshape_layer23_v_repeat_merge_356:out0':
    qtype: u8
    quantizer: asymmetric_affine
    rounding: rtne
    max_value: 8.19520378112793
    min_value: -8.880636215209961
    scale: 0.06696407496929169
    zero_point: 133
  '@Tile_layer23_v_repeat_tile_358:out0':
    qtype: u8
    quantizer: asymmetric_affine
    rounding: rtne
    max_value: 8.19520378112793
    min_value: -8.880636215209961
    scale: 0.06696407496929169
    zero_point: 133
  '@Mul_layer23_mlp_rms_scale_to_unit_359:out0':
    qtype: u8
    quantizer: asymmetric_affine
    rounding: rtne
    max_value: 23.86595916748047
    min_value: -9.016900062561035
    scale: 0.12895238399505615
    zero_point: 70
  '@Initializer_layer23_mlp_gamma_360:out0':
    qtype: u8
    quantizer: asymmetric_affine
    rounding: rtne
    max_value: 0.400390625
    min_value: -0.000507354736328125
    scale: 0.001572148990817368
    zero_point: 0
  '@Add_layer24_causal_mask_361:out0':
    qtype: u8
    quantizer: asymmetric_affine
    rounding: rtne
    max_value: 7.1136627197265625
    min_value: -10004.6279296875
    scale: 39.2617301940918
    zero_point: 255
  '@Reshape_layer24_v_reshape_362:out0':
    qtype: u8
    quantizer: asymmetric_affine
    rounding: rtne
    max_value: 9.293498039245605
    min_value: -7.791349411010742
    scale: 0.0669993981719017
    zero_point: 116
  '@Add_layer25_q_rope_rope_add_364:out0':
    qtype: u8
    quantizer: asymmetric_affine
    rounding: rtne
    max_value: 10.155349731445312
    min_value: -15.258905410766602
    scale: 0.09966374933719635
    zero_point: 153
  '@Transpose_layer25_k_transpose_365:out0':
    qtype: u8
    quantizer: asymmetric_affine
    rounding: rtne
    max_value: 13.6653470993042
    min_value: -16.142099380493164
    scale: 0.11689194291830063
    zero_point: 138
  '@Mul_layer25_mlp_rms_square_369:out0':
    qtype: u8
    quantizer: asymmetric_affine
    rounding: rtne
    max_value: 417417216.0
    min_value: 0.0
    scale: 1636930.25
    zero_point: 0
  '@Transpose_layer26_q_heads_370:out0':
    qtype: u8
    quantizer: asymmetric_affine
    rounding: rtne
    max_value: 13.305127143859863
    min_value: -13.242130279541016
    scale: 0.10410688817501068
    zero_point: 127
  '@Reshape_layer26_q_reshape_371:out0':
    qtype: u8
    quantizer: asymmetric_affine
    rounding: rtne
    max_value: 13.305127143859863
    min_value: -13.242130279541016
    scale: 0.10410688817501068
    zero_point: 127
  '@Concat_layer26_q_rope_rotate_half_372:out0':
    qtype: u8
    quantizer: asymmetric_affine
    rounding: rtne
    max_value: 13.305127143859863
    min_value: -13.242130279541016
    scale: 0.10410688817501068
    zero_point: 127
  '@Slice_layer26_q_rope_slice_first_373:out0':
    qtype: u8
    quantizer: asymmetric_affine
    rounding: rtne
    max_value: 13.305127143859863
    min_value: -13.242130279541016
    scale: 0.10410688817501068
    zero_point: 127
  '@Tile_layer26_k_repeat_tile_374:out0':
    qtype: u8
    quantizer: asymmetric_affine
    rounding: rtne
    max_value: 11.814684867858887
    min_value: -16.218488693237305
    scale: 0.1099340096116066
    zero_point: 148
  '@Reshape_layer26_k_repeat_expand_375:out0':
    qtype: u8
    quantizer: asymmetric_affine
    rounding: rtne
    max_value: 11.814684867858887
    min_value: -16.218488693237305
    scale: 0.1099340096116066
    zero_point: 148
  '@Divide_377:out0':
    qtype: u8
    quantizer: asymmetric_affine
    rounding: rtne
    max_value: 0.06386615335941315
    min_value: 0.0
    scale: 0.00025045551592484117
    zero_point: 0
  '@Mul_layer27_k_rope_mul_cos_381:out0':
    qtype: u8
    quantizer: asymmetric_affine
    rounding: rtne
    max_value: 14.778468132019043
    min_value: -17.21279525756836
    scale: 0.12545594573020935
    zero_point: 137
  '@Mul_layer27_k_rope_mul_sin_382:out0':
    qtype: u8
    quantizer: asymmetric_affine
    rounding: rtne
    max_value: 3.465407371520996
    min_value: -4.547152996063232
    scale: 0.03142180293798447
    zero_point: 145
  '@Add_layer27_attn_rms_eps_383:out0':
    qtype: u8
    quantizer: asymmetric_affine
    rounding: rtne
    max_value: 732997.25
    min_value: 0.0
    scale: 2874.4990234375
    zero_point: 0
  '@Transpose_layer28_k_heads_385:out0':
    qtype: u8
    quantizer: asymmetric_affine
    rounding: rtne
    max_value: 14.999868392944336
    min_value: -13.987683296203613
    scale: 0.11367667466402054
    zero_point: 123
  '@Reshape_layer28_k_reshape_386:out0':
    qtype: u8
    quantizer: asymmetric_affine
    rounding: rtne
    max_value: 14.999868392944336
    min_value: -13.987683296203613
    scale: 0.11367667466402054
    zero_point: 123
  '@Neg_layer28_k_rope_neg_second_387:out0':
    qtype: u8
    quantizer: asymmetric_affine
    rounding: rtne
    max_value: 14.999868392944336
    min_value: -14.999868392944336
    scale: 0.11764602363109589
    zero_point: 128
  '@Slice_layer28_k_rope_slice_first_388:out0':
    qtype: u8
    quantizer: asymmetric_affine
    rounding: rtne
    max_value: 14.999868392944336
    min_value: -13.987683296203613
    scale: 0.11367667466402054
    zero_point: 123
  '@Add_layer20_mlp_residual_390:out0':
    qtype: u8
    quantizer: asymmetric_affine
    rounding: rtne
    max_value: 20463.142578125
    min_value: -682.2412719726562
    scale: 82.92308044433594
    zero_point: 8
  '@Mul_layer21_swiglu_mul_392:out0':
    qtype: u8
    quantizer: asymmetric_affine
    rounding: rtne
    max_value: 8.37192153930664
    min_value: -3.4993858337402344
    scale: 0.04655414819717407
    zero_point: 75
  '@Transpose_layer22_ctx_transpose_394:out0':
    qtype: u8
    quantizer: asymmetric_affine
    rounding: rtne
    max_value: 1.3651437759399414
    min_value: -0.9711257219314575
    scale: 0.009161841124296188
    zero_point: 106
  '@Mul_layer22_mlp_rms_gamma_397:out0':
    qtype: u8
    quantizer: asymmetric_affine
    rounding: rtne
    max_value: 1.2880281209945679
    min_value: -1.9196257591247559
    scale: 0.012579035013914108
    zero_point: 153
  '@Softmax_layer23_softmax_399:out0':
    qtype: u8
    quantizer: asymmetric_affine
    rounding: rtne
    max_value: 1.0
    min_value: 0.0
    scale: 0.003921568859368563
    zero_point: 0
  '@Reshape_layer23_v_repeat_expand_400:out0':
    qtype: u8
    quantizer: asymmetric_affine
    rounding: rtne
    max_value: 8.19520378112793
    min_value: -8.880636215209961
    scale: 0.06696407496929169
    zero_point: 133
  '@Transpose_layer23_v_heads_401:out0':
    qtype: u8
    quantizer: asymmetric_affine
    rounding: rtne
    max_value: 8.19520378112793
    min_value: -8.880636215209961
    scale: 0.06696407496929169
    zero_point: 133
  '@Divide_403:out0':
    qtype: u8
    quantizer: asymmetric_affine
    rounding: rtne
    max_value: 0.09901151806116104
    min_value: 0.0
    scale: 0.00038828045944683254
    zero_point: 0
  '@Mul_layer24_attn_scale_404:out0':
    qtype: u8
    quantizer: asymmetric_affine
    rounding: rtne
    max_value: 7.1136627197265625
    min_value: -4.777174472808838
    scale: 0.04663073271512985
    zero_point: 102
  '@MatMul_layer24_attn_scores_405:out0':
    qtype: u8
    quantizer: asymmetric_affine
    rounding: rtne
    max_value: 56.9093017578125
    min_value: -38.2173957824707
    scale: 0.3730458617210388
    zero_point: 102
  '@Add_layer24_mlp_rms_eps_407:out0':
    qtype: u8
    quantizer: asymmetric_affine
    rounding: rtne
    max_value: 733326.0625
    min_value: 0.0
    scale: 2875.78857421875
    zero_point: 0
  '@Mul_layer25_q_rope_mul_cos_408:out0':
    qtype: u8
    quantizer: asymmetric_affine
    rounding: rtne
    max_value: 10.154393196105957
    min_value: -15.274909019470215
    scale: 0.09972275048494339
    zero_point: 153
  '@Mul_layer25_q_rope_mul_sin_409:out0':
    qtype: u8
    quantizer: asymmetric_affine
    rounding: rtne
    max_value: 4.161322593688965
    min_value: -4.2699503898620605
    scale: 0.03306381404399872
    zero_point: 129
  '@Reshape_layer25_k_repeat_merge_410:out0':
    qtype: u8
    quantizer: asymmetric_affine
    rounding: rtne
    max_value: 13.6653470993042
    min_value: -16.142099380493164
    scale: 0.11689194291830063
    zero_point: 138
  '@Mul_layer25_attn_rms_gamma_411:out0':
    qtype: u8
    quantizer: asymmetric_affine
    rounding: rtne
    max_value: 6.605789661407471
    min_value: -3.382939100265503
    scale: 0.0391714833676815
    zero_point: 86
  '@Initializer_layer25_attn_gamma_413:out0':
    qtype: u8
    quantizer: asymmetric_affine
    rounding: rtne
    max_value: 0.7890625
    min_value: 0.0
    scale: 0.0030943627934902906
    zero_point: 0
  '@Mul_layer25_attn_rms_scale_to_unit_414:out0':
    qtype: u8
    quantizer: asymmetric_affine
    rounding: rtne
    max_value: 23.85688018798828
    min_value: -4.287289142608643
    scale: 0.11036928743124008
    zero_point: 39
  '@Neg_layer26_q_rope_neg_second_416:out0':
    qtype: u8
    quantizer: asymmetric_affine
    rounding: rtne
    max_value: 13.305127143859863
    min_value: -13.242130279541016
    scale: 0.10410688817501068
    zero_point: 127
  '@Slice_layer26_q_rope_slice_second_417:out0':
    qtype: u8
    quantizer: asymmetric_affine
    rounding: rtne
    max_value: 13.305127143859863
    min_value: -13.242130279541016
    scale: 0.10410688817501068
    zero_point: 127
  '@Add_layer26_k_rope_rope_add_418:out0':
    qtype: u8
    quantizer: asymmetric_affine
    rounding: rtne
    max_value: 11.814684867858887
    min_value: -16.218488693237305
    scale: 0.1099340096116066
    zero_point: 148
  '@Add_layer26_attn_rms_eps_420:out0':
    qtype: u8
    quantizer: asymmetric_affine
    rounding: rtne
    max_value: 733459.875
    min_value: 0.0
    scale: 2876.313232421875
    zero_point: 0
  '@Transpose_layer27_k_heads_421:out0':
    qtype: u8
    quantizer: asymmetric_affine
    rounding: rtne
    max_value: 14.778651237487793
    min_value: -17.21320343017578
    scale: 0.1254582554101944
    zero_point: 137
  '@Reshape_layer27_k_reshape_422:out0':
    qtype: u8
    quantizer: asymmetric_affine
    rounding: rtne
    max_value: 14.778651237487793
    min_value: -17.21320343017578
    scale: 0.1254582554101944
    zero_point: 137
  '@Concat_layer27_k_rope_rotate_half_423:out0':
    qtype: u8
    quantizer: asymmetric_affine
    rounding: rtne
    max_value: 15.316719055175781
    min_value: -17.21320343017578
    scale: 0.127568319439888
    zero_point: 135
  '@Slice_layer27_k_rope_slice_first_424:out0':
    qtype: u8
    quantizer: asymmetric_affine
    rounding: rtne
    max_value: 14.778651237487793
    min_value: -17.21320343017578
    scale: 0.1254582554101944
    zero_point: 137
  '@Mul_layer27_attn_rms_square_426:out0':
    qtype: u8
    quantizer: asymmetric_affine
    rounding: rtne
    max_value: 417112576.0
    min_value: 0.0
    scale: 1635735.625
    zero_point: 0
  '@Neg_layer27_k_rope_neg_second_427:out0':
    qtype: u8
    quantizer: asymmetric_affine
    rounding: rtne
    max_value: 15.316719055175781
    min_value: -17.21320343017578
    scale: 0.127568319439888
    zero_point: 135
  '@Slice_layer28_k_rope_slice_second_430:out0':
    qtype: u8
    quantizer: asymmetric_affine
    rounding: rtne
    max_value: 14.999868392944336
    min_value: -13.987683296203613
    scale: 0.11367667466402054
    zero_point: 123
  '@Add_layer20_attn_residual_434:out0':
    qtype: u8
    quantizer: asymmetric_affine
    rounding: rtne
    max_value: 20462.73046875
    min_value: -682.0977172851562
    scale: 82.92089080810547
    zero_point: 8
  '@Reshape_layer21_ctx_merge_heads_436:out0':
    qtype: u8
    quantizer: asymmetric_affine
    rounding: rtne
    max_value: 1.4602113962173462
    min_value: -1.8994475603103638
    scale: 0.013175133615732193
    zero_point: 144
  '@MatMul_layer22_attn_context_440:out0':
    qtype: u8
    quantizer: asymmetric_affine
    rounding: rtne
    max_value: 1.3651437759399414
    min_value: -0.9711257219314575
    scale: 0.009161841124296188
    zero_point: 106
  '@Reshape_layer22_v_repeat_merge_441:out0':
    qtype: u8
    quantizer: asymmetric_affine
    rounding: rtne
    max_value: 4.587616443634033
    min_value: -4.031040668487549
    scale: 0.03379865363240242
    zero_point: 119
  '@Tile_layer22_v_repeat_tile_443:out0':
    qtype: u8
    quantizer: asymmetric_affine
    rounding: rtne
    max_value: 4.587616443634033
    min_value: -4.031040668487549
    scale: 0.03379865363240242
    zero_point: 119
  '@Mul_layer22_mlp_rms_scale_to_unit_444:out0':
    qtype: u8
    quantizer: asymmetric_affine
    rounding: rtne
    max_value: 23.866256713867188
    min_value: -10.625388145446777
    scale: 0.13526135683059692
    zero_point: 79
  '@Initializer_layer22_mlp_gamma_445:out0':
    qtype: u8
    quantizer: asymmetric_affine
    rounding: rtne
    max_value: 0.357421875
    min_value: 0.0
    scale: 0.0014016544446349144
    zero_point: 0
  '@Add_layer23_causal_mask_446:out0':
    qtype: u8
    quantizer: asymmetric_affine
    rounding: rtne
    max_value: 8.655861854553223
    min_value: -10006.71875
    scale: 39.27598190307617
    zero_point: 255
  '@Reshape_layer23_v_reshape_447:out0':
    qtype: u8
    quantizer: asymmetric_affine
    rounding: rtne
    max_value: 8.19520378112793
    min_value: -8.880636215209961
    scale: 0.06696407496929169
    zero_point: 133
  '@Add_layer24_q_rope_rope_add_449:out0':
    qtype: u8
    quantizer: asymmetric_affine
    rounding: rtne
    max_value: 11.32198715209961
    min_value: -10.299802780151367
    scale: 0.08479133248329163
    zero_point: 121
  '@Transpose_layer24_k_transpose_450:out0':
    qtype: u8
    quantizer: asymmetric_affine
    rounding: rtne
    max_value: 11.383994102478027
    min_value: -9.140347480773926
    scale: 0.08048761636018753
    zero_point: 114
  '@Mul_layer24_mlp_rms_square_454:out0':
    qtype: u8
    quantizer: asymmetric_affine
    rounding: rtne
    max_value: 417380096.0
    min_value: 0.0
    scale: 1636784.75
    zero_point: 0
  '@Transpose_layer25_q_heads_455:out0':
    qtype: u8
    quantizer: asymmetric_affine
    rounding: rtne
    max_value: 10.154397010803223
    min_value: -15.275140762329102
    scale: 0.099723681807518
    zero_point: 153
  '@Reshape_layer25_q_reshape_456:out0':
    qtype: u8
    quantizer: asymmetric_affine
    rounding: rtne
    max_value: 10.154397010803223
    min_value: -15.275140762329102
    scale: 0.099723681807518
    zero_point: 153
  '@Concat_layer25_q_rope_rotate_half_457:out0':
    qtype: u8
    quantizer: asymmetric_affine
    rounding: rtne
    max_value: 15.275140762329102
    min_value: -15.275140762329102
    scale: 0.11980502307415009
    zero_point: 128
  '@Slice_layer25_q_rope_slice_first_458:out0':
    qtype: u8
    quantizer: asymmetric_affine
    rounding: rtne
    max_value: 10.154397010803223
    min_value: -15.275140762329102
    scale: 0.099723681807518
    zero_point: 153
  '@Tile_layer25_k_repeat_tile_459:out0':
    qtype: u8
    quantizer: asymmetric_affine
    rounding: rtne
    max_value: 13.6653470993042
    min_value: -16.142099380493164
    scale: 0.11689194291830063
    zero_point: 138
  '@Reshape_layer25_k_repeat_expand_460:out0':
    qtype: u8
    quantizer: asymmetric_affine
    rounding: rtne
    max_value: 13.6653470993042
    min_value: -16.142099380493164
    scale: 0.11689194291830063
    zero_point: 138
  '@Divide_462:out0':
    qtype: u8
    quantizer: asymmetric_affine
    rounding: rtne
    max_value: 0.0739908218383789
    min_value: 0.0
    scale: 0.0002901600964833051
    zero_point: 0
  '@Mul_layer26_k_rope_mul_cos_466:out0':
    qtype: u8
    quantizer: asymmetric_affine
    rounding: rtne
    max_value: 11.816408157348633
    min_value: -16.204986572265625
    scale: 0.10988782346248627
    zero_point: 147
  '@Mul_layer26_k_rope_mul_sin_467:out0':
    qtype: u8
    quantizer: asymmetric_affine
    rounding: rtne
    max_value: 2.4459543228149414
    min_value: -3.4846129417419434
    scale: 0.023257127031683922
    zero_point: 150
  '@Mul_layer26_attn_rms_square_469:out0':
    qtype: u8
    quantizer: asymmetric_affine
    rounding: rtne
    max_value: 417405024.0
    min_value: 0.0
    scale: 1636882.5
    zero_point: 0
  '@Slice_layer27_k_rope_slice_second_471:out0':
    qtype: u8
    quantizer: asymmetric_affine
    rounding: rtne
    max_value: 14.778651237487793
    min_value: -17.21320343017578
    scale: 0.1254582554101944
    zero_point: 137
  '@Add_layer19_mlp_residual_474:out0':
    qtype: u8
    quantizer: asymmetric_affine
    rounding: rtne
    max_value: 20465.193359375
    min_value: -682.0737915039062
    scale: 82.93045806884766
    zero_point: 8
  '@Mul_layer20_swiglu_mul_476:out0':
    qtype: u8
    quantizer: asymmetric_affine
    rounding: rtne
    max_value: 6.87860631942749
    min_value: -4.439406871795654
    scale: 0.044384364038705826
    zero_point: 100
  '@Transpose_layer21_ctx_transpose_478:out0':
    qtype: u8
    quantizer: asymmetric_affine
    rounding: rtne
    max_value: 1.4602113962173462
    min_value: -1.8994475603103638
    scale: 0.013175133615732193
    zero_point: 144
  '@Mul_layer21_mlp_rms_gamma_481:out0':
    qtype: u8
    quantizer: asymmetric_affine
    rounding: rtne
    max_value: 1.0501799583435059
    min_value: -1.769274115562439
    scale: 0.011056683026254177
    zero_point: 160
  '@Softmax_layer22_softmax_483:out0':
    qtype: u8
    quantizer: asymmetric_affine
    rounding: rtne
    max_value: 1.0
    min_value: 0.0
    scale: 0.003921568859368563
    zero_point: 0
  '@Reshape_layer22_v_repeat_expand_484:out0':
    qtype: u8
    quantizer: asymmetric_affine
    rounding: rtne
    max_value: 4.587616443634033
    min_value: -4.031040668487549
    scale: 0.03379865363240242
    zero_point: 119
  '@Transpose_layer22_v_heads_485:out0':
    qtype: u8
    quantizer: asymmetric_affine
    rounding: rtne
    max_value: 4.587616443634033
    min_value: -4.031040668487549
    scale: 0.03379865363240242
    zero_point: 119
  '@Divide_487:out0':
    qtype: u8
    quantizer: asymmetric_affine
    rounding: rtne
    max_value: 0.1076187863945961
    min_value: 0.0
    scale: 0.0004220344708301127
    zero_point: 0
  '@Mul_layer23_attn_scale_488:out0':
    qtype: u8
    quantizer: asymmetric_affine
    rounding: rtne
    max_value: 8.655861854553223
    min_value: -6.7184343338012695
    scale: 0.0602913573384285
    zero_point: 111
  '@MatMul_layer23_attn_scores_489:out0':
    qtype: u8
    quantizer: asymmetric_affine
    rounding: rtne
    max_value: 69.24689483642578
    min_value: -53.747474670410156
    scale: 0.482330858707428
    zero_point: 111
  '@Add_layer23_mlp_rms_eps_491:out0':
    qtype: u8
    quantizer: asymmetric_affine
    rounding: rtne
    max_value: 735305.25
    min_value: 0.0
    scale: 2883.550048828125
    zero_point: 0
  '@Mul_layer24_q_rope_mul_cos_492:out0':
    qtype: u8
    quantizer: asymmetric_affine
    rounding: rtne
    max_value: 11.318901062011719
    min_value: -10.298482894897461
    scale: 0.08477405458688736
    zero_point: 121
  '@Mul_layer24_q_rope_mul_sin_493:out0':
    qtype: u8
    quantizer: asymmetric_affine
    rounding: rtne
    max_value: 3.81024169921875
    min_value: -5.111603260040283
    scale: 0.03498762473464012
    zero_point: 146
  '@Reshape_layer24_k_repeat_merge_494:out0':
    qtype: u8
    quantizer: asymmetric_affine
    rounding: rtne
    max_value: 11.383994102478027
    min_value: -9.140347480773926
    scale: 0.08048761636018753
    zero_point: 114
  '@Mul_layer24_attn_rms_gamma_495:out0':
    qtype: u8
    quantizer: asymmetric_affine
    rounding: rtne
    max_value: 4.078630447387695
    min_value: -5.234562873840332
    scale: 0.03652232512831688
    zero_point: 143
  '@Initializer_layer24_attn_gamma_497:out0':
    qtype: u8
    quantizer: asymmetric_affine
    rounding: rtne
    max_value: 0.85546875
    min_value: 0.0
    scale: 0.0033547794446349144
    zero_point: 0
  '@Mul_layer24_attn_rms_scale_to_unit_498:out0':
    qtype: u8
    quantizer: asymmetric_affine
    rounding: rtne
    max_value: 23.865814208984375
    min_value: -8.535338401794434
    scale: 0.1270633488893509
    zero_point: 67
  '@Neg_layer25_q_rope_neg_second_500:out0':
    qtype: u8
    quantizer: asymmetric_affine
    rounding: rtne
    max_value: 15.275140762329102
    min_value: -15.275140762329102
    scale: 0.11980502307415009
    zero_point: 128
  '@Slice_layer25_q_rope_slice_second_501:out0':
    qtype: u8
    quantizer: asymmetric_affine
    rounding: rtne
    max_value: 10.154397010803223
    min_value: -15.275140762329102
    scale: 0.099723681807518
    zero_point: 153
  '@Add_layer25_k_rope_rope_add_502:out0':
    qtype: u8
    quantizer: asymmetric_affine
    rounding: rtne
    max_value: 13.6653470993042
    min_value: -16.142099380493164
    scale: 0.11689194291830063
    zero_point: 138
  '@Add_layer25_attn_rms_eps_504:out0':
    qtype: u8
    quantizer: asymmetric_affine
    rounding: rtne
    max_value: 733258.0625
    min_value: 0.0
    scale: 2875.521728515625
    zero_point: 0
  '@Transpose_layer26_k_heads_505:out0':
    qtype: u8
    quantizer: asymmetric_affine
    rounding: rtne
    max_value: 11.81664752960205
    min_value: -16.20517349243164
    scale: 0.10988949239253998
    zero_point: 147
  '@Reshape_layer26_k_reshape_506:out0':
    qtype: u8
    quantizer: asymmetric_affine
    rounding: rtne
    max_value: 11.81664752960205
    min_value: -16.20517349243164
    scale: 0.10988949239253998
    zero_point: 147
  '@Concat_layer26_k_rope_rotate_half_507:out0':
    qtype: u8
    quantizer: asymmetric_affine
    rounding: rtne
    max_value: 12.114916801452637
    min_value: -16.20517349243164
    scale: 0.11105918139219284
    zero_point: 146
  '@Slice_layer26_k_rope_slice_first_508:out0':
    qtype: u8
    quantizer: asymmetric_affine
    rounding: rtne
    max_value: 11.81664752960205
    min_value: -16.20517349243164
    scale: 0.10988949239253998
    zero_point: 147
  '@Neg_layer26_k_rope_neg_second_509:out0':
    qtype: u8
    quantizer: asymmetric_affine
    rounding: rtne
    max_value: 12.114916801452637
    min_value: -16.20517349243164
    scale: 0.11105918139219284
    zero_point: 146
  '@Slice_layer26_k_rope_slice_second_510:out0':
    qtype: u8
    quantizer: asymmetric_affine
    rounding: rtne
    max_value: 11.81664752960205
    min_value: -16.20517349243164
    scale: 0.10988949239253998
    zero_point: 147
  '@Add_layer19_attn_residual_512:out0':
    qtype: u8
    quantizer: asymmetric_affine
    rounding: rtne
    max_value: 20464.5078125
    min_value: -682.0007934570312
    scale: 82.92748260498047
    zero_point: 8
  '@Reshape_layer20_ctx_merge_heads_514:out0':
    qtype: u8
    quantizer: asymmetric_affine
    rounding: rtne
    max_value: 0.5998378992080688
    min_value: -0.4950298070907593
    scale: 0.00429359870031476
    zero_point: 115
  '@MatMul_layer21_attn_context_518:out0':
    qtype: u8
    quantizer: asymmetric_affine
    rounding: rtne
    max_value: 1.4602113962173462
    min_value: -1.8994475603103638
    scale: 0.013175133615732193
    zero_point: 144
  '@Reshape_layer21_v_repeat_merge_519:out0':
    qtype: u8
    quantizer: asymmetric_affine
    rounding: rtne
    max_value: 2.8141605854034424
    min_value: -5.029644966125488
    scale: 0.0307600200176239
    zero_point: 164
  '@Tile_layer21_v_repeat_tile_521:out0':
    qtype: u8
    quantizer: asymmetric_affine
    rounding: rtne
    max_value: 2.8141605854034424
    min_value: -5.029644966125488
    scale: 0.0307600200176239
    zero_point: 164
  '@Mul_layer21_mlp_rms_scale_to_unit_522:out0':
    qtype: u8
    quantizer: asymmetric_affine
    rounding: rtne
    max_value: 23.866628646850586
    min_value: -11.516742706298828
    scale: 0.1387583166360855
    zero_point: 83
  '@Initializer_layer21_mlp_gamma_523:out0':
    qtype: u8
    quantizer: asymmetric_affine
    rounding: rtne
    max_value: 0.3828125
    min_value: -1.049041748046875e-05
    scale: 0.001501266611739993
    zero_point: 0
  '@Add_layer22_causal_mask_524:out0':
    qtype: u8
    quantizer: asymmetric_affine
    rounding: rtne
    max_value: 7.514227867126465
    min_value: -10008.8701171875
    scale: 39.27994155883789
    zero_point: 255
  '@Reshape_layer22_v_reshape_525:out0':
    qtype: u8
    quantizer: asymmetric_affine
    rounding: rtne
    max_value: 4.587616443634033
    min_value: -4.031040668487549
    scale: 0.03379865363240242
    zero_point: 119
  '@Add_layer23_q_rope_rope_add_527:out0':
    qtype: u8
    quantizer: asymmetric_affine
    rounding: rtne
    max_value: 12.061137199401855
    min_value: -12.8317232131958
    scale: 0.09761906415224075
    zero_point: 131
  '@Transpose_layer23_k_transpose_528:out0':
    qtype: u8
    quantizer: asymmetric_affine
    rounding: rtne
    max_value: 13.491308212280273
    min_value: -11.05665111541748
    scale: 0.0962665006518364
    zero_point: 115
  '@Mul_layer23_mlp_rms_square_532:out0':
    qtype: u8
    quantizer: asymmetric_affine
    rounding: rtne
    max_value: 418818048.0
    min_value: 0.0
    scale: 1642423.75
    zero_point: 0
  '@Transpose_layer24_q_heads_533:out0':
    qtype: u8
    quantizer: asymmetric_affine
    rounding: rtne
    max_value: 11.318906784057617
    min_value: -10.298484802246094
    scale: 0.08477408438920975
    zero_point: 121
  '@Reshape_layer24_q_reshape_534:out0':
    qtype: u8
    quantizer: asymmetric_affine
    rounding: rtne
    max_value: 11.318906784057617
    min_value: -10.298484802246094
    scale: 0.08477408438920975
    zero_point: 121
  '@Concat_layer24_q_rope_rotate_half_535:out0':
    qtype: u8
    quantizer: asymmetric_affine
    rounding: rtne
    max_value: 11.318906784057617
    min_value: -11.318906784057617
    scale: 0.08877573907375336
    zero_point: 128
  '@Slice_layer24_q_rope_slice_first_536:out0':
    qtype: u8
    quantizer: asymmetric_affine
    rounding: rtne
    max_value: 11.318906784057617
    min_value: -10.298484802246094
    scale: 0.08477408438920975
    zero_point: 121
  '@Tile_layer24_k_repeat_tile_537:out0':
    qtype: u8
    quantizer: asymmetric_affine
    rounding: rtne
    max_value: 11.383994102478027
    min_value: -9.140347480773926
    scale: 0.08048761636018753
    zero_point: 114
  '@Reshape_layer24_k_repeat_expand_538:out0':
    qtype: u8
    quantizer: asymmetric_affine
    rounding: rtne
    max_value: 11.383994102478027
    min_value: -9.140347480773926
    scale: 0.08048761636018753
    zero_point: 114
  '@Divide_540:out0':
    qtype: u8
    quantizer: asymmetric_affine
    rounding: rtne
    max_value: 0.08261441439390182
    min_value: 0.0
    scale: 0.0003239781071897596
    zero_point: 0
  '@Mul_layer25_k_rope_mul_cos_544:out0':
    qtype: u8
    quantizer: asymmetric_affine
    rounding: rtne
    max_value: 13.659173965454102
    min_value: -16.134445190429688
    scale: 0.11683772504329681
    zero_point: 138
  '@Mul_layer25_k_rope_mul_sin_545:out0':
    qtype: u8
    quantizer: asymmetric_affine
    rounding: rtne
    max_value: 4.7420430183410645
    min_value: -3.1776843070983887
    scale: 0.031057754531502724
    zero_point: 102
  '@Mul_layer25_attn_rms_square_547:out0':
    qtype: u8
    quantizer: asymmetric_affine
    rounding: rtne
    max_value: 417334304.0
    min_value: 0.0
    scale: 1636605.125
    zero_point: 0
  '@Add_layer18_mlp_residual_552:out0':
    qtype: u8
    quantizer: asymmetric_affine
    rounding: rtne
    max_value: 20472.73828125
    min_value: -682.7681884765625
    scale: 82.9627685546875
    zero_point: 8
  '@Mul_layer19_swiglu_mul_554:out0':
    qtype: u8
    quantizer: asymmetric_affine
    rounding: rtne
    max_value: 4.393171787261963
    min_value: -4.194413661956787
    scale: 0.03367680683732033
    zero_point: 125
  '@Transpose_layer20_ctx_transpose_556:out0':
    qtype: u8
    quantizer: asymmetric_affine
    rounding: rtne
    max_value: 0.5998378992080688
    min_value: -0.4950298070907593
    scale: 0.00429359870031476
    zero_point: 115
  '@Mul_layer20_mlp_rms_gamma_559:out0':
    qtype: u8
    quantizer: asymmetric_affine
    rounding: rtne
    max_value: 1.4392527341842651
    min_value: -2.028657913208008
    scale: 0.013599650003015995
    zero_point: 149
  '@Softmax_layer21_softmax_561:out0':
    qtype: u8
    quantizer: asymmetric_affine
    rounding: rtne
    max_value: 1.0
    min_value: 0.0
    scale: 0.003921568859368563
    zero_point: 0
  '@Reshape_layer21_v_repeat_expand_562:out0':
    qtype: u8
    quantizer: asymmetric_affine
    rounding: rtne
    max_value: 2.8141605854034424
    min_value: -5.029644966125488
    scale: 0.0307600200176239
    zero_point: 164
  '@Transpose_layer21_v_heads_563:out0':
    qtype: u8
    quantizer: asymmetric_affine
    rounding: rtne
    max_value: 2.8141605854034424
    min_value: -5.029644966125488
    scale: 0.0307600200176239
    zero_point: 164
  '@Divide_565:out0':
    qtype: u8
    quantizer: asymmetric_affine
    rounding: rtne
    max_value: 0.11838861554861069
    min_value: 0.0
    scale: 0.00046426907647401094
    zero_point: 0
  '@Mul_layer22_attn_scale_566:out0':
    qtype: u8
    quantizer: asymmetric_affine
    rounding: rtne
    max_value: 7.514227867126465
    min_value: -8.869942665100098
    scale: 0.06425164639949799
    zero_point: 138
  '@MatMul_layer22_attn_scores_567:out0':
    qtype: u8
    quantizer: asymmetric_affine
    rounding: rtne
    max_value: 60.11382293701172
    min_value: -70.95954132080078
    scale: 0.5140131711959839
    zero_point: 138
  '@Add_layer22_mlp_rms_eps_569:out0':
    qtype: u8
    quantizer: asymmetric_affine
    rounding: rtne
    max_value: 735345.25
    min_value: 0.0
    scale: 2883.706787109375
    zero_point: 0
  '@Mul_layer23_q_rope_mul_cos_570:out0':
    qtype: u8
    quantizer: asymmetric_affine
    rounding: rtne
    max_value: 12.060701370239258
    min_value: -12.838685035705566
    scale: 0.09764465689659119
    zero_point: 131
  '@Mul_layer23_q_rope_mul_sin_571:out0':
    qtype: u8
    quantizer: asymmetric_affine
    rounding: rtne
    max_value: 3.2217373847961426
    min_value: -4.018440246582031
    scale: 0.0283928532153368
    zero_point: 142
  '@Reshape_layer23_k_repeat_merge_572:out0':
    qtype: u8
    quantizer: asymmetric_affine
    rounding: rtne
    max_value: 13.491308212280273
    min_value: -11.05665111541748
    scale: 0.0962665006518364
    zero_point: 115
  '@Mul_layer23_attn_rms_gamma_573:out0':
    qtype: u8
    quantizer: asymmetric_affine
    rounding: rtne
    max_value: 2.887242078781128
    min_value: -4.832980155944824
    scale: 0.030275382101535797
    zero_point: 160
  '@Initializer_layer23_attn_gamma_575:out0':
    qtype: u8
    quantizer: asymmetric_affine
    rounding: rtne
    max_value: 0.71484375
    min_value: 0.0
    scale: 0.002803308889269829
    zero_point: 0
  '@Mul_layer23_attn_rms_scale_to_unit_576:out0':
    qtype: u8
    quantizer: asymmetric_affine
    rounding: rtne
    max_value: 23.866167068481445
    min_value: -9.097373962402344
    scale: 0.12926878035068512
    zero_point: 70
  '@Neg_layer24_q_rope_neg_second_578:out0':
    qtype: u8
    quantizer: asymmetric_affine
    rounding: rtne
    max_value: 11.318906784057617
    min_value: -11.318906784057617
    scale: 0.08877573907375336
    zero_point: 128
  '@Slice_layer24_q_rope_slice_second_579:out0':
    qtype: u8
    quantizer: asymmetric_affine
    rounding: rtne
    max_value: 11.318906784057617
    min_value: -10.298484802246094
    scale: 0.08477408438920975
    zero_point: 121
  '@Add_layer24_k_rope_rope_add_580:out0':
    qtype: u8
    quantizer: asymmetric_affine
    rounding: rtne
    max_value: 11.383994102478027
    min_value: -9.140347480773926
    scale: 0.08048761636018753
    zero_point: 114
  '@Add_layer24_attn_rms_eps_582:out0':
    qtype: u8
    quantizer: asymmetric_affine
    rounding: rtne
    max_value: 735479.25
    min_value: 0.0
    scale: 2884.232421875
    zero_point: 0
  '@Transpose_layer25_k_heads_583:out0':
    qtype: u8
    quantizer: asymmetric_affine
    rounding: rtne
    max_value: 13.659473419189453
    min_value: -16.13463020324707
    scale: 0.11683962494134903
    zero_point: 138
  '@Reshape_layer25_k_reshape_584:out0':
    qtype: u8
    quantizer: asymmetric_affine
    rounding: rtne
    max_value: 13.659473419189453
    min_value: -16.13463020324707
    scale: 0.11683962494134903
    zero_point: 138
  '@Concat_layer25_k_rope_rotate_half_585:out0':
    qtype: u8
    quantizer: asymmetric_affine
    rounding: rtne
    max_value: 13.659473419189453
    min_value: -16.13463020324707
    scale: 0.11683962494134903
    zero_point: 138
  '@Slice_layer25_k_rope_slice_first_586:out0':
    qtype: u8
    quantizer: asymmetric_affine
    rounding: rtne
    max_value: 13.659473419189453
    min_value: -16.13463020324707
    scale: 0.11683962494134903
    zero_point: 138
  '@Neg_layer25_k_rope_neg_second_587:out0':
    qtype: u8
    quantizer: asymmetric_affine
    rounding: rtne
    max_value: 13.659473419189453
    min_value: -16.13463020324707
    scale: 0.11683962494134903
    zero_point: 138
  '@Slice_layer25_k_rope_slice_second_588:out0':
    qtype: u8
    quantizer: asymmetric_affine
    rounding: rtne
    max_value: 13.659473419189453
    min_value: -16.13463020324707
    scale: 0.11683962494134903
    zero_point: 138
  '@Add_layer18_attn_residual_591:out0':
    qtype: u8
    quantizer: asymmetric_affine
    rounding: rtne
    max_value: 20473.125
    min_value: -682.6619873046875
    scale: 82.96387481689453
    zero_point: 8
  '@Reshape_layer19_ctx_merge_heads_593:out0':
    qtype: u8
    quantizer: asymmetric_affine
    rounding: rtne
    max_value: 1.6778028011322021
    min_value: -1.174922227859497
    scale: 0.011187156662344933
    zero_point: 105
  '@MatMul_layer20_attn_context_597:out0':
    qtype: u8
    quantizer: asymmetric_affine
    rounding: rtne
    max_value: 0.5998378992080688
    min_value: -0.4950298070907593
    scale: 0.00429359870031476
    zero_point: 115
  '@Reshape_layer20_v_repeat_merge_598:out0':
    qtype: u8
    quantizer: asymmetric_affine
    rounding: rtne
    max_value: 4.158395290374756
    min_value: -3.873189926147461
    scale: 0.03149641305208206
    zero_point: 123
  '@Tile_layer20_v_repeat_tile_600:out0':
    qtype: u8
    quantizer: asymmetric_affine
    rounding: rtne
    max_value: 4.158395290374756
    min_value: -3.873189926147461
    scale: 0.03149641305208206
    zero_point: 123
  '@Mul_layer20_mlp_rms_scale_to_unit_601:out0':
    qtype: u8
    quantizer: asymmetric_affine
    rounding: rtne
    max_value: 23.865463256835938
    min_value: -11.540809631347656
    scale: 0.13884812593460083
    zero_point: 83
  '@Initializer_layer20_mlp_gamma_602:out0':
    qtype: u8
    quantizer: asymmetric_affine
    rounding: rtne
    max_value: 0.353515625
    min_value: -0.000629425048828125
    scale: 0.0013888041721656919
    zero_point: 0
  '@Add_layer21_causal_mask_603:out0':
    qtype: u8
    quantizer: asymmetric_affine
    rounding: rtne
    max_value: 6.901942253112793
    min_value: -10006.5234375
    scale: 39.26833724975586
    zero_point: 255
  '@Reshape_layer21_v_reshape_604:out0':
    qtype: u8
    quantizer: asymmetric_affine
    rounding: rtne
    max_value: 2.8141605854034424
    min_value: -5.029644966125488
    scale: 0.0307600200176239
    zero_point: 164
  '@Add_layer22_q_rope_rope_add_606:out0':
    qtype: u8
    quantizer: asymmetric_affine
    rounding: rtne
    max_value: 12.56357479095459
    min_value: -12.504788398742676
    scale: 0.098307304084301
    zero_point: 127
  '@Transpose_layer22_k_transpose_607:out0':
    qtype: u8
    quantizer: asymmetric_affine
    rounding: rtne
    max_value: 12.219267845153809
    min_value: -13.121578216552734
    scale: 0.09937587380409241
    zero_point: 132
  '@Mul_layer22_mlp_rms_square_611:out0':
    qtype: u8
    quantizer: asymmetric_affine
    rounding: rtne
    max_value: 418851232.0
    min_value: 0.0
    scale: 1642553.875
    zero_point: 0
  '@Transpose_layer23_q_heads_612:out0':
    qtype: u8
    quantizer: asymmetric_affine
    rounding: rtne
    max_value: 12.061053276062012
    min_value: -12.83883285522461
    scale: 0.09764661639928818
    zero_point: 131
  '@Reshape_layer23_q_reshape_613:out0':
    qtype: u8
    quantizer: asymmetric_affine
    rounding: rtne
    max_value: 12.061053276062012
    min_value: -12.83883285522461
    scale: 0.09764661639928818
    zero_point: 131
  '@Concat_layer23_q_rope_rotate_half_614:out0':
    qtype: u8
    quantizer: asymmetric_affine
    rounding: rtne
    max_value: 12.061053276062012
    min_value: -12.83883285522461
    scale: 0.09764661639928818
    zero_point: 131
  '@Slice_layer23_q_rope_slice_first_615:out0':
    qtype: u8
    quantizer: asymmetric_affine
    rounding: rtne
    max_value: 12.061053276062012
    min_value: -12.83883285522461
    scale: 0.09764661639928818
    zero_point: 131
  '@Tile_layer23_k_repeat_tile_616:out0':
    qtype: u8
    quantizer: asymmetric_affine
    rounding: rtne
    max_value: 13.491308212280273
    min_value: -11.05665111541748
    scale: 0.0962665006518364
    zero_point: 115
  '@Reshape_layer23_k_repeat_expand_617:out0':
    qtype: u8
    quantizer: asymmetric_affine
    rounding: rtne
    max_value: 13.491308212280273
    min_value: -11.05665111541748
    scale: 0.0962665006518364
    zero_point: 115
  '@Divide_619:out0':
    qtype: u8
    quantizer: asymmetric_affine
    rounding: rtne
    max_value: 0.09882388263940811
    min_value: 0.0
    scale: 0.00038754462730139494
    zero_point: 0
  '@Mul_layer24_k_rope_mul_cos_623:out0':
    qtype: u8
    quantizer: asymmetric_affine
    rounding: rtne
    max_value: 11.379532814025879
    min_value: -9.140735626220703
    scale: 0.08047163486480713
    zero_point: 114
  '@Mul_layer24_k_rope_mul_sin_624:out0':
    qtype: u8
    quantizer: asymmetric_affine
    rounding: rtne
    max_value: 1.6012043952941895
    min_value: -1.8439263105392456
    scale: 0.013510316610336304
    zero_point: 136
  '@Mul_layer24_attn_rms_square_626:out0':
    qtype: u8
    quantizer: asymmetric_affine
    rounding: rtne
    max_value: 418912096.0
    min_value: 0.0
    scale: 1642792.5
    zero_point: 0
  '@Add_layer17_mlp_residual_629:out0':
    qtype: u8
    quantizer: asymmetric_affine
    rounding: rtne
    max_value: 20480.986328125
    min_value: -682.299072265625
    scale: 82.99327850341797
    zero_point: 8
  '@Mul_layer18_swiglu_mul_631:out0':
    qtype: u8
    quantizer: asymmetric_affine
    rounding: rtne
    max_value: 3.9100735187530518
    min_value: -3.784850597381592
    scale: 0.030176173895597458
    zero_point: 125
  '@Transpose_layer19_ctx_transpose_633:out0':
    qtype: u8
    quantizer: asymmetric_affine
    rounding: rtne
    max_value: 1.6778028011322021
    min_value: -1.174922227859497
    scale: 0.011187156662344933
    zero_point: 105
  '@Mul_layer19_mlp_rms_gamma_636:out0':
    qtype: u8
    quantizer: asymmetric_affine
    rounding: rtne
    max_value: 1.2816925048828125
    min_value: -2.000474452972412
    scale: 0.012871243059635162
    zero_point: 155
  '@Softmax_layer20_softmax_638:out0':
    qtype: u8
    quantizer: asymmetric_affine
    rounding: rtne
    max_value: 1.0
    min_value: 0.0
    scale: 0.003921568859368563
    zero_point: 0
  '@Reshape_layer20_v_repeat_expand_639:out0':
    qtype: u8
    quantizer: asymmetric_affine
    rounding: rtne
    max_value: 4.158395290374756
    min_value: -3.873189926147461
    scale: 0.03149641305208206
    zero_point: 123
  '@Transpose_layer20_v_heads_640:out0':
    qtype: u8
    quantizer: asymmetric_affine
    rounding: rtne
    max_value: 4.158395290374756
    min_value: -3.873189926147461
    scale: 0.03149641305208206
    zero_point: 123
  '@Divide_642:out0':
    qtype: u8
    quantizer: asymmetric_affine
    rounding: rtne
    max_value: 0.13643693923950195
    min_value: 0.0
    scale: 0.0005350467981770635
    zero_point: 0
  '@Mul_layer21_attn_scale_643:out0':
    qtype: u8
    quantizer: asymmetric_affine
    rounding: rtne
    max_value: 6.901942253112793
    min_value: -6.52301025390625
    scale: 0.05264687165617943
    zero_point: 124
  '@MatMul_layer21_attn_scores_644:out0':
    qtype: u8
    quantizer: asymmetric_affine
    rounding: rtne
    max_value: 55.215538024902344
    min_value: -52.18408203125
    scale: 0.4211749732494354
    zero_point: 124
  '@Add_layer21_mlp_rms_eps_646:out0':
    qtype: u8
    quantizer: asymmetric_affine
    rounding: rtne
    max_value: 735663.0625
    min_value: 0.0
    scale: 2884.953125
    zero_point: 0
  '@Mul_layer22_q_rope_mul_cos_647:out0':
    qtype: u8
    quantizer: asymmetric_affine
    rounding: rtne
    max_value: 12.564876556396484
    min_value: -12.508051872253418
    scale: 0.098325215280056
    zero_point: 127
  '@Mul_layer22_q_rope_mul_sin_648:out0':
    qtype: u8
    quantizer: asymmetric_affine
    rounding: rtne
    max_value: 5.994558334350586
    min_value: -4.958307266235352
    scale: 0.042952414602041245
    zero_point: 115
  '@Reshape_layer22_k_repeat_merge_649:out0':
    qtype: u8
    quantizer: asymmetric_affine
    rounding: rtne
    max_value: 12.219267845153809
    min_value: -13.121578216552734
    scale: 0.09937587380409241
    zero_point: 132
  '@Mul_layer22_attn_rms_gamma_650:out0':
    qtype: u8
    quantizer: asymmetric_affine
    rounding: rtne
    max_value: 3.0345752239227295
    min_value: -5.846151828765869
    scale: 0.034826379269361496
    zero_point: 168
  '@Initializer_layer22_attn_gamma_652:out0':
    qtype: u8
    quantizer: asymmetric_affine
    rounding: rtne
    max_value: 0.68359375
    min_value: 0.0
    scale: 0.0026807598769664764
    zero_point: 0
  '@Mul_layer22_attn_rms_scale_to_unit_653:out0':
    qtype: u8
    quantizer: asymmetric_affine
    rounding: rtne
    max_value: 23.8665771484375
    min_value: -10.539541244506836
    scale: 0.1349259614944458
    zero_point: 78
  '@Neg_layer23_q_rope_neg_second_655:out0':
    qtype: u8
    quantizer: asymmetric_affine
    rounding: rtne
    max_value: 12.061053276062012
    min_value: -12.83883285522461
    scale: 0.09764661639928818
    zero_point: 131
  '@Slice_layer23_q_rope_slice_second_656:out0':
    qtype: u8
    quantizer: asymmetric_affine
    rounding: rtne
    max_value: 12.061053276062012
    min_value: -12.83883285522461
    scale: 0.09764661639928818
    zero_point: 131
  '@Add_layer23_k_rope_rope_add_657:out0':
    qtype: u8
    quantizer: asymmetric_affine
    rounding: rtne
    max_value: 13.491308212280273
    min_value: -11.05665111541748
    scale: 0.0962665006518364
    zero_point: 115
  '@Add_layer23_attn_rms_eps_659:out0':
    qtype: u8
    quantizer: asymmetric_affine
    rounding: rtne
    max_value: 735462.25
    min_value: 0.0
    scale: 2884.165771484375
    zero_point: 0
  '@Transpose_layer24_k_heads_660:out0':
    qtype: u8
    quantizer: asymmetric_affine
    rounding: rtne
    max_value: 11.379591941833496
    min_value: -9.140920639038086
    scale: 0.08047259598970413
    zero_point: 114
  '@Reshape_layer24_k_reshape_661:out0':
    qtype: u8
    quantizer: asymmetric_affine
    rounding: rtne
    max_value: 11.379591941833496
    min_value: -9.140920639038086
    scale: 0.08047259598970413
    zero_point: 114
  '@Concat_layer24_k_rope_rotate_half_662:out0':
    qtype: u8
    quantizer: asymmetric_affine
    rounding: rtne
    max_value: 11.379591941833496
    min_value: -9.140920639038086
    scale: 0.08047259598970413
    zero_point: 114
  '@Slice_layer24_k_rope_slice_first_663:out0':
    qtype: u8
    quantizer: asymmetric_affine
    rounding: rtne
    max_value: 11.379591941833496
    min_value: -9.140920639038086
    scale: 0.08047259598970413
    zero_point: 114
  '@Neg_layer24_k_rope_neg_second_664:out0':
    qtype: u8
    quantizer: asymmetric_affine
    rounding: rtne
    max_value: 11.379591941833496
    min_value: -9.140920639038086
    scale: 0.08047259598970413
    zero_point: 114
  '@Slice_layer24_k_rope_slice_second_665:out0':
    qtype: u8
    quantizer: asymmetric_affine
    rounding: rtne
    max_value: 11.379591941833496
    min_value: -9.140920639038086
    scale: 0.08047259598970413
    zero_point: 114
  '@Add_layer17_attn_residual_668:out0':
    qtype: u8
    quantizer: asymmetric_affine
    rounding: rtne
    max_value: 20482.21484375
    min_value: -682.1713256835938
    scale: 82.99759674072266
    zero_point: 8
  '@Reshape_layer18_ctx_merge_heads_670:out0':
    qtype: u8
    quantizer: asymmetric_affine
    rounding: rtne
    max_value: 2.1612331867218018
    min_value: -1.3911134004592896
    scale: 0.013930771499872208
    zero_point: 100
  '@MatMul_layer19_attn_context_674:out0':
    qtype: u8
    quantizer: asymmetric_affine
    rounding: rtne
    max_value: 1.6778028011322021
    min_value: -1.174922227859497
    scale: 0.011187156662344933
    zero_point: 105
  '@Reshape_layer19_v_repeat_merge_675:out0':
    qtype: u8
    quantizer: asymmetric_affine
    rounding: rtne
    max_value: 3.9351646900177
    min_value: -4.436493873596191
    scale: 0.03283003345131874
    zero_point: 135
  '@Tile_layer19_v_repeat_tile_677:out0':
    qtype: u8
    quantizer: asymmetric_affine
    rounding: rtne
    max_value: 3.9351646900177
    min_value: -4.436493873596191
    scale: 0.03283003345131874
    zero_point: 135
  '@Mul_layer19_mlp_rms_scale_to_unit_678:out0':
    qtype: u8
    quantizer: asymmetric_affine
    rounding: rtne
    max_value: 23.865827560424805
    min_value: -12.340275764465332
    scale: 0.1419847160577774
    zero_point: 87
  '@Initializer_layer19_mlp_gamma_679:out0':
    qtype: u8
    quantizer: asymmetric_affine
    rounding: rtne
    max_value: 0.34765625
    min_value: 0.0
    scale: 0.0013633578782901168
    zero_point: 0
  '@Add_layer20_causal_mask_680:out0':
    qtype: u8
    quantizer: asymmetric_affine
    rounding: rtne
    max_value: 6.216273784637451
    min_value: -10013.5390625
    scale: 39.293155670166016
    zero_point: 255
  '@Reshape_layer20_v_reshape_681:out0':
    qtype: u8
    quantizer: asymmetric_affine
    rounding: rtne
    max_value: 4.158395290374756
    min_value: -3.873189926147461
    scale: 0.03149641305208206
    zero_point: 123
  '@Add_layer21_q_rope_rope_add_683:out0':
    qtype: u8
    quantizer: asymmetric_affine
    rounding: rtne
    max_value: 10.304960250854492
    min_value: -13.027523040771484
    scale: 0.0914999321103096
    zero_point: 142
  '@Transpose_layer21_k_transpose_684:out0':
    qtype: u8
    quantizer: asymmetric_affine
    rounding: rtne
    max_value: 7.90461540222168
    min_value: -10.834688186645508
    scale: 0.07348746806383133
    zero_point: 147
  '@Mul_layer21_mlp_rms_square_688:out0':
    qtype: u8
    quantizer: asymmetric_affine
    rounding: rtne
    max_value: 419045376.0
    min_value: 0.0
    scale: 1643315.25
    zero_point: 0
  '@Transpose_layer22_q_heads_689:out0':
    qtype: u8
    quantizer: asymmetric_affine
    rounding: rtne
    max_value: 12.565152168273926
    min_value: -12.508076667785645
    scale: 0.09832638502120972
    zero_point: 127
  '@Reshape_layer22_q_reshape_690:out0':
    qtype: u8
    quantizer: asymmetric_affine
    rounding: rtne
    max_value: 12.565152168273926
    min_value: -12.508076667785645
    scale: 0.09832638502120972
    zero_point: 127
  '@Concat_layer22_q_rope_rotate_half_691:out0':
    qtype: u8
    quantizer: asymmetric_affine
    rounding: rtne
    max_value: 12.565152168273926
    min_value: -12.565152168273926
    scale: 0.0985502153635025
    zero_point: 128
  '@Slice_layer22_q_rope_slice_first_692:out0':
    qtype: u8
    quantizer: asymmetric_affine
    rounding: rtne
    max_value: 12.565152168273926
    min_value: -12.508076667785645
    scale: 0.09832638502120972
    zero_point: 127
  '@Tile_layer22_k_repeat_tile_693:out0':
    qtype: u8
    quantizer: asymmetric_affine
    rounding: rtne
    max_value: 12.219267845153809
    min_value: -13.121578216552734
    scale: 0.09937587380409241
    zero_point: 132
  '@Reshape_layer22_k_repeat_expand_694:out0':
    qtype: u8
    quantizer: asymmetric_affine
    rounding: rtne
    max_value: 12.219267845153809
    min_value: -13.121578216552734
    scale: 0.09937587380409241
    zero_point: 132
  '@Divide_696:out0':
    qtype: u8
    quantizer: asymmetric_affine
    rounding: rtne
    max_value: 0.10634730756282806
    min_value: 0.0
    scale: 0.0004170482570771128
    zero_point: 0
  '@Mul_layer23_k_rope_mul_cos_700:out0':
    qtype: u8
    quantizer: asymmetric_affine
    rounding: rtne
    max_value: 13.481241226196289
    min_value: -11.054642677307129
    scale: 0.09621915966272354
    zero_point: 115
  '@Mul_layer23_k_rope_mul_sin_701:out0':
    qtype: u8
    quantizer: asymmetric_affine
    rounding: rtne
    max_value: 2.842681884765625
    min_value: -2.067322254180908
    scale: 0.01925491727888584
    zero_point: 107
  '@Mul_layer23_attn_rms_square_703:out0':
    qtype: u8
    quantizer: asymmetric_affine
    rounding: rtne
    max_value: 418914784.0
    min_value: 0.0
    scale: 1642803.125
    zero_point: 0
  '@Add_layer16_mlp_residual_706:out0':
    qtype: u8
    quantizer: asymmetric_affine
    rounding: rtne
    max_value: 20495.47265625
    min_value: -682.3726806640625
    scale: 83.05037689208984
    zero_point: 8
  '@Mul_layer17_swiglu_mul_708:out0':
    qtype: u8
    quantizer: asymmetric_affine
    rounding: rtne
    max_value: 4.934806823730469
    min_value: -4.830112457275391
    scale: 0.03829380124807358
    zero_point: 126
  '@Transpose_layer18_ctx_transpose_710:out0':
    qtype: u8
    quantizer: asymmetric_affine
    rounding: rtne
    max_value: 2.1612331867218018
    min_value: -1.3911134004592896
    scale: 0.013930771499872208
    zero_point: 100
  '@Mul_layer18_mlp_rms_gamma_713:out0':
    qtype: u8
    quantizer: asymmetric_affine
    rounding: rtne
    max_value: 1.150801658630371
    min_value: -1.7487714290618896
    scale: 0.01137087494134903
    zero_point: 154
  '@Softmax_layer19_softmax_715:out0':
    qtype: u8
    quantizer: asymmetric_affine
    rounding: rtne
    max_value: 1.0
    min_value: 0.0
    scale: 0.003921568859368563
    zero_point: 0
  '@Reshape_layer19_v_repeat_expand_716:out0':
    qtype: u8
    quantizer: asymmetric_affine
    rounding: rtne
    max_value: 3.9351646900177
    min_value: -4.436493873596191
    scale: 0.03283003345131874
    zero_point: 135
  '@Transpose_layer19_v_heads_717:out0':
    qtype: u8
    quantizer: asymmetric_affine
    rounding: rtne
    max_value: 3.9351646900177
    min_value: -4.436493873596191
    scale: 0.03283003345131874
    zero_point: 135
  '@Divide_719:out0':
    qtype: u8
    quantizer: asymmetric_affine
    rounding: rtne
    max_value: 0.14765189588069916
    min_value: 0.0
    scale: 0.0005790270515717566
    zero_point: 0
  '@Mul_layer20_attn_scale_720:out0':
    qtype: u8
    quantizer: asymmetric_affine
    rounding: rtne
    max_value: 6.216273784637451
    min_value: -13.539106369018555
    scale: 0.07747208327054977
    zero_point: 175
  '@MatMul_layer20_attn_scores_721:out0':
    qtype: u8
    quantizer: asymmetric_affine
    rounding: rtne
    max_value: 49.73019027709961
    min_value: -108.31285095214844
    scale: 0.6197766661643982
    zero_point: 175
  '@Add_layer20_mlp_rms_eps_723:out0':
    qtype: u8
    quantizer: asymmetric_affine
    rounding: rtne
    max_value: 735169.375
